{
  "version": "1.0",
  "truncation": null,
  "padding": null,
  "added_tokens": [
    {
      "id": 0,
      "content": "[PAD]",
      "single_word": false,
      "lstrip": false,
      "rstrip": false,
      "normalized": false,
      "special": true
    },
    {
      "id": 1,
      "content": "[UNK]",
      "single_word": false,
      "lstrip": false,
      "rstrip": false,
      "normalized": false,
      "special": true
    },
    {
      "id": 2,
      "content": "[CLS]",
      "single_word": false,
      "lstrip": false,
      "rstrip": false,
      "normalized": false,
      "special": true
    },
    {
      "id": 3,
      "content": "[SEP]",
      "single_word": false,
      "lstrip": false,
      "rstrip": false,
      "normalized": false,
      "special": true
    },
    {
      "id": 4,
      "content": "[MASK]",
      "single_word": false,
      "lstrip": false,
      "rstrip": false,
      "normalized": false,
      "special": true
    }
  ],
  "normalizer": {
    "type": "BertNormalizer",
    "clean_text": true,
    "handle_chinese_chars": true,
    "strip_accents": null,
    "lowercase": false
  },
  "pre_tokenizer": {
    "type": "BertPreTokenizer"
  },
  "post_processor": {
    "type": "TemplateProcessing",
    "single": [
      {
        "SpecialToken": {
          "id": "[CLS]",
          "type_id": 0
        }
      },
      {
        "Sequence": {
          "id": "A",
          "type_id": 0
        }
      },
      {
        "SpecialToken": {
          "id": "[SEP]",
          "type_id": 0
        }
      }
    ],
    "pair": [
      {
        "SpecialToken": {
          "id": "[CLS]",
          "type_id": 0
        }
      },
      {
        "Sequence": {
          "id": "A",
          "type_id": 0
        }
      },
      {
        "SpecialToken": {
          "id": "[SEP]",
          "type_id": 0
        }
      },
      {
        "Sequence": {
          "id": "B",
          "type_id": 1
        }
      },
      {
        "SpecialToken": {
          "id": "[SEP]",
          "type_id": 1
        }
      }
    ],
    "special_tokens": {
      "[CLS]": {
        "id": "[CLS]",
        "ids": [
          2
        ],
        "tokens": [
          "[CLS]"
        ]
      },
      "[SEP]": {
        "id": "[SEP]",
        "ids": [
          3
        ],
        "tokens": [
          "[SEP]"
        ]
      }
    }
  },
  "decoder": {
    "type": "WordPiece",
    "prefix": "##",
    "cleanup": true
  },
  "model": {
    "type": "WordPiece",
    "unk_token": "[UNK]",
    "continuing_subword_prefix": "##",
    "max_input_chars_per_word": 100,
    "vocab": {
      "[PAD]": 0,
      "[UNK]": 1,
      "[CLS]": 2,
      "[SEP]": 3,
      "[MASK]": 4,
      "!": 5,
      "\"": 6,
      "#": 7,
      "$": 8,
      "%": 9,
      "&": 10,
      "'": 11,
      "(": 12,
      ")": 13,
      "*": 14,
      "+": 15,
      ",": 16,
      "-": 17,
      ".": 18,
      "/": 19,
      "0": 20,
      "1": 21,
      "2": 22,
      "3": 23,
      "4": 24,
      "5": 25,
      "6": 26,
      "7": 27,
      "8": 28,
      "9": 29,
      ":": 30,
      ";": 31,
      "<": 32,
      "=": 33,
      ">": 34,
      "?": 35,
      "@": 36,
      "A": 37,
      "B": 38,
      "C": 39,
      "D": 40,
      "E": 41,
      "F": 42,
      "G": 43,
      "H": 44,
      "I": 45,
      "J": 46,
      "K": 47,
      "L": 48,
      "M": 49,
      "N": 50,
      "O": 51,
      "P": 52,
      "Q": 53,
      "R": 54,
      "S": 55,
      "T": 56,
      "U": 57,
      "V": 58,
      "W": 59,
      "X": 60,
      "Y": 61,
      "Z": 62,
      "[": 63,
      "\\": 64,
      "]": 65,
      "^": 66,
      "_": 67,
      "`": 68,
      "a": 69,
      "b": 70,
      "c": 71,
      "d": 72,
      "e": 73,
      "f": 74,
      "g": 75,
      "h": 76,
      "i": 77,
      "j": 78,
      "k": 79,
      "l": 80,
      "m": 81,
      "n": 82,
      "o": 83,
      "p": 84,
      "q": 85,
      "r": 86,
      "s": 87,
      "t": 88,
      "u": 89,
      "v": 90,
      "w": 91,
      "x": 92,
      "y": 93,
      "z": 94,
      "|": 95,
      "}": 96,
      "~": 97,
      "·": 98,
      "ˊ": 99,
      "ˋ": 100,
      "ˎ": 101,
      "ˏ": 102,
      "˗": 103,
      "̀": 104,
      "̄": 105,
      "̆": 106,
      "̈": 107,
      "̎": 108,
      "̑": 109,
      "ට": 110,
      "ᄏ": 111,
      "ᄒ": 112,
      "ᅟ": 113,
      "ᅮ": 114,
      "ᅲ": 115,
      "ᆢ": 116,
      "ᴗ": 117,
      "–": 118,
      "‘": 119,
      "’": 120,
      "“": 121,
      "”": 122,
      "•": 123,
      "…": 124,
      "→": 125,
      "↔": 126,
      "∼": 127,
      "☆": 128,
      "♡": 129,
      "✧": 130,
      "❤": 131,
      "〰": 132,
      "ㄱ": 133,
      "ㄲ": 134,
      "ㄳ": 135,
      "ㄴ": 136,
      "ㄷ": 137,
      "ㄸ": 138,
      "ㄹ": 139,
      "ㄻ": 140,
      "ㅁ": 141,
      "ㅂ": 142,
      "ㅃ": 143,
      "ㅅ": 144,
      "ㅆ": 145,
      "ㅇ": 146,
      "ㅈ": 147,
      "ㅉ": 148,
      "ㅊ": 149,
      "ㅋ": 150,
      "ㅌ": 151,
      "ㅍ": 152,
      "ㅎ": 153,
      "ㅏ": 154,
      "ㅐ": 155,
      "ㅑ": 156,
      "ㅒ": 157,
      "ㅓ": 158,
      "ㅔ": 159,
      "ㅕ": 160,
      "ㅖ": 161,
      "ㅗ": 162,
      "ㅙ": 163,
      "ㅚ": 164,
      "ㅛ": 165,
      "ㅜ": 166,
      "ㅝ": 167,
      "ㅟ": 168,
      "ㅠ": 169,
      "ㅡ": 170,
      "ㅢ": 171,
      "ㅣ": 172,
      "ㆍ": 173,
      "㎏": 174,
      "㎝": 175,
      "㎞": 176,
      "㎡": 177,
      "中": 178,
      "原": 179,
      "和": 180,
      "岳": 181,
      "岸": 182,
      "弘": 183,
      "文": 184,
      "田": 185,
      "石": 186,
      "雄": 187,
      "꙼": 188,
      "가": 189,
      "각": 190,
      "간": 191,
      "갇": 192,
      "갈": 193,
      "갉": 194,
      "감": 195,
      "갑": 196,
      "값": 197,
      "갓": 198,
      "갔": 199,
      "강": 200,
      "갖": 201,
      "갗": 202,
      "갘": 203,
      "같": 204,
      "갚": 205,
      "갛": 206,
      "개": 207,
      "객": 208,
      "갠": 209,
      "갤": 210,
      "갬": 211,
      "갭": 212,
      "갯": 213,
      "갰": 214,
      "갱": 215,
      "갲": 216,
      "갴": 217,
      "갵": 218,
      "갷": 219,
      "갸": 220,
      "갹": 221,
      "걀": 222,
      "걋": 223,
      "걌": 224,
      "걍": 225,
      "걐": 226,
      "걑": 227,
      "걔": 228,
      "걘": 229,
      "거": 230,
      "걱": 231,
      "건": 232,
      "걷": 233,
      "걸": 234,
      "검": 235,
      "겁": 236,
      "것": 237,
      "겄": 238,
      "겅": 239,
      "겆": 240,
      "겈": 241,
      "겉": 242,
      "겋": 243,
      "게": 244,
      "겎": 245,
      "겐": 246,
      "겔": 247,
      "겜": 248,
      "겟": 249,
      "겠": 250,
      "겡": 251,
      "겣": 252,
      "겤": 253,
      "겦": 254,
      "겧": 255,
      "겨": 256,
      "격": 257,
      "겪": 258,
      "견": 259,
      "겯": 260,
      "결": 261,
      "겸": 262,
      "겹": 263,
      "겻": 264,
      "겼": 265,
      "경": 266,
      "곀": 267,
      "곁": 268,
      "곂": 269,
      "계": 270,
      "곈": 271,
      "곌": 272,
      "곗": 273,
      "곘": 274,
      "곜": 275,
      "고": 276,
      "곡": 277,
      "곤": 278,
      "곧": 279,
      "골": 280,
      "곪": 281,
      "곯": 282,
      "곰": 283,
      "곱": 284,
      "곳": 285,
      "공": 286,
      "곶": 287,
      "곷": 288,
      "곸": 289,
      "곺": 290,
      "과": 291,
      "곽": 292,
      "관": 293,
      "괄": 294,
      "괌": 295,
      "광": 296,
      "괔": 297,
      "괘": 298,
      "괜": 299,
      "괞": 300,
      "괨": 301,
      "괬": 302,
      "괭": 303,
      "괯": 304,
      "괴": 305,
      "괸": 306,
      "굉": 307,
      "굎": 308,
      "교": 309,
      "굔": 310,
      "굠": 311,
      "굣": 312,
      "굥": 313,
      "굨": 314,
      "구": 315,
      "국": 316,
      "군": 317,
      "굲": 318,
      "굳": 319,
      "굴": 320,
      "굵": 321,
      "굶": 322,
      "굼": 323,
      "굽": 324,
      "굿": 325,
      "궁": 326,
      "궂": 327,
      "궄": 328,
      "궅": 329,
      "궈": 330,
      "권": 331,
      "궐": 332,
      "궜": 333,
      "궤": 334,
      "궸": 335,
      "귀": 336,
      "귄": 337,
      "귈": 338,
      "귐": 339,
      "귑": 340,
      "귓": 341,
      "귘": 342,
      "규": 343,
      "귝": 344,
      "균": 345,
      "귤": 346,
      "귯": 347,
      "귱": 348,
      "그": 349,
      "극": 350,
      "근": 351,
      "귿": 352,
      "글": 353,
      "긁": 354,
      "금": 355,
      "급": 356,
      "긋": 357,
      "긌": 358,
      "긍": 359,
      "긐": 360,
      "긔": 361,
      "긩": 362,
      "기": 363,
      "긱": 364,
      "긴": 365,
      "길": 366,
      "긺": 367,
      "김": 368,
      "깁": 369,
      "깃": 370,
      "깄": 371,
      "깅": 372,
      "깈": 373,
      "깉": 374,
      "깊": 375,
      "깋": 376,
      "까": 377,
      "깍": 378,
      "깎": 379,
      "깐": 380,
      "깔": 381,
      "깜": 382,
      "깝": 383,
      "깟": 384,
      "깠": 385,
      "깡": 386,
      "깢": 387,
      "깤": 388,
      "깥": 389,
      "깦": 390,
      "깧": 391,
      "깨": 392,
      "깬": 393,
      "깰": 394,
      "깸": 395,
      "깹": 396,
      "깻": 397,
      "깼": 398,
      "깽": 399,
      "꺄": 400,
      "꺅": 401,
      "꺌": 402,
      "꺙": 403,
      "꺠": 404,
      "꺰": 405,
      "꺳": 406,
      "꺵": 407,
      "꺼": 408,
      "꺽": 409,
      "꺾": 410,
      "껀": 411,
      "껄": 412,
      "껉": 413,
      "껌": 414,
      "껍": 415,
      "껏": 416,
      "껐": 417,
      "껑": 418,
      "껒": 419,
      "껔": 420,
      "껕": 421,
      "께": 422,
      "껜": 423,
      "껬": 424,
      "껭": 425,
      "껰": 426,
      "껴": 427,
      "껼": 428,
      "꼇": 429,
      "꼈": 430,
      "꼉": 431,
      "꼌": 432,
      "꼐": 433,
      "꼔": 434,
      "꼬": 435,
      "꼭": 436,
      "꼰": 437,
      "꼳": 438,
      "꼴": 439,
      "꼼": 440,
      "꼽": 441,
      "꼿": 442,
      "꽁": 443,
      "꽂": 444,
      "꽃": 445,
      "꽈": 446,
      "꽉": 447,
      "꽌": 448,
      "꽐": 449,
      "꽝": 450,
      "꽤": 451,
      "꽥": 452,
      "꾀": 453,
      "꾁": 454,
      "꾕": 455,
      "꾸": 456,
      "꾹": 457,
      "꾼": 458,
      "꿀": 459,
      "꿇": 460,
      "꿈": 461,
      "꿉": 462,
      "꿋": 463,
      "꿍": 464,
      "꿎": 465,
      "꿏": 466,
      "꿑": 467,
      "꿔": 468,
      "꿘": 469,
      "꿜": 470,
      "꿧": 471,
      "꿨": 472,
      "꿩": 473,
      "꿰": 474,
      "뀌": 475,
      "뀐": 476,
      "뀔": 477,
      "뀜": 478,
      "뀨": 479,
      "뀬": 480,
      "뀰": 481,
      "끄": 482,
      "끅": 483,
      "끈": 484,
      "끊": 485,
      "끌": 486,
      "끓": 487,
      "끔": 488,
      "끕": 489,
      "끗": 490,
      "끙": 491,
      "끛": 492,
      "끝": 493,
      "끼": 494,
      "끽": 495,
      "낀": 496,
      "낄": 497,
      "낌": 498,
      "낍": 499,
      "낑": 500,
      "나": 501,
      "낙": 502,
      "낚": 503,
      "낛": 504,
      "난": 505,
      "낞": 506,
      "낟": 507,
      "날": 508,
      "낡": 509,
      "낢": 510,
      "남": 511,
      "납": 512,
      "낫": 513,
      "났": 514,
      "낭": 515,
      "낮": 516,
      "낯": 517,
      "낰": 518,
      "낱": 519,
      "낲": 520,
      "낳": 521,
      "내": 522,
      "낵": 523,
      "낶": 524,
      "낸": 525,
      "낼": 526,
      "냄": 527,
      "냅": 528,
      "냇": 529,
      "냈": 530,
      "냉": 531,
      "냌": 532,
      "냏": 533,
      "냐": 534,
      "냑": 535,
      "냔": 536,
      "냘": 537,
      "냠": 538,
      "냣": 539,
      "냥": 540,
      "냨": 541,
      "냫": 542,
      "냬": 543,
      "너": 544,
      "넉": 545,
      "넋": 546,
      "넌": 547,
      "널": 548,
      "넒": 549,
      "넓": 550,
      "넗": 551,
      "넘": 552,
      "넙": 553,
      "넚": 554,
      "넛": 555,
      "넜": 556,
      "넝": 557,
      "넠": 558,
      "넣": 559,
      "네": 560,
      "넥": 561,
      "넨": 562,
      "넫": 563,
      "넬": 564,
      "넴": 565,
      "넵": 566,
      "넷": 567,
      "넹": 568,
      "넼": 569,
      "넽": 570,
      "넿": 571,
      "녀": 572,
      "녁": 573,
      "년": 574,
      "념": 575,
      "녓": 576,
      "녔": 577,
      "녕": 578,
      "녖": 579,
      "녘": 580,
      "녜": 581,
      "녯": 582,
      "녱": 583,
      "녴": 584,
      "노": 585,
      "녹": 586,
      "논": 587,
      "놀": 588,
      "놈": 589,
      "놉": 590,
      "놌": 591,
      "농": 592,
      "놐": 593,
      "놑": 594,
      "높": 595,
      "놓": 596,
      "놔": 597,
      "놧": 598,
      "놨": 599,
      "놬": 600,
      "놰": 601,
      "뇌": 602,
      "뇨": 603,
      "뇬": 604,
      "뇸": 605,
      "뇻": 606,
      "뇽": 607,
      "눀": 608,
      "눂": 609,
      "누": 610,
      "눅": 611,
      "눈": 612,
      "눌": 613,
      "눔": 614,
      "눕": 615,
      "눗": 616,
      "눙": 617,
      "눜": 618,
      "눞": 619,
      "눠": 620,
      "눴": 621,
      "눼": 622,
      "뉑": 623,
      "뉘": 624,
      "뉜": 625,
      "뉨": 626,
      "뉭": 627,
      "뉴": 628,
      "뉵": 629,
      "뉸": 630,
      "뉼": 631,
      "늄": 632,
      "늉": 633,
      "늏": 634,
      "느": 635,
      "늑": 636,
      "는": 637,
      "늕": 638,
      "늗": 639,
      "늘": 640,
      "늙": 641,
      "늠": 642,
      "늡": 643,
      "늣": 644,
      "능": 645,
      "늦": 646,
      "늨": 647,
      "늩": 648,
      "늪": 649,
      "늬": 650,
      "닁": 651,
      "니": 652,
      "닉": 653,
      "닌": 654,
      "닏": 655,
      "닐": 656,
      "님": 657,
      "닙": 658,
      "닛": 659,
      "닜": 660,
      "닝": 661,
      "닞": 662,
      "닠": 663,
      "닢": 664,
      "닣": 665,
      "다": 666,
      "닥": 667,
      "닦": 668,
      "단": 669,
      "닪": 670,
      "닫": 671,
      "달": 672,
      "닭": 673,
      "닮": 674,
      "닳": 675,
      "담": 676,
      "답": 677,
      "닷": 678,
      "당": 679,
      "닼": 680,
      "닿": 681,
      "대": 682,
      "댁": 683,
      "댄": 684,
      "댈": 685,
      "댐": 686,
      "댑": 687,
      "댓": 688,
      "댔": 689,
      "댕": 690,
      "댖": 691,
      "댘": 692,
      "댜": 693,
      "댥": 694,
      "댯": 695,
      "댱": 696,
      "댴": 697,
      "댸": 698,
      "덌": 699,
      "더": 700,
      "덕": 701,
      "던": 702,
      "덚": 703,
      "덛": 704,
      "덜": 705,
      "덟": 706,
      "덤": 707,
      "덥": 708,
      "덧": 709,
      "덨": 710,
      "덩": 711,
      "덫": 712,
      "덮": 713,
      "덯": 714,
      "데": 715,
      "덱": 716,
      "덴": 717,
      "덷": 718,
      "델": 719,
      "뎀": 720,
      "뎁": 721,
      "뎃": 722,
      "뎄": 723,
      "뎅": 724,
      "뎈": 725,
      "뎉": 726,
      "뎊": 727,
      "뎋": 728,
      "뎌": 729,
      "뎐": 730,
      "뎔": 731,
      "뎟": 732,
      "뎠": 733,
      "뎨": 734,
      "도": 735,
      "독": 736,
      "돈": 737,
      "돋": 738,
      "돌": 739,
      "돐": 740,
      "돔": 741,
      "돕": 742,
      "돗": 743,
      "동": 744,
      "돜": 745,
      "돟": 746,
      "돠": 747,
      "돨": 748,
      "돰": 749,
      "돼": 750,
      "됀": 751,
      "됃": 752,
      "됄": 753,
      "됌": 754,
      "됏": 755,
      "됐": 756,
      "됑": 757,
      "됔": 758,
      "되": 759,
      "됙": 760,
      "된": 761,
      "될": 762,
      "됤": 763,
      "됨": 764,
      "됩": 765,
      "됫": 766,
      "됬": 767,
      "됭": 768,
      "됴": 769,
      "둉": 770,
      "두": 771,
      "둑": 772,
      "둔": 773,
      "둘": 774,
      "둠": 775,
      "둡": 776,
      "둣": 777,
      "둥": 778,
      "둨": 779,
      "둫": 780,
      "둬": 781,
      "둿": 782,
      "뒀": 783,
      "뒈": 784,
      "뒤": 785,
      "뒷": 786,
      "뒹": 787,
      "듀": 788,
      "듄": 789,
      "듈": 790,
      "듐": 791,
      "듕": 792,
      "드": 793,
      "득": 794,
      "든": 795,
      "듡": 796,
      "듢": 797,
      "듣": 798,
      "들": 799,
      "듦": 800,
      "듬": 801,
      "듭": 802,
      "듯": 803,
      "등": 804,
      "듴": 805,
      "듷": 806,
      "듸": 807,
      "디": 808,
      "딕": 809,
      "딘": 810,
      "딛": 811,
      "딜": 812,
      "딤": 813,
      "딥": 814,
      "딧": 815,
      "딨": 816,
      "딩": 817,
      "딪": 818,
      "딫": 819,
      "딬": 820,
      "딮": 821,
      "따": 822,
      "딱": 823,
      "딲": 824,
      "딴": 825,
      "딸": 826,
      "땀": 827,
      "땁": 828,
      "땃": 829,
      "땄": 830,
      "땅": 831,
      "땈": 832,
      "땋": 833,
      "때": 834,
      "땍": 835,
      "땐": 836,
      "땔": 837,
      "땜": 838,
      "땟": 839,
      "땠": 840,
      "땡": 841,
      "땢": 842,
      "땤": 843,
      "땨": 844,
      "땸": 845,
      "땽": 846,
      "떄": 847,
      "떈": 848,
      "떌": 849,
      "떔": 850,
      "떗": 851,
      "떘": 852,
      "떙": 853,
      "떠": 854,
      "떡": 855,
      "떢": 856,
      "떤": 857,
      "떨": 858,
      "떫": 859,
      "떰": 860,
      "떱": 861,
      "떳": 862,
      "떴": 863,
      "떵": 864,
      "떻": 865,
      "떼": 866,
      "뗀": 867,
      "뗄": 868,
      "뗌": 869,
      "뗏": 870,
      "뗐": 871,
      "뗘": 872,
      "뗬": 873,
      "뗴": 874,
      "뗼": 875,
      "또": 876,
      "똑": 877,
      "똘": 878,
      "똟": 879,
      "똠": 880,
      "똥": 881,
      "똨": 882,
      "똬": 883,
      "똭": 884,
      "뙇": 885,
      "뙜": 886,
      "뙤": 887,
      "뚜": 888,
      "뚝": 889,
      "뚠": 890,
      "뚤": 891,
      "뚫": 892,
      "뚬": 893,
      "뚯": 894,
      "뚱": 895,
      "뚴": 896,
      "뚸": 897,
      "뛔": 898,
      "뛰": 899,
      "뛴": 900,
      "뛸": 901,
      "뜀": 902,
      "뜁": 903,
      "뜅": 904,
      "뜌": 905,
      "뜨": 906,
      "뜩": 907,
      "뜬": 908,
      "뜯": 909,
      "뜰": 910,
      "뜸": 911,
      "뜹": 912,
      "뜻": 913,
      "띃": 914,
      "띄": 915,
      "띈": 916,
      "띌": 917,
      "띔": 918,
      "띠": 919,
      "띡": 920,
      "띤": 921,
      "띱": 922,
      "띵": 923,
      "라": 924,
      "락": 925,
      "란": 926,
      "랃": 927,
      "랄": 928,
      "랅": 929,
      "람": 930,
      "랍": 931,
      "랏": 932,
      "랐": 933,
      "랑": 934,
      "랔": 935,
      "랖": 936,
      "랗": 937,
      "래": 938,
      "랙": 939,
      "랜": 940,
      "랟": 941,
      "랠": 942,
      "램": 943,
      "랩": 944,
      "랫": 945,
      "랬": 946,
      "랭": 947,
      "랰": 948,
      "랲": 949,
      "랳": 950,
      "랴": 951,
      "략": 952,
      "랸": 953,
      "럅": 954,
      "럇": 955,
      "럈": 956,
      "량": 957,
      "럤": 958,
      "러": 959,
      "럭": 960,
      "런": 961,
      "럴": 962,
      "럼": 963,
      "럽": 964,
      "럿": 965,
      "렀": 966,
      "렁": 967,
      "렂": 968,
      "렄": 969,
      "렇": 970,
      "레": 971,
      "렉": 972,
      "렌": 973,
      "렐": 974,
      "렘": 975,
      "렙": 976,
      "렛": 977,
      "렜": 978,
      "렝": 979,
      "렠": 980,
      "려": 981,
      "력": 982,
      "련": 983,
      "렬": 984,
      "렴": 985,
      "렵": 986,
      "렷": 987,
      "렸": 988,
      "령": 989,
      "렺": 990,
      "렼": 991,
      "렿": 992,
      "례": 993,
      "롄": 994,
      "로": 995,
      "록": 996,
      "론": 997,
      "롣": 998,
      "롤": 999,
      "롬": 1000,
      "롭": 1001,
      "롯": 1002,
      "롱": 1003,
      "롴": 1004,
      "롶": 1005,
      "롷": 1006,
      "롸": 1007,
      "롹": 1008,
      "롼": 1009,
      "뢈": 1010,
      "뢍": 1011,
      "뢓": 1012,
      "뢔": 1013,
      "뢰": 1014,
      "료": 1015,
      "룐": 1016,
      "룜": 1017,
      "룟": 1018,
      "룡": 1019,
      "룧": 1020,
      "루": 1021,
      "룩": 1022,
      "룬": 1023,
      "룰": 1024,
      "룸": 1025,
      "룹": 1026,
      "룻": 1027,
      "룽": 1028,
      "뤀": 1029,
      "뤄": 1030,
      "뤗": 1031,
      "뤘": 1032,
      "뤠": 1033,
      "뤼": 1034,
      "륌": 1035,
      "류": 1036,
      "륙": 1037,
      "륜": 1038,
      "률": 1039,
      "륨": 1040,
      "륭": 1041,
      "르": 1042,
      "륵": 1043,
      "륶": 1044,
      "른": 1045,
      "를": 1046,
      "름": 1047,
      "릅": 1048,
      "릇": 1049,
      "릉": 1050,
      "릎": 1051,
      "릏": 1052,
      "릐": 1053,
      "릔": 1054,
      "리": 1055,
      "릭": 1056,
      "릯": 1057,
      "린": 1058,
      "릳": 1059,
      "릴": 1060,
      "림": 1061,
      "립": 1062,
      "릿": 1063,
      "맀": 1064,
      "링": 1065,
      "맄": 1066,
      "맆": 1067,
      "맇": 1068,
      "마": 1069,
      "막": 1070,
      "만": 1071,
      "많": 1072,
      "맏": 1073,
      "말": 1074,
      "맑": 1075,
      "맘": 1076,
      "맙": 1077,
      "맛": 1078,
      "맜": 1079,
      "망": 1080,
      "맞": 1081,
      "맟": 1082,
      "맠": 1083,
      "맡": 1084,
      "맣": 1085,
      "매": 1086,
      "맥": 1087,
      "맨": 1088,
      "맫": 1089,
      "맬": 1090,
      "맴": 1091,
      "맵": 1092,
      "맷": 1093,
      "맸": 1094,
      "맹": 1095,
      "맺": 1096,
      "맻": 1097,
      "먀": 1098,
      "먄": 1099,
      "먕": 1100,
      "먖": 1101,
      "먗": 1102,
      "머": 1103,
      "먹": 1104,
      "먼": 1105,
      "먿": 1106,
      "멀": 1107,
      "멂": 1108,
      "멈": 1109,
      "멉": 1110,
      "멋": 1111,
      "멍": 1112,
      "멎": 1113,
      "멐": 1114,
      "멓": 1115,
      "메": 1116,
      "멕": 1117,
      "멘": 1118,
      "멛": 1119,
      "멜": 1120,
      "멤": 1121,
      "멥": 1122,
      "멧": 1123,
      "멩": 1124,
      "멬": 1125,
      "며": 1126,
      "멱": 1127,
      "면": 1128,
      "멶": 1129,
      "멸": 1130,
      "몀": 1131,
      "몄": 1132,
      "명": 1133,
      "몆": 1134,
      "몇": 1135,
      "몈": 1136,
      "몌": 1137,
      "모": 1138,
      "목": 1139,
      "몪": 1140,
      "몫": 1141,
      "몬": 1142,
      "몰": 1143,
      "몷": 1144,
      "몸": 1145,
      "몹": 1146,
      "못": 1147,
      "몽": 1148,
      "뫃": 1149,
      "뫄": 1150,
      "뫘": 1151,
      "뫠": 1152,
      "뫼": 1153,
      "묘": 1154,
      "묜": 1155,
      "묠": 1156,
      "묭": 1157,
      "무": 1158,
      "묵": 1159,
      "묶": 1160,
      "문": 1161,
      "묻": 1162,
      "물": 1163,
      "묽": 1164,
      "뭄": 1165,
      "뭅": 1166,
      "뭇": 1167,
      "뭉": 1168,
      "뭌": 1169,
      "뭍": 1170,
      "뭐": 1171,
      "뭔": 1172,
      "뭗": 1173,
      "뭘": 1174,
      "뭡": 1175,
      "뭣": 1176,
      "뭤": 1177,
      "뭥": 1178,
      "뭨": 1179,
      "뭫": 1180,
      "뭬": 1181,
      "뮈": 1182,
      "뮌": 1183,
      "뮤": 1184,
      "뮨": 1185,
      "뮬": 1186,
      "므": 1187,
      "믄": 1188,
      "믈": 1189,
      "믐": 1190,
      "믓": 1191,
      "믜": 1192,
      "믱": 1193,
      "미": 1194,
      "믹": 1195,
      "민": 1196,
      "믿": 1197,
      "밀": 1198,
      "밈": 1199,
      "밉": 1200,
      "밋": 1201,
      "밌": 1202,
      "밍": 1203,
      "밎": 1204,
      "및": 1205,
      "밐": 1206,
      "밑": 1207,
      "바": 1208,
      "박": 1209,
      "밖": 1210,
      "반": 1211,
      "받": 1212,
      "발": 1213,
      "밝": 1214,
      "밟": 1215,
      "밤": 1216,
      "밥": 1217,
      "밧": 1218,
      "밨": 1219,
      "방": 1220,
      "밪": 1221,
      "밫": 1222,
      "밬": 1223,
      "밭": 1224,
      "배": 1225,
      "백": 1226,
      "밴": 1227,
      "밸": 1228,
      "뱀": 1229,
      "뱁": 1230,
      "뱃": 1231,
      "뱅": 1232,
      "뱉": 1233,
      "뱌": 1234,
      "뱍": 1235,
      "뱔": 1236,
      "뱡": 1237,
      "버": 1238,
      "벅": 1239,
      "번": 1240,
      "벋": 1241,
      "벌": 1242,
      "범": 1243,
      "법": 1244,
      "벗": 1245,
      "벘": 1246,
      "벙": 1247,
      "벚": 1248,
      "벛": 1249,
      "벜": 1250,
      "벟": 1251,
      "베": 1252,
      "벡": 1253,
      "벤": 1254,
      "벨": 1255,
      "벳": 1256,
      "벵": 1257,
      "벼": 1258,
      "벽": 1259,
      "변": 1260,
      "볃": 1261,
      "별": 1262,
      "볈": 1263,
      "볍": 1264,
      "볏": 1265,
      "볐": 1266,
      "병": 1267,
      "볔": 1268,
      "볕": 1269,
      "보": 1270,
      "복": 1271,
      "볶": 1272,
      "본": 1273,
      "볻": 1274,
      "볼": 1275,
      "봄": 1276,
      "봅": 1277,
      "봇": 1278,
      "봈": 1279,
      "봉": 1280,
      "봊": 1281,
      "봌": 1282,
      "봐": 1283,
      "봑": 1284,
      "봒": 1285,
      "봓": 1286,
      "봣": 1287,
      "봤": 1288,
      "봥": 1289,
      "봨": 1290,
      "봫": 1291,
      "봬": 1292,
      "뵀": 1293,
      "뵈": 1294,
      "뵉": 1295,
      "뵌": 1296,
      "뵐": 1297,
      "뵘": 1298,
      "뵙": 1299,
      "뵜": 1300,
      "뵤": 1301,
      "부": 1302,
      "북": 1303,
      "분": 1304,
      "붇": 1305,
      "불": 1306,
      "붉": 1307,
      "붌": 1308,
      "붐": 1309,
      "붑": 1310,
      "붓": 1311,
      "붕": 1312,
      "붘": 1313,
      "붙": 1314,
      "붸": 1315,
      "뷔": 1316,
      "뷰": 1317,
      "뷴": 1318,
      "뷸": 1319,
      "븃": 1320,
      "브": 1321,
      "븍": 1322,
      "븐": 1323,
      "블": 1324,
      "븜": 1325,
      "븝": 1326,
      "븟": 1327,
      "븨": 1328,
      "비": 1329,
      "빅": 1330,
      "빈": 1331,
      "빌": 1332,
      "빔": 1333,
      "빕": 1334,
      "빗": 1335,
      "빘": 1336,
      "빙": 1337,
      "빚": 1338,
      "빛": 1339,
      "빜": 1340,
      "빠": 1341,
      "빡": 1342,
      "빤": 1343,
      "빧": 1344,
      "빨": 1345,
      "빰": 1346,
      "빱": 1347,
      "빳": 1348,
      "빴": 1349,
      "빵": 1350,
      "빻": 1351,
      "빼": 1352,
      "빽": 1353,
      "뺀": 1354,
      "뺄": 1355,
      "뺌": 1356,
      "뺏": 1357,
      "뺐": 1358,
      "뺑": 1359,
      "뺘": 1360,
      "뺨": 1361,
      "뺴": 1362,
      "뺵": 1363,
      "뺶": 1364,
      "뺸": 1365,
      "뺼": 1366,
      "뻄": 1367,
      "뻇": 1368,
      "뻈": 1369,
      "뻉": 1370,
      "뻐": 1371,
      "뻑": 1372,
      "뻔": 1373,
      "뻗": 1374,
      "뻘": 1375,
      "뻠": 1376,
      "뻣": 1377,
      "뻤": 1378,
      "뻥": 1379,
      "뻬": 1380,
      "뻰": 1381,
      "뼈": 1382,
      "뼉": 1383,
      "뼘": 1384,
      "뼛": 1385,
      "뽀": 1386,
      "뽁": 1387,
      "뽄": 1388,
      "뽈": 1389,
      "뽐": 1390,
      "뽑": 1391,
      "뽕": 1392,
      "뽝": 1393,
      "뾰": 1394,
      "뾱": 1395,
      "뿅": 1396,
      "뿌": 1397,
      "뿍": 1398,
      "뿐": 1399,
      "뿔": 1400,
      "뿕": 1401,
      "뿜": 1402,
      "뿟": 1403,
      "뿡": 1404,
      "뿨": 1405,
      "쀼": 1406,
      "쁘": 1407,
      "쁜": 1408,
      "쁠": 1409,
      "쁨": 1410,
      "쁩": 1411,
      "쁭": 1412,
      "삐": 1413,
      "삑": 1414,
      "삔": 1415,
      "삘": 1416,
      "삠": 1417,
      "삣": 1418,
      "삥": 1419,
      "사": 1420,
      "삭": 1421,
      "삮": 1422,
      "삯": 1423,
      "산": 1424,
      "삳": 1425,
      "살": 1426,
      "삵": 1427,
      "삶": 1428,
      "삻": 1429,
      "삼": 1430,
      "삽": 1431,
      "삿": 1432,
      "샀": 1433,
      "상": 1434,
      "샄": 1435,
      "샅": 1436,
      "샆": 1437,
      "샇": 1438,
      "새": 1439,
      "색": 1440,
      "샌": 1441,
      "샐": 1442,
      "샘": 1443,
      "샛": 1444,
      "샜": 1445,
      "생": 1446,
      "샠": 1447,
      "샣": 1448,
      "샤": 1449,
      "샥": 1450,
      "샨": 1451,
      "샬": 1452,
      "샴": 1453,
      "샵": 1454,
      "샷": 1455,
      "샸": 1456,
      "샹": 1457,
      "샾": 1458,
      "섀": 1459,
      "섖": 1460,
      "서": 1461,
      "석": 1462,
      "섞": 1463,
      "선": 1464,
      "섣": 1465,
      "설": 1466,
      "섥": 1467,
      "섬": 1468,
      "섭": 1469,
      "섮": 1470,
      "섯": 1471,
      "섰": 1472,
      "성": 1473,
      "섴": 1474,
      "섷": 1475,
      "세": 1476,
      "섹": 1477,
      "센": 1478,
      "셀": 1479,
      "셈": 1480,
      "셉": 1481,
      "셋": 1482,
      "셌": 1483,
      "셍": 1484,
      "셔": 1485,
      "셕": 1486,
      "션": 1487,
      "셜": 1488,
      "셤": 1489,
      "셥": 1490,
      "셧": 1491,
      "셨": 1492,
      "셩": 1493,
      "셰": 1494,
      "셴": 1495,
      "솀": 1496,
      "소": 1497,
      "속": 1498,
      "솎": 1499,
      "손": 1500,
      "솓": 1501,
      "솔": 1502,
      "솜": 1503,
      "솝": 1504,
      "솟": 1505,
      "송": 1506,
      "솤": 1507,
      "솥": 1508,
      "솨": 1509,
      "솩": 1510,
      "솬": 1511,
      "솰": 1512,
      "쇄": 1513,
      "쇠": 1514,
      "쇤": 1515,
      "쇳": 1516,
      "쇼": 1517,
      "쇽": 1518,
      "숀": 1519,
      "숄": 1520,
      "숍": 1521,
      "숏": 1522,
      "숑": 1523,
      "숖": 1524,
      "수": 1525,
      "숙": 1526,
      "순": 1527,
      "숟": 1528,
      "술": 1529,
      "숨": 1530,
      "숩": 1531,
      "숫": 1532,
      "숭": 1533,
      "숯": 1534,
      "숰": 1535,
      "숱": 1536,
      "숲": 1537,
      "숴": 1538,
      "쉅": 1539,
      "쉈": 1540,
      "쉉": 1541,
      "쉐": 1542,
      "쉑": 1543,
      "쉘": 1544,
      "쉣": 1545,
      "쉨": 1546,
      "쉬": 1547,
      "쉭": 1548,
      "쉰": 1549,
      "쉴": 1550,
      "쉼": 1551,
      "쉽": 1552,
      "쉿": 1553,
      "슁": 1554,
      "슈": 1555,
      "슉": 1556,
      "슌": 1557,
      "슐": 1558,
      "슘": 1559,
      "슛": 1560,
      "슝": 1561,
      "슠": 1562,
      "스": 1563,
      "슥": 1564,
      "슨": 1565,
      "슬": 1566,
      "슭": 1567,
      "슴": 1568,
      "습": 1569,
      "슷": 1570,
      "승": 1571,
      "슺": 1572,
      "슼": 1573,
      "슽": 1574,
      "싀": 1575,
      "싄": 1576,
      "시": 1577,
      "식": 1578,
      "싞": 1579,
      "신": 1580,
      "싡": 1581,
      "싢": 1582,
      "싣": 1583,
      "실": 1584,
      "싦": 1585,
      "싫": 1586,
      "심": 1587,
      "십": 1588,
      "싯": 1589,
      "싰": 1590,
      "싱": 1591,
      "싳": 1592,
      "싴": 1593,
      "싶": 1594,
      "싷": 1595,
      "싸": 1596,
      "싹": 1597,
      "싼": 1598,
      "싿": 1599,
      "쌀": 1600,
      "쌈": 1601,
      "쌉": 1602,
      "쌋": 1603,
      "쌌": 1604,
      "쌍": 1605,
      "쌐": 1606,
      "쌓": 1607,
      "쌔": 1608,
      "쌘": 1609,
      "쌜": 1610,
      "쌤": 1611,
      "쌥": 1612,
      "쌨": 1613,
      "쌩": 1614,
      "쌰": 1615,
      "쌴": 1616,
      "썁": 1617,
      "썌": 1618,
      "썜": 1619,
      "썡": 1620,
      "써": 1621,
      "썩": 1622,
      "썪": 1623,
      "썬": 1624,
      "썯": 1625,
      "썰": 1626,
      "썸": 1627,
      "썹": 1628,
      "썻": 1629,
      "썼": 1630,
      "썽": 1631,
      "쎀": 1632,
      "쎄": 1633,
      "쎈": 1634,
      "쎌": 1635,
      "쎔": 1636,
      "쎕": 1637,
      "쎗": 1638,
      "쎘": 1639,
      "쎠": 1640,
      "쎴": 1641,
      "쎵": 1642,
      "쎼": 1643,
      "쏀": 1644,
      "쏄": 1645,
      "쏌": 1646,
      "쏘": 1647,
      "쏙": 1648,
      "쏜": 1649,
      "쏟": 1650,
      "쏠": 1651,
      "쏧": 1652,
      "쏨": 1653,
      "쏭": 1654,
      "쏰": 1655,
      "쏴": 1656,
      "쏵": 1657,
      "쏼": 1658,
      "쐇": 1659,
      "쐈": 1660,
      "쐐": 1661,
      "쐤": 1662,
      "쐬": 1663,
      "쐴": 1664,
      "쑈": 1665,
      "쑝": 1666,
      "쑤": 1667,
      "쑥": 1668,
      "쑨": 1669,
      "쑴": 1670,
      "쑹": 1671,
      "쒀": 1672,
      "쒕": 1673,
      "쒸": 1674,
      "쒹": 1675,
      "쓔": 1676,
      "쓕": 1677,
      "쓩": 1678,
      "쓰": 1679,
      "쓱": 1680,
      "쓴": 1681,
      "쓸": 1682,
      "씀": 1683,
      "씁": 1684,
      "씅": 1685,
      "씈": 1686,
      "씌": 1687,
      "씨": 1688,
      "씩": 1689,
      "씪": 1690,
      "씬": 1691,
      "씯": 1692,
      "씰": 1693,
      "씸": 1694,
      "씹": 1695,
      "씻": 1696,
      "씼": 1697,
      "씽": 1698,
      "씾": 1699,
      "앀": 1700,
      "앃": 1701,
      "아": 1702,
      "악": 1703,
      "앆": 1704,
      "안": 1705,
      "앉": 1706,
      "않": 1707,
      "앋": 1708,
      "알": 1709,
      "앍": 1710,
      "앎": 1711,
      "앏": 1712,
      "앓": 1713,
      "암": 1714,
      "압": 1715,
      "앖": 1716,
      "앗": 1717,
      "았": 1718,
      "앙": 1719,
      "앚": 1720,
      "앜": 1721,
      "앝": 1722,
      "앞": 1723,
      "앟": 1724,
      "애": 1725,
      "액": 1726,
      "앤": 1727,
      "앨": 1728,
      "앰": 1729,
      "앱": 1730,
      "앳": 1731,
      "앴": 1732,
      "앵": 1733,
      "앸": 1734,
      "야": 1735,
      "약": 1736,
      "얀": 1737,
      "얄": 1738,
      "얇": 1739,
      "얊": 1740,
      "얌": 1741,
      "얍": 1742,
      "얎": 1743,
      "얏": 1744,
      "얐": 1745,
      "양": 1746,
      "얒": 1747,
      "얔": 1748,
      "얕": 1749,
      "얖": 1750,
      "얗": 1751,
      "얘": 1752,
      "얙": 1753,
      "얜": 1754,
      "얫": 1755,
      "얬": 1756,
      "어": 1757,
      "억": 1758,
      "언": 1759,
      "얹": 1760,
      "얺": 1761,
      "얻": 1762,
      "얼": 1763,
      "얽": 1764,
      "엄": 1765,
      "업": 1766,
      "없": 1767,
      "엇": 1768,
      "었": 1769,
      "엉": 1770,
      "엊": 1771,
      "엌": 1772,
      "엍": 1773,
      "엎": 1774,
      "엏": 1775,
      "에": 1776,
      "엑": 1777,
      "엔": 1778,
      "엘": 1779,
      "엠": 1780,
      "엡": 1781,
      "엣": 1782,
      "엥": 1783,
      "엨": 1784,
      "엫": 1785,
      "여": 1786,
      "역": 1787,
      "엮": 1788,
      "연": 1789,
      "엳": 1790,
      "열": 1791,
      "엶": 1792,
      "엷": 1793,
      "염": 1794,
      "엽": 1795,
      "엿": 1796,
      "였": 1797,
      "영": 1798,
      "옄": 1799,
      "옅": 1800,
      "옆": 1801,
      "옇": 1802,
      "예": 1803,
      "옌": 1804,
      "옐": 1805,
      "옘": 1806,
      "옙": 1807,
      "옛": 1808,
      "옜": 1809,
      "옝": 1810,
      "오": 1811,
      "옥": 1812,
      "온": 1813,
      "옫": 1814,
      "올": 1815,
      "옮": 1816,
      "옳": 1817,
      "옴": 1818,
      "옵": 1819,
      "옶": 1820,
      "옷": 1821,
      "옸": 1822,
      "옹": 1823,
      "옻": 1824,
      "옼": 1825,
      "와": 1826,
      "왁": 1827,
      "완": 1828,
      "왅": 1829,
      "왈": 1830,
      "왐": 1831,
      "왑": 1832,
      "왓": 1833,
      "왔": 1834,
      "왕": 1835,
      "왘": 1836,
      "왜": 1837,
      "왠": 1838,
      "왤": 1839,
      "왭": 1840,
      "왯": 1841,
      "왱": 1842,
      "왴": 1843,
      "왶": 1844,
      "외": 1845,
      "왼": 1846,
      "욌": 1847,
      "욐": 1848,
      "요": 1849,
      "욕": 1850,
      "욘": 1851,
      "욛": 1852,
      "욜": 1853,
      "욤": 1854,
      "욥": 1855,
      "욧": 1856,
      "용": 1857,
      "욪": 1858,
      "욬": 1859,
      "욯": 1860,
      "우": 1861,
      "욱": 1862,
      "운": 1863,
      "울": 1864,
      "움": 1865,
      "웁": 1866,
      "웃": 1867,
      "웄": 1868,
      "웅": 1869,
      "웇": 1870,
      "웈": 1871,
      "웋": 1872,
      "워": 1873,
      "웍": 1874,
      "원": 1875,
      "웓": 1876,
      "월": 1877,
      "웜": 1878,
      "웝": 1879,
      "웟": 1880,
      "웠": 1881,
      "웡": 1882,
      "웢": 1883,
      "웤": 1884,
      "웥": 1885,
      "웧": 1886,
      "웨": 1887,
      "웩": 1888,
      "웬": 1889,
      "웰": 1890,
      "웸": 1891,
      "웹": 1892,
      "웻": 1893,
      "웼": 1894,
      "위": 1895,
      "윅": 1896,
      "윈": 1897,
      "윌": 1898,
      "윔": 1899,
      "윕": 1900,
      "윗": 1901,
      "윙": 1902,
      "윟": 1903,
      "유": 1904,
      "육": 1905,
      "윤": 1906,
      "율": 1907,
      "윰": 1908,
      "윳": 1909,
      "융": 1910,
      "윷": 1911,
      "윸": 1912,
      "으": 1913,
      "윽": 1914,
      "은": 1915,
      "을": 1916,
      "읊": 1917,
      "읋": 1918,
      "음": 1919,
      "읍": 1920,
      "읎": 1921,
      "읏": 1922,
      "읐": 1923,
      "응": 1924,
      "읓": 1925,
      "읔": 1926,
      "읕": 1927,
      "읖": 1928,
      "읗": 1929,
      "의": 1930,
      "읜": 1931,
      "읠": 1932,
      "읬": 1933,
      "읭": 1934,
      "읮": 1935,
      "읰": 1936,
      "이": 1937,
      "익": 1938,
      "인": 1939,
      "읹": 1940,
      "읺": 1941,
      "읻": 1942,
      "일": 1943,
      "읽": 1944,
      "읾": 1945,
      "잃": 1946,
      "임": 1947,
      "입": 1948,
      "잆": 1949,
      "잇": 1950,
      "있": 1951,
      "잉": 1952,
      "잊": 1953,
      "잌": 1954,
      "잍": 1955,
      "잎": 1956,
      "잏": 1957,
      "자": 1958,
      "작": 1959,
      "잔": 1960,
      "잖": 1961,
      "잗": 1962,
      "잘": 1963,
      "잙": 1964,
      "잚": 1965,
      "잠": 1966,
      "잡": 1967,
      "잣": 1968,
      "잤": 1969,
      "장": 1970,
      "잦": 1971,
      "잨": 1972,
      "잫": 1973,
      "재": 1974,
      "잭": 1975,
      "잰": 1976,
      "잴": 1977,
      "잼": 1978,
      "잽": 1979,
      "잿": 1980,
      "쟀": 1981,
      "쟁": 1982,
      "쟈": 1983,
      "쟉": 1984,
      "쟌": 1985,
      "쟐": 1986,
      "쟘": 1987,
      "쟛": 1988,
      "쟝": 1989,
      "쟠": 1990,
      "쟤": 1991,
      "쟨": 1992,
      "저": 1993,
      "적": 1994,
      "전": 1995,
      "절": 1996,
      "젊": 1997,
      "젋": 1998,
      "젏": 1999,
      "점": 2000,
      "접": 2001,
      "젓": 2002,
      "젔": 2003,
      "정": 2004,
      "젖": 2005,
      "젘": 2006,
      "젛": 2007,
      "제": 2008,
      "젝": 2009,
      "젠": 2010,
      "젢": 2011,
      "젤": 2012,
      "젬": 2013,
      "젭": 2014,
      "젯": 2015,
      "젱": 2016,
      "젲": 2017,
      "젴": 2018,
      "져": 2019,
      "젹": 2020,
      "젺": 2021,
      "젼": 2022,
      "졀": 2023,
      "졈": 2024,
      "졋": 2025,
      "졌": 2026,
      "졍": 2027,
      "졎": 2028,
      "졐": 2029,
      "졔": 2030,
      "조": 2031,
      "족": 2032,
      "존": 2033,
      "졸": 2034,
      "좀": 2035,
      "좁": 2036,
      "좃": 2037,
      "종": 2038,
      "좆": 2039,
      "좇": 2040,
      "좈": 2041,
      "좋": 2042,
      "좌": 2043,
      "좍": 2044,
      "좔": 2045,
      "좝": 2046,
      "좡": 2047,
      "죄": 2048,
      "죔": 2049,
      "죗": 2050,
      "죙": 2051,
      "죠": 2052,
      "죤": 2053,
      "죦": 2054,
      "죨": 2055,
      "죰": 2056,
      "죳": 2057,
      "죵": 2058,
      "죸": 2059,
      "죻": 2060,
      "주": 2061,
      "죽": 2062,
      "준": 2063,
      "줄": 2064,
      "줉": 2065,
      "줌": 2066,
      "줍": 2067,
      "줏": 2068,
      "중": 2069,
      "줔": 2070,
      "줗": 2071,
      "줘": 2072,
      "줫": 2073,
      "줬": 2074,
      "줭": 2075,
      "줰": 2076,
      "줴": 2077,
      "쥐": 2078,
      "쥑": 2079,
      "쥔": 2080,
      "쥥": 2081,
      "쥫": 2082,
      "쥬": 2083,
      "쥭": 2084,
      "쥰": 2085,
      "쥴": 2086,
      "쥼": 2087,
      "즁": 2088,
      "즄": 2089,
      "즇": 2090,
      "즈": 2091,
      "즉": 2092,
      "즌": 2093,
      "즏": 2094,
      "즐": 2095,
      "즑": 2096,
      "즘": 2097,
      "즙": 2098,
      "즛": 2099,
      "증": 2100,
      "즠": 2101,
      "즤": 2102,
      "즥": 2103,
      "즬": 2104,
      "즹": 2105,
      "지": 2106,
      "직": 2107,
      "진": 2108,
      "짆": 2109,
      "짇": 2110,
      "질": 2111,
      "짊": 2112,
      "짌": 2113,
      "짐": 2114,
      "집": 2115,
      "짒": 2116,
      "짓": 2117,
      "짔": 2118,
      "징": 2119,
      "짖": 2120,
      "짘": 2121,
      "짙": 2122,
      "짚": 2123,
      "짜": 2124,
      "짝": 2125,
      "짠": 2126,
      "짢": 2127,
      "짤": 2128,
      "짦": 2129,
      "짧": 2130,
      "짬": 2131,
      "짭": 2132,
      "짯": 2133,
      "짰": 2134,
      "짱": 2135,
      "짲": 2136,
      "짴": 2137,
      "째": 2138,
      "짹": 2139,
      "짼": 2140,
      "쨀": 2141,
      "쨈": 2142,
      "쨉": 2143,
      "쨋": 2144,
      "쨌": 2145,
      "쨍": 2146,
      "쨔": 2147,
      "쨜": 2148,
      "쨩": 2149,
      "쨰": 2150,
      "쩃": 2151,
      "쩄": 2152,
      "쩅": 2153,
      "쩌": 2154,
      "쩍": 2155,
      "쩐": 2156,
      "쩔": 2157,
      "쩖": 2158,
      "쩜": 2159,
      "쩝": 2160,
      "쩠": 2161,
      "쩡": 2162,
      "쩧": 2163,
      "쩨": 2164,
      "쩰": 2165,
      "쪄": 2166,
      "쪈": 2167,
      "쪌": 2168,
      "쪗": 2169,
      "쪘": 2170,
      "쪙": 2171,
      "쪼": 2172,
      "쪽": 2173,
      "쪾": 2174,
      "쫀": 2175,
      "쫄": 2176,
      "쫌": 2177,
      "쫍": 2178,
      "쫑": 2179,
      "쫒": 2180,
      "쫓": 2181,
      "쫘": 2182,
      "쫙": 2183,
      "쫜": 2184,
      "쫨": 2185,
      "쫴": 2186,
      "쬐": 2187,
      "쬘": 2188,
      "쬬": 2189,
      "쭈": 2190,
      "쭉": 2191,
      "쭐": 2192,
      "쭘": 2193,
      "쭝": 2194,
      "쭤": 2195,
      "쭬": 2196,
      "쮜": 2197,
      "쮱": 2198,
      "쮸": 2199,
      "쯔": 2200,
      "쯜": 2201,
      "쯤": 2202,
      "쯧": 2203,
      "쯨": 2204,
      "쯩": 2205,
      "쯪": 2206,
      "쯴": 2207,
      "찌": 2208,
      "찍": 2209,
      "찎": 2210,
      "찐": 2211,
      "찔": 2212,
      "찜": 2213,
      "찝": 2214,
      "찡": 2215,
      "찢": 2216,
      "찧": 2217,
      "차": 2218,
      "착": 2219,
      "찬": 2220,
      "찮": 2221,
      "찯": 2222,
      "찰": 2223,
      "참": 2224,
      "찹": 2225,
      "찻": 2226,
      "찼": 2227,
      "창": 2228,
      "찾": 2229,
      "찿": 2230,
      "챃": 2231,
      "채": 2232,
      "책": 2233,
      "챈": 2234,
      "챌": 2235,
      "챔": 2236,
      "챕": 2237,
      "챗": 2238,
      "챘": 2239,
      "챙": 2240,
      "챠": 2241,
      "챡": 2242,
      "챤": 2243,
      "챦": 2244,
      "챱": 2245,
      "챴": 2246,
      "처": 2247,
      "척": 2248,
      "천": 2249,
      "첞": 2250,
      "철": 2251,
      "첨": 2252,
      "첩": 2253,
      "첫": 2254,
      "첬": 2255,
      "청": 2256,
      "체": 2257,
      "첵": 2258,
      "첸": 2259,
      "첼": 2260,
      "쳇": 2261,
      "쳐": 2262,
      "쳔": 2263,
      "쳘": 2264,
      "쳠": 2265,
      "쳣": 2266,
      "쳤": 2267,
      "쳥": 2268,
      "쳨": 2269,
      "초": 2270,
      "촉": 2271,
      "촌": 2272,
      "촐": 2273,
      "촘": 2274,
      "촛": 2275,
      "총": 2276,
      "촣": 2277,
      "촤": 2278,
      "촥": 2279,
      "촨": 2280,
      "촬": 2281,
      "촴": 2282,
      "촵": 2283,
      "최": 2284,
      "쵝": 2285,
      "쵸": 2286,
      "쵹": 2287,
      "춌": 2288,
      "춍": 2289,
      "추": 2290,
      "축": 2291,
      "춘": 2292,
      "춚": 2293,
      "출": 2294,
      "춣": 2295,
      "춤": 2296,
      "춥": 2297,
      "춧": 2298,
      "충": 2299,
      "춰": 2300,
      "췃": 2301,
      "췄": 2302,
      "췌": 2303,
      "췍": 2304,
      "췐": 2305,
      "췟": 2306,
      "취": 2307,
      "췩": 2308,
      "췬": 2309,
      "췸": 2310,
      "츀": 2311,
      "츄": 2312,
      "츈": 2313,
      "츌": 2314,
      "츕": 2315,
      "츠": 2316,
      "측": 2317,
      "츤": 2318,
      "츨": 2319,
      "츰": 2320,
      "층": 2321,
      "츼": 2322,
      "칑": 2323,
      "치": 2324,
      "칙": 2325,
      "친": 2326,
      "칠": 2327,
      "칡": 2328,
      "침": 2329,
      "칩": 2330,
      "칫": 2331,
      "칬": 2332,
      "칭": 2333,
      "칰": 2334,
      "카": 2335,
      "칵": 2336,
      "칸": 2337,
      "칼": 2338,
      "캄": 2339,
      "캅": 2340,
      "캇": 2341,
      "캉": 2342,
      "캐": 2343,
      "캔": 2344,
      "캘": 2345,
      "캠": 2346,
      "캡": 2347,
      "캣": 2348,
      "캤": 2349,
      "캥": 2350,
      "캬": 2351,
      "컀": 2352,
      "컄": 2353,
      "컈": 2354,
      "커": 2355,
      "컥": 2356,
      "컨": 2357,
      "컫": 2358,
      "컬": 2359,
      "컴": 2360,
      "컵": 2361,
      "컷": 2362,
      "컸": 2363,
      "컹": 2364,
      "컼": 2365,
      "컽": 2366,
      "케": 2367,
      "켁": 2368,
      "켄": 2369,
      "켈": 2370,
      "켐": 2371,
      "켓": 2372,
      "켔": 2373,
      "켕": 2374,
      "켘": 2375,
      "켜": 2376,
      "켠": 2377,
      "켤": 2378,
      "켬": 2379,
      "켭": 2380,
      "켯": 2381,
      "켰": 2382,
      "켱": 2383,
      "켴": 2384,
      "코": 2385,
      "콕": 2386,
      "콘": 2387,
      "콜": 2388,
      "콤": 2389,
      "콥": 2390,
      "콧": 2391,
      "콩": 2392,
      "콰": 2393,
      "콱": 2394,
      "콸": 2395,
      "쾃": 2396,
      "쾅": 2397,
      "쾌": 2398,
      "쾡": 2399,
      "쾨": 2400,
      "쿄": 2401,
      "쿜": 2402,
      "쿠": 2403,
      "쿡": 2404,
      "쿤": 2405,
      "쿨": 2406,
      "쿰": 2407,
      "쿱": 2408,
      "쿵": 2409,
      "쿸": 2410,
      "쿼": 2411,
      "퀀": 2412,
      "퀄": 2413,
      "퀘": 2414,
      "퀠": 2415,
      "퀭": 2416,
      "퀴": 2417,
      "퀵": 2418,
      "퀸": 2419,
      "퀼": 2420,
      "큄": 2421,
      "큅": 2422,
      "큐": 2423,
      "큔": 2424,
      "큘": 2425,
      "큠": 2426,
      "큨": 2427,
      "크": 2428,
      "큭": 2429,
      "큰": 2430,
      "클": 2431,
      "큼": 2432,
      "큽": 2433,
      "킁": 2434,
      "킄": 2435,
      "킈": 2436,
      "킛": 2437,
      "키": 2438,
      "킥": 2439,
      "킨": 2440,
      "킬": 2441,
      "킴": 2442,
      "킵": 2443,
      "킷": 2444,
      "킸": 2445,
      "킹": 2446,
      "킼": 2447,
      "킾": 2448,
      "타": 2449,
      "탁": 2450,
      "탄": 2451,
      "탆": 2452,
      "탈": 2453,
      "탉": 2454,
      "탐": 2455,
      "탑": 2456,
      "탓": 2457,
      "탔": 2458,
      "탕": 2459,
      "탘": 2460,
      "탙": 2461,
      "태": 2462,
      "택": 2463,
      "탠": 2464,
      "탤": 2465,
      "탬": 2466,
      "탭": 2467,
      "탯": 2468,
      "탰": 2469,
      "탱": 2470,
      "탸": 2471,
      "탹": 2472,
      "턍": 2473,
      "터": 2474,
      "턱": 2475,
      "턴": 2476,
      "털": 2477,
      "턽": 2478,
      "텀": 2479,
      "텁": 2480,
      "텃": 2481,
      "텄": 2482,
      "텅": 2483,
      "텈": 2484,
      "텋": 2485,
      "테": 2486,
      "텍": 2487,
      "텐": 2488,
      "텔": 2489,
      "템": 2490,
      "텝": 2491,
      "텡": 2492,
      "텤": 2493,
      "텨": 2494,
      "텯": 2495,
      "텻": 2496,
      "텼": 2497,
      "톈": 2498,
      "토": 2499,
      "톡": 2500,
      "톤": 2501,
      "톨": 2502,
      "톰": 2503,
      "톱": 2504,
      "톳": 2505,
      "통": 2506,
      "톼": 2507,
      "퇄": 2508,
      "퇴": 2509,
      "퇵": 2510,
      "퇼": 2511,
      "툇": 2512,
      "툐": 2513,
      "투": 2514,
      "툭": 2515,
      "툰": 2516,
      "툴": 2517,
      "툼": 2518,
      "툽": 2519,
      "퉁": 2520,
      "퉈": 2521,
      "퉌": 2522,
      "퉛": 2523,
      "퉜": 2524,
      "퉤": 2525,
      "퉷": 2526,
      "튀": 2527,
      "튄": 2528,
      "튈": 2529,
      "튐": 2530,
      "튕": 2531,
      "튜": 2532,
      "튤": 2533,
      "튬": 2534,
      "튭": 2535,
      "트": 2536,
      "특": 2537,
      "튼": 2538,
      "튿": 2539,
      "틀": 2540,
      "틈": 2541,
      "틋": 2542,
      "틍": 2543,
      "틎": 2544,
      "틐": 2545,
      "틑": 2546,
      "틔": 2547,
      "티": 2548,
      "틱": 2549,
      "틴": 2550,
      "틸": 2551,
      "팀": 2552,
      "팁": 2553,
      "팃": 2554,
      "팅": 2555,
      "파": 2556,
      "팍": 2557,
      "팎": 2558,
      "판": 2559,
      "팓": 2560,
      "팔": 2561,
      "팖": 2562,
      "팜": 2563,
      "팝": 2564,
      "팟": 2565,
      "팠": 2566,
      "팡": 2567,
      "팤": 2568,
      "팥": 2569,
      "패": 2570,
      "팩": 2571,
      "팬": 2572,
      "팯": 2573,
      "팰": 2574,
      "팸": 2575,
      "팹": 2576,
      "팻": 2577,
      "팼": 2578,
      "팽": 2579,
      "퍄": 2580,
      "퍈": 2581,
      "퍼": 2582,
      "퍽": 2583,
      "펀": 2584,
      "펄": 2585,
      "펌": 2586,
      "펍": 2587,
      "펏": 2588,
      "펐": 2589,
      "펑": 2590,
      "페": 2591,
      "펙": 2592,
      "펜": 2593,
      "펠": 2594,
      "펩": 2595,
      "펫": 2596,
      "펭": 2597,
      "펴": 2598,
      "펵": 2599,
      "편": 2600,
      "펺": 2601,
      "펼": 2602,
      "폄": 2603,
      "폅": 2604,
      "폈": 2605,
      "평": 2606,
      "폐": 2607,
      "포": 2608,
      "폭": 2609,
      "폰": 2610,
      "폴": 2611,
      "폼": 2612,
      "폿": 2613,
      "퐁": 2614,
      "퐄": 2615,
      "퐈": 2616,
      "퐉": 2617,
      "퐝": 2618,
      "푀": 2619,
      "표": 2620,
      "푝": 2621,
      "푠": 2622,
      "푱": 2623,
      "푸": 2624,
      "푹": 2625,
      "푼": 2626,
      "풀": 2627,
      "품": 2628,
      "풉": 2629,
      "풋": 2630,
      "풍": 2631,
      "풒": 2632,
      "풰": 2633,
      "퓌": 2634,
      "퓨": 2635,
      "퓰": 2636,
      "픂": 2637,
      "프": 2638,
      "픅": 2639,
      "픈": 2640,
      "플": 2641,
      "픔": 2642,
      "픕": 2643,
      "픙": 2644,
      "픟": 2645,
      "피": 2646,
      "픽": 2647,
      "핀": 2648,
      "필": 2649,
      "핌": 2650,
      "핍": 2651,
      "핏": 2652,
      "핑": 2653,
      "하": 2654,
      "학": 2655,
      "한": 2656,
      "핝": 2657,
      "핞": 2658,
      "핟": 2659,
      "할": 2660,
      "핡": 2661,
      "핥": 2662,
      "핧": 2663,
      "함": 2664,
      "합": 2665,
      "핫": 2666,
      "핬": 2667,
      "항": 2668,
      "핮": 2669,
      "핰": 2670,
      "핱": 2671,
      "핳": 2672,
      "해": 2673,
      "핵": 2674,
      "핸": 2675,
      "핼": 2676,
      "햄": 2677,
      "햅": 2678,
      "햇": 2679,
      "했": 2680,
      "행": 2681,
      "햊": 2682,
      "햌": 2683,
      "햏": 2684,
      "햐": 2685,
      "햔": 2686,
      "햘": 2687,
      "햤": 2688,
      "향": 2689,
      "햨": 2690,
      "햩": 2691,
      "햬": 2692,
      "헀": 2693,
      "허": 2694,
      "헉": 2695,
      "헌": 2696,
      "헏": 2697,
      "헐": 2698,
      "헑": 2699,
      "험": 2700,
      "헙": 2701,
      "헛": 2702,
      "헝": 2703,
      "헣": 2704,
      "헤": 2705,
      "헥": 2706,
      "헨": 2707,
      "헬": 2708,
      "헭": 2709,
      "헴": 2710,
      "헷": 2711,
      "헸": 2712,
      "헹": 2713,
      "헿": 2714,
      "혀": 2715,
      "혁": 2716,
      "현": 2717,
      "혈": 2718,
      "혐": 2719,
      "협": 2720,
      "혓": 2721,
      "혔": 2722,
      "형": 2723,
      "혜": 2724,
      "호": 2725,
      "혹": 2726,
      "혼": 2727,
      "혾": 2728,
      "홀": 2729,
      "홈": 2730,
      "홉": 2731,
      "홋": 2732,
      "홍": 2733,
      "홐": 2734,
      "홑": 2735,
      "홓": 2736,
      "화": 2737,
      "확": 2738,
      "환": 2739,
      "활": 2740,
      "홥": 2741,
      "홧": 2742,
      "황": 2743,
      "홫": 2744,
      "홬": 2745,
      "홭": 2746,
      "홯": 2747,
      "횃": 2748,
      "회": 2749,
      "획": 2750,
      "횐": 2751,
      "횔": 2752,
      "횜": 2753,
      "횟": 2754,
      "횡": 2755,
      "횤": 2756,
      "효": 2757,
      "횽": 2758,
      "후": 2759,
      "훅": 2760,
      "훈": 2761,
      "훌": 2762,
      "훑": 2763,
      "훔": 2764,
      "훕": 2765,
      "훗": 2766,
      "훙": 2767,
      "훜": 2768,
      "훟": 2769,
      "훠": 2770,
      "훤": 2771,
      "훨": 2772,
      "훼": 2773,
      "휀": 2774,
      "휄": 2775,
      "휑": 2776,
      "휘": 2777,
      "휙": 2778,
      "휜": 2779,
      "휠": 2780,
      "휨": 2781,
      "휩": 2782,
      "휭": 2783,
      "휴": 2784,
      "휸": 2785,
      "휼": 2786,
      "흇": 2787,
      "흉": 2788,
      "흌": 2789,
      "흏": 2790,
      "흐": 2791,
      "흑": 2792,
      "흔": 2793,
      "흘": 2794,
      "흙": 2795,
      "흝": 2796,
      "흠": 2797,
      "흡": 2798,
      "흣": 2799,
      "흥": 2800,
      "흨": 2801,
      "흩": 2802,
      "흫": 2803,
      "희": 2804,
      "흰": 2805,
      "힁": 2806,
      "히": 2807,
      "힉": 2808,
      "힌": 2809,
      "힐": 2810,
      "힘": 2811,
      "힙": 2812,
      "힛": 2813,
      "힜": 2814,
      "힝": 2815,
      "힞": 2816,
      "힠": 2817,
      "힣": 2818,
      "️": 2819,
      "！": 2820,
      "＄": 2821,
      "％": 2822,
      "？": 2823,
      "｡": 2824,
      "##수": 2825,
      "##개": 2826,
      "##념": 2827,
      "##인": 2828,
      "##가": 2829,
      "##골": 2830,
      "##에": 2831,
      "##만": 2832,
      "##육": 2833,
      "##관": 2834,
      "##보": 2835,
      "##사": 2836,
      "##지": 2837,
      "##로": 2838,
      "##아": 2839,
      "##야": 2840,
      "##겠": 2841,
      "##어": 2842,
      "##원": 2843,
      "##락": 2844,
      "##직": 2845,
      "##했": 2846,
      "##구": 2847,
      "##나": 2848,
      "##용": 2849,
      "##이": 2850,
      "##라": 2851,
      "##고": 2852,
      "##도": 2853,
      "##셋": 2854,
      "##트": 2855,
      "##들": 2856,
      "##잖": 2857,
      "##있": 2858,
      "##안": 2859,
      "##걸": 2860,
      "##까": 2861,
      "##타": 2862,
      "##게": 2863,
      "##는": 2864,
      "##데": 2865,
      "##속": 2866,
      "##된": 2867,
      "##거": 2868,
      "##을": 2869,
      "##볼": 2870,
      "##든": 2871,
      "##때": 2872,
      "##니": 2873,
      "##다": 2874,
      "##양": 2875,
      "##상": 2876,
      "##자": 2877,
      "##렌": 2878,
      "##았": 2879,
      "##난": 2880,
      "##테": 2881,
      "##크": 2882,
      "##앤": 2883,
      "##치": 2884,
      "##즈": 2885,
      "##무": 2886,
      "##시": 2887,
      "##주": 2888,
      "##면": 2889,
      "##단": 2890,
      "##하": 2891,
      "##민": 2892,
      "##희": 2893,
      "##랑": 2894,
      "##첵": 2895,
      "##넝": 2896,
      "##서": 2897,
      "##산": 2898,
      "##더": 2899,
      "##래": 2900,
      "##리": 2901,
      "##끔": 2902,
      "##물": 2903,
      "##텐": 2904,
      "##ㅜ": 2905,
      "##국": 2906,
      "##의": 2907,
      "##드": 2908,
      "##올": 2909,
      "##일": 2910,
      "##업": 2911,
      "##요": 2912,
      "##죠": 2913,
      "##봐": 2914,
      "##기": 2915,
      "##르": 2916,
      "##유": 2917,
      "##퀴": 2918,
      "##잼": 2919,
      "##잇": 2920,
      "##럭": 2921,
      "##려": 2922,
      "##폰": 2923,
      "##밥": 2924,
      "##밖": 2925,
      "##병": 2926,
      "##었": 2927,
      "##즌": 2928,
      "##r": 2929,
      "##t": 2930,
      "##친": 2931,
      "##건": 2932,
      "##강": 2933,
      "##식": 2934,
      "##화": 2935,
      "##돼": 2936,
      "##장": 2937,
      "##해": 2938,
      "##티": 2939,
      "##문": 2940,
      "##곤": 2941,
      "##할": 2942,
      "##꺼": 2943,
      "##찬": 2944,
      "##네": 2945,
      "##팬": 2946,
      "##달": 2947,
      "##전": 2948,
      "##응": 2949,
      "##한": 2950,
      "##돈": 2951,
      "##신": 2952,
      "##스": 2953,
      "##대": 2954,
      "##감": 2955,
      "##은": 2956,
      "##셨": 2957,
      "##당": 2958,
      "##녀": 2959,
      "##여": 2960,
      "##족": 2961,
      "##소": 2962,
      "##를": 2963,
      "##으": 2964,
      "##증": 2965,
      "##맞": 2966,
      "##벅": 2967,
      "##브": 2968,
      "##루": 2969,
      "##키": 2970,
      "##였": 2971,
      "##던": 2972,
      "##듯": 2973,
      "##마": 2974,
      "##3": 2975,
      "##질": 2976,
      "##레": 2977,
      "##비": 2978,
      "##료": 2979,
      "##디": 2980,
      "##매": 2981,
      "##연": 2982,
      "##메": 2983,
      "##영": 2984,
      "##껴": 2985,
      "##빙": 2986,
      "##미": 2987,
      "##없": 2988,
      "##진": 2989,
      "##갑": 2990,
      "##겨": 2991,
      "##6": 2992,
      "##엄": 2993,
      "##절": 2994,
      "##곶": 2995,
      "##냐": 2996,
      "##릉": 2997,
      "##났": 2998,
      "##중": 2999,
      "##오": 3000,
      "##께": 3001,
      "##켜": 3002,
      "##준": 3003,
      "##짜": 3004,
      "##버": 3005,
      "##ㅠ": 3006,
      "##노": 3007,
      "##군": 3008,
      "##0": 3009,
      "##억": 3010,
      "##푼": 3011,
      "##포": 3012,
      "##람": 3013,
      "##금": 3014,
      "##끝": 3015,
      "##빠": 3016,
      "##출": 3017,
      "##근": 3018,
      "##풍": 3019,
      "##정": 3020,
      "##되": 3021,
      "##져": 3022,
      "##ㄴ": 3023,
      "##ㅔ": 3024,
      "##혼": 3025,
      "##청": 3026,
      "##찮": 3027,
      "##앝": 3028,
      "##공": 3029,
      "##과": 3030,
      "##껄": 3031,
      "##행": 3032,
      "##같": 3033,
      "##제": 3034,
      "##훈": 3035,
      "##배": 3036,
      "##우": 3037,
      "##롱": 3038,
      "##럽": 3039,
      "##천": 3040,
      "##왔": 3041,
      "##재": 3042,
      "##넴": 3043,
      "##송": 3044,
      "##값": 3045,
      "##것": 3046,
      "##음": 3047,
      "##광": 3048,
      "##프": 3049,
      "##느": 3050,
      "##형": 3051,
      "##s": 3052,
      "##u": 3053,
      "##v": 3054,
      "##9": 3055,
      "##택": 3056,
      "##숙": 3057,
      "##술": 3058,
      "##본": 3059,
      "##적": 3060,
      "##투": 3061,
      "##갈": 3062,
      "##답": 3063,
      "##워": 3064,
      "##와": 3065,
      "##엑": 3066,
      "##숨": 3067,
      "##바": 3068,
      "##쳐": 3069,
      "##부": 3070,
      "##놀": 3071,
      "##릴": 3072,
      "##역": 3073,
      "##회": 3074,
      "##복": 3075,
      "##태": 3076,
      "##랜": 3077,
      "##심": 3078,
      "##파": 3079,
      "##쭘": 3080,
      "##러": 3081,
      "##늘": 3082,
      "##터": 3083,
      "##항": 3084,
      "##습": 3085,
      "##먹": 3086,
      "##독": 3087,
      "##똑": 3088,
      "##깝": 3089,
      "##쉐": 3090,
      "##성": 3091,
      "##렵": 3092,
      "##처": 3093,
      "##럼": 3094,
      "##톡": 3095,
      "##계": 3096,
      "##팡": 3097,
      "##맨": 3098,
      "##싶": 3099,
      "##척": 3100,
      "##조": 3101,
      "##룰": 3102,
      "##왓": 3103,
      "##두": 3104,
      "##쌤": 3105,
      "##등": 3106,
      "##황": 3107,
      "##울": 3108,
      "##날": 3109,
      "##씨": 3110,
      "##카": 3111,
      "##승": 3112,
      "##린": 3113,
      "##먄": 3114,
      "##동": 3115,
      "##후": 3116,
      "##집": 3117,
      "##란": 3118,
      "##교": 3119,
      "##클": 3120,
      "##임": 3121,
      "##긴": 3122,
      "##랬": 3123,
      "##탄": 3124,
      "##패": 3125,
      "##딩": 3126,
      "##깐": 3127,
      "##률": 3128,
      "##옥": 3129,
      "##경": 3130,
      "##왕": 3131,
      "##뤄": 3132,
      "##토": 3133,
      "##깔": 3134,
      "##j": 3135,
      "##분": 3136,
      "##꾸": 3137,
      "##학": 3138,
      "##체": 3139,
      "##저": 3140,
      "##며": 3141,
      "##8": 3142,
      "##코": 3143,
      "##닉": 3144,
      "##쓸": 3145,
      "##징": 3146,
      "##견": 3147,
      "##센": 3148,
      "##름": 3149,
      "##봤": 3150,
      "##쉽": 3151,
      "##모": 3152,
      "##글": 3153,
      "##환": 3154,
      "##추": 3155,
      "##철": 3156,
      "##차": 3157,
      "##혜": 3158,
      "##급": 3159,
      "##웠": 3160,
      "##읍": 3161,
      "##내": 3162,
      "##발": 3163,
      "##길": 3164,
      "##굴": 3165,
      "##색": 3166,
      "##통": 3167,
      "##예": 3168,
      "##충": 3169,
      "##류": 3170,
      "##생": 3171,
      "##활": 3172,
      "##2": 3173,
      "##슷": 3174,
      "##멈": 3175,
      "##알": 3176,
      "##못": 3177,
      "##옮": 3178,
      "##ㅣ": 3179,
      "##받": 3180,
      "##몀": 3181,
      "##C": 3182,
      "##막": 3183,
      "##걷": 3184,
      "##몰": 3185,
      "##운": 3186,
      "##른": 3187,
      "##말": 3188,
      "##참": 3189,
      "##덥": 3190,
      "##님": 3191,
      "##솔": 3192,
      "##온": 3193,
      "##츠": 3194,
      "##럴": 3195,
      "##줘": 3196,
      "##년": 3197,
      "##능": 3198,
      "##곡": 3199,
      "##귑": 3200,
      "##함": 3201,
      "##그": 3202,
      "##슴": 3203,
      "##살": 3204,
      "##됐": 3205,
      "##딜": 3206,
      "##런": 3207,
      "##얘": 3208,
      "##림": 3209,
      "##m": 3210,
      "##열": 3211,
      "##겟": 3212,
      "##애": 3213,
      "##결": 3214,
      "##졌": 3215,
      "##쪽": 3216,
      "##쏠": 3217,
      "##케": 3218,
      "##랩": 3219,
      "##R": 3220,
      "##밀": 3221,
      "##잔": 3222,
      "##긋": 3223,
      "##순": 3224,
      "##녕": 3225,
      "##품": 3226,
      "##립": 3227,
      "##릎": 3228,
      "##좋": 3229,
      "##평": 3230,
      "##끼": 3231,
      "##ㅋ": 3232,
      "##ㅌ": 3233,
      "##련": 3234,
      "##망": 3235,
      "##욬": 3236,
      "##딘": 3237,
      "##쳤": 3238,
      "##엽": 3239,
      "##렸": 3240,
      "##넼": 3241,
      "##담": 3242,
      "##쟤": 3243,
      "##맹": 3244,
      "##확": 3245,
      "##촉": 3246,
      "##둡": 3247,
      "##션": 3248,
      "##휴": 3249,
      "##잘": 3250,
      "##명": 3251,
      "##탈": 3252,
      "##번": 3253,
      "##점": 3254,
      "##선": 3255,
      "##불": 3256,
      "##쇠": 3257,
      "##섭": 3258,
      "##킬": 3259,
      "##퇴": 3260,
      "##백": 3261,
      "##렘": 3262,
      "##랙": 3263,
      "##플": 3264,
      "##링": 3265,
      "##큼": 3266,
      "##픈": 3267,
      "##햇": 3268,
      "##쥬": 3269,
      "##획": 3270,
      "##멘": 3271,
      "##틱": 3272,
      "##씩": 3273,
      "##쁘": 3274,
      "##넹": 3275,
      "##웃": 3276,
      "##흑": 3277,
      "##뀌": 3278,
      "##싸": 3279,
      "##낼": 3280,
      "##줄": 3281,
      "##멜": 3282,
      "##낭": 3283,
      "##휘": 3284,
      "##향": 3285,
      "##밌": 3286,
      "##험": 3287,
      "##짝": 3288,
      "##밭": 3289,
      "##푸": 3290,
      "##박": 3291,
      "##헤": 3292,
      "##커": 3293,
      "##쯤": 3294,
      "##격": 3295,
      "##력": 3296,
      "##움": 3297,
      "##꼬": 3298,
      "##f": 3299,
      "##c": 3300,
      "##따": 3301,
      "##셈": 3302,
      "##뽕": 3303,
      "##템": 3304,
      "##캬": 3305,
      "##쿠": 3306,
      "##먼": 3307,
      "##실": 3308,
      "##혀": 3309,
      "##현": 3310,
      "##약": 3311,
      "##끌": 3312,
      "##떡": 3313,
      "##겼": 3314,
      "##너": 3315,
      "##탐": 3316,
      "##간": 3317,
      "##땡": 3318,
      "##누": 3319,
      "##세": 3320,
      "##k": 3321,
      "##볶": 3322,
      "##법": 3323,
      "##둠": 3324,
      "##초": 3325,
      "##석": 3326,
      "##입": 3327,
      "##탕": 3328,
      "##벤": 3329,
      "##갔": 3330,
      "##걀": 3331,
      "##둑": 3332,
      "##밍": 3333,
      "##i": 3334,
      "##냥": 3335,
      "##남": 3336,
      "##씀": 3337,
      "##닥": 3338,
      "##호": 3339,
      "##엔": 3340,
      "##옷": 3341,
      "##넣": 3342,
      "##외": 3343,
      "##율": 3344,
      "##새": 3345,
      "##꿀": 3346,
      "##끄": 3347,
      "##틴": 3348,
      "##깃": 3349,
      "##합": 3350,
      "##권": 3351,
      "##귀": 3352,
      "##책": 3353,
      "##싱": 3354,
      "##밈": 3355,
      "##숑": 3356,
      "##쓰": 3357,
      "##냈": 3358,
      "##봇": 3359,
      "##히": 3360,
      "##삭": 3361,
      "##써": 3362,
      "##샘": 3363,
      "##떄": 3364,
      "##줬": 3365,
      "##벙": 3366,
      "##뉘": 3367,
      "##피": 3368,
      "##염": 3369,
      "##펠": 3370,
      "##침": 3371,
      "##악": 3372,
      "##쌔": 3373,
      "##작": 3374,
      "##둘": 3375,
      "##풀": 3376,
      "##뮤": 3377,
      "##팔": 3378,
      "##표": 3379,
      "##슈": 3380,
      "##목": 3381,
      "##멧": 3382,
      "##ㅏ": 3383,
      "##붙": 3384,
      "##덤": 3385,
      "##삼": 3386,
      "##촌": 3387,
      "##딱": 3388,
      "##샤": 3389,
      "##켓": 3390,
      "##팅": 3391,
      "##멀": 3392,
      "##뿌": 3393,
      "##판": 3394,
      "##믄": 3395,
      "##편": 3396,
      "##놓": 3397,
      "##반": 3398,
      "##4": 3399,
      "##5": 3400,
      "##긍": 3401,
      "##쁜": 3402,
      "##궁": 3403,
      "##꽃": 3404,
      "##엉": 3405,
      "##슬": 3406,
      "##룩": 3407,
      "##퍼": 3408,
      "##컵": 3409,
      "##닝": 3410,
      "##뇨": 3411,
      "##렇": 3412,
      "##놨": 3413,
      "##월": 3414,
      "##또": 3415,
      "##측": 3416,
      "##뷰": 3417,
      "##냉": 3418,
      "##ㅎ": 3419,
      "##뿐": 3420,
      "##둥": 3421,
      "##칠": 3422,
      "##규": 3423,
      "##랐": 3424,
      "##갓": 3425,
      "##냠": 3426,
      "##엇": 3427,
      "##널": 3428,
      "##방": 3429,
      "##뚜": 3430,
      "##껑": 3431,
      "##옆": 3432,
      "##룡": 3433,
      "##델": 3434,
      "##페": 3435,
      "##닼": 3436,
      "##놈": 3437,
      "##쩜": 3438,
      "##렀": 3439,
      "##듣": 3440,
      "##째": 3441,
      "##줌": 3442,
      "##칭": 3443,
      "##땜": 3444,
      "##쿼": 3445,
      "##앱": 3446,
      "##퍽": 3447,
      "##펏": 3448,
      "##넨": 3449,
      "##뉴": 3450,
      "##ㄱ": 3451,
      "##옴": 3452,
      "##않": 3453,
      "##앗": 3454,
      "##넌": 3455,
      "##뒀": 3456,
      "##꾼": 3457,
      "##쨈": 3458,
      "##톱": 3459,
      "##쇄": 3460,
      "##댜": 3461,
      "##겅": 3462,
      "##론": 3463,
      "##덜": 3464,
      "##량": 3465,
      "##틸": 3466,
      "##언": 3467,
      "##될": 3468,
      "##설": 3469,
      "##위": 3470,
      "##H": 3471,
      "##O": 3472,
      "##낚": 3473,
      "##랄": 3474,
      "##십": 3475,
      "##베": 3476,
      "##종": 3477,
      "##댄": 3478,
      "##댕": 3479,
      "##잡": 3480,
      "##머": 3481,
      "##빈": 3482,
      "##좌": 3483,
      "##잉": 3484,
      "##축": 3485,
      "##층": 3486,
      "##객": 3487,
      "##혁": 3488,
      "##넘": 3489,
      "##랏": 3490,
      "##랫": 3491,
      "##딸": 3492,
      "##낸": 3493,
      "##빨": 3494,
      "##낫": 3495,
      "##암": 3496,
      "##겁": 3497,
      "##탁": 3498,
      "##각": 3499,
      "##떤": 3500,
      "##낳": 3501,
      "##P": 3502,
      "##범": 3503,
      "##죄": 3504,
      "##빵": 3505,
      "##샷": 3506,
      "##꼰": 3507,
      "##북": 3508,
      "##웅": 3509,
      "##허": 3510,
      "##뢰": 3511,
      "##넷": 3512,
      "##둬": 3513,
      "##창": 3514,
      "##덕": 3515,
      "##총": 3516,
      "##춘": 3517,
      "##룸": 3518,
      "##셔": 3519,
      "##쌐": 3520,
      "##깨": 3521,
      "##곳": 3522,
      "##싼": 3523,
      "##램": 3524,
      "##돌": 3525,
      "##랴": 3526,
      "##빅": 3527,
      "##핏": 3528,
      "##익": 3529,
      "##필": 3530,
      "##혔": 3531,
      "##툰": 3532,
      "##벼": 3533,
      "##녁": 3534,
      "##찌": 3535,
      "##폼": 3536,
      "##록": 3537,
      "##짐": 3538,
      "##킨": 3539,
      "##싯": 3540,
      "##뭐": 3541,
      "##뵤": 3542,
      "##핑": 3543,
      "##쩍": 3544,
      "##씅": 3545,
      "##ㅁ": 3546,
      "##엘": 3547,
      "##힌": 3548,
      "##텔": 3549,
      "##랗": 3550,
      "##쨍": 3551,
      "##벌": 3552,
      "##첨": 3553,
      "##혈": 3554,
      "##듈": 3555,
      "##땐": 3556,
      "##맥": 3557,
      "##떻": 3558,
      "##숭": 3559,
      "##채": 3560,
      "##잌": 3561,
      "##딪": 3562,
      "##턱": 3563,
      "##낄": 3564,
      "##콤": 3565,
      "##싫": 3566,
      "##늦": 3567,
      "##봄": 3568,
      "##벗": 3569,
      "##굼": 3570,
      "##뼈": 3571,
      "##령": 3572,
      "##찾": 3573,
      "##곱": 3574,
      "##룻": 3575,
      "##밤": 3576,
      "##팍": 3577,
      "##n": 3578,
      "##햐": 3579,
      "##뵈": 3580,
      "##극": 3581,
      "##얄": 3582,
      "##숩": 3583,
      "##뒤": 3584,
      "##슨": 3585,
      "##춰": 3586,
      "##샀": 3587,
      "##뎈": 3588,
      "##쟁": 3589,
      "##효": 3590,
      "##챙": 3591,
      "##겹": 3592,
      "##껀": 3593,
      "##김": 3594,
      "##찝": 3595,
      "##곸": 3596,
      "##퉁": 3597,
      "##1": 3598,
      "##욕": 3599,
      "##짱": 3600,
      "##흡": 3601,
      "##o": 3602,
      "##b": 3603,
      "##l": 3604,
      "##e": 3605,
      "##괜": 3606,
      "##렉": 3607,
      "##뗘": 3608,
      "##콘": 3609,
      "##졸": 3610,
      "##콩": 3611,
      "##잠": 3612,
      "##꼽": 3613,
      "##g": 3614,
      "##빼": 3615,
      "##얌": 3616,
      "##떠": 3617,
      "##썹": 3618,
      "##숱": 3619,
      "##씹": 3620,
      "##놔": 3621,
      "##댁": 3622,
      "##찜": 3623,
      "##꿍": 3624,
      "##롤": 3625,
      "##봉": 3626,
      "##존": 3627,
      "##검": 3628,
      "##픔": 3629,
      "##홀": 3630,
      "##벽": 3631,
      "##욜": 3632,
      "##셀": 3633,
      "##짘": 3634,
      "##블": 3635,
      "##컷": 3636,
      "##릏": 3637,
      "##튬": 3638,
      "##짓": 3639,
      "##특": 3640,
      "##뽑": 3641,
      "##변": 3642,
      "##X": 3643,
      "##끊": 3644,
      "##죽": 3645,
      "##럤": 3646,
      "##됨": 3647,
      "##낰": 3648,
      "##궜": 3649,
      "##찍": 3650,
      "##E": 3651,
      "##킥": 3652,
      "##ㅡ": 3653,
      "##L": 3654,
      "##손": 3655,
      "##돕": 3656,
      "##렴": 3657,
      "##쉬": 3658,
      "##뻐": 3659,
      "##틋": 3660,
      "##쌀": 3661,
      "##뜻": 3662,
      "##욱": 3663,
      "##D": 3664,
      "##꼈": 3665,
      "##힘": 3666,
      "##즐": 3667,
      "##뱅": 3668,
      "##볍": 3669,
      "##붕": 3670,
      "##뚫": 3671,
      "##뻣": 3672,
      "##캠": 3673,
      "##팩": 3674,
      "##쯔": 3675,
      "##눅": 3676,
      "##밸": 3677,
      "##쟈": 3678,
      "##뎅": 3679,
      "##많": 3680,
      "##띄": 3681,
      "##떨": 3682,
      "##덮": 3683,
      "##납": 3684,
      "##킁": 3685,
      "##쭉": 3686,
      "##별": 3687,
      "##짤": 3688,
      "##콕": 3689,
      "##첼": 3690,
      "##엌": 3691,
      "##밋": 3692,
      "##숴": 3693,
      "##I": 3694,
      "##섰": 3695,
      "##깡": 3696,
      "##뎁": 3697,
      "##껌": 3698,
      "##액": 3699,
      "##혐": 3700,
      "##땠": 3701,
      "##닐": 3702,
      "##쏘": 3703,
      "##ㅈ": 3704,
      "##눠": 3705,
      "##앙": 3706,
      "##꿈": 3707,
      "##접": 3708,
      "##뚱": 3709,
      "##끗": 3710,
      "##옹": 3711,
      "##홈": 3712,
      "##롯": 3713,
      "##솟": 3714,
      "##끈": 3715,
      "##켰": 3716,
      "##큐": 3717,
      "##빜": 3718,
      "##멍": 3719,
      "##팀": 3720,
      "##즙": 3721,
      "##릭": 3722,
      "##씻": 3723,
      "##꿨": 3724,
      "##ㄹ": 3725,
      "##뿜": 3726,
      "##랔": 3727,
      "##픽": 3728,
      "##흥": 3729,
      "##뚤": 3730,
      "##팟": 3731,
      "##댐": 3732,
      "##갛": 3733,
      "##괴": 3734,
      "##흘": 3735,
      "##융": 3736,
      "##털": 3737,
      "##샵": 3738,
      "##깜": 3739,
      "##쭐": 3740,
      "##맛": 3741,
      "##봨": 3742,
      "##륙": 3743,
      "##빽": 3744,
      "##랍": 3745,
      "##폭": 3746,
      "##완": 3747,
      "##착": 3748,
      "##닌": 3749,
      "##핥": 3750,
      "##캐": 3751,
      "##컴": 3752,
      "##퓨": 3753,
      "##볐": 3754,
      "##롭": 3755,
      "##펌": 3756,
      "##욤": 3757,
      "##꼴": 3758,
      "##꼭": 3759,
      "##샹": 3760,
      "##취": 3761,
      "##뚝": 3762,
      "##득": 3763,
      "##뜨": 3764,
      "##쩌": 3765,
      "##멋": 3766,
      "##ㅗ": 3767,
      "##폴": 3768,
      "##T": 3769,
      "##A": 3770,
      "##캄": 3771,
      "##쟐": 3772,
      "##틀": 3773,
      "##홍": 3774,
      "##잤": 3775,
      "##묘": 3776,
      "##빔": 3777,
      "##릿": 3778,
      "##F": 3779,
      "##폈": 3780,
      "##콜": 3781,
      "##례": 3782,
      "##끙": 3783,
      "##빤": 3784,
      "##딴": 3785,
      "##힠": 3786,
      "##띠": 3787,
      "##ㄲ": 3788,
      "##슼": 3789,
      "##쩡": 3790,
      "##끽": 3791,
      "##푹": 3792,
      "##맙": 3793,
      "##낙": 3794,
      "##Y": 3795,
      "##댔": 3796,
      "##귄": 3797,
      "##쌍": 3798,
      "##컨": 3799,
      "##췄": 3800,
      "##찔": 3801,
      "##멤": 3802,
      "##좀": 3803,
      "##덟": 3804,
      "##젠": 3805,
      "##눔": 3806,
      "##낑": 3807,
      "##닭": 3808,
      "##뇌": 3809,
      "##헐": 3810,
      "##탱": 3811,
      "##뺀": 3812,
      "##돋": 3813,
      "##랭": 3814,
      "##킹": 3815,
      "##낌": 3816,
      "##깼": 3817,
      "##쎄": 3818,
      "##셉": 3819,
      "##7": 3820,
      "##읔": 3821,
      "##젖": 3822,
      "##뻔": 3823,
      "##뻤": 3824,
      "##협": 3825,
      "##윤": 3826,
      "##농": 3827,
      "##곘": 3828,
      "##찢": 3829,
      "##a": 3830,
      "##씬": 3831,
      "##텨": 3832,
      "##렁": 3833,
      "##뷔": 3834,
      "##걱": 3835,
      "##귈": 3836,
      "##칼": 3837,
      "##캔": 3838,
      "##얼": 3839,
      "##컬": 3840,
      "##릅": 3841,
      "##겄": 3842,
      "##첬": 3843,
      "##춥": 3844,
      "##듬": 3845,
      "##륵": 3846,
      "##탬": 3847,
      "##냄": 3848,
      "##눈": 3849,
      "##갖": 3850,
      "##닷": 3851,
      "##랅": 3852,
      "##첩": 3853,
      "##찐": 3854,
      "##젤": 3855,
      "##멸": 3856,
      "##쭈": 3857,
      "##떼": 3858,
      "##헬": 3859,
      "##y": 3860,
      "##돗": 3861,
      "##릇": 3862,
      "##뜸": 3863,
      "##p": 3864,
      "##빴": 3865,
      "##븐": 3866,
      "##탑": 3867,
      "##녔": 3868,
      "##땈": 3869,
      "##볕": 3870,
      "##돔": 3871,
      "##h": 3872,
      "##d": 3873,
      "##꼐": 3874,
      "##꿉": 3875,
      "##왴": 3876,
      "##둔": 3877,
      "##탠": 3878,
      "##뎌": 3879,
      "##웨": 3880,
      "##뀔": 3881,
      "##얔": 3882,
      "##갠": 3883,
      "##뻑": 3884,
      "##륜": 3885,
      "##펀": 3886,
      "##읽": 3887,
      "##튜": 3888,
      "##츄": 3889,
      "##ㄷ": 3890,
      "##덩": 3891,
      "##즘": 3892,
      "##쵸": 3893,
      "##캡": 3894,
      "##몇": 3895,
      "##닛": 3896,
      "##앞": 3897,
      "##닦": 3898,
      "##됬": 3899,
      "##낮": 3900,
      "##쥴": 3901,
      "##죸": 3902,
      "##캉": 3903,
      "##섯": 3904,
      "##략": 3905,
      "##핍": 3906,
      "##쥐": 3907,
      "##ㅓ": 3908,
      "##ㄻ": 3909,
      "##캤": 3910,
      "##쩔": 3911,
      "##졋": 3912,
      "##귱": 3913,
      "##쌈": 3914,
      "##왜": 3915,
      "##쥑": 3916,
      "##뚠": 3917,
      "##껭": 3918,
      "##왈": 3919,
      "##랰": 3920,
      "##퐁": 3921,
      "##됴": 3922,
      "##ㅇ": 3923,
      "##ㅅ": 3924,
      "##녹": 3925,
      "##갘": 3926,
      "##ㅒ": 3927,
      "##탔": 3928,
      "##켁": 3929,
      "##뱃": 3930,
      "##섬": 3931,
      "##꿧": 3932,
      "##녘": 3933,
      "##튀": 3934,
      "##껍": 3935,
      "##쿤": 3936,
      "##닫": 3937,
      "##썽": 3938,
      "##꿔": 3939,
      "##밑": 3940,
      "##찰": 3941,
      "##쇼": 3942,
      "##킴": 3943,
      "##M": 3944,
      "##Z": 3945,
      "##떢": 3946,
      "##뤗": 3947,
      "##숍": 3948,
      "##낀": 3949,
      "##흇": 3950,
      "##ㅊ": 3951,
      "##뛰": 3952,
      "##텍": 3953,
      "##삶": 3954,
      "##펐": 3955,
      "##궈": 3956,
      "##V": 3957,
      "##N": 3958,
      "##압": 3959,
      "##헌": 3960,
      "##맘": 3961,
      "##곽": 3962,
      "##딧": 3963,
      "##썼": 3964,
      "##윈": 3965,
      "##돠": 3966,
      "##칸": 3967,
      "##싹": 3968,
      "##뿨": 3969,
      "##겻": 3970,
      "##쁨": 3971,
      "##J": 3972,
      "##럿": 3973,
      "##롬": 3974,
      "##쁠": 3975,
      "##균": 3976,
      "##팥": 3977,
      "##벨": 3978,
      "##룽": 3979,
      "##빛": 3980,
      "##폐": 3981,
      "##힐": 3982,
      "##튼": 3983,
      "##ㅆ": 3984,
      "##찹": 3985,
      "##깄": 3986,
      "##셧": 3987,
      "##윙": 3988,
      "##듀": 3989,
      "##봣": 3990,
      "##겐": 3991,
      "##솝": 3992,
      "##앜": 3993,
      "##춤": 3994,
      "##넓": 3995,
      "##U": 3996,
      "##봅": 3997,
      "##ㅕ": 3998,
      "##톨": 3999,
      "##K": 4000,
      "##엿": 4001,
      "##똥": 4002,
      "##겜": 4003,
      "##뜩": 4004,
      "##엠": 4005,
      "##쓴": 4006,
      "##몽": 4007,
      "##렙": 4008,
      "##햌": 4009,
      "##죵": 4010,
      "##턴": 4011,
      "##웜": 4012,
      "##봒": 4013,
      "##냘": 4014,
      "##닿": 4015,
      "##짠": 4016,
      "##옄": 4017,
      "##빌": 4018,
      "##샌": 4019,
      "##캣": 4020,
      "##G": 4021,
      "##룜": 4022,
      "##듷": 4023,
      "##펙": 4024,
      "##쌓": 4025,
      "##륨": 4026,
      "##렷": 4027,
      "##룹": 4028,
      "##텀": 4029,
      "##껏": 4030,
      "##넬": 4031,
      "##텼": 4032,
      "##짬": 4033,
      "##잰": 4034,
      "##걌": 4035,
      "##톤": 4036,
      "##몬": 4037,
      "##탙": 4038,
      "##뮬": 4039,
      "##큰": 4040,
      "##뜰": 4041,
      "##혹": 4042,
      "##댓": 4043,
      "##갱": 4044,
      "##렛": 4045,
      "##곀": 4046,
      "##숲": 4047,
      "##ᄏ": 4048,
      "##끓": 4049,
      "##얏": 4050,
      "##냨": 4051,
      "##룬": 4052,
      "##윸": 4053,
      "##쪙": 4054,
      "##S": 4055,
      "##땅": 4056,
      "##긱": 4057,
      "##벟": 4058,
      "##쪼": 4059,
      "##펜": 4060,
      "##댘": 4061,
      "##읏": 4062,
      "##삽": 4063,
      "##쟉": 4064,
      "##덚": 4065,
      "##띵": 4066,
      "##썩": 4067,
      "##곰": 4068,
      "##챠": 4069,
      "##왱": 4070,
      "##쿵": 4071,
      "##몸": 4072,
      "##묻": 4073,
      "##빗": 4074,
      "##꺾": 4075,
      "##뭉": 4076,
      "##떵": 4077,
      "##탸": 4078,
      "##렺": 4079,
      "##x": 4080,
      "##뺄": 4081,
      "##넥": 4082,
      "##슐": 4083,
      "##핸": 4084,
      "##툼": 4085,
      "##켄": 4086,
      "##쭤": 4087,
      "##뒹": 4088,
      "##깁": 4089,
      "##좔": 4090,
      "##W": 4091,
      "##B": 4092,
      "##옵": 4093,
      "##최": 4094,
      "##뭇": 4095,
      "##얻": 4096,
      "##렬": 4097,
      "##묜": 4098,
      "##녜": 4099,
      "##칙": 4100,
      "##쮸": 4101,
      "##춧": 4102,
      "##앉": 4103,
      "##쨋": 4104,
      "##윕": 4105,
      "##팝": 4106,
      "##짧": 4107,
      "##웟": 4108,
      "##봥": 4109,
      "##딛": 4110,
      "##꾹": 4111,
      "##쉑": 4112,
      "##뽀": 4113,
      "##눌": 4114,
      "##홉": 4115,
      "##믹": 4116,
      "##늬": 4117,
      "##핌": 4118,
      "##웈": 4119,
      "##ㅐ": 4120,
      "##얀": 4121,
      "##뱀": 4122,
      "##슛": 4123,
      "##맀": 4124,
      "##킸": 4125,
      "##논": 4126,
      "##큘": 4127,
      "##슥": 4128,
      "##겸": 4129,
      "##ㅑ": 4130,
      "##앵": 4131,
      "##빡": 4132,
      "##덴": 4133,
      "##헉": 4134,
      "##빳": 4135,
      "##떴": 4136,
      "##핀": 4137,
      "##햅": 4138,
      "##짼": 4139,
      "##멩": 4140,
      "##섴": 4141,
      "##귿": 4142,
      "##똘": 4143,
      "##삥": 4144,
      "##뜬": 4145,
      "##깈": 4146,
      "##짖": 4147,
      "##뭄": 4148,
      "##귤": 4149,
      "##쒹": 4150,
      "##햏": 4151,
      "##맣": 4152,
      "##댱": 4153,
      "##솥": 4154,
      "##높": 4155,
      "##겔": 4156,
      "##쨰": 4157,
      "##넛": 4158,
      "##쳣": 4159,
      "##찡": 4160,
      "##팠": 4161,
      "##펴": 4162,
      "##짆": 4163,
      "##괄": 4164,
      "##쐬": 4165,
      "##칰": 4166,
      "##맑": 4167,
      "##찼": 4168,
      "##삿": 4169,
      "##w": 4170,
      "##걍": 4171,
      "##깅": 4172,
      "##묵": 4173,
      "##뼘": 4174,
      "##튿": 4175,
      "##닮": 4176,
      "##쏴": 4177,
      "##뤘": 4178,
      "##쉈": 4179,
      "##겡": 4180,
      "##줴": 4181,
      "##뼛": 4182,
      "##뵙": 4183,
      "##눴": 4184,
      "##웰": 4185,
      "##캅": 4186,
      "##뀐": 4187,
      "##뭔": 4188,
      "##쌩": 4189,
      "##핮": 4190,
      "##쉰": 4191,
      "##샜": 4192,
      "##졍": 4193,
      "##붐": 4194,
      "##잦": 4195,
      "##땟": 4196,
      "##탓": 4197,
      "##숏": 4198,
      "##듭": 4199,
      "##펑": 4200,
      "##냇": 4201,
      "##젝": 4202,
      "##쿨": 4203,
      "##촬": 4204,
      "##몫": 4205,
      "##싢": 4206,
      "##윌": 4207,
      "##잎": 4208,
      "##렼": 4209,
      "##텁": 4210,
      "##푠": 4211,
      "##벡": 4212,
      "##늑": 4213,
      "##쑥": 4214,
      "##웡": 4215,
      "##틈": 4216,
      "##앆": 4217,
      "##샴": 4218,
      "##깤": 4219,
      "##쪈": 4220,
      "##텝": 4221,
      "##밟": 4222,
      "##늠": 4223,
      "##켈": 4224,
      "##삘": 4225,
      "##욧": 4226,
      "##즛": 4227,
      "##쿄": 4228,
      "##쿜": 4229,
      "##힣": 4230,
      "##딕": 4231,
      "##팽": 4232,
      "##켕": 4233,
      "##삐": 4234,
      "##즤": 4235,
      "##썻": 4236,
      "##씰": 4237,
      "##잨": 4238,
      "##ㅉ": 4239,
      "##덯": 4240,
      "##툴": 4241,
      "##쬬": 4242,
      "##눙": 4243,
      "##쏟": 4244,
      "##헨": 4245,
      "##닙": 4246,
      "##꽈": 4247,
      "##됩": 4248,
      "##뤼": 4249,
      "##벚": 4250,
      "##̆": 4251,
      "##̈": 4252,
      "##뺌": 4253,
      "##칩": 4254,
      "##죙": 4255,
      "##쥼": 4256,
      "##즉": 4257,
      "##꽂": 4258,
      "##땃": 4259,
      "##셜": 4260,
      "##맺": 4261,
      "##셴": 4262,
      "##뺏": 4263,
      "##홬": 4264,
      "##떙": 4265,
      "##핫": 4266,
      "##툽": 4267,
      "##헥": 4268,
      "##젓": 4269,
      "##맷": 4270,
      "##굽": 4271,
      "##좁": 4272,
      "##솜": 4273,
      "##뜯": 4274,
      "##댈": 4275,
      "##뎀": 4276,
      "##쩐": 4277,
      "##줍": 4278,
      "##겤": 4279,
      "##땢": 4280,
      "##밉": 4281,
      "##쪘": 4282,
      "##쌌": 4283,
      "##왘": 4284,
      "##뿟": 4285,
      "##옇": 4286,
      "##욥": 4287,
      "##쿡": 4288,
      "##깍": 4289,
      "##맴": 4290,
      "##씯": 4291,
      "##쫄": 4292,
      "##켯": 4293,
      "##옸": 4294,
      "##쌰": 4295,
      "##쾅": 4296,
      "##펼": 4297,
      "##퀄": 4298,
      "##빱": 4299,
      "##턍": 4300,
      "##쁩": 4301,
      "##햄": 4302,
      "##칫": 4303,
      "##젼": 4304,
      "##Q": 4305,
      "##퀼": 4306,
      "##얗": 4307,
      "##츤": 4308,
      "##뿔": 4309,
      "##휠": 4310,
      "##췌": 4311,
      "##췃": 4312,
      "##뽄": 4313,
      "##믿": 4314,
      "##뚸": 4315,
      "##뭡": 4316,
      "##쒸": 4317,
      "##짚": 4318,
      "##렄": 4319,
      "##쓱": 4320,
      "##쪄": 4321,
      "##롷": 4322,
      "##킷": 4323,
      "##떈": 4324,
      "##붓": 4325,
      "##욯": 4326,
      "##윽": 4327,
      "##튤": 4328,
      "##넉": 4329,
      "##샆": 4330,
      "##츈": 4331,
      "##긁": 4332,
      "##씽": 4333,
      "##쎈": 4334,
      "##딨": 4335,
      "##뗄": 4336,
      "##푀": 4337,
      "##웤": 4338,
      "##뵌": 4339,
      "##읻": 4340,
      "##펄": 4341,
      "##훙": 4342,
      "##봌": 4343,
      "##땄": 4344,
      "##헴": 4345,
      "##갤": 4346,
      "##닠": 4347,
      "##뭘": 4348,
      "##녓": 4349,
      "##벳": 4350,
      "##겋": 4351,
      "##톰": 4352,
      "##옛": 4353,
      "##얒": 4354,
      "##켔": 4355,
      "##옌": 4356,
      "##덧": 4357,
      "##깢": 4358,
      "##섹": 4359,
      "##맡": 4360,
      "##퀘": 4361,
      "##곧": 4362,
      "##셰": 4363,
      "##냫": 4364,
      "##맵": 4365,
      "##ᅲ": 4366,
      "##렐": 4367,
      "##쒀": 4368,
      "##쯩": 4369,
      "##쑤": 4370,
      "##ᴗ": 4371,
      "##뿅": 4372,
      "##갚": 4373,
      "##눼": 4374,
      "##깠": 4375,
      "##팸": 4376,
      "##탭": 4377,
      "##쩄": 4378,
      "##촣": 4379,
      "##죻": 4380,
      "##흐": 4381,
      "##귘": 4382,
      "##깻": 4383,
      "##잭": 4384,
      "##팜": 4385,
      "##쥥": 4386,
      "##팁": 4387,
      "##쾌": 4388,
      "##흰": 4389,
      "##썸": 4390,
      "##엣": 4391,
      "##꽐": 4392,
      "##썬": 4393,
      "##꿋": 4394,
      "##툭": 4395,
      "##뻘": 4396,
      "##므": 4397,
      "##쯜": 4398,
      "##깦": 4399,
      "##팰": 4400,
      "##텻": 4401,
      "##륭": 4402,
      "##됏": 4403,
      "##랲": 4404,
      "##뺴": 4405,
      "##짹": 4406,
      "##켘": 4407,
      "##묶": 4408,
      "##췸": 4409,
      "##닏": 4410,
      "##뎃": 4411,
      "##콰": 4412,
      "##땀": 4413,
      "##쏭": 4414,
      "##꽁": 4415,
      "##넜": 4416,
      "##뗀": 4417,
      "##떳": 4418,
      "##ㆍ": 4419,
      "##펫": 4420,
      "##쯧": 4421,
      "##굣": 4422,
      "##섞": 4423,
      "##컸": 4424,
      "##첸": 4425,
      "##갯": 4426,
      "##댯": 4427,
      "##빚": 4428,
      "##킼": 4429,
      "##윗": 4430,
      "##씁": 4431,
      "##밨": 4432,
      "##뭣": 4433,
      "##샐": 4434,
      "##켤": 4435,
      "##둣": 4436,
      "##엥": 4437,
      "##텅": 4438,
      "##귐": 4439,
      "##쉴": 4440,
      "##렜": 4441,
      "##젱": 4442,
      "##밴": 4443,
      "##풋": 4444,
      "##읺": 4445,
      "##겈": 4446,
      "##쟝": 4447,
      "##쪗": 4448,
      "##뷴": 4449,
      "##쟀": 4450,
      "##멬": 4451,
      "##윅": 4452,
      "##챔": 4453,
      "##뜹": 4454,
      "##흔": 4455,
      "##쭝": 4456,
      "##헣": 4457,
      "##얐": 4458,
      "##걔": 4459,
      "##낯": 4460,
      "##맠": 4461,
      "##잣": 4462,
      "##꽝": 4463,
      "##맸": 4464,
      "##깋": 4465,
      "##홐": 4466,
      "##긔": 4467,
      "##듸": 4468,
      "##궄": 4469,
      "##썰": 4470,
      "##랠": 4471,
      "##뗴": 4472,
      "##깎": 4473,
      "##텡": 4474,
      "##ㅝ": 4475,
      "##챌": 4476,
      "##컥": 4477,
      "##씸": 4478,
      "##꼌": 4479,
      "##뛴": 4480,
      "##몄": 4481,
      "##꼼": 4482,
      "##짢": 4483,
      "##믈": 4484,
      "##뾱": 4485,
      "##슘": 4486,
      "##햊": 4487,
      "##줫": 4488,
      "##흉": 4489,
      "##볈": 4490,
      "##셍": 4491,
      "##ㅃ": 4492,
      "##맬": 4493,
      "##딥": 4494,
      "##듦": 4495,
      "##웍": 4496,
      "##깊": 4497,
      "##깥": 4498,
      "##쑈": 4499,
      "##싴": 4500,
      "##헷": 4501,
      "##룐": 4502,
      "##옝": 4503,
      "##닣": 4504,
      "##뻥": 4505,
      "##늄": 4506,
      "##셌": 4507,
      "##헛": 4508,
      "##뇽": 4509,
      "##퉜": 4510,
      "##쉼": 4511,
      "##뱉": 4512,
      "##뎨": 4513,
      "##솓": 4514,
      "##졐": 4515,
      "##욘": 4516,
      "##죔": 4517,
      "##챈": 4518,
      "##짴": 4519,
      "##뉸": 4520,
      "##돜": 4521,
      "##픟": 4522,
      "##칬": 4523,
      "##줭": 4524,
      "##츰": 4525,
      "##궐": 4526,
      "##잊": 4527,
      "##놧": 4528,
      "##웹": 4529,
      "##뀬": 4530,
      "##냅": 4531,
      "##됫": 4532,
      "##궂": 4533,
      "##늙": 4534,
      "##쩅": 4535,
      "##춍": 4536,
      "##숄": 4537,
      "##쑴": 4538,
      "##캇": 4539,
      "##훨": 4540,
      "##틐": 4541,
      "##앴": 4542,
      "##눗": 4543,
      "##뿡": 4544,
      "##슉": 4545,
      "##ᄒ": 4546,
      "##볃": 4547,
      "##죤": 4548,
      "##뻗": 4549,
      "##퉈": 4550,
      "##쮜": 4551,
      "##꼇": 4552,
      "##뺑": 4553,
      "##뾰": 4554,
      "##곜": 4555,
      "##뚬": 4556,
      "##돟": 4557,
      "##껰": 4558,
      "##뇸": 4559,
      "##힝": 4560,
      "##꿇": 4561,
      "##훌": 4562,
      "##꺽": 4563,
      "##쟛": 4564,
      "##훼": 4565,
      "##즁": 4566,
      "##븜": 4567,
      "##컄": 4568,
      "##큅": 4569,
      "##틔": 4570,
      "##몈": 4571,
      "##굳": 4572,
      "##맄": 4573,
      "##곗": 4574,
      "##딫": 4575,
      "##듐": 4576,
      "##봈": 4577,
      "##롴": 4578,
      "##챱": 4579,
      "##쉘": 4580,
      "##퀀": 4581,
      "##훗": 4582,
      "##탤": 4583,
      "##∼": 4584,
      "##볔": 4585,
      "##졎": 4586,
      "##헸": 4587,
      "##횽": 4588,
      "##뺼": 4589,
      "##튭": 4590,
      "##ට": 4591,
      "##삑": 4592,
      "##젬": 4593,
      "##랖": 4594,
      "##뤠": 4595,
      "##헝": 4596,
      "##ㅛ": 4597,
      "##펍": 4598,
      "##챘": 4599,
      "##덛": 4600,
      "##좡": 4601,
      "##컹": 4602,
      "##갰": 4603,
      "##㎞": 4604,
      "##흣": 4605,
      "##젲": 4606,
      "##껜": 4607,
      "##콧": 4608,
      "##윳": 4609,
      "##탰": 4610,
      "##쨌": 4611,
      "##쩨": 4612,
      "##곌": 4613,
      "##젯": 4614,
      "##젊": 4615,
      "##콥": 4616,
      "##ㅚ": 4617,
      "##윰": 4618,
      "##밬": 4619,
      "##짯": 4620,
      "##줏": 4621,
      "##앨": 4622,
      "##앸": 4623,
      "##옼": 4624,
      "##꽉": 4625,
      "##ㄸ": 4626,
      "##읹": 4627,
      "##흙": 4628,
      "##늉": 4629,
      "##홓": 4630,
      "##젛": 4631,
      "##픙": 4632,
      "##쌉": 4633,
      "##땽": 4634,
      "##댴": 4635,
      "##헀": 4636,
      "##핡": 4637,
      "##첫": 4638,
      "##넫": 4639,
      "##z": 4640,
      "##홧": 4641,
      "##쨩": 4642,
      "##겆": 4643,
      "##팎": 4644,
      "##쨔": 4645,
      "##샨": 4646,
      "##씪": 4647,
      "##싀": 4648,
      "##웁": 4649,
      "##픕": 4650,
      "##앖": 4651,
      "##졔": 4652,
      "##핵": 4653,
      "##횡": 4654,
      "##폿": 4655,
      "##엨": 4656,
      "##굵": 4657,
      "##맇": 4658,
      "##흠": 4659,
      "##쿱": 4660,
      "##휙": 4661,
      "##ㅍ": 4662,
      "##얇": 4663,
      "##줰": 4664,
      "##쥔": 4665,
      "##앳": 4666,
      "##좃": 4667,
      "##뽁": 4668,
      "##흫": 4669,
      "##늨": 4670,
      "##렠": 4671,
      "##꽥": 4672,
      "##q": 4673,
      "##멐": 4674,
      "##븨": 4675,
      "##♡": 4676,
      "##냣": 4677,
      "##뛸": 4678,
      "##굿": 4679,
      "##걐": 4680,
      "##눕": 4681,
      "##잿": 4682,
      "##됔": 4683,
      "##샾": 4684,
      "##왑": 4685,
      "##녖": 4686,
      "##낵": 4687,
      "##촘": 4688,
      "##짭": 4689,
      "##쫍": 4690,
      "##꿏": 4691,
      "##됀": 4692,
      "##엎": 4693,
      "##쿸": 4694,
      "##젢": 4695,
      "##씌": 4696,
      "##숯": 4697,
      "##놬": 4698,
      "##셩": 4699,
      "##뻬": 4700,
      "##쩝": 4701,
      "##웩": 4702,
      "##댑": 4703,
      "##쑹": 4704,
      "##뎔": 4705,
      "##웬": 4706,
      "##긌": 4707,
      "##ˊ": 4708,
      "##˗": 4709,
      "##쉅": 4710,
      "##ㄳ": 4711,
      "##핼": 4712,
      "##췬": 4713,
      "##꺌": 4714,
      "##뺐": 4715,
      "##섮": 4716,
      "##횟": 4717,
      "##렂": 4718,
      "##갬": 4719,
      "##덷": 4720,
      "##섖": 4721,
      "##ᅟ": 4722,
      "##괔": 4723,
      "##킵": 4724,
      "##ㅂ": 4725,
      "##읜": 4726,
      "##쏙": 4727,
      "##딤": 4728,
      "##왁": 4729,
      "##딬": 4730,
      "##윔": 4731,
      "##힜": 4732,
      "##혓": 4733,
      "##쎌": 4734,
      "##썜": 4735,
      "##펺": 4736,
      "##뎐": 4737,
      "##촐": 4738,
      "##놐": 4739,
      "##룧": 4740,
      "##뵜": 4741,
      "##갸": 4742,
      "##펭": 4743,
      "##궤": 4744,
      "##빕": 4745,
      "##쎼": 4746,
      "##샥": 4747,
      "##깉": 4748,
      "##쫀": 4749,
      "##튕": 4750,
      "##힙": 4751,
      "##펩": 4752,
      "##굔": 4753,
      "##퉤": 4754,
      "##읰": 4755,
      "##꺠": 4756,
      "##핳": 4757,
      "##놉": 4758,
      "##쒕": 4759,
      "##꺅": 4760,
      "##랳": 4761,
      "##봬": 4762,
      "##짰": 4763,
      "##탉": 4764,
      "##츕": 4765,
      "##졀": 4766,
      "##먿": 4767,
      "##싣": 4768,
      "##햬": 4769,
      "##뢈": 4770,
      "##슝": 4771,
      "##챃": 4772,
      "##얹": 4773,
      "##퇄": 4774,
      "##닢": 4775,
      "##셥": 4776,
      "##쨜": 4777,
      "##뎠": 4778,
      "##잫": 4779,
      "##뭌": 4780,
      "##앀": 4781,
      "##껕": 4782,
      "##ᆢ": 4783,
      "##웄": 4784,
      "##퀸": 4785,
      "##쌴": 4786,
      "##앟": 4787,
      "##잃": 4788,
      "##앰": 4789,
      "##쏄": 4790,
      "##̑": 4791,
      "##갭": 4792,
      "##흩": 4793,
      "##봊": 4794,
      "##켠": 4795,
      "##싰": 4796,
      "##잏": 4797,
      "##앓": 4798,
      "##쫌": 4799,
      "##햨": 4800,
      "##겦": 4801,
      "##씾": 4802,
      "##켭": 4803,
      "##샠": 4804,
      "##냬": 4805,
      "##쌘": 4806,
      "##즥": 4807,
      "##숫": 4808,
      "##핟": 4809,
      "##힛": 4810,
      "##땨": 4811,
      "##밝": 4812,
      "##덱": 4813,
      "##깽": 4814,
      "##웇": 4815,
      "##멎": 4816,
      "##굥": 4817,
      "##쫒": 4818,
      "##콸": 4819,
      "##퀵": 4820,
      "##챦": 4821,
      "##넵": 4822,
      "##뉜": 4823,
      "##젔": 4824,
      "##뢔": 4825,
      "##얍": 4826,
      "##뿍": 4827,
      "##탆": 4828,
      "##됭": 4829,
      "##뉼": 4830,
      "##빘": 4831,
      "##냔": 4832,
      "##몪": 4833,
      "##벜": 4834,
      "##젴": 4835,
      "##틑": 4836,
      "##긐": 4837,
      "##㎝": 4838,
      "##숟": 4839,
      "##뮨": 4840,
      "##텤": 4841,
      "##쎀": 4842,
      "##켴": 4843,
      "##갉": 4844,
      "##및": 4845,
      "##깟": 4846,
      "##읎": 4847,
      "##큭": 4848,
      "##뉨": 4849,
      "##셕": 4850,
      "##밧": 4851,
      "##쿰": 4852,
      "##듢": 4853,
      "##숰": 4854,
      "##뚯": 4855,
      "##릳": 4856,
      "##햤": 4857,
      "##괬": 4858,
      "##땤": 4859,
      "##넿": 4860,
      "##팤": 4861,
      "##퍄": 4862,
      "##엏": 4863,
      "##홫": 4864,
      "##칵": 4865,
      "##껬": 4866,
      "##쫓": 4867,
      "##즠": 4868,
      "##듕": 4869,
      "##긩": 4870,
      "##뒷": 4871,
      "##ㅖ": 4872,
      "##흨": 4873,
      "##뗌": 4874,
      "##럈": 4875,
      "##촵": 4876,
      "##얜": 4877,
      "##붘": 4878,
      "##뀨": 4879,
      "##뷸": 4880,
      "##꼉": 4881,
      "##벵": 4882,
      "##쫘": 4883,
      "##뀜": 4884,
      "##뱍": 4885,
      "##큄": 4886,
      "##켬": 4887,
      "##믓": 4888,
      "##롄": 4889,
      "##혾": 4890,
      "##갲": 4891,
      "##찻": 4892,
      "##좈": 4893,
      "##읮": 4894,
      "##읋": 4895,
      "##줉": 4896,
      "##곈": 4897,
      "##뉑": 4898,
      "##쫙": 4899,
      "##맆": 4900,
      "##렝": 4901,
      "##돰": 4902,
      "##쳘": 4903,
      "##됙": 4904,
      "##겧": 4905,
      "##슭": 4906,
      "##벘": 4907,
      "##컫": 4908,
      "##됌": 4909,
      "##쫑": 4910,
      "##솤": 4911,
      "##텈": 4912,
      "##뎊": 4913,
      "##늪": 4914,
      "##닁": 4915,
      "##귯": 4916,
      "##잗": 4917,
      "##얖": 4918,
      "##낞": 4919,
      "##롣": 4920,
      "##믐": 4921,
      "##굨": 4922,
      "##웼": 4923,
      "##겪": 4924,
      "##훅": 4925,
      "##롸": 4926,
      "##큨": 4927,
      "##웧": 4928,
      "##땁": 4929,
      "##퓌": 4930,
      "##쪾": 4931,
      "##싞": 4932,
      "##텄": 4933,
      "##쮱": 4934,
      "##샄": 4935,
      "##뜌": 4936,
      "##룟": 4937,
      "##❤": 4938,
      "##솨": 4939,
      "##랃": 4940,
      "##홭": 4941,
      "##풉": 4942,
      "##듴": 4943,
      "##밫": 4944,
      "##띤": 4945,
      "##껔": 4946,
      "##됄": 4947,
      "##낟": 4948,
      "##븝": 4949,
      "##섷": 4950,
      "##늡": 4951,
      "##췐": 4952,
      "##쎔": 4953,
      "##쏰": 4954,
      "##핬": 4955,
      "##퇼": 4956,
      "##짌": 4957,
      "##ˋ": 4958,
      "##ˏ": 4959,
      "##쌋": 4960,
      "##깧": 4961,
      "##븟": 4962,
      "##멓": 4963,
      "##슺": 4964,
      "##헿": 4965,
      "##햩": 4966,
      "##옳": 4967,
      "##뎄": 4968,
      "##춌": 4969,
      "##꼿": 4970,
      "##쾃": 4971,
      "##촨": 4972,
      "##짲": 4973,
      "##둿": 4974,
      "##똠": 4975,
      "##럇": 4976,
      "##챡": 4977,
      "##븃": 4978,
      "##갹": 4979,
      "##큔": 4980,
      "##뱁": 4981,
      "##눜": 4982,
      "##챗": 4983,
      "##썯": 4984,
      "##쟠": 4985,
      "##읠": 4986,
      "##팯": 4987,
      "##퉌": 4988,
      "##섀": 4989,
      "##왼": 4990,
      "##횤": 4991,
      "##펵": 4992,
      "##챴": 4993,
      "##큠": 4994,
      "##웝": 4995,
      "##륌": 4996,
      "##씈": 4997,
      "##럅": 4998,
      "##릔": 4999,
      "##뼉": 5000,
      "##괭": 5001,
      "##븍": 5002,
      "##촤": 5003,
      "##늏": 5004,
      "##삯": 5005,
      "##퉛": 5006,
      "##쥭": 5007,
      "##젺": 5008,
      "##뱌": 5009,
      "##댖": 5010,
      "##캥": 5011,
      "##젹": 5012,
      "##☆": 5013,
      "##킄": 5014,
      "##믜": 5015,
      "##젘": 5016,
      "##웋": 5017,
      "##쁭": 5018,
      "##앍": 5019,
      "##곺": 5020,
      "##핰": 5021,
      "##뗐": 5022,
      "##겎": 5023,
      "##잙": 5024,
      "##샛": 5025,
      "##훠": 5026,
      "##탹": 5027,
      "##쥫": 5028,
      "##횐": 5029,
      "##켱": 5030,
      "##썡": 5031,
      "##헹": 5032,
      "##붑": 5033,
      "##ㅢ": 5034,
      "##먕": 5035,
      "##탯": 5036,
      "##끅": 5037,
      "##닞": 5038,
      "##먀": 5039,
      "##쳨": 5040,
      "##굲": 5041,
      "##랸": 5042,
      "##왠": 5043,
      "##읐": 5044,
      "##꽤": 5045,
      "##굎": 5046,
      "##뱡": 5047,
      "##죦": 5048,
      "##겉": 5049,
      "##셤": 5050,
      "##츌": 5051,
      "##멱": 5052,
      "##깬": 5053,
      "##붇": 5054,
      "##엍": 5055,
      "##삠": 5056,
      "##쳔": 5057,
      "##쐈": 5058,
      "##밐": 5059,
      "##귝": 5060,
      "##껐": 5061,
      "##쓩": 5062,
      "##덫": 5063,
      "##뱔": 5064,
      "##멶": 5065,
      "##쌜": 5066,
      "##씼": 5067,
      "##놰": 5068,
      "##촥": 5069,
      "##홋": 5070,
      "##윷": 5071,
      "##얬": 5072,
      "##갗": 5073,
      "##꼔": 5074,
      "##＄": 5075,
      "##츼": 5076,
      "##샣": 5077,
      "##퀠": 5078,
      "##휜": 5079,
      "##즏": 5080,
      "##껼": 5081,
      "##졈": 5082,
      "##꾀": 5083,
      "##읕": 5084,
      "##욐": 5085,
      "##퐄": 5086,
      "##릐": 5087,
      "##쏀": 5088,
      "##홥": 5089,
      "##쉉": 5090,
      "##댸": 5091,
      "##텃": 5092,
      "##팓": 5093,
      "##뺸": 5094,
      "##맫": 5095,
      "##쾨": 5096,
      "##텋": 5097,
      "##냌": 5098,
      "##쌥": 5099,
      "##싿": 5100,
      "##껉": 5101,
      "##쏼": 5102,
      "##뎟": 5103,
      "##꿎": 5104,
      "##궸": 5105,
      "##뵐": 5106,
      "##릯": 5107,
      "##띃": 5108,
      "##됑": 5109,
      "##즬": 5110,
      "##늕": 5111,
      "##넙": 5112,
      "##떘": 5113,
      "##욛": 5114,
      "##쎕": 5115,
      "##쫨": 5116,
      "##떰": 5117,
      "##쉨": 5118,
      "##렿": 5119,
      "##쵹": 5120,
      "##쏜": 5121,
      "##둨": 5122,
      "##즄": 5123,
      "##뎋": 5124,
      "##엡": 5125,
      "##앚": 5126,
      "##뫼": 5127,
      "##싳": 5128,
      "##뫠": 5129,
      "##쟘": 5130,
      "##녴": 5131,
      "##뫄": 5132,
      "##롼": 5133,
      "##닪": 5134,
      "##샅": 5135,
      "##멕": 5136,
      "##넠": 5137,
      "##삳": 5138,
      "##묭": 5139,
      "##굶": 5140,
      "##넽": 5141,
      "##좆": 5142,
      "##깰": 5143,
      "##샇": 5144,
      "##냏": 5145,
      "##퐝": 5146,
      "##샸": 5147,
      "##겣": 5148,
      "##쇽": 5149,
      "##틎": 5150,
      "##낲": 5151,
      "##쑝": 5152,
      "##뇻": 5153,
      "##쉣": 5154,
      "##땸": 5155,
      "##̄": 5156,
      "##쎠": 5157,
      "##뢓": 5158,
      "##쎵": 5159,
      "##곯": 5160,
      "##쩧": 5161,
      "##떗": 5162,
      "##뺘": 5163,
      "##낍": 5164,
      "##헏": 5165,
      "##팼": 5166,
      "##덨": 5167,
      "##샬": 5168,
      "##늣": 5169,
      "##걋": 5170,
      "##짔": 5171,
      "##횔": 5172,
      "##둉": 5173,
      "##잽": 5174,
      "##㎡": 5175,
      "##㎏": 5176,
      "##뛔": 5177,
      "##앃": 5178,
      "##갷": 5179,
      "##붉": 5180,
      "##뽈": 5181,
      "##쉭": 5182,
      "##쓔": 5183,
      "##얕": 5184,
      "##킈": 5185,
      "##먗": 5186,
      "##닳": 5187,
      "##뺵": 5188,
      "##킛": 5189,
      "##즹": 5190,
      "##싷": 5191,
      "##롶": 5192,
      "##춚": 5193,
      "##뉭": 5194,
      "##띔": 5195,
      "##픅": 5196,
      "##챤": 5197,
      "##잴": 5198,
      "##엳": 5199,
      "##읓": 5200,
      "##숖": 5201,
      "##텯": 5202,
      "##늩": 5203,
      "##냑": 5204,
      "##삣": 5205,
      "##봑": 5206,
      "##궅": 5207,
      "##띱": 5208,
      "##컀": 5209,
      "##뒈": 5210,
      "##쳥": 5211,
      "##췩": 5212,
      "##뤀": 5213,
      "##낱": 5214,
      "##맜": 5215,
      "##퍈": 5216,
      "##슽": 5217,
      "##훟": 5218,
      "##깸": 5219,
      "##긺": 5220,
      "##랟": 5221,
      "##덌": 5222,
      "##퇵": 5223,
      "##쑨": 5224,
      "##솰": 5225,
      "##괸": 5226,
      "##꙼": 5227,
      "##̎": 5228,
      "##띈": 5229,
      "##꿜": 5230,
      "##슠": 5231,
      "##눀": 5232,
      "##엫": 5233,
      "##뻉": 5234,
      "##뢍": 5235,
      "##잍": 5236,
      "##갇": 5237,
      "##쩃": 5238,
      "##읗": 5239,
      "##팃": 5240,
      "##톼": 5241,
      "##붌": 5242,
      "##앋": 5243,
      "##뺶": 5244,
      "##뙤": 5245,
      "##쏧": 5246,
      "##꿑": 5247,
      "##삔": 5248,
      "##쳇": 5249,
      "##쬐": 5250,
      "##륶": 5251,
      "##쩖": 5252,
      "##몹": 5253,
      "##꺵": 5254,
      "##꺄": 5255,
      "##썁": 5256,
      "##쳠": 5257,
      "##뇬": 5258,
      "##둫": 5259,
      "##늗": 5260,
      "##힞": 5261,
      "##갴": 5262,
      "##뚴": 5263,
      "##삵": 5264,
      "##줔": 5265,
      "##웢": 5266,
      "##끕": 5267,
      "##듡": 5268,
      "##횜": 5269,
      "##슌": 5270,
      "##웓": 5271,
      "##첞": 5272,
      "##볏": 5273,
      "##ᅮ": 5274,
      "##꿘": 5275,
      "##핞": 5276,
      "##뎉": 5277,
      "##찧": 5278,
      "##죳": 5279,
      "##뻄": 5280,
      "##쀼": 5281,
      "##찎": 5282,
      "키키": 5283,
      "##는데": 5284,
      "진짜": 5285,
      "그래": 5286,
      "##더라": 5287,
      "맞아": 5288,
      "아니": 5289,
      "##니까": 5290,
      "##에서": 5291,
      "ㅠㅠ": 5292,
      "너무": 5293,
      "나도": 5294,
      "나는": 5295,
      "같아": 5296,
      "많이": 5297,
      "좋아": 5298,
      "그런": 5299,
      "하하": 5300,
      "근데": 5301,
      "우리": 5302,
      "그러": 5303,
      "있어": 5304,
      "그렇": 5305,
      "사람": 5306,
      "##으로": 5307,
      "##다고": 5308,
      "요즘": 5309,
      "##겠다": 5310,
      "##잖아": 5311,
      "##이야": 5312,
      "##하는": 5313,
      "생각": 5314,
      "##으면": 5315,
      "##하고": 5316,
      "그거": 5317,
      "그럼": 5318,
      "엄청": 5319,
      "##던데": 5320,
      "##이라": 5321,
      "하는": 5322,
      "지금": 5323,
      "그냥": 5324,
      "##해서": 5325,
      "그래도": 5326,
      "##들이": 5327,
      "##구나": 5328,
      "##었어": 5329,
      "그래서": 5330,
      "ㅜㅜ": 5331,
      "같은": 5332,
      "내가": 5333,
      "하고": 5334,
      "게임": 5335,
      "좋은": 5336,
      "##겠어": 5337,
      "##더라고": 5338,
      "##어서": 5339,
      "정말": 5340,
      "거야": 5341,
      "##야지": 5342,
      "재밌": 5343,
      "한번": 5344,
      "있는": 5345,
      "오늘": 5346,
      "같이": 5347,
      "##하면": 5348,
      "이제": 5349,
      "들어": 5350,
      "힘들": 5351,
      "이번": 5352,
      "##라고": 5353,
      "아직": 5354,
      "##하지": 5355,
      "##인데": 5356,
      "##까지": 5357,
      "##겠네": 5358,
      "모르": 5359,
      "##이랑": 5360,
      "거기": 5361,
      "친구": 5362,
      "영화": 5363,
      "##어요": 5364,
      "괜찮": 5365,
      "##아서": 5366,
      "어디": 5367,
      "그렇게": 5368,
      "##하게": 5369,
      "##려고": 5370,
      "여행": 5371,
      "##다가": 5372,
      "##리고": 5373,
      "무슨": 5374,
      "하나": 5375,
      "##보다": 5376,
      "엄마": 5377,
      "##에는": 5378,
      "보고": 5379,
      "얼마": 5380,
      "나오": 5381,
      "##었는데": 5382,
      "없어": 5383,
      "그건": 5384,
      "시간": 5385,
      "응응": 5386,
      "그러게": 5387,
      "##네요": 5388,
      "완전": 5389,
      "##지만": 5390,
      "##보고": 5391,
      "##는거": 5392,
      "결혼": 5393,
      "하면": 5394,
      "싶어": 5395,
      "어떻": 5396,
      "그게": 5397,
      "아이": 5398,
      "언니": 5399,
      "어떻게": 5400,
      "##아지": 5401,
      "정도": 5402,
      "##부터": 5403,
      "##을까": 5404,
      "##들은": 5405,
      "##한테": 5406,
      "맛있": 5407,
      "##기도": 5408,
      "##로나": 5409,
      "다들": 5410,
      "다른": 5411,
      "군대": 5412,
      "해야": 5413,
      "##이지": 5414,
      "어떤": 5415,
      "알아": 5416,
      "코로나": 5417,
      "##았어": 5418,
      "##겠지": 5419,
      "##거든": 5420,
      "운동": 5421,
      "먹어": 5422,
      "가서": 5423,
      "아니야": 5424,
      "강아지": 5425,
      "이런": 5426,
      "##니깐": 5427,
      "것도": 5428,
      "먹고": 5429,
      "##하다": 5430,
      "하지": 5431,
      "아무": 5432,
      "##니다": 5433,
      "보면": 5434,
      "그니까": 5435,
      "같은데": 5436,
      "##인가": 5437,
      "회사": 5438,
      "##거야": 5439,
      "##해야": 5440,
      "제일": 5441,
      "않아": 5442,
      "##기가": 5443,
      "##것도": 5444,
      "##문에": 5445,
      "이번에": 5446,
      "##기는": 5447,
      "##이나": 5448,
      "그치": 5449,
      "싶다": 5450,
      "##더라구": 5451,
      "##했어": 5452,
      "봤어": 5453,
      "##이다": 5454,
      "##은데": 5455,
      "하는데": 5456,
      "기억": 5457,
      "그러니까": 5458,
      "다시": 5459,
      "언제": 5460,
      "오빠": 5461,
      "가고": 5462,
      "##지는": 5463,
      "자주": 5464,
      "다음": 5465,
      "그러면": 5466,
      "그랬": 5467,
      "남자": 5468,
      "오래": 5469,
      "계속": 5470,
      "키우": 5471,
      "##야겠다": 5472,
      "##다는": 5473,
      "겨울": 5474,
      "10": 5475,
      "그리고": 5476,
      "건강": 5477,
      "해서": 5478,
      "요새": 5479,
      "너는": 5480,
      "때문에": 5481,
      "여자": 5482,
      "##들도": 5483,
      "좋지": 5484,
      "처음": 5485,
      "비싸": 5486,
      "가족": 5487,
      "그때": 5488,
      "날씨": 5489,
      "다니": 5490,
      "가는": 5491,
      "대박": 5492,
      "아닌": 5493,
      "다녀": 5494,
      "##봤어": 5495,
      "##면서": 5496,
      "공부": 5497,
      "좋아해": 5498,
      "별로": 5499,
      "##이네": 5500,
      "같아요": 5501,
      "##지고": 5502,
      "했어": 5503,
      "그럴": 5504,
      "##에도": 5505,
      "머리": 5506,
      "조금": 5507,
      "있지": 5508,
      "아파": 5509,
      "##중에": 5510,
      "재미": 5511,
      "문제": 5512,
      "예전": 5513,
      "##리는": 5514,
      "있는데": 5515,
      "##으니까": 5516,
      "그렇지": 5517,
      "무서": 5518,
      "하더라": 5519,
      "##나라": 5520,
      "생각해": 5521,
      "아빠": 5522,
      "뭔가": 5523,
      "사람이": 5524,
      "걱정": 5525,
      "많아": 5526,
      "##ㅠㅠ": 5527,
      "빨리": 5528,
      "##하는데": 5529,
      "##이가": 5530,
      "거의": 5531,
      "그런가": 5532,
      "좋겠다": 5533,
      "있을": 5534,
      "얼마나": 5535,
      "이상": 5536,
      "다행": 5537,
      "전에": 5538,
      "뭐야": 5539,
      "##라서": 5540,
      "가면": 5541,
      "집에": 5542,
      "했는데": 5543,
      "##이면": 5544,
      "##자기": 5545,
      "없는": 5546,
      "혼자": 5547,
      "##심히": 5548,
      "나가": 5549,
      "필요": 5550,
      "신기": 5551,
      "있어서": 5552,
      "##워서": 5553,
      "##하네": 5554,
      "요즘은": 5555,
      "고양": 5556,
      "나중에": 5557,
      "저는": 5558,
      "찾아": 5559,
      "우리나라": 5560,
      "거지": 5561,
      "갑자기": 5562,
      "나왔": 5563,
      "배우": 5564,
      "##이라고": 5565,
      "싫어": 5566,
      "느낌": 5567,
      "만들": 5568,
      "되는": 5569,
      "부모": 5570,
      "맨날": 5571,
      "드라": 5572,
      "##00": 5573,
      "버스": 5574,
      "사고": 5575,
      "어제": 5576,
      "바로": 5577,
      "열심히": 5578,
      "원래": 5579,
      "챙겨": 5580,
      "있었": 5581,
      "사람들": 5582,
      "어때": 5583,
      "먹는": 5584,
      "##나요": 5585,
      "당연": 5586,
      "백신": 5587,
      "가을": 5588,
      "##적으로": 5589,
      "수도": 5590,
      "##친구": 5591,
      "##지도": 5592,
      "타고": 5593,
      "내일": 5594,
      "얘기": 5595,
      "일단": 5596,
      "있으면": 5597,
      "동생": 5598,
      "보는": 5599,
      "그것도": 5600,
      "그렇구나": 5601,
      "대단": 5602,
      "맞아요": 5603,
      "병원": 5604,
      "##대로": 5605,
      "##라도": 5606,
      "##처럼": 5607,
      "마음": 5608,
      "##세요": 5609,
      "피부": 5610,
      "저도": 5611,
      "##래도": 5612,
      "만나": 5613,
      "##렇게": 5614,
      "중요": 5615,
      "집에서": 5616,
      "않을까": 5617,
      "시작": 5618,
      "안되": 5619,
      "드라마": 5620,
      "고양이": 5621,
      "아침": 5622,
      "아프": 5623,
      "##했는데": 5624,
      "##시간": 5625,
      "몰라": 5626,
      "말고": 5627,
      "그런데": 5628,
      "알려": 5629,
      "##이트": 5630,
      "역시": 5631,
      "운전": 5632,
      "있나": 5633,
      "##리가": 5634,
      "부모님": 5635,
      "##다니": 5636,
      "가능": 5637,
      "많은": 5638,
      "##한데": 5639,
      "있고": 5640,
      "##았는데": 5641,
      "없어서": 5642,
      "##주도": 5643,
      "해도": 5644,
      "나와": 5645,
      "사람들이": 5646,
      "하긴": 5647,
      "추천": 5648,
      "고민": 5649,
      "봤는데": 5650,
      "가자": 5651,
      "좋을": 5652,
      "알바": 5653,
      "사실": 5654,
      "자기": 5655,
      "##스크": 5656,
      "어려": 5657,
      "누나": 5658,
      "나온": 5659,
      "##마다": 5660,
      "일본": 5661,
      "중국": 5662,
      "너도": 5663,
      "아파트": 5664,
      "사는": 5665,
      "여름": 5666,
      "시켜": 5667,
      "##에요": 5668,
      "사진": 5669,
      "아냐": 5670,
      "가격": 5671,
      "서울": 5672,
      "벌써": 5673,
      "하루": 5674,
      "##었지": 5675,
      "학교": 5676,
      "##더니": 5677,
      "저녁": 5678,
      "이렇게": 5679,
      "##만원": 5680,
      "되게": 5681,
      "보내": 5682,
      "지금은": 5683,
      "좋아하": 5684,
      "받아": 5685,
      "한데": 5686,
      "궁금": 5687,
      "준비": 5688,
      "학원": 5689,
      "가야": 5690,
      "최고": 5691,
      "나이": 5692,
      "##주는": 5693,
      "제주도": 5694,
      "애들": 5695,
      "있다": 5696,
      "좋아하는": 5697,
      "먹을": 5698,
      "옛날": 5699,
      "저번": 5700,
      "항상": 5701,
      "스트": 5702,
      "혹시": 5703,
      "##으니": 5704,
      "주말": 5705,
      "들어가": 5706,
      "일이": 5707,
      "##이어": 5708,
      "건가": 5709,
      "##하기": 5710,
      "관리": 5711,
      "##머니": 5712,
      "나오는": 5713,
      "##라는": 5714,
      "아마": 5715,
      "너네": 5716,
      "몰랐": 5717,
      "미국": 5718,
      "##습니다": 5719,
      "음식": 5720,
      "돌아": 5721,
      "##이는": 5722,
      "##려나": 5723,
      "아니면": 5724,
      "##다던데": 5725,
      "인터": 5726,
      "한국": 5727,
      "가끔": 5728,
      "##더라구요": 5729,
      "##져서": 5730,
      "##나봐": 5731,
      "말이야": 5732,
      "아니고": 5733,
      "스트레": 5734,
      "힘들어": 5735,
      "무섭": 5736,
      "싶은": 5737,
      "##이고": 5738,
      "##적인": 5739,
      "많아서": 5740,
      "어릴": 5741,
      "뭐가": 5742,
      "예전에": 5743,
      "아무래도": 5744,
      "물어": 5745,
      "조심": 5746,
      "##시는": 5747,
      "생활": 5748,
      "좋다": 5749,
      "보니까": 5750,
      "##봤는데": 5751,
      "싶은데": 5752,
      "연애": 5753,
      "##있어": 5754,
      "유명": 5755,
      "노래": 5756,
      "말이": 5757,
      "장난": 5758,
      "##학교": 5759,
      "올라": 5760,
      "귀여": 5761,
      "세상": 5762,
      "이름": 5763,
      "나라": 5764,
      "아주": 5765,
      "기분": 5766,
      "이미": 5767,
      "귀찮": 5768,
      "인터넷": 5769,
      "##한다": 5770,
      "배달": 5771,
      "##정도": 5772,
      "##려면": 5773,
      "때는": 5774,
      "##어나": 5775,
      "살아": 5776,
      "##어야": 5777,
      "하더라고": 5778,
      "난리": 5779,
      "관심": 5780,
      "어렵": 5781,
      "##해요": 5782,
      "동물": 5783,
      "##하긴": 5784,
      "##겠어요": 5785,
      "##가는": 5786,
      "##하더라": 5787,
      "##인이": 5788,
      "##지가": 5789,
      "하던데": 5790,
      "그걸": 5791,
      "알고": 5792,
      "##기로": 5793,
      "맞어": 5794,
      "되면": 5795,
      "##였어": 5796,
      "##봐야": 5797,
      "떨어": 5798,
      "아직도": 5799,
      "누가": 5800,
      "다이어": 5801,
      "괜찮아": 5802,
      "재밌어": 5803,
      "귀엽": 5804,
      "다르": 5805,
      "지하": 5806,
      "해외": 5807,
      "화장": 5808,
      "스트레스": 5809,
      "맞다": 5810,
      "##려서": 5811,
      "##조건": 5812,
      "쇼핑": 5813,
      "얼굴": 5814,
      "다이어트": 5815,
      "##이었": 5816,
      "기다": 5817,
      "끝나": 5818,
      "##만에": 5819,
      "같다": 5820,
      "무조건": 5821,
      "비슷": 5822,
      "이거": 5823,
      "주변": 5824,
      "##하니까": 5825,
      "매일": 5826,
      "너희": 5827,
      "시간이": 5828,
      "만화": 5829,
      "있잖아": 5830,
      "이야": 5831,
      "부럽": 5832,
      "새로": 5833,
      "마스크": 5834,
      "유튜": 5835,
      "프로": 5836,
      "놀러": 5837,
      "맞는": 5838,
      "한다": 5839,
      "텐데": 5840,
      "##텐데": 5841,
      "누구": 5842,
      "##해도": 5843,
      "저번에": 5844,
      "없지": 5845,
      "있어요": 5846,
      "20": 5847,
      "사랑": 5848,
      "##같아": 5849,
      "먹으면": 5850,
      "지하철": 5851,
      "갔다": 5852,
      "여기": 5853,
      "남편": 5854,
      "##보자": 5855,
      "영어": 5856,
      "##이라도": 5857,
      "보여": 5858,
      "약간": 5859,
      "나랑": 5860,
      "카페": 5861,
      "뉴스": 5862,
      "좋은데": 5863,
      "시험": 5864,
      "##생님": 5865,
      "아하": 5866,
      "연락": 5867,
      "##게임": 5868,
      "재미있": 5869,
      "너가": 5870,
      "얼른": 5871,
      "캠핑": 5872,
      "건데": 5873,
      "중에": 5874,
      "지나": 5875,
      "교육": 5876,
      "##들이랑": 5877,
      "우리는": 5878,
      "보통": 5879,
      "##거나": 5880,
      "그만": 5881,
      "아는": 5882,
      "모르겠어": 5883,
      "불편": 5884,
      "해주": 5885,
      "있음": 5886,
      "오랜": 5887,
      "##겠는데": 5888,
      "출근": 5889,
      "##는게": 5890,
      "되지": 5891,
      "##보면": 5892,
      "애기": 5893,
      "##징어": 5894,
      "무서워": 5895,
      "스타": 5896,
      "아니라": 5897,
      "좋겠어": 5898,
      "커피": 5899,
      "이용": 5900,
      "하니까": 5901,
      "엄마가": 5902,
      "##길래": 5903,
      "최근": 5904,
      "선생님": 5905,
      "거기서": 5906,
      "어디서": 5907,
      "아아": 5908,
      "고마": 5909,
      "##줄게": 5910,
      "소리": 5911,
      "위험": 5912,
      "자격": 5913,
      "따라": 5914,
      "알지": 5915,
      "돈이": 5916,
      "확실": 5917,
      "산책": 5918,
      "해야지": 5919,
      "##구만": 5920,
      "##졌어": 5921,
      "외국": 5922,
      "동네": 5923,
      "미용": 5924,
      "우와": 5925,
      "전기": 5926,
      "##이래": 5927,
      "가지고": 5928,
      "봐야": 5929,
      "##냐고": 5930,
      "다음에": 5931,
      "추워": 5932,
      "##가서": 5933,
      "하자": 5934,
      "유튜브": 5935,
      "이게": 5936,
      "말하는": 5937,
      "##에서는": 5938,
      "키워": 5939,
      "어느": 5940,
      "오징어": 5941,
      "따로": 5942,
      "전화": 5943,
      "비행": 5944,
      "축구": 5945,
      "와서": 5946,
      "##하자": 5947,
      "##기를": 5948,
      "힘든": 5949,
      "이유": 5950,
      "##한다고": 5951,
      "##보는": 5952,
      "##력이": 5953,
      "##요일": 5954,
      "가까": 5955,
      "##스트": 5956,
      "##에서도": 5957,
      "##볼까": 5958,
      "해보고": 5959,
      "인정": 5960,
      "하네": 5961,
      "자격증": 5962,
      "먹었": 5963,
      "생각보다": 5964,
      "생겼": 5965,
      "안돼": 5966,
      "반려": 5967,
      "보이": 5968,
      "아닐": 5969,
      "30": 5970,
      "고생": 5971,
      "이사": 5972,
      "밖에": 5973,
      "아닌가": 5974,
      "기사": 5975,
      "등산": 5976,
      "##이라서": 5977,
      "여자친구": 5978,
      "오는": 5979,
      "점심": 5980,
      "##스터": 5981,
      "없다": 5982,
      "효과": 5983,
      "아까": 5984,
      "그런거": 5985,
      "했지": 5986,
      "##여행": 5987,
      "티비": 5988,
      "##하면서": 5989,
      "고마워": 5990,
      "치킨": 5991,
      "멋있": 5992,
      "한다고": 5993,
      "자꾸": 5994,
      "##하나": 5995,
      "취업": 5996,
      "선물": 5997,
      "생기": 5998,
      "전세": 5999,
      "보다": 6000,
      "당연히": 6001,
      "##한거": 6002,
      "같애": 6003,
      "우리도": 6004,
      "##같은": 6005,
      "##어도": 6006,
      "먹었어": 6007,
      "없이": 6008,
      "않았": 6009,
      "신경": 6010,
      "##는지": 6011,
      "남자친구": 6012,
      "특히": 6013,
      "먼저": 6014,
      "않나": 6015,
      "하지만": 6016,
      "행복": 6017,
      "당근": 6018,
      "그렇긴": 6019,
      "오면": 6020,
      "##주고": 6021,
      "보러": 6022,
      "여러": 6023,
      "아님": 6024,
      "##줘야": 6025,
      "##지면": 6026,
      "걸로": 6027,
      "선수": 6028,
      "##겠네요": 6029,
      "서로": 6030,
      "내용": 6031,
      "어쩔": 6032,
      "오랜만에": 6033,
      "기대": 6034,
      "맞지": 6035,
      "은근": 6036,
      "좋았": 6037,
      "##장이": 6038,
      "##자가": 6039,
      "##인지": 6040,
      "오늘은": 6041,
      "있었어": 6042,
      "웅웅": 6043,
      "##리면": 6044,
      "##군요": 6045,
      "오오": 6046,
      "없고": 6047,
      "있다고": 6048,
      "그니깐": 6049,
      "달라": 6050,
      "보네": 6051,
      "낚시": 6052,
      "##하니": 6053,
      "이해": 6054,
      "##했다": 6055,
      "##러워": 6056,
      "없는데": 6057,
      "가장": 6058,
      "근처": 6059,
      "해봐": 6060,
      "##하잖아": 6061,
      "시키": 6062,
      "날씨가": 6063,
      "군인": 6064,
      "내년": 6065,
      "사이": 6066,
      "사람도": 6067,
      "같아서": 6068,
      "바람": 6069,
      "하다": 6070,
      "부산": 6071,
      "금방": 6072,
      "미안": 6073,
      "##밖에": 6074,
      "가보고": 6075,
      "수영": 6076,
      "결혼식": 6077,
      "받고": 6078,
      "직접": 6079,
      "##에게": 6080,
      "좋더라": 6081,
      "보험": 6082,
      "주는": 6083,
      "##전에": 6084,
      "맛있는": 6085,
      "안나": 6086,
      "확실히": 6087,
      "되고": 6088,
      "알았": 6089,
      "괜찮은": 6090,
      "기억이": 6091,
      "쓰고": 6092,
      "생각이": 6093,
      "알았어": 6094,
      "사람은": 6095,
      "넷플": 6096,
      "쓰는": 6097,
      "##는거야": 6098,
      "훈련": 6099,
      "##건가": 6100,
      "어어": 6101,
      "비싼": 6102,
      "사회": 6103,
      "##었다": 6104,
      "퇴근": 6105,
      "주말에": 6106,
      "이쁘": 6107,
      "잘못": 6108,
      "당연하지": 6109,
      "둘이": 6110,
      "배워": 6111,
      "있을까": 6112,
      "사용": 6113,
      "##으러": 6114,
      "필수": 6115,
      "##해야지": 6116,
      "주고": 6117,
      "입고": 6118,
      "##같이": 6119,
      "나서": 6120,
      "##여서": 6121,
      "##ㅜㅜ": 6122,
      "우리가": 6123,
      "##일이": 6124,
      "연예": 6125,
      "수술": 6126,
      "예약": 6127,
      "이야기": 6128,
      "##동물": 6129,
      "##었나": 6130,
      "마자": 6131,
      "최근에": 6132,
      "키우는": 6133,
      "정신": 6134,
      "거래": 6135,
      "##이잖아": 6136,
      "이러": 6137,
      "직장": 6138,
      "##시고": 6139,
      "아닌데": 6140,
      "##해줘": 6141,
      "절대": 6142,
      "제대로": 6143,
      "해요": 6144,
      "어쩌": 6145,
      "맞고": 6146,
      "추억": 6147,
      "##어가": 6148,
      "가지": 6149,
      "없을": 6150,
      "아침에": 6151,
      "언니는": 6152,
      "들고": 6153,
      "친구가": 6154,
      "사람들은": 6155,
      "보니": 6156,
      "애들이": 6157,
      "##운데": 6158,
      "만들어": 6159,
      "주택": 6160,
      "수가": 6161,
      "##이긴": 6162,
      "사야": 6163,
      "##더라고요": 6164,
      "바다": 6165,
      "인기": 6166,
      "##이니까": 6167,
      "##자나": 6168,
      "##하다고": 6169,
      "부럽다": 6170,
      "살고": 6171,
      "된다": 6172,
      "청소": 6173,
      "대학": 6174,
      "##끼리": 6175,
      "##거지": 6176,
      "캐릭": 6177,
      "미리": 6178,
      "오호": 6179,
      "하잖아": 6180,
      "기본": 6181,
      "일찍": 6182,
      "키우고": 6183,
      "못해": 6184,
      "##드라": 6185,
      "##르고": 6186,
      "한번도": 6187,
      "때도": 6188,
      "##렸을": 6189,
      "##기만": 6190,
      "##보니": 6191,
      "다양": 6192,
      "##가지": 6193,
      "지원": 6194,
      "해봤어": 6195,
      "##와서": 6196,
      "할인": 6197,
      "아예": 6198,
      "##전거": 6199,
      "있더라": 6200,
      "저렴": 6201,
      "없네": 6202,
      "영상": 6203,
      "지금도": 6204,
      "웃기": 6205,
      "##스타": 6206,
      "편이야": 6207,
      "##봐야겠다": 6208,
      "저희": 6209,
      "있으": 6210,
      "사서": 6211,
      "아쉽": 6212,
      "계획": 6213,
      "소개": 6214,
      "주문": 6215,
      "내려": 6216,
      "하기": 6217,
      "다녔": 6218,
      "있어야": 6219,
      "받는": 6220,
      "##예요": 6221,
      "##라인": 6222,
      "접종": 6223,
      "곳이": 6224,
      "우린": 6225,
      "##했지": 6226,
      "##사람": 6227,
      "되는데": 6228,
      "잘해": 6229,
      "들었어": 6230,
      "##하시": 6231,
      "나름": 6232,
      "캐릭터": 6233,
      "치료": 6234,
      "##이라는": 6235,
      "구경": 6236,
      "비행기": 6237,
      "할머니": 6238,
      "가기": 6239,
      "종류": 6240,
      "교통": 6241,
      "피곤": 6242,
      "휴가": 6243,
      "다닐": 6244,
      "않았어": 6245,
      "스포": 6246,
      "먹어야": 6247,
      "##리도": 6248,
      "야구": 6249,
      "##원도": 6250,
      "아버": 6251,
      "니가": 6252,
      "자전거": 6253,
      "점점": 6254,
      "올해": 6255,
      "어머": 6256,
      "##등학교": 6257,
      "쇼핑몰": 6258,
      "연예인": 6259,
      "맛집": 6260,
      "세계": 6261,
      "중이야": 6262,
      "##수도": 6263,
      "있으니까": 6264,
      "우리집": 6265,
      "자동": 6266,
      "반려동물": 6267,
      "2차": 6268,
      "겁나": 6269,
      "쿠팡": 6270,
      "##사가": 6271,
      "##지막": 6272,
      "##드는": 6273,
      "##었던": 6274,
      "11": 6275,
      "##님이": 6276,
      "가져": 6277,
      "있대": 6278,
      "받았": 6279,
      "##이크": 6280,
      "해본": 6281,
      "나와서": 6282,
      "에이": 6283,
      "예쁘": 6284,
      "웹툰": 6285,
      "알려줘": 6286,
      "##였는데": 6287,
      "주식": 6288,
      "마지막": 6289,
      "어린": 6290,
      "수업": 6291,
      "##스가": 6292,
      "##성이": 6293,
      "솔직": 6294,
      "영화관": 6295,
      "많더라": 6296,
      "작은": 6297,
      "##개월": 6298,
      "##이었어": 6299,
      "방법": 6300,
      "같던데": 6301,
      "안좋": 6302,
      "웃겨": 6303,
      "##보다는": 6304,
      "1년": 6305,
      "월급": 6306,
      "일어나": 6307,
      "##라이": 6308,
      "아닐까": 6309,
      "따뜻": 6310,
      "어렸을": 6311,
      "##수가": 6312,
      "결국": 6313,
      "##겠지만": 6314,
      "남친": 6315,
      "짜증": 6316,
      "자연": 6317,
      "집은": 6318,
      "할까": 6319,
      "학생": 6320,
      "인생": 6321,
      "택시": 6322,
      "##가고": 6323,
      "알겠어": 6324,
      "##르는": 6325,
      "아르": 6326,
      "골프": 6327,
      "재밌게": 6328,
      "추석": 6329,
      "하면서": 6330,
      "##제로": 6331,
      "부분": 6332,
      "##볼게": 6333,
      "부담": 6334,
      "어울": 6335,
      "좋고": 6336,
      "게임이": 6337,
      "감기": 6338,
      "사건": 6339,
      "솔직히": 6340,
      "##리지": 6341,
      "##셔서": 6342,
      "주로": 6343,
      "쉽지": 6344,
      "적이": 6345,
      "유행": 6346,
      "모르겠네": 6347,
      "엄마는": 6348,
      "아니지": 6349,
      "##웠어": 6350,
      "신청": 6351,
      "대신": 6352,
      "앞으로": 6353,
      "크게": 6354,
      "##가면": 6355,
      "친구들": 6356,
      "못하": 6357,
      "좋긴": 6358,
      "##보니까": 6359,
      "방송": 6360,
      "냄새": 6361,
      "##바이트": 6362,
      "요즘에": 6363,
      "경우": 6364,
      "지내": 6365,
      "괜히": 6366,
      "구매": 6367,
      "100": 6368,
      "나올": 6369,
      "##고기": 6370,
      "아르바이트": 6371,
      "나면": 6372,
      "##랜드": 6373,
      "12": 6374,
      "##비가": 6375,
      "##되는": 6376,
      "##그램": 6377,
      "가게": 6378,
      "샀어": 6379,
      "##주일": 6380,
      "없으면": 6381,
      "중고": 6382,
      "##스럽": 6383,
      "큰일": 6384,
      "##이에요": 6385,
      "왔어": 6386,
      "월세": 6387,
      "시원": 6388,
      "도움": 6389,
      "##레이": 6390,
      "##싶어": 6391,
      "##싶다": 6392,
      "딱히": 6393,
      "비가": 6394,
      "하시": 6395,
      "##라리": 6396,
      "##다더라": 6397,
      "##이버": 6398,
      "어디로": 6399,
      "그나": 6400,
      "##했네": 6401,
      "차가": 6402,
      "핸드": 6403,
      "##할까": 6404,
      "나한테": 6405,
      "##라면": 6406,
      "생각나": 6407,
      "회식": 6408,
      "##주면": 6409,
      "늦게": 6410,
      "했던": 6411,
      "##보단": 6412,
      "관련": 6413,
      "##있는": 6414,
      "좋아하는데": 6415,
      "맛있어": 6416,
      "아들": 6417,
      "기억나": 6418,
      "##주에": 6419,
      "##생활": 6420,
      "기차": 6421,
      "데리고": 6422,
      "있었는데": 6423,
      "아니가": 6424,
      "##려구": 6425,
      "집이": 6426,
      "##해지": 6427,
      "편의": 6428,
      "다행이다": 6429,
      "해봤": 6430,
      "주변에": 6431,
      "바뀌": 6432,
      "아빠가": 6433,
      "귀여워": 6434,
      "##렸어": 6435,
      "##되면": 6436,
      "##다면": 6437,
      "차라리": 6438,
      "##먹고": 6439,
      "##리어": 6440,
      "##히려": 6441,
      "오빠는": 6442,
      "다니는": 6443,
      "있긴": 6444,
      "작년": 6445,
      "말해": 6446,
      "재밌는": 6447,
      "검색": 6448,
      "오히려": 6449,
      "모든": 6450,
      "하려고": 6451,
      "보는데": 6452,
      "많고": 6453,
      "##아야": 6454,
      "그래야": 6455,
      "에어": 6456,
      "요새는": 6457,
      "고기": 6458,
      "많지": 6459,
      "##수록": 6460,
      "광고": 6461,
      "같긴": 6462,
      "분위": 6463,
      "피해": 6464,
      "##치는": 6465,
      "없나": 6466,
      "##하는거": 6467,
      "돈을": 6468,
      "아픈": 6469,
      "좋아서": 6470,
      "배송": 6471,
      "헤어": 6472,
      "##라니": 6473,
      "##리를": 6474,
      "갔는데": 6475,
      "일반": 6476,
      "##했던": 6477,
      "제가": 6478,
      "느껴": 6479,
      "봐요": 6480,
      "##건데": 6481,
      "자유": 6482,
      "현실": 6483,
      "자동차": 6484,
      "영양": 6485,
      "##퓨터": 6486,
      "안해": 6487,
      "##원이": 6488,
      "군대에서": 6489,
      "해줘": 6490,
      "##리스": 6491,
      "그러고": 6492,
      "전기차": 6493,
      "어머니": 6494,
      "가르": 6495,
      "##된다": 6496,
      "생긴": 6497,
      "싸우": 6498,
      "##할게": 6499,
      "일주일": 6500,
      "컴퓨터": 6501,
      "봐도": 6502,
      "요즘엔": 6503,
      "##작용": 6504,
      "주인": 6505,
      "되어": 6506,
      "안타": 6507,
      "문제가": 6508,
      "유명한": 6509,
      "도전": 6510,
      "적당": 6511,
      "자취": 6512,
      "##식이": 6513,
      "옛날에": 6514,
      "##보네": 6515,
      "갔어": 6516,
      "도와": 6517,
      "봐서": 6518,
      "##하려고": 6519,
      "싶네": 6520,
      "여친": 6521,
      "어려워": 6522,
      "잠깐": 6523,
      "스포츠": 6524,
      "예능": 6525,
      "같더라": 6526,
      "그것": 6527,
      "어떡": 6528,
      "지역": 6529,
      "계절": 6530,
      "부작용": 6531,
      "보기": 6532,
      "번도": 6533,
      "이는": 6534,
      "인테": 6535,
      "나쁘": 6536,
      "빠르": 6537,
      "##시에": 6538,
      "##대요": 6539,
      "모르겠다": 6540,
      "##스는": 6541,
      "보자": 6542,
      "싶어서": 6543,
      "않은": 6544,
      "않고": 6545,
      "해보": 6546,
      "##적이": 6547,
      "##었어요": 6548,
      "신기하다": 6549,
      "핸드폰": 6550,
      "가야지": 6551,
      "대한": 6552,
      "##점이": 6553,
      "그런지": 6554,
      "개인": 6555,
      "네이버": 6556,
      "그거는": 6557,
      "새벽": 6558,
      "##하던데": 6559,
      "중요한": 6560,
      "타는": 6561,
      "##오는": 6562,
      "정도면": 6563,
      "2년": 6564,
      "데려": 6565,
      "사면": 6566,
      "애들은": 6567,
      "노력": 6568,
      "그러니깐": 6569,
      "미용실": 6570,
      "그랬어": 6571,
      "훨씬": 6572,
      "##이도": 6573,
      "있던데": 6574,
      "물건": 6575,
      "받을": 6576,
      "직업": 6577,
      "##하겠다": 6578,
      "##왔어": 6579,
      "프로그램": 6580,
      "안전": 6581,
      "##이라니": 6582,
      "있네": 6583,
      "주차": 6584,
      "느낌이": 6585,
      "봐야겠다": 6586,
      "##학생": 6587,
      "않을": 6588,
      "카드": 6589,
      "뭔데": 6590,
      "간다": 6591,
      "몸이": 6592,
      "때가": 6593,
      "선택": 6594,
      "##봐서": 6595,
      "그나마": 6596,
      "라면": 6597,
      "생일": 6598,
      "신랑": 6599,
      "잘하는": 6600,
      "##오면": 6601,
      "그렇고": 6602,
      "포기": 6603,
      "하는거": 6604,
      "눈이": 6605,
      "맞춰": 6606,
      "위드": 6607,
      "##대가": 6608,
      "힘들지": 6609,
      "겨울에": 6610,
      "많은데": 6611,
      "자체": 6612,
      "성공": 6613,
      "##소리": 6614,
      "거는": 6615,
      "돼서": 6616,
      "부족": 6617,
      "심각": 6618,
      "##동안": 6619,
      "사라": 6620,
      "##상이": 6621,
      "##까지는": 6622,
      "마음이": 6623,
      "감사": 6624,
      "이유가": 6625,
      "간식": 6626,
      "모르는": 6627,
      "보드": 6628,
      "##었잖아": 6629,
      "꾸준": 6630,
      "자세": 6631,
      "니는": 6632,
      "됐어": 6633,
      "알았는데": 6634,
      "올랐": 6635,
      "좋았어": 6636,
      "##정이": 6637,
      "성격": 6638,
      "기념": 6639,
      "말도": 6640,
      "염색": 6641,
      "##합니다": 6642,
      "하겠다": 6643,
      "행님": 6644,
      "화이": 6645,
      "아이고": 6646,
      "관심이": 6647,
      "추천해": 6648,
      "걸리": 6649,
      "##하러": 6650,
      "피부과": 6651,
      "##난다": 6652,
      "좋아해서": 6653,
      "이제는": 6654,
      "같기도": 6655,
      "경험": 6656,
      "상황": 6657,
      "헬스": 6658,
      "확진": 6659,
      "스타일": 6660,
      "##동산": 6661,
      "게임을": 6662,
      "거라": 6663,
      "글쎄": 6664,
      "태풍": 6665,
      "편해": 6666,
      "##만한": 6667,
      "마시": 6668,
      "넷플릭": 6669,
      "괜찮을": 6670,
      "확인": 6671,
      "ㄷㄷ": 6672,
      "##저씨": 6673,
      "##겠더라": 6674,
      "회사에서": 6675,
      "동안": 6676,
      "##가지고": 6677,
      "지난": 6678,
      "시즌": 6679,
      "##으려고": 6680,
      "##부분": 6681,
      "50": 6682,
      "검사": 6683,
      "좋다고": 6684,
      "##놓고": 6685,
      "15": 6686,
      "##때문에": 6687,
      "가격이": 6688,
      "미쳤": 6689,
      "다니고": 6690,
      "연기": 6691,
      "건조": 6692,
      "##거리": 6693,
      "나만": 6694,
      "아쉬": 6695,
      "전혀": 6696,
      "##도가": 6697,
      "애니": 6698,
      "##화가": 6699,
      "하나도": 6700,
      "많았": 6701,
      "##림픽": 6702,
      "똑같": 6703,
      "##아니": 6704,
      "##들을": 6705,
      "이건": 6706,
      "있구나": 6707,
      "##동생": 6708,
      "가봤어": 6709,
      "자신": 6710,
      "했다": 6711,
      "상관": 6712,
      "이래": 6713,
      "나오면": 6714,
      "시골": 6715,
      "##셨어요": 6716,
      "같네": 6717,
      "택배": 6718,
      "##제가": 6719,
      "하게": 6720,
      "좋네": 6721,
      "하니": 6722,
      "조심해야": 6723,
      "경기": 6724,
      "호텔": 6725,
      "인테리어": 6726,
      "새로운": 6727,
      "때마다": 6728,
      "명절": 6729,
      "정도는": 6730,
      "놓고": 6731,
      "업무": 6732,
      "한대": 6733,
      "좋아요": 6734,
      "생각하면": 6735,
      "편의점": 6736,
      "기회": 6737,
      "어른": 6738,
      "필요한": 6739,
      "##교육": 6740,
      "##아버": 6741,
      "기간": 6742,
      "##디어": 6743,
      "아기": 6744,
      "##장님": 6745,
      "##입니다": 6746,
      "오늘도": 6747,
      "앞에": 6748,
      "화장실": 6749,
      "생겨": 6750,
      "꾸준히": 6751,
      "안에": 6752,
      "파는": 6753,
      "##셨어": 6754,
      "배우고": 6755,
      "갈래": 6756,
      "맞았": 6757,
      "오고": 6758,
      "##는다": 6759,
      "##느라": 6760,
      "갈까": 6761,
      "마트": 6762,
      "뭐든": 6763,
      "##기에": 6764,
      "##가요": 6765,
      "##미가": 6766,
      "저녁에": 6767,
      "##사는": 6768,
      "당장": 6769,
      "아저씨": 6770,
      "대중": 6771,
      "제발": 6772,
      "게임은": 6773,
      "힘드": 6774,
      "사람들도": 6775,
      "##잖아요": 6776,
      "국내": 6777,
      "부동산": 6778,
      "강원도": 6779,
      "넷플릭스": 6780,
      "##했대": 6781,
      "이것": 6782,
      "ㅡㅡ": 6783,
      "답답": 6784,
      "가본": 6785,
      "신고": 6786,
      "##하다가": 6787,
      "##려야": 6788,
      "이젠": 6789,
      "##자는": 6790,
      "보면서": 6791,
      "말을": 6792,
      "##치가": 6793,
      "##명이": 6794,
      "가는데": 6795,
      "##겠죠": 6796,
      "가도": 6797,
      "같음": 6798,
      "이후": 6799,
      "평생": 6800,
      "적은": 6801,
      "싶어요": 6802,
      "화장품": 6803,
      "듣고": 6804,
      "잘생": 6805,
      "하늘": 6806,
      "갖고": 6807,
      "공군": 6808,
      "맞네": 6809,
      "해결": 6810,
      "나이가": 6811,
      "기름": 6812,
      "되나": 6813,
      "##마트": 6814,
      "햄스터": 6815,
      "##장에서": 6816,
      "대출": 6817,
      "언니가": 6818,
      "도시": 6819,
      "만든": 6820,
      "##크림": 6821,
      "봤지": 6822,
      "조카": 6823,
      "환경": 6824,
      "이상한": 6825,
      "가려고": 6826,
      "일을": 6827,
      "##타민": 6828,
      "##000": 6829,
      "만족": 6830,
      "실제로": 6831,
      "모두": 6832,
      "##까요": 6833,
      "##더나": 6834,
      "바꾸": 6835,
      "그러게요": 6836,
      "##감이": 6837,
      "나왔어": 6838,
      "조용": 6839,
      "그리": 6840,
      "패딩": 6841,
      "##가가": 6842,
      "잡아": 6843,
      "맛이": 6844,
      "위해": 6845,
      "차이": 6846,
      "무섭다": 6847,
      "사기": 6848,
      "안가": 6849,
      "올림픽": 6850,
      "자고": 6851,
      "비슷한": 6852,
      "알아서": 6853,
      "온라인": 6854,
      "감독": 6855,
      "바꿔": 6856,
      "저런": 6857,
      "없음": 6858,
      "그렇다고": 6859,
      "밤에": 6860,
      "요리": 6861,
      "##였지": 6862,
      "##퇴근": 6863,
      "상상": 6864,
      "하다가": 6865,
      "대부분": 6866,
      "거리": 6867,
      "머리가": 6868,
      "무서워서": 6869,
      "대단하다": 6870,
      "약속": 6871,
      "어땠": 6872,
      "있겠다": 6873,
      "아니냐": 6874,
      "##로는": 6875,
      "빼고": 6876,
      "면허": 6877,
      "어플": 6878,
      "##다며": 6879,
      "비용": 6880,
      "진짜로": 6881,
      "굳이": 6882,
      "대체": 6883,
      "수학": 6884,
      "받은": 6885,
      "어려운": 6886,
      "없었": 6887,
      "챙기": 6888,
      "##차피": 6889,
      "어차피": 6890,
      "이모": 6891,
      "날이": 6892,
      "느끼": 6893,
      "##다는데": 6894,
      "단풍": 6895,
      "움직": 6896,
      "중간": 6897,
      "오빠가": 6898,
      "넣어": 6899,
      "##먹어": 6900,
      "메뉴": 6901,
      "김치": 6902,
      "연습": 6903,
      "##하기도": 6904,
      "마블": 6905,
      "최대": 6906,
      "##교통": 6907,
      "배고": 6908,
      "영양제": 6909,
      "곳은": 6910,
      "##할때": 6911,
      "엄마도": 6912,
      "##들어": 6913,
      "##으면서": 6914,
      "키울": 6915,
      "##장에": 6916,
      "눈치": 6917,
      "많을": 6918,
      "##는거지": 6919,
      "가을이": 6920,
      "스키": 6921,
      "그래요": 6922,
      "바쁘": 6923,
      "진심": 6924,
      "##하더라고": 6925,
      "비타민": 6926,
      "##되고": 6927,
      "##지지": 6928,
      "##해봐": 6929,
      "재밌을": 6930,
      "이름이": 6931,
      "뭐라고": 6932,
      "어휴": 6933,
      "활동": 6934,
      "있더라고": 6935,
      "모르겠": 6936,
      "세상에": 6937,
      "육아": 6938,
      "대중교통": 6939,
      "바빠": 6940,
      "와우": 6941,
      "거긴": 6942,
      "심해": 6943,
      "불쌍": 6944,
      "영향": 6945,
      "##거든요": 6946,
      "하루에": 6947,
      "국가": 6948,
      "싶었는데": 6949,
      "육군": 6950,
      "되겠다": 6951,
      "오토": 6952,
      "정리": 6953,
      "출퇴근": 6954,
      "##거같아": 6955,
      "넘어": 6956,
      "불안": 6957,
      "있으니": 6958,
      "##걸로": 6959,
      "안하고": 6960,
      "##없이": 6961,
      "끝나고": 6962,
      "취미": 6963,
      "##한대": 6964,
      "먹으러": 6965,
      "그러네": 6966,
      "것이": 6967,
      "평소": 6968,
      "나갔": 6969,
      "##했어요": 6970,
      "여름에": 6971,
      "몰랐어": 6972,
      "했잖아": 6973,
      "했었어": 6974,
      "##더만": 6975,
      "뭔지": 6976,
      "성형": 6977,
      "받아서": 6978,
      "데이트": 6979,
      "돈도": 6980,
      "유럽": 6981,
      "된다고": 6982,
      "##차가": 6983,
      "대박이다": 6984,
      "거기에": 6985,
      "매력": 6986,
      "없어요": 6987,
      "##하네요": 6988,
      "나오고": 6989,
      "##스도": 6990,
      "예쁜": 6991,
      "40": 6992,
      "결제": 6993,
      "맞나": 6994,
      "먹어서": 6995,
      "아무리": 6996,
      "신기해": 6997,
      "동생이": 6998,
      "눈물": 6999,
      "되니까": 7000,
      "##지어": 7001,
      "싫다": 7002,
      "후회": 7003,
      "##가봐": 7004,
      "것만": 7005,
      "때문": 7006,
      "충분": 7007,
      "##했다고": 7008,
      "##었을": 7009,
      "대단한": 7010,
      "달에": 7011,
      "이쁜": 7012,
      "주에": 7013,
      "집값": 7014,
      "했나": 7015,
      "그걸로": 7016,
      "근처에": 7017,
      "완젼": 7018,
      "위해서": 7019,
      "##거래": 7020,
      "효과가": 7021,
      "응원": 7022,
      "일어": 7023,
      "정보": 7024,
      "걸어": 7025,
      "발라": 7026,
      "무서운": 7027,
      "나쁘지": 7028,
      "없었어": 7029,
      "함께": 7030,
      "##지를": 7031,
      "##우면": 7032,
      "이가": 7033,
      "전쟁": 7034,
      "먹은": 7035,
      "오토바": 7036,
      "##치고": 7037,
      "##그래": 7038,
      "재밌더라": 7039,
      "때부터": 7040,
      "쉽게": 7041,
      "##이네요": 7042,
      "속상": 7043,
      "오르": 7044,
      "##하는게": 7045,
      "모바": 7046,
      "이번엔": 7047,
      "아무것도": 7048,
      "다행이네": 7049,
      "엄마랑": 7050,
      "거임": 7051,
      "재택": 7052,
      "##비도": 7053,
      "운동을": 7054,
      "만났": 7055,
      "힐링": 7056,
      "외모": 7057,
      "##이프": 7058,
      "정도로": 7059,
      "겨울이": 7060,
      "거면": 7061,
      "##만큼": 7062,
      "우선": 7063,
      "##없어": 7064,
      "가봐": 7065,
      "며칠": 7066,
      "못할": 7067,
      "사촌": 7068,
      "인간": 7069,
      "좋겠네": 7070,
      "##수는": 7071,
      "경제": 7072,
      "##장도": 7073,
      "재밌겠다": 7074,
      "했었는데": 7075,
      "##꺼야": 7076,
      "##스러": 7077,
      "먹지": 7078,
      "슬프": 7079,
      "않는": 7080,
      "자기가": 7081,
      "오래됐": 7082,
      "엄청나": 7083,
      "아직은": 7084,
      "시술": 7085,
      "마셔": 7086,
      "배구": 7087,
      "심지어": 7088,
      "타면": 7089,
      "##해주": 7090,
      "##때는": 7091,
      "거기는": 7092,
      "국민": 7093,
      "시리": 7094,
      "##도록": 7095,
      "##었음": 7096,
      "충격": 7097,
      "쿠폰": 7098,
      "##었네": 7099,
      "모바일": 7100,
      "워낙": 7101,
      "이슈": 7102,
      "##프로": 7103,
      "나갈": 7104,
      "부대": 7105,
      "그때는": 7106,
      "많다": 7107,
      "걸려": 7108,
      "##이요": 7109,
      "나가서": 7110,
      "몰랐네": 7111,
      "영화는": 7112,
      "예뻐": 7113,
      "음료": 7114,
      "##보드": 7115,
      "고등학교": 7116,
      "다같이": 7117,
      "정확": 7118,
      "##영화": 7119,
      "그러는": 7120,
      "봐야지": 7121,
      "여유": 7122,
      "유치": 7123,
      "기분이": 7124,
      "나두": 7125,
      "무료": 7126,
      "##머리": 7127,
      "오징어게임": 7128,
      "##했나": 7129,
      "놀이": 7130,
      "살면": 7131,
      "샀는데": 7132,
      "계약": 7133,
      "대구": 7134,
      "멋지": 7135,
      "없잖아": 7136,
      "일하는": 7137,
      "낫지": 7138,
      "한달": 7139,
      "그랬는데": 7140,
      "편하게": 7141,
      "해야겠다": 7142,
      "강아지가": 7143,
      "싸게": 7144,
      "정해": 7145,
      "집중": 7146,
      "형은": 7147,
      "##였나": 7148,
      "에어컨": 7149,
      "둘째": 7150,
      "그러지": 7151,
      "친구는": 7152,
      "먹자": 7153,
      "받았어": 7154,
      "할아버": 7155,
      "그정도": 7156,
      "신혼": 7157,
      "네네": 7158,
      "식당": 7159,
      "해군": 7160,
      "기념일": 7161,
      "##이더라": 7162,
      "먹음": 7163,
      "대충": 7164,
      "뭐지": 7165,
      "자리": 7166,
      "주사": 7167,
      "##나서": 7168,
      "친구들이랑": 7169,
      "못하는": 7170,
      "주면": 7171,
      "카트": 7172,
      "생각을": 7173,
      "아무튼": 7174,
      "건지": 7175,
      "들어서": 7176,
      "제품": 7177,
      "가보": 7178,
      "같고": 7179,
      "경찰": 7180,
      "근무": 7181,
      "드디어": 7182,
      "맞을": 7183,
      "심심": 7184,
      "##이구나": 7185,
      "고맙": 7186,
      "살이": 7187,
      "용돈": 7188,
      "이따": 7189,
      "##했잖아": 7190,
      "좋아하지": 7191,
      "만나서": 7192,
      "모습": 7193,
      "인스타": 7194,
      "##던가": 7195,
      "아이들": 7196,
      "우리나라는": 7197,
      "하러": 7198,
      "피부가": 7199,
      "귀찮아": 7200,
      "##마리": 7201,
      "봐봐": 7202,
      "코로나가": 7203,
      "##스로": 7204,
      "##은거": 7205,
      "##마자": 7206,
      "맞제": 7207,
      "써야": 7208,
      "간단": 7209,
      "숙소": 7210,
      "최고야": 7211,
      "막상": 7212,
      "설마": 7213,
      "생각도": 7214,
      "번씩": 7215,
      "##장은": 7216,
      "집도": 7217,
      "##인은": 7218,
      "가입": 7219,
      "기억에": 7220,
      "힘들다": 7221,
      "멀리": 7222,
      "궁금해": 7223,
      "수준": 7224,
      "추운": 7225,
      "마라": 7226,
      "투자": 7227,
      "##등학생": 7228,
      "안그": 7229,
      "##겠나": 7230,
      "##기고": 7231,
      "10월": 7232,
      "그대로": 7233,
      "중독": 7234,
      "##이었는데": 7235,
      "강아지는": 7236,
      "수능": 7237,
      "재난": 7238,
      "그만큼": 7239,
      "기다려": 7240,
      "가까운": 7241,
      "먹었는데": 7242,
      "맞으면": 7243,
      "이뻐": 7244,
      "북한": 7245,
      "불러": 7246,
      "시끄": 7247,
      "올려": 7248,
      "##까진": 7249,
      "##오고": 7250,
      "옆에": 7251,
      "##인거": 7252,
      "##었대": 7253,
      "##계가": 7254,
      "대기": 7255,
      "게임도": 7256,
      "쉬는": 7257,
      "쓰레": 7258,
      "전문": 7259,
      "했어요": 7260,
      "죽을": 7261,
      "반대": 7262,
      "##리아": 7263,
      "갔을": 7264,
      "근육": 7265,
      "##들한테": 7266,
      "가봤": 7267,
      "공유": 7268,
      "만큼": 7269,
      "10년": 7270,
      "지방": 7271,
      "후기": 7272,
      "##카오": 7273,
      "##분에": 7274,
      "대학교": 7275,
      "상태": 7276,
      "하셨": 7277,
      "모르겠는데": 7278,
      "눈썹": 7279,
      "받으면": 7280,
      "안보": 7281,
      "##인트": 7282,
      "괜찮지": 7283,
      "만드는": 7284,
      "##00원": 7285,
      "신발": 7286,
      "않아서": 7287,
      "되더라": 7288,
      "상품": 7289,
      "##었거든": 7290,
      "전역": 7291,
      "##했을": 7292,
      "##벤트": 7293,
      "대단해": 7294,
      "살짝": 7295,
      "거라고": 7296,
      "토끼": 7297,
      "##이브": 7298,
      "##마켓": 7299,
      "담배": 7300,
      "물고기": 7301,
      "아깝": 7302,
      "자식": 7303,
      "##돼서": 7304,
      "브랜드": 7305,
      "##이니": 7306,
      "인터넷으로": 7307,
      "스토": 7308,
      "##히는": 7309,
      "알아보고": 7310,
      "결정": 7311,
      "지켜": 7312,
      "##해보": 7313,
      "##버스": 7314,
      "##저것": 7315,
      "##인가요": 7316,
      "마음에": 7317,
      "귀여운": 7318,
      "볼까": 7319,
      "아빠는": 7320,
      "찍어": 7321,
      "##구가": 7322,
      "##도로": 7323,
      "##타고": 7324,
      "많잖아": 7325,
      "##학년": 7326,
      "그림": 7327,
      "끝났": 7328,
      "나아": 7329,
      "없다고": 7330,
      "일부": 7331,
      "취향": 7332,
      "편한": 7333,
      "##시아": 7334,
      "##던거": 7335,
      "비싸서": 7336,
      "좋아해요": 7337,
      "빠져": 7338,
      "추워서": 7339,
      "##하지만": 7340,
      "이것저것": 7341,
      "축하": 7342,
      "부러워": 7343,
      "시켰": 7344,
      "재밌지": 7345,
      "궁금하다": 7346,
      "##린다": 7347,
      "##나는": 7348,
      "싶지": 7349,
      "오락": 7350,
      "같지": 7351,
      "깔끔": 7352,
      "매번": 7353,
      "##에선": 7354,
      "그런가봐": 7355,
      "시간에": 7356,
      "방금": 7357,
      "치고": 7358,
      "꺼내": 7359,
      "시대": 7360,
      "이불": 7361,
      "파마": 7362,
      "해봤는데": 7363,
      "아버지": 7364,
      "거잖아": 7365,
      "전부": 7366,
      "커서": 7367,
      "##케이": 7368,
      "이런거": 7369,
      "않아요": 7370,
      "건강에": 7371,
      "도움이": 7372,
      "주인공": 7373,
      "왔는데": 7374,
      "젊은": 7375,
      "##웠는데": 7376,
      "우리나라도": 7377,
      "놀아": 7378,
      "해외여행": 7379,
      "대화": 7380,
      "적응": 7381,
      "##들의": 7382,
      "못하고": 7383,
      "생각만": 7384,
      "아이돌": 7385,
      "예전에는": 7386,
      "남편이": 7387,
      "뛰어": 7388,
      "카카오": 7389,
      "타이": 7390,
      "탈모": 7391,
      "별로야": 7392,
      "책임": 7393,
      "##가락": 7394,
      "어찌": 7395,
      "이벤트": 7396,
      "봤어요": 7397,
      "비교": 7398,
      "##대체": 7399,
      "왠지": 7400,
      "우산": 7401,
      "##비는": 7402,
      "사람을": 7403,
      "친구랑": 7404,
      "다녀왔": 7405,
      "초딩": 7406,
      "##진다": 7407,
      "먹어도": 7408,
      "소식": 7409,
      "요즘에는": 7410,
      "일은": 7411,
      "할래": 7412,
      "아니요": 7413,
      "그렇겠지": 7414,
      "이번에는": 7415,
      "깨끗": 7416,
      "도대체": 7417,
      "떡볶": 7418,
      "초등학교": 7419,
      "다행히": 7420,
      "##지로": 7421,
      "내년에": 7422,
      "##었다고": 7423,
      "부모님이": 7424,
      "마리": 7425,
      "이동": 7426,
      "해병": 7427,
      "##사도": 7428,
      "조금만": 7429,
      "나을": 7430,
      "나쁜": 7431,
      "달라고": 7432,
      "뭐라": 7433,
      "있니": 7434,
      "조금씩": 7435,
      "대해": 7436,
      "##으시": 7437,
      "##쳐서": 7438,
      "계란": 7439,
      "차를": 7440,
      "커플": 7441,
      "가능한": 7442,
      "맞추": 7443,
      "소름": 7444,
      "유지": 7445,
      "시간도": 7446,
      "받아야": 7447,
      "기술": 7448,
      "놀랐": 7449,
      "어이": 7450,
      "생각은": 7451,
      "영화가": 7452,
      "고양이는": 7453,
      "맞아야": 7454,
      "갔다가": 7455,
      "개봉": 7456,
      "##가야": 7457,
      "##피스": 7458,
      "##목이": 7459,
      "유산": 7460,
      "맛있겠다": 7461,
      "못해서": 7462,
      "문화": 7463,
      "범죄": 7464,
      "애가": 7465,
      "집안": 7466,
      "허리": 7467,
      "##천원": 7468,
      "##일에": 7469,
      "남았": 7470,
      "암튼": 7471,
      "힘들겠다": 7472,
      "배우는": 7473,
      "어떡해": 7474,
      "줘야": 7475,
      "틀어": 7476,
      "##거같": 7477,
      "##구요": 7478,
      "많네": 7479,
      "벌레": 7480,
      "인기가": 7481,
      "##시켜": 7482,
      "##물이": 7483,
      "사망": 7484,
      "졸업": 7485,
      "했으면": 7486,
      "1시간": 7487,
      "안녕": 7488,
      "토익": 7489,
      "그렇죠": 7490,
      "잘하고": 7491,
      "팔아": 7492,
      "했대": 7493,
      "처음에": 7494,
      "체험": 7495,
      "체력": 7496,
      "아무도": 7497,
      "왔다": 7498,
      "있다는": 7499,
      "도착": 7500,
      "##자고": 7501,
      "무리": 7502,
      "일이야": 7503,
      "형님": 7504,
      "무시": 7505,
      "부탁": 7506,
      "어디가": 7507,
      "맛있지": 7508,
      "아파서": 7509,
      "한참": 7510,
      "가르쳐": 7511,
      "거북": 7512,
      "슬슬": 7513,
      "아휴": 7514,
      "##리카": 7515,
      "##달라고": 7516,
      "##두고": 7517,
      "##말고": 7518,
      "재밌었어": 7519,
      "##로도": 7520,
      "##하대": 7521,
      "사과": 7522,
      "싶음": 7523,
      "짱구": 7524,
      "특별": 7525,
      "##랑은": 7526,
      "##리기": 7527,
      "있는거": 7528,
      "여행은": 7529,
      "많던데": 7530,
      "볼게": 7531,
      "피자": 7532,
      "##르면": 7533,
      "##우스": 7534,
      "가수": 7535,
      "누나는": 7536,
      "차이가": 7537,
      "##이션": 7538,
      "##으로도": 7539,
      "30분": 7540,
      "안먹": 7541,
      "집을": 7542,
      "모르고": 7543,
      "듣는": 7544,
      "만약": 7545,
      "쓰면": 7546,
      "애매": 7547,
      "언젠": 7548,
      "직원": 7549,
      "분위기": 7550,
      "맞은": 7551,
      "좋겠": 7552,
      "까먹": 7553,
      "꺼야": 7554,
      "##주가": 7555,
      "##으니깐": 7556,
      "안되는": 7557,
      "생기면": 7558,
      "금액": 7559,
      "애들도": 7560,
      "제한": 7561,
      "##우고": 7562,
      "보지": 7563,
      "##즈니": 7564,
      "한번씩": 7565,
      "시리즈": 7566,
      "개발": 7567,
      "곳도": 7568,
      "다리": 7569,
      "진행": 7570,
      "##장을": 7571,
      "11월": 7572,
      "어린이": 7573,
      "쉬운": 7574,
      "좋대": 7575,
      "좋은거": 7576,
      "상담": 7577,
      "몸에": 7578,
      "할게": 7579,
      "했을": 7580,
      "소개팅": 7581,
      "어땠어": 7582,
      "남아": 7583,
      "좋음": 7584,
      "줄게": 7585,
      "관광": 7586,
      "식단": 7587,
      "크림": 7588,
      "##까봐": 7589,
      "##하신": 7590,
      "친구도": 7591,
      "다행이야": 7592,
      "##요일에": 7593,
      "적당히": 7594,
      "몰라서": 7595,
      "무엇": 7596,
      "싶긴": 7597,
      "있겠지": 7598,
      "장르": 7599,
      "해주는": 7600,
      "##하셨": 7601,
      "##되어": 7602,
      "놀고": 7603,
      "누군": 7604,
      "3년": 7605,
      "독립": 7606,
      "않냐": 7607,
      "##사고": 7608,
      "아이가": 7609,
      "가족들": 7610,
      "기준": 7611,
      "돌아가": 7612,
      "높은": 7613,
      "반팔": 7614,
      "없더라": 7615,
      "##했으면": 7616,
      "##다니까": 7617,
      "중요해": 7618,
      "충전": 7619,
      "##다네": 7620,
      "##주로": 7621,
      "있어도": 7622,
      "##으로는": 7623,
      "회사는": 7624,
      "똑똑": 7625,
      "와이프": 7626,
      "추가": 7627,
      "하더라구": 7628,
      "##가능": 7629,
      "귀찮아서": 7630,
      "아팠": 7631,
      "익숙": 7632,
      "##버거": 7633,
      "좋을까": 7634,
      "하더라구요": 7635,
      "같더라고": 7636,
      "넘게": 7637,
      "않지": 7638,
      "##사를": 7639,
      "결과": 7640,
      "밖에서": 7641,
      "##대는": 7642,
      "##우는": 7643,
      "힘들어서": 7644,
      "##해야겠다": 7645,
      "시급": 7646,
      "어떨": 7647,
      "주위": 7648,
      "줄어": 7649,
      "##통령": 7650,
      "괜찮은데": 7651,
      "걔네": 7652,
      "우유": 7653,
      "##시다": 7654,
      "생각하고": 7655,
      "거니까": 7656,
      "##놀이": 7657,
      "여행을": 7658,
      "중요하지": 7659,
      "메이": 7660,
      "보호": 7661,
      "본인": 7662,
      "오지": 7663,
      "생겼어": 7664,
      "아플": 7665,
      "##주행": 7666,
      "##하세요": 7667,
      "##줬어": 7668,
      "끝나면": 7669,
      "안정": 7670,
      "전공": 7671,
      "##이스": 7672,
      "문제야": 7673,
      "모양": 7674,
      "현금": 7675,
      "들어봤어": 7676,
      "공간": 7677,
      "뒤에": 7678,
      "이럴": 7679,
      "##자리": 7680,
      "걱정이야": 7681,
      "공포": 7682,
      "##지원": 7683,
      "##니스": 7684,
      "알려주": 7685,
      "갈게": 7686,
      "그쵸": 7687,
      "부자": 7688,
      "빠지": 7689,
      "잡고": 7690,
      "##봐야지": 7691,
      "농구": 7692,
      "등록": 7693,
      "마당": 7694,
      "있게": 7695,
      "있나요": 7696,
      "창문": 7697,
      "##어버": 7698,
      "아니다": 7699,
      "신기하네": 7700,
      "들었는데": 7701,
      "살았": 7702,
      "삼성": 7703,
      "안된": 7704,
      "취소": 7705,
      "하는게": 7706,
      "언니도": 7707,
      "가족이": 7708,
      "안타깝": 7709,
      "이상형": 7710,
      "너랑": 7711,
      "액션": 7712,
      "없으니까": 7713,
      "영국": 7714,
      "입어": 7715,
      "해볼까": 7716,
      "##말이": 7717,
      "운동도": 7718,
      "선생님이": 7719,
      "보게": 7720,
      "야식": 7721,
      "치과": 7722,
      "카톡": 7723,
      "자체가": 7724,
      "디즈니": 7725,
      "##구마": 7726,
      "##키로": 7727,
      "18": 7728,
      "니도": 7729,
      "담에": 7730,
      "돌려": 7731,
      "안쓰": 7732,
      "그렇네": 7733,
      "난다": 7734,
      "만에": 7735,
      "보일": 7736,
      "일도": 7737,
      "##도는": 7738,
      "재미가": 7739,
      "예전엔": 7740,
      "맞았어": 7741,
      "자가": 7742,
      "회의": 7743,
      "##이로": 7744,
      "거기도": 7745,
      "꾸미": 7746,
      "돈은": 7747,
      "살기": 7748,
      "전자": 7749,
      "##있어서": 7750,
      "##분이": 7751,
      "급여": 7752,
      "물론": 7753,
      "싶더라": 7754,
      "싶다고": 7755,
      "역할": 7756,
      "지키": 7757,
      "##아리": 7758,
      "화이자": 7759,
      "유치원": 7760,
      "그땐": 7761,
      "첫째": 7762,
      "스케": 7763,
      "##했음": 7764,
      "##을때": 7765,
      "달고": 7766,
      "##장판": 7767,
      "##저트": 7768,
      "느낌이야": 7769,
      "1차": 7770,
      "당첨": 7771,
      "야외": 7772,
      "쿠키": 7773,
      "##부가": 7774,
      "작년에": 7775,
      "디저트": 7776,
      "좋더라고": 7777,
      "게임이야": 7778,
      "간다고": 7779,
      "우울": 7780,
      "생각하는": 7781,
      "이해가": 7782,
      "아쉬워": 7783,
      "다닌": 7784,
      "보이는": 7785,
      "복무": 7786,
      "빨래": 7787,
      "##겠구나": 7788,
      "같은거": 7789,
      "들어가서": 7790,
      "가방": 7791,
      "도망": 7792,
      "롯데": 7793,
      "분양": 7794,
      "군대는": 7795,
      "걸린": 7796,
      "감동": 7797,
      "닌텐": 7798,
      "이직": 7799,
      "##었으면": 7800,
      "나오더라": 7801,
      "나가는": 7802,
      "갈아": 7803,
      "걸까": 7804,
      "곳으로": 7805,
      "상대": 7806,
      "어우": 7807,
      "확진자": 7808,
      "곳에": 7809,
      "과일": 7810,
      "넣고": 7811,
      "대통령": 7812,
      "만원": 7813,
      "웃긴": 7814,
      "많이들": 7815,
      "안좋아": 7816,
      "건물": 7817,
      "외식": 7818,
      "몰랐는데": 7819,
      "대형": 7820,
      "벅수": 7821,
      "블랙": 7822,
      "순간": 7823,
      "지구": 7824,
      "차는": 7825,
      "프리": 7826,
      "생겨서": 7827,
      "가정": 7828,
      "여성": 7829,
      "##맞아": 7830,
      "##량이": 7831,
      "거랑": 7832,
      "##시면": 7833,
      "##드려": 7834,
      "비싸지": 7835,
      "다녀야": 7836,
      "맘에": 7837,
      "친척": 7838,
      "현질": 7839,
      "##에만": 7840,
      "##간다": 7841,
      "나네": 7842,
      "청약": 7843,
      "##하냐": 7844,
      "다양한": 7845,
      "최대한": 7846,
      "했네": 7847,
      "##민턴": 7848,
      "걱정이": 7849,
      "있었으면": 7850,
      "최고지": 7851,
      "더워": 7852,
      "되잖아": 7853,
      "똑같은": 7854,
      "##주의": 7855,
      "먹는데": 7856,
      "모더나": 7857,
      "발전": 7858,
      "안될": 7859,
      "휴대": 7860,
      "##카드": 7861,
      "가보자": 7862,
      "배드": 7863,
      "잘할": 7864,
      "##하죠": 7865,
      "##한게": 7866,
      "외국인": 7867,
      "개그": 7868,
      "빌려": 7869,
      "##겠다고": 7870,
      "먹어야지": 7871,
      "알려줄게": 7872,
      "레이": 7873,
      "모아": 7874,
      "배울": 7875,
      "##중이야": 7876,
      "있었던": 7877,
      "오락실": 7878,
      "남는": 7879,
      "의미": 7880,
      "##일까": 7881,
      "##것같아": 7882,
      "결혼은": 7883,
      "조심해": 7884,
      "나눠": 7885,
      "스펙": 7886,
      "나오는데": 7887,
      "추울": 7888,
      "특이": 7889,
      "설명": 7890,
      "고양이가": 7891,
      "배드민턴": 7892,
      "대전": 7893,
      "사이트": 7894,
      "할지": 7895,
      "해줄": 7896,
      "혜택": 7897,
      "힘이": 7898,
      "어디야": 7899,
      "로망": 7900,
      "시절": 7901,
      "야근": 7902,
      "만나면": 7903,
      "막내": 7904,
      "말씀": 7905,
      "연봉": 7906,
      "하네요": 7907,
      "##아노": 7908,
      "오토바이": 7909,
      "안그래도": 7910,
      "예정": 7911,
      "의사": 7912,
      "하는구나": 7913,
      "가만": 7914,
      "그날": 7915,
      "의외": 7916,
      "하던": 7917,
      "##는걸": 7918,
      "##으라고": 7919,
      "말이지": 7920,
      "실패": 7921,
      "그렇다": 7922,
      "각자": 7923,
      "간지": 7924,
      "나고": 7925,
      "도로": 7926,
      "사귀": 7927,
      "했음": 7928,
      "##카페": 7929,
      "요즘도": 7930,
      "남자가": 7931,
      "거짓": 7932,
      "마시고": 7933,
      "배그": 7934,
      "잔인": 7935,
      "하겠지": 7936,
      "##번에": 7937,
      "엄마한테": 7938,
      "맛있게": 7939,
      "가격도": 7940,
      "내고": 7941,
      "막히": 7942,
      "실내": 7943,
      "하이": 7944,
      "##으신": 7945,
      "필요해": 7946,
      "만날": 7947,
      "반찬": 7948,
      "세금": 7949,
      "장면": 7950,
      "해보자": 7951,
      "그랬지": 7952,
      "##스크림": 7953,
      "힘든데": 7954,
      "가야겠다": 7955,
      "다이": 7956,
      "둘다": 7957,
      "##심이": 7958,
      "물어봐": 7959,
      "네가": 7960,
      "쌀쌀": 7961,
      "최악": 7962,
      "##우파": 7963,
      "들어갔": 7964,
      "아마도": 7965,
      "덕분에": 7966,
      "공부를": 7967,
      "거도": 7968,
      "드는": 7969,
      "어딜": 7970,
      "나가면": 7971,
      "먹기": 7972,
      "멀미": 7973,
      "피아노": 7974,
      "나왔는데": 7975,
      "2주": 7976,
      "내는": 7977,
      "분이": 7978,
      "쓰레기": 7979,
      "구워": 7980,
      "매운": 7981,
      "사업": 7982,
      "은근히": 7983,
      "문신": 7984,
      "선선": 7985,
      "스우파": 7986,
      "오후": 7987,
      "참고": 7988,
      "##났어": 7989,
      "대박이네": 7990,
      "바이": 7991,
      "친구들이": 7992,
      "다녀와": 7993,
      "미래": 7994,
      "원룸": 7995,
      "음악": 7996,
      "중학교": 7997,
      "생각이야": 7998,
      "이래서": 7999,
      "충분히": 8000,
      "거구나": 8001,
      "걸릴": 8002,
      "멋있어": 8003,
      "어마": 8004,
      "올리": 8005,
      "즐겨": 8006,
      "찾아서": 8007,
      "키웠": 8008,
      "##사지": 8009,
      "할아버지": 8010,
      "과자": 8011,
      "##없는": 8012,
      "새벽에": 8013,
      "부르": 8014,
      "여기는": 8015,
      "특전": 8016,
      "##가도": 8017,
      "##더라도": 8018,
      "하나씩": 8019,
      "학교에서": 8020,
      "25": 8021,
      "괴롭": 8022,
      "눈에": 8023,
      "알게": 8024,
      "한잔": 8025,
      "##관이": 8026,
      "##하라고": 8027,
      "돌아다니": 8028,
      "강의": 8029,
      "모아서": 8030,
      "사주": 8031,
      "운영": 8032,
      "##가자": 8033,
      "##시나요": 8034,
      "바빠서": 8035,
      "까지": 8036,
      "보다가": 8037,
      "##해보고": 8038,
      "##으려나": 8039,
      "그래야지": 8040,
      "되겠네": 8041,
      "앉아": 8042,
      "##시지": 8043,
      "##드가": 8044,
      "##러스": 8045,
      "##세권": 8046,
      "들어본": 8047,
      "회사에": 8048,
      "그러니까요": 8049,
      "재미있어": 8050,
      "곳에서": 8051,
      "기업": 8052,
      "쉬고": 8053,
      "싸움": 8054,
      "종일": 8055,
      "##다구": 8056,
      "##면허": 8057,
      "##터디": 8058,
      "영화를": 8059,
      "어렵지": 8060,
      "써서": 8061,
      "##이터": 8062,
      "##있는데": 8063,
      "##인가봐": 8064,
      "짜증나": 8065,
      "맞춰서": 8066,
      "공기": 8067,
      "있던": 8068,
      "나오지": 8069,
      "오빠도": 8070,
      "많다고": 8071,
      "많더라고": 8072,
      "말야": 8073,
      "##한가": 8074,
      "결혼을": 8075,
      "오빠야": 8076,
      "부러": 8077,
      "있거든": 8078,
      "조만": 8079,
      "최저": 8080,
      "포인트": 8081,
      "##란다": 8082,
      "##줘서": 8083,
      "좋아할": 8084,
      "퇴근하고": 8085,
      "때까지": 8086,
      "하도": 8087,
      "하냐": 8088,
      "##트가": 8089,
      "##화점": 8090,
      "좋아함": 8091,
      "대해서": 8092,
      "사려고": 8093,
      "수는": 8094,
      "초반": 8095,
      "치는": 8096,
      "서울은": 8097,
      "떡볶이": 8098,
      "거가": 8099,
      "보냈": 8100,
      "얘들": 8101,
      "쪽으로": 8102,
      "풀어": 8103,
      "##이죠": 8104,
      "##시키": 8105,
      "##좋아": 8106,
      "여자친구랑": 8107,
      "일상": 8108,
      "모르는데": 8109,
      "강아지도": 8110,
      "조만간": 8111,
      "##나고": 8112,
      "정도야": 8113,
      "너네는": 8114,
      "공무": 8115,
      "무한": 8116,
      "보려고": 8117,
      "스터디": 8118,
      "##인도": 8119,
      "어디에": 8120,
      "키우면": 8121,
      "나야": 8122,
      "점이": 8123,
      "##셨나요": 8124,
      "누나가": 8125,
      "좋죠": 8126,
      "아이스크림": 8127,
      "건강을": 8128,
      "설레": 8129,
      "옷을": 8130,
      "유전": 8131,
      "##쇼핑": 8132,
      "있는지": 8133,
      "당근마켓": 8134,
      "거네": 8135,
      "##볼래": 8136,
      "##되지": 8137,
      "##코로나": 8138,
      "너희는": 8139,
      "사이즈": 8140,
      "일주일에": 8141,
      "휴대폰": 8142,
      "같습니다": 8143,
      "##야해": 8144,
      "##하겠지": 8145,
      "##나봐요": 8146,
      "거예요": 8147,
      "나의": 8148,
      "않은데": 8149,
      "햄버거": 8150,
      "들어간": 8151,
      "맞음": 8152,
      "배가": 8153,
      "앞에서": 8154,
      "##이던데": 8155,
      "##권도": 8156,
      "그럴까": 8157,
      "만화책": 8158,
      "따뜻한": 8159,
      "해병대": 8160,
      "걸렸": 8161,
      "아는데": 8162,
      "##들만": 8163,
      "##기간": 8164,
      "##겹살": 8165,
      "만들고": 8166,
      "공감": 8167,
      "긴장": 8168,
      "슬퍼": 8169,
      "좋겠어요": 8170,
      "해준": 8171,
      "해줘야": 8172,
      "맛있더라": 8173,
      "좋던데": 8174,
      "아빠도": 8175,
      "지나가": 8176,
      "보드게임": 8177,
      "복잡": 8178,
      "은행": 8179,
      "##었겠다": 8180,
      "만나고": 8181,
      "##000원": 8182,
      "##지원금": 8183,
      "19": 8184,
      "어깨": 8185,
      "판매": 8186,
      "##나면": 8187,
      "##혀서": 8188,
      "좋아했어": 8189,
      "그런건": 8190,
      "내일은": 8191,
      "가까이": 8192,
      "생길": 8193,
      "있겠네": 8194,
      "한두": 8195,
      "시간을": 8196,
      "될까": 8197,
      "새끼": 8198,
      "않네": 8199,
      "죽는": 8200,
      "키운": 8201,
      "해봐야": 8202,
      "경쟁": 8203,
      "끔찍": 8204,
      "서비": 8205,
      "좋았는데": 8206,
      "##보려고": 8207,
      "##다녀": 8208,
      "##스러워": 8209,
      "##률이": 8210,
      "아니라고": 8211,
      "생각했는데": 8212,
      "군대에": 8213,
      "일부러": 8214,
      "공원": 8215,
      "교정": 8216,
      "했다고": 8217,
      "결혼하고": 8218,
      "200": 8219,
      "봤다": 8220,
      "식사": 8221,
      "여긴": 8222,
      "진주": 8223,
      "그런게": 8224,
      "그쪽": 8225,
      "되네": 8226,
      "맥주": 8227,
      "미세": 8228,
      "사료": 8229,
      "위에": 8230,
      "##치면": 8231,
      "고민이야": 8232,
      "고속": 8233,
      "없으니": 8234,
      "이랑": 8235,
      "정치": 8236,
      "케이크": 8237,
      "##해졌": 8238,
      "동생은": 8239,
      "깜짝": 8240,
      "렌트": 8241,
      "아나": 8242,
      "크리스": 8243,
      "##드름": 8244,
      "그렇군요": 8245,
      "하는거야": 8246,
      "나보다": 8247,
      "면접": 8248,
      "보톡": 8249,
      "봤나": 8250,
      "찍고": 8251,
      "하라고": 8252,
      "##내고": 8253,
      "결혼하면": 8254,
      "아빠랑": 8255,
      "마켓": 8256,
      "모으": 8257,
      "몰래": 8258,
      "본다": 8259,
      "분명": 8260,
      "##을걸": 8261,
      "##겼어": 8262,
      "불편해": 8263,
      "위드코로나": 8264,
      "오른": 8265,
      "##겠습니다": 8266,
      "##국수": 8267,
      "미안해": 8268,
      "네일": 8269,
      "입원": 8270,
      "김밥": 8271,
      "##라스": 8272,
      "##되서": 8273,
      "거기가": 8274,
      "메이플": 8275,
      "거에요": 8276,
      "나를": 8277,
      "돈으로": 8278,
      "디자": 8279,
      "만난": 8280,
      "실력": 8281,
      "작품": 8282,
      "##저기": 8283,
      "힘들었어": 8284,
      "여기서": 8285,
      "거짓말": 8286,
      "가깝": 8287,
      "만한": 8288,
      "자는": 8289,
      "자랑": 8290,
      "##이였": 8291,
      "##거운": 8292,
      "##우니까": 8293,
      "##운전": 8294,
      "아니에요": 8295,
      "다녀오": 8296,
      "끼고": 8297,
      "나중": 8298,
      "모임": 8299,
      "미친": 8300,
      "백화점": 8301,
      "시킬": 8302,
      "전체": 8303,
      "것보다": 8304,
      "스릴": 8305,
      "예민": 8306,
      "집으로": 8307,
      "영화도": 8308,
      "여자친구가": 8309,
      "24": 8310,
      "바닥": 8311,
      "이것도": 8312,
      "전에는": 8313,
      "##야겠어": 8314,
      "##겠군": 8315,
      "##해진": 8316,
      "##천히": 8317,
      "하는지": 8318,
      "운동은": 8319,
      "않았나": 8320,
      "##스럽게": 8321,
      "이후로": 8322,
      "닌텐도": 8323,
      "생기는": 8324,
      "정부": 8325,
      "체육": 8326,
      "편리": 8327,
      "합니다": 8328,
      "##먹는": 8329,
      "모르지": 8330,
      "여기저기": 8331,
      "60": 8332,
      "감자": 8333,
      "매년": 8334,
      "배운": 8335,
      "일하고": 8336,
      "있다가": 8337,
      "좋으면": 8338,
      "천천히": 8339,
      "##이여": 8340,
      "##자마자": 8341,
      "##근무": 8342,
      "##롭게": 8343,
      "종류가": 8344,
      "어떠": 8345,
      "오키": 8346,
      "##주지": 8347,
      "##한다는": 8348,
      "##되는데": 8349,
      "##월에": 8350,
      "아이템": 8351,
      "오래된": 8352,
      "얼굴이": 8353,
      "추워지": 8354,
      "남자친구랑": 8355,
      "ㅠㅜ": 8356,
      "돼지": 8357,
      "발견": 8358,
      "세일": 8359,
      "아메": 8360,
      "있지만": 8361,
      "##것같": 8362,
      "어디든": 8363,
      "가니까": 8364,
      "나은": 8365,
      "스킨": 8366,
      "입대": 8367,
      "맞아서": 8368,
      "멋진": 8369,
      "신세": 8370,
      "없었는데": 8371,
      "옆에서": 8372,
      "한번에": 8373,
      "들어갈": 8374,
      "이용해": 8375,
      "것을": 8376,
      "베트": 8377,
      "빠졌": 8378,
      "삼겹살": 8379,
      "선호": 8380,
      "냉장": 8381,
      "벌어": 8382,
      "사는데": 8383,
      "이도": 8384,
      "버스가": 8385,
      "TV": 8386,
      "두고": 8387,
      "빠른": 8388,
      "취직": 8389,
      "##러지": 8390,
      "부모님이랑": 8391,
      "심한": 8392,
      "안에서": 8393,
      "정상": 8394,
      "출신": 8395,
      "##잖어": 8396,
      "재미없": 8397,
      "위험해": 8398,
      "가만히": 8399,
      "5년": 8400,
      "꽤나": 8401,
      "인도": 8402,
      "##있지": 8403,
      "##생각": 8404,
      "여름이": 8405,
      "인터넷에서": 8406,
      "비염": 8407,
      "새우": 8408,
      "파티": 8409,
      "##려는": 8410,
      "사고가": 8411,
      "가구": 8412,
      "가기로": 8413,
      "들었": 8414,
      "말은": 8415,
      "밥도": 8416,
      "정주행": 8417,
      "태어나": 8418,
      "혼자서": 8419,
      "만나는": 8420,
      "유산균": 8421,
      "노는": 8422,
      "좋잖아": 8423,
      "필라": 8424,
      "##줄까": 8425,
      "그러다가": 8426,
      "아프면": 8427,
      "가능해": 8428,
      "다운": 8429,
      "무릎": 8430,
      "여드름": 8431,
      "출발": 8432,
      "태국": 8433,
      "포장": 8434,
      "들어봐": 8435,
      "아쉽다": 8436,
      "베트남": 8437,
      "나옴": 8438,
      "사장님": 8439,
      "오케이": 8440,
      "##제도": 8441,
      "다르지": 8442,
      "대세": 8443,
      "매우": 8444,
      "문자": 8445,
      "볼링": 8446,
      "한다는": 8447,
      "##식으로": 8448,
      "##스를": 8449,
      "재밌는데": 8450,
      "들어가는": 8451,
      "1박": 8452,
      "거에": 8453,
      "에휴": 8454,
      "있냐": 8455,
      "환승": 8456,
      "##로만": 8457,
      "올해는": 8458,
      "초등학생": 8459,
      "프랑": 8460,
      "##메이션": 8461,
      "##선이": 8462,
      "됐는데": 8463,
      "많으면": 8464,
      "##아도": 8465,
      "이번주": 8466,
      "내내": 8467,
      "로또": 8468,
      "성인": 8469,
      "오프": 8470,
      "용품": 8471,
      "자살": 8472,
      "##아가": 8473,
      "##하기가": 8474,
      "##겨서": 8475,
      "그러더라": 8476,
      "언제쯤": 8477,
      "있다면": 8478,
      "멤버": 8479,
      "부지": 8480,
      "아니라서": 8481,
      "결혼할": 8482,
      "가족들이랑": 8483,
      "남자친구가": 8484,
      "로맨": 8485,
      "방탄": 8486,
      "비트": 8487,
      "원하는": 8488,
      "형부": 8489,
      "경우가": 8490,
      "들으면": 8491,
      "바르": 8492,
      "인사": 8493,
      "하니깐": 8494,
      "힘내": 8495,
      "##산이": 8496,
      "회사가": 8497,
      "다니면": 8498,
      "가봤는데": 8499,
      "김에": 8500,
      "설치": 8501,
      "잘하": 8502,
      "최애": 8503,
      "추위": 8504,
      "콜라": 8505,
      "피시": 8506,
      "했었지": 8507,
      "##지컬": 8508,
      "##했었는데": 8509,
      "##차는": 8510,
      "모르겠어요": 8511,
      "세상이": 8512,
      "예비": 8513,
      "##검진": 8514,
      "그러다": 8515,
      "그렇겠다": 8516,
      "아이들이": 8517,
      "운동이": 8518,
      "미국은": 8519,
      "필라테": 8520,
      "반응": 8521,
      "초코": 8522,
      "##해주는": 8523,
      "##비를": 8524,
      "찾아봐": 8525,
      "경우도": 8526,
      "고구마": 8527,
      "사교육": 8528,
      "장소": 8529,
      "저렇게": 8530,
      "행동": 8531,
      "좋아졌": 8532,
      "다음주": 8533,
      "물어보": 8534,
      "부부": 8535,
      "우주": 8536,
      "잘됐": 8537,
      "포함": 8538,
      "##라나": 8539,
      "그랬구나": 8540,
      "많아요": 8541,
      "중국은": 8542,
      "평소에": 8543,
      "것은": 8544,
      "낳고": 8545,
      "대로": 8546,
      "멀어": 8547,
      "샐러": 8548,
      "아내": 8549,
      "아뇨": 8550,
      "좋게": 8551,
      "코인": 8552,
      "##으셨": 8553,
      "아이유": 8554,
      "애니메이션": 8555,
      "더운": 8556,
      "외로": 8557,
      "하시는": 8558,
      "##있고": 8559,
      "##자들": 8560,
      "##질이": 8561,
      "부지런": 8562,
      "직구": 8563,
      "##지에": 8564,
      "##했었어": 8565,
      "가족끼리": 8566,
      "3일": 8567,
      "가요": 8568,
      "능력": 8569,
      "손님": 8570,
      "실화": 8571,
      "입장": 8572,
      "##트도": 8573,
      "##주택": 8574,
      "##래요": 8575,
      "게임에": 8576,
      "알아봐": 8577,
      "코로나로": 8578,
      "됐지": 8579,
      "매매": 8580,
      "치즈": 8581,
      "여행도": 8582,
      "다가": 8583,
      "들면": 8584,
      "많아지": 8585,
      "사무": 8586,
      "싶을": 8587,
      "안맞": 8588,
      "줘서": 8589,
      "편하긴": 8590,
      "현대": 8591,
      "##어는": 8592,
      "##짜리": 8593,
      "가라": 8594,
      "너의": 8595,
      "보니깐": 8596,
      "차도": 8597,
      "형제": 8598,
      "##줬으면": 8599,
      "##램핑": 8600,
      "만들어서": 8601,
      "대학생": 8602,
      "냉장고": 8603,
      "바닷": 8604,
      "예방": 8605,
      "##져야": 8606,
      "그랬던": 8607,
      "부모님은": 8608,
      "걸리는": 8609,
      "글램핑": 8610,
      "기계": 8611,
      "말만": 8612,
      "모를": 8613,
      "사러": 8614,
      "손이": 8615,
      "유투": 8616,
      "초대": 8617,
      "다녀왔어": 8618,
      "올라가": 8619,
      "너한테": 8620,
      "대리": 8621,
      "먹을까": 8622,
      "이어": 8623,
      "이혼": 8624,
      "입을": 8625,
      "##봤지": 8626,
      "살아야": 8627,
      "화이팅": 8628,
      "대기업": 8629,
      "얘들아": 8630,
      "경주": 8631,
      "뭐해": 8632,
      "슈퍼": 8633,
      "연휴": 8634,
      "한강": 8635,
      "##하던": 8636,
      "##해져서": 8637,
      "##성을": 8638,
      "방법이": 8639,
      "나지": 8640,
      "미니": 8641,
      "부스터": 8642,
      "빨간": 8643,
      "오픈": 8644,
      "왜케": 8645,
      "##구먼": 8646,
      "##트는": 8647,
      "진짜요": 8648,
      "있었지": 8649,
      "동생이랑": 8650,
      "갔었어": 8651,
      "거고": 8652,
      "남동생": 8653,
      "들은": 8654,
      "많으니까": 8655,
      "예매": 8656,
      "왔으면": 8657,
      "##수를": 8658,
      "##이를": 8659,
      "처음엔": 8660,
      "일본은": 8661,
      "미쳤다": 8662,
      "검은": 8663,
      "그분": 8664,
      "바라": 8665,
      "최소": 8666,
      "친한": 8667,
      "##사랑": 8668,
      "##하려면": 8669,
      "##부터는": 8670,
      "놀랬": 8671,
      "똑같이": 8672,
      "발생": 8673,
      "어딘": 8674,
      "유기": 8675,
      "##학원": 8676,
      "들어도": 8677,
      "들어오": 8678,
      "처음에는": 8679,
      "피시방": 8680,
      "가성": 8681,
      "된대": 8682,
      "불법": 8683,
      "소음": 8684,
      "스페": 8685,
      "엉엉": 8686,
      "잘했어": 8687,
      "징그": 8688,
      "하와": 8689,
      "모르겠지만": 8690,
      "신기한": 8691,
      "유튜버": 8692,
      "20대": 8693,
      "훈련소": 8694,
      "경기도": 8695,
      "누워": 8696,
      "##라구": 8697,
      "10만원": 8698,
      "공무원": 8699,
      "고고": 8700,
      "공항": 8701,
      "글치": 8702,
      "한가": 8703,
      "환절": 8704,
      "##자도": 8705,
      "##하구나": 8706,
      "##티콘": 8707,
      "궁금하네": 8708,
      "나라에서": 8709,
      "6개월": 8710,
      "남은": 8711,
      "노트": 8712,
      "시국": 8713,
      "위한": 8714,
      "층간": 8715,
      "한거": 8716,
      "##기엔": 8717,
      "재밌었는데": 8718,
      "어려울": 8719,
      "싫어서": 8720,
      "싶네요": 8721,
      "종종": 8722,
      "편하고": 8723,
      "##장님이": 8724,
      "##마을": 8725,
      "##점은": 8726,
      "##갔어": 8727,
      "웃기네": 8728,
      "성격이": 8729,
      "굉장": 8730,
      "기능": 8731,
      "제대": 8732,
      "지옥": 8733,
      "##영상": 8734,
      "##이라면": 8735,
      "얼굴에": 8736,
      "늘어": 8737,
      "살까": 8738,
      "어케": 8739,
      "여수": 8740,
      "즐기": 8741,
      "휴양": 8742,
      "##단다": 8743,
      "##기적으로": 8744,
      "10분": 8745,
      "미국에서": 8746,
      "노래도": 8747,
      "스벅": 8748,
      "아들이": 8749,
      "애플": 8750,
      "촬영": 8751,
      "##봐야겠어": 8752,
      "영화관에서": 8753,
      "나무": 8754,
      "모델": 8755,
      "사다": 8756,
      "스파": 8757,
      "싫은데": 8758,
      "##어마": 8759,
      "##렸는데": 8760,
      "겨울은": 8761,
      "먹으면서": 8762,
      "모른": 8763,
      "보상": 8764,
      "조건": 8765,
      "펜션": 8766,
      "해라": 8767,
      "##관리": 8768,
      "아파트가": 8769,
      "기다리": 8770,
      "보이더라": 8771,
      "골라": 8772,
      "늘어나": 8773,
      "안됐": 8774,
      "이리": 8775,
      "##게요": 8776,
      "##할거": 8777,
      "##먹을": 8778,
      "이상해": 8779,
      "날짜": 8780,
      "마찬": 8781,
      "마련": 8782,
      "피씨": 8783,
      "##나도": 8784,
      "##건지": 8785,
      "##여야": 8786,
      "##금이": 8787,
      "좋아했는데": 8788,
      "어머님": 8789,
      "검색해": 8790,
      "가나": 8791,
      "나는데": 8792,
      "사야지": 8793,
      "앉아서": 8794,
      "어색": 8795,
      "여보": 8796,
      "콘서": 8797,
      "햇빛": 8798,
      "그랬나": 8799,
      "강릉": 8800,
      "되는거": 8801,
      "모여서": 8802,
      "행사": 8803,
      "##ㅋㅋ": 8804,
      "아니지만": 8805,
      "마을": 8806,
      "먹게": 8807,
      "옷이": 8808,
      "시키는": 8809,
      "비트코": 8810,
      "70": 8811,
      "공짜": 8812,
      "때만": 8813,
      "뮤지컬": 8814,
      "안경": 8815,
      "인상": 8816,
      "입맛": 8817,
      "크고": 8818,
      "##하니깐": 8819,
      "##하시는": 8820,
      "내용이": 8821,
      "공사": 8822,
      "면회": 8823,
      "주름": 8824,
      "탁구": 8825,
      "##의원": 8826,
      "##던지": 8827,
      "아니니까": 8828,
      "다른데": 8829,
      "이상하게": 8830,
      "말고는": 8831,
      "중국이": 8832,
      "당일": 8833,
      "더워서": 8834,
      "심해서": 8835,
      "원피스": 8836,
      "이틀": 8837,
      "잠을": 8838,
      "처벌": 8839,
      "캐스": 8840,
      "태어": 8841,
      "##전히": 8842,
      "##집에서": 8843,
      "##흥민": 8844,
      "하더라고요": 8845,
      "3번": 8846,
      "걸리면": 8847,
      "김선": 8848,
      "성적": 8849,
      "어딨": 8850,
      "온다": 8851,
      "의견": 8852,
      "##해라": 8853,
      "##봤어요": 8854,
      "어릴때": 8855,
      "어마어마": 8856,
      "국제": 8857,
      "냉동": 8858,
      "싶당": 8859,
      "옷도": 8860,
      "지진": 8861,
      "팔고": 8862,
      "##어를": 8863,
      "##하진": 8864,
      "##었구나": 8865,
      "찾아보고": 8866,
      "크리스마": 8867,
      "났어": 8868,
      "사지": 8869,
      "세탁": 8870,
      "손흥민": 8871,
      "음주": 8872,
      "임신": 8873,
      "필러": 8874,
      "형이": 8875,
      "##는다고": 8876,
      "##별로": 8877,
      "맛있는데": 8878,
      "신혼여행": 8879,
      "ㅇㅈ": 8880,
      "불가능": 8881,
      "지리": 8882,
      "코스": 8883,
      "##겠음": 8884,
      "##집이": 8885,
      "건강한": 8886,
      "고민이": 8887,
      "떨어지": 8888,
      "동남": 8889,
      "말한": 8890,
      "모자": 8891,
      "살아서": 8892,
      "싫은": 8893,
      "일정": 8894,
      "##선수": 8895,
      "키우기": 8896,
      "긴팔": 8897,
      "땜에": 8898,
      "목표": 8899,
      "밑에": 8900,
      "신나": 8901,
      "하려면": 8902,
      "##치료": 8903,
      "##적이야": 8904,
      "##부대": 8905,
      "##슬라": 8906,
      "##방이": 8907,
      "대단하네": 8908,
      "애기들": 8909,
      "중간에": 8910,
      "갔던": 8911,
      "걸어서": 8912,
      "구입": 8913,
      "대표": 8914,
      "바르고": 8915,
      "소중": 8916,
      "않게": 8917,
      "요소": 8918,
      "테니스": 8919,
      "##치기": 8920,
      "##계절": 8921,
      "아니잖아": 8922,
      "힘들긴": 8923,
      "알아보": 8924,
      "다음날": 8925,
      "마찬가지": 8926,
      "붙어": 8927,
      "업체": 8928,
      "##만이": 8929,
      "##야겠네": 8930,
      "##할듯": 8931,
      "##재석": 8932,
      "##갔다": 8933,
      "맞아맞아": 8934,
      "건강이": 8935,
      "가슴": 8936,
      "거죠": 8937,
      "런닝": 8938,
      "미술": 8939,
      "번호": 8940,
      "봤음": 8941,
      "살인": 8942,
      "싶었어": 8943,
      "않음": 8944,
      "##찌개": 8945,
      "좋아지": 8946,
      "힘들고": 8947,
      "드라이브": 8948,
      "원래는": 8949,
      "부분이": 8950,
      "국밥": 8951,
      "다를": 8952,
      "말라고": 8953,
      "밥을": 8954,
      "시설": 8955,
      "심하게": 8956,
      "지루": 8957,
      "##시까지": 8958,
      "##살이": 8959,
      "##종일": 8960,
      "##에서만": 8961,
      "김연": 8962,
      "달달": 8963,
      "보다는": 8964,
      "산다": 8965,
      "##버렸": 8966,
      "##실에": 8967,
      "나가고": 8968,
      "2개": 8969,
      "아이디": 8970,
      "군대가": 8971,
      "빡세": 8972,
      "슬픈": 8973,
      "유재석": 8974,
      "인형": 8975,
      "타서": 8976,
      "##았다": 8977,
      "##하셔": 8978,
      "##리네": 8979,
      "##엄마": 8980,
      "아이폰": 8981,
      "여자가": 8982,
      "가자고": 8983,
      "지원금": 8984,
      "금지": 8985,
      "낮에": 8986,
      "단발": 8987,
      "돼요": 8988,
      "베이": 8989,
      "식으로": 8990,
      "이기": 8991,
      "인천": 8992,
      "##이었지": 8993,
      "아니었어": 8994,
      "오늘부터": 8995,
      "시간은": 8996,
      "장난감": 8997,
      "귀엽지": 8998,
      "2시간": 8999,
      "서운": 9000,
      "애견": 9001,
      "자기는": 9002,
      "##수술": 9003,
      "##자들이": 9004,
      "##배송": 9005,
      "##카락": 9006,
      "건강검진": 9007,
      "어렵다": 9008,
      "김선호": 9009,
      "강남": 9010,
      "과연": 9011,
      "시장": 9012,
      "없대": 9013,
      "의무": 9014,
      "케이": 9015,
      "##겠당": 9016,
      "가을에": 9017,
      "들어가면": 9018,
      "특전사": 9019,
      "1위": 9020,
      "세대": 9021,
      "체력이": 9022,
      "##이머": 9023,
      "머리카락": 9024,
      "무서울": 9025,
      "저녁은": 9026,
      "도시락": 9027,
      "배고파": 9028,
      "1등": 9029,
      "대상": 9030,
      "대회": 9031,
      "봤던": 9032,
      "수면": 9033,
      "홈쇼핑": 9034,
      "##용품": 9035,
      "##제를": 9036,
      "엄청난": 9037,
      "괜찮다": 9038,
      "싫어하는": 9039,
      "병원에": 9040,
      "않을까요": 9041,
      "##봐야겠네": 9042,
      "안타까": 9043,
      "그립": 9044,
      "라떼": 9045,
      "못가": 9046,
      "본인이": 9047,
      "월드": 9048,
      "##이란": 9049,
      "얼마전에": 9050,
      "운전면허": 9051,
      "좋아하시": 9052,
      "##이었나": 9053,
      "##같은거": 9054,
      "17": 9055,
      "갔었는데": 9056,
      "못했어": 9057,
      "배웠": 9058,
      "소고기": 9059,
      "온다고": 9060,
      "좋겠는데": 9061,
      "차박": 9062,
      "##보험": 9063,
      "##나가": 9064,
      "##진짜": 9065,
      "##패딩": 9066,
      "있었나": 9067,
      "음식이": 9068,
      "배워보고": 9069,
      "분위기가": 9070,
      "과목": 9071,
      "넘나": 9072,
      "홍삼": 9073,
      "필요가": 9074,
      "해주고": 9075,
      "같어": 9076,
      "안된다": 9077,
      "##데이": 9078,
      "##않아": 9079,
      "기억도": 9080,
      "오빠랑": 9081,
      "동생도": 9082,
      "소리야": 9083,
      "아까워": 9084,
      "바람이": 9085,
      "아메리카": 9086,
      "극혐": 9087,
      "높아": 9088,
      "시내": 9089,
      "전지": 9090,
      "팝콘": 9091,
      "##일은": 9092,
      "##한지": 9093,
      "##한테는": 9094,
      "지나면": 9095,
      "80": 9096,
      "거니": 9097,
      "되더라고": 9098,
      "많대": 9099,
      "했더니": 9100,
      "히히": 9101,
      "샐러드": 9102,
      "굉장히": 9103,
      "독감": 9104,
      "먹으려고": 9105,
      "입양": 9106,
      "전국": 9107,
      "조절": 9108,
      "##랄까": 9109,
      "여행지": 9110,
      "최고의": 9111,
      "카트라이": 9112,
      "여튼": 9113,
      "주지": 9114,
      "치면": 9115,
      "##수있": 9116,
      "##겠노": 9117,
      "강아지랑": 9118,
      "군인들": 9119,
      "당황": 9120,
      "두번": 9121,
      "소리가": 9122,
      "시킨": 9123,
      "크아": 9124,
      "표현": 9125,
      "##치도": 9126,
      "##장면": 9127,
      "##키키": 9128,
      "스트레칭": 9129,
      "다녔어": 9130,
      "되긴": 9131,
      "부터": 9132,
      "싶기도": 9133,
      "차로": 9134,
      "##는디": 9135,
      "##하겠네": 9136,
      "해야겠어": 9137,
      "안되지": 9138,
      "제주도는": 9139,
      "지하철이": 9140,
      "노트북": 9141,
      "2번": 9142,
      "만드": 9143,
      "안마": 9144,
      "열어": 9145,
      "지도": 9146,
      "탈출": 9147,
      "##들고": 9148,
      "그래야겠다": 9149,
      "##시간에": 9150,
      "계절이": 9151,
      "따라서": 9152,
      "비밀": 9153,
      "실망": 9154,
      "퇴사": 9155,
      "##대면": 9156,
      "##줘야지": 9157,
      "영화야": 9158,
      "##려구요": 9159,
      "검진": 9160,
      "관계": 9161,
      "밥은": 9162,
      "쓰지": 9163,
      "잠시": 9164,
      "족구": 9165,
      "존재": 9166,
      "할로": 9167,
      "##아이": 9168,
      "언니랑": 9169,
      "겨울에는": 9170,
      "우리나라가": 9171,
      "이름은": 9172,
      "배고프": 9173,
      "집값이": 9174,
      "고딩": 9175,
      "끌고": 9176,
      "끝까지": 9177,
      "많긴": 9178,
      "소형": 9179,
      "여동생": 9180,
      "예상": 9181,
      "편하지": 9182,
      "##도전": 9183,
      "##치를": 9184,
      "##인데도": 9185,
      "아이스": 9186,
      "병원에서": 9187,
      "기다리고": 9188,
      "엄청나게": 9189,
      "예비군": 9190,
      "동남아": 9191,
      "등등": 9192,
      "선임": 9193,
      "호캉": 9194,
      "환불": 9195,
      "##디오": 9196,
      "##줬는데": 9197,
      "걱정되": 9198,
      "하루종일": 9199,
      "떨어졌": 9200,
      "러시아": 9201,
      "자극": 9202,
      "재료": 9203,
      "저거": 9204,
      "제목": 9205,
      "침대": 9206,
      "##방에": 9207,
      "겨울엔": 9208,
      "찾아봐야겠다": 9209,
      "냄새가": 9210,
      "13": 9211,
      "경차": 9212,
      "믿고": 9213,
      "아녀": 9214,
      "요샌": 9215,
      "일할": 9216,
      "좋네요": 9217,
      "아파트는": 9218,
      "미세먼": 9219,
      "할로윈": 9220,
      "가볍": 9221,
      "갈비": 9222,
      "논란": 9223,
      "달려": 9224,
      "대만": 9225,
      "때려": 9226,
      "바쁜": 9227,
      "생명": 9228,
      "소문": 9229,
      "할텐데": 9230,
      "##더랑": 9231,
      "##증이": 9232,
      "##였던": 9233,
      "지금까지": 9234,
      "아프다": 9235,
      "주위에": 9236,
      "보일러": 9237,
      "땡기": 9238,
      "말아": 9239,
      "못한": 9240,
      "뿌듯": 9241,
      "스마트": 9242,
      "저기": 9243,
      "##데요": 9244,
      "##병원": 9245,
      "하나만": 9246,
      "있으려나": 9247,
      "시끄럽": 9248,
      "어이없": 9249,
      "과외": 9250,
      "단순": 9251,
      "많았어": 9252,
      "연결": 9253,
      "했거든": 9254,
      "##회사": 9255,
      "사람이랑": 9256,
      "챙겨야": 9257,
      "중국에서": 9258,
      "동네에": 9259,
      "도전해": 9260,
      "금요일": 9261,
      "든든": 9262,
      "봤을": 9263,
      "짬뽕": 9264,
      "킥보드": 9265,
      "##로가": 9266,
      "##봐요": 9267,
      "##초에": 9268,
      "##언니": 9269,
      "레이저": 9270,
      "날은": 9271,
      "데는": 9272,
      "번개": 9273,
      "수입": 9274,
      "싶고": 9275,
      "오는데": 9276,
      "재방": 9277,
      "##지네": 9278,
      "##어빵": 9279,
      "##나보네": 9280,
      "좋아하고": 9281,
      "사람마다": 9282,
      "괜찮네": 9283,
      "집에만": 9284,
      "갈수록": 9285,
      "논산": 9286,
      "살면서": 9287,
      "역세권": 9288,
      "태권도": 9289,
      "한동안": 9290,
      "##인듯": 9291,
      "##자를": 9292,
      "##하느라": 9293,
      "##듯이": 9294,
      "##줌마": 9295,
      "가격은": 9296,
      "보내고": 9297,
      "떨어져": 9298,
      "남편은": 9299,
      "재미있는": 9300,
      "바꾸고": 9301,
      "달라서": 9302,
      "데가": 9303,
      "바꿨": 9304,
      "보긴": 9305,
      "샤워": 9306,
      "없을까": 9307,
      "죽어": 9308,
      "##했거든": 9309,
      "##때도": 9310,
      "어떤거": 9311,
      "서울에서": 9312,
      "헬스장": 9313,
      "미치": 9314,
      "보낼": 9315,
      "위주로": 9316,
      "적게": 9317,
      "짧은": 9318,
      "테슬라": 9319,
      "편할": 9320,
      "흥미": 9321,
      "##인줄": 9322,
      "##라던데": 9323,
      "##신이": 9324,
      "##린다고": 9325,
      "친구야": 9326,
      "다니면서": 9327,
      "기대된다": 9328,
      "카트라이더": 9329,
      "가려": 9330,
      "라고": 9331,
      "목욕": 9332,
      "어쩐": 9333,
      "얼음": 9334,
      "챙기는": 9335,
      "##보지": 9336,
      "친구들도": 9337,
      "이쁘게": 9338,
      "걸려서": 9339,
      "로션": 9340,
      "링크": 9341,
      "물고": 9342,
      "버티": 9343,
      "없긴": 9344,
      "통화": 9345,
      "호주": 9346,
      "##이에": 9347,
      "##여도": 9348,
      "웃기다": 9349,
      "따뜻하게": 9350,
      "전지현": 9351,
      "고통": 9352,
      "쉬어": 9353,
      "않으면": 9354,
      "옷은": 9355,
      "출연": 9356,
      "##병이": 9357,
      "##년에": 9358,
      "##으로만": 9359,
      "##이라던데": 9360,
      "누구랑": 9361,
      "행복해": 9362,
      "##스러운": 9363,
      "1인": 9364,
      "1억": 9365,
      "됐네": 9366,
      "마시는": 9367,
      "받지": 9368,
      "버는": 9369,
      "소화": 9370,
      "없애": 9371,
      "장마": 9372,
      "존맛": 9373,
      "지났": 9374,
      "한창": 9375,
      "##든데": 9376,
      "##하거나": 9377,
      "##스에": 9378,
      "##포터": 9379,
      "그러자": 9380,
      "나오던데": 9381,
      "공부는": 9382,
      "유튜브로": 9383,
      "티비에서": 9384,
      "생기고": 9385,
      "못하겠어": 9386,
      "무한도전": 9387,
      "아메리카노": 9388,
      "1도": 9389,
      "놀면": 9390,
      "손가락": 9391,
      "튼튼": 9392,
      "플레이": 9393,
      "##도도": 9394,
      "##왔는데": 9395,
      "##둥이": 9396,
      "친구들은": 9397,
      "위험한": 9398,
      "재택근무": 9399,
      "끝이": 9400,
      "디피": 9401,
      "선크림": 9402,
      "입어야": 9403,
      "있습니다": 9404,
      "조기": 9405,
      "하죠": 9406,
      "아니네": 9407,
      "남자들은": 9408,
      "얘기해": 9409,
      "피부에": 9410,
      "추억이": 9411,
      "놀라": 9412,
      "리뷰": 9413,
      "손톱": 9414,
      "##ㅅㅇ": 9415,
      "그러던데": 9416,
      "그렇더라": 9417,
      "해야겠네": 9418,
      "싫어해": 9419,
      "비용이": 9420,
      "재난지원금": 9421,
      "달고나": 9422,
      "서핑": 9423,
      "싸고": 9424,
      "않니": 9425,
      "##준다고": 9426,
      "##해줘서": 9427,
      "3개": 9428,
      "교수": 9429,
      "나간": 9430,
      "날아": 9431,
      "마이": 9432,
      "마니": 9433,
      "물이": 9434,
      "바뀐": 9435,
      "빠진": 9436,
      "시댁": 9437,
      "아줌마": 9438,
      "족발": 9439,
      "털이": 9440,
      "해볼": 9441,
      "##인을": 9442,
      "##리나": 9443,
      "##달에": 9444,
      "##으세요": 9445,
      "##집은": 9446,
      "##경이": 9447,
      "아프고": 9448,
      "서울에": 9449,
      "귀엽다": 9450,
      "보톡스": 9451,
      "신세계": 9452,
      "16": 9453,
      "기온": 9454,
      "붕어빵": 9455,
      "샴푸": 9456,
      "없지만": 9457,
      "해리": 9458,
      "여행이": 9459,
      "먹어보고": 9460,
      "가족은": 9461,
      "예쁘게": 9462,
      "확진자가": 9463,
      "고맙다": 9464,
      "유투브": 9465,
      "가더라": 9466,
      "같네요": 9467,
      "길어": 9468,
      "받으러": 9469,
      "상처": 9470,
      "애들이랑": 9471,
      "연차": 9472,
      "잡아서": 9473,
      "헷갈": 9474,
      "##보는데": 9475,
      "##프트": 9476,
      "##세가": 9477,
      "##하는거야": 9478,
      "감염": 9479,
      "글쵸": 9480,
      "술을": 9481,
      "실제": 9482,
      "싶으면": 9483,
      "연장": 9484,
      "완료": 9485,
      "잡는": 9486,
      "패키": 9487,
      "##리더라": 9488,
      "##싶은": 9489,
      "강아지들": 9490,
      "다행이지": 9491,
      "나라가": 9492,
      "감성": 9493,
      "갔지": 9494,
      "게다가": 9495,
      "맞았는데": 9496,
      "짧게": 9497,
      "화가": 9498,
      "과학": 9499,
      "다쳤": 9500,
      "동기": 9501,
      "보인": 9502,
      "습관": 9503,
      "좋지만": 9504,
      "피파": 9505,
      "할거야": 9506,
      "##로운": 9507,
      "##해지는": 9508,
      "##스토": 9509,
      "##모가": 9510,
      "##방에서": 9511,
      "그거도": 9512,
      "강아지를": 9513,
      "건강하게": 9514,
      "해주면": 9515,
      "거다": 9516,
      "내기": 9517,
      "스위": 9518,
      "애교": 9519,
      "억울": 9520,
      "##만해": 9521,
      "있는게": 9522,
      "다르게": 9523,
      "가볼까": 9524,
      "양념": 9525,
      "어쨌": 9526,
      "없네요": 9527,
      "##라는데": 9528,
      "##도에": 9529,
      "##분간": 9530,
      "관리를": 9531,
      "보여서": 9532,
      "재미있게": 9533,
      "다양하게": 9534,
      "스페인": 9535,
      "걔는": 9536,
      "대비": 9537,
      "두개": 9538,
      "마사지": 9539,
      "머릿": 9540,
      "배민": 9541,
      "시행": 9542,
      "있죠": 9543,
      "잘라": 9544,
      "##인들": 9545,
      "##르기": 9546,
      "버스는": 9547,
      "오프라인": 9548,
      "감당": 9549,
      "개꿀": 9550,
      "고장": 9551,
      "국물": 9552,
      "메타": 9553,
      "명이": 9554,
      "벚꽃": 9555,
      "베놈": 9556,
      "아끼": 9557,
      "인원": 9558,
      "지는": 9559,
      "학습": 9560,
      "##보여": 9561,
      "##있다": 9562,
      "##게이머": 9563,
      "##았지": 9564,
      "그렇지만": 9565,
      "괜찮았어": 9566,
      "날씨도": 9567,
      "문제는": 9568,
      "일본어": 9569,
      "기다리는": 9570,
      "프로게이머": 9571,
      "개그맨": 9572,
      "14": 9573,
      "거리가": 9574,
      "돈만": 9575,
      "뭐냐": 9576,
      "빨라": 9577,
      "없는거": 9578,
      "오우": 9579,
      "##상은": 9580,
      "##집에": 9581,
      "##덜덜": 9582,
      "그러니": 9583,
      "생각해서": 9584,
      "힘들게": 9585,
      "없어도": 9586,
      "처음부터": 9587,
      "저렴한": 9588,
      "공익": 9589,
      "데서": 9590,
      "떠나": 9591,
      "벌어서": 9592,
      "분들": 9593,
      "쓰는데": 9594,
      "지가": 9595,
      "##이드": 9596,
      "##시대": 9597,
      "##리는데": 9598,
      "이번에도": 9599,
      "비싸더라": 9600,
      "오랜만": 9601,
      "콘서트": 9602,
      "ㅇㅅㅇ": 9603,
      "믿을": 9604,
      "봤었어": 9605,
      "하셔": 9606,
      "화나": 9607,
      "##가에": 9608,
      "##리게": 9609,
      "##위가": 9610,
      "남의": 9611,
      "먹으니까": 9612,
      "완벽": 9613,
      "잘해서": 9614,
      "즐거": 9615,
      "하겠네": 9616,
      "할거": 9617,
      "##일로": 9618,
      "##싶은데": 9619,
      "##센터": 9620,
      "##UV": 9621,
      "시키고": 9622,
      "길게": 9623,
      "넣어서": 9624,
      "동영상": 9625,
      "스크": 9626,
      "잔소리": 9627,
      "찾는": 9628,
      "회복": 9629,
      "##시경": 9630,
      "##할지": 9631,
      "남자는": 9632,
      "시키면": 9633,
      "그려": 9634,
      "넘어가": 9635,
      "발표": 9636,
      "싸이": 9637,
      "여전히": 9638,
      "한의원": 9639,
      "##지마": 9640,
      "##용이": 9641,
      "##들끼리": 9642,
      "##시나": 9643,
      "올라오": 9644,
      "어느정도": 9645,
      "전세계": 9646,
      "이러다": 9647,
      "강화": 9648,
      "나타": 9649,
      "많음": 9650,
      "받았는데": 9651,
      "야채": 9652,
      "장사": 9653,
      "제작": 9654,
      "종이": 9655,
      "한명": 9656,
      "##지나": 9657,
      "##단계": 9658,
      "##해질": 9659,
      "떨어져서": 9660,
      "프랑스": 9661,
      "매장": 9662,
      "비쌀": 9663,
      "왜요": 9664,
      "##해가": 9665,
      "##스템": 9666,
      "언제까지": 9667,
      "아침부터": 9668,
      "귀엽더라": 9669,
      "그것만": 9670,
      "상황이": 9671,
      "슬프다": 9672,
      "5만원": 9673,
      "계산": 9674,
      "단체": 9675,
      "동의": 9676,
      "세트": 9677,
      "손목": 9678,
      "점수": 9679,
      "핑크": 9680,
      "##했구나": 9681,
      "비싸다": 9682,
      "어쩌다가": 9683,
      "일어나서": 9684,
      "기회가": 9685,
      "축하해": 9686,
      "3개월": 9687,
      "SUV": 9688,
      "것처럼": 9689,
      "당분간": 9690,
      "뭐래": 9691,
      "작가": 9692,
      "잘해야": 9693,
      "코트": 9694,
      "##만하면": 9695,
      "##하거든": 9696,
      "##받고": 9697,
      "지금부터": 9698,
      "공부하는": 9699,
      "뉴스에": 9700,
      "부스터샷": 9701,
      "500": 9702,
      "길이": 9703,
      "보조": 9704,
      "사니까": 9705,
      "사야겠다": 9706,
      "스스로": 9707,
      "위생": 9708,
      "이마트": 9709,
      "토요일": 9710,
      "한테": 9711,
      "현재": 9712,
      "##해져": 9713,
      "##동석": 9714,
      "고양이도": 9715,
      "이모티콘": 9716,
      "4년": 9717,
      "제사": 9718,
      "찝찝": 9719,
      "##하우스": 9720,
      "##갈비": 9721,
      "##동네": 9722,
      "##호선": 9723,
      "건가요": 9724,
      "스타벅": 9725,
      "해봐야겠다": 9726,
      "필수야": 9727,
      "남친이랑": 9728,
      "국룰": 9729,
      "되니": 9730,
      "만만": 9731,
      "먹었지": 9732,
      "사도": 9733,
      "약국": 9734,
      "정책": 9735,
      "준다고": 9736,
      "참여": 9737,
      "##이거든": 9738,
      "##도를": 9739,
      "##러운": 9740,
      "나오네": 9741,
      "군대를": 9742,
      "ㅜㅠ": 9743,
      "내도": 9744,
      "놓은": 9745,
      "명작": 9746,
      "모름": 9747,
      "이하": 9748,
      "잠이": 9749,
      "타보고": 9750,
      "##나보다": 9751,
      "##많이": 9752,
      "생활이": 9753,
      "세계적으로": 9754,
      "거겠지": 9755,
      "마취": 9756,
      "물에": 9757,
      "색깔": 9758,
      "소비": 9759,
      "처리": 9760,
      "##거라": 9761,
      "##uv": 9762,
      "##까지만": 9763,
      "백신을": 9764,
      "바래": 9765,
      "아래": 9766,
      "지각": 9767,
      "##두면": 9768,
      "힘들더라": 9769,
      "힘들다고": 9770,
      "없어졌": 9771,
      "##한테도": 9772,
      "옛날에는": 9773,
      "5분": 9774,
      "내말이": 9775,
      "바꿀": 9776,
      "볼래": 9777,
      "봤었는데": 9778,
      "이득": 9779,
      "타러": 9780,
      "티켓": 9781,
      "합격": 9782,
      "후에": 9783,
      "##겠구만": 9784,
      "##리트": 9785,
      "##st": 9786,
      "우리집은": 9787,
      "멋지다": 9788,
      "서비스": 9789,
      "필라테스": 9790,
      "나더라": 9791,
      "실수": 9792,
      "체크": 9793,
      "##이지만": 9794,
      "##이였어": 9795,
      "##거는": 9796,
      "##전드": 9797,
      "##였으면": 9798,
      "##워야": 9799,
      "##부로": 9800,
      "##월드": 9801,
      "결혼한": 9802,
      "걱정이다": 9803,
      "빠르게": 9804,
      "명절에": 9805,
      "환절기": 9806,
      "마다": 9807,
      "오니까": 9808,
      "월요일": 9809,
      "텐트": 9810,
      "##로그": 9811,
      "##퀴즈": 9812,
      "##제는": 9813,
      "##체가": 9814,
      "재밌다": 9815,
      "다녀서": 9816,
      "나가야": 9817,
      "나온다": 9818,
      "시켜서": 9819,
      "쇼핑몰에서": 9820,
      "나머": 9821,
      "몇번": 9822,
      "방역": 9823,
      "비대면": 9824,
      "사줘": 9825,
      "실비": 9826,
      "욕심": 9827,
      "##만의": 9828,
      "##걸까": 9829,
      "##든지": 9830,
      "##일도": 9831,
      "##레반": 9832,
      "##차차": 9833,
      "##쪽으로": 9834,
      "있어야지": 9835,
      "아직까지": 9836,
      "봐야겠네": 9837,
      "기간이": 9838,
      "하와이": 9839,
      "가는거": 9840,
      "비빔": 9841,
      "이구": 9842,
      "이정": 9843,
      "잘했네": 9844,
      "차에": 9845,
      "하신": 9846,
      "하더니": 9847,
      "홍보": 9848,
      "##가루": 9849,
      "##가슴": 9850,
      "##려니": 9851,
      "##할텐데": 9852,
      "##재가": 9853,
      "##동이": 9854,
      "지금이": 9855,
      "외국어": 9856,
      "있으세요": 9857,
      "개인적으로": 9858,
      "명품": 9859,
      "버려": 9860,
      "속이": 9861,
      "수상": 9862,
      "수밖에": 9863,
      "위로": 9864,
      "##리에": 9865,
      "그거랑": 9866,
      "다녀온": 9867,
      "머리를": 9868,
      "동네는": 9869,
      "마동석": 9870,
      "##지게": 9871,
      "##을텐데": 9872,
      "아니더라": 9873,
      "정말요": 9874,
      "가끔씩": 9875,
      "유튜브에": 9876,
      "롱패딩": 9877,
      "영업": 9878,
      "올라서": 9879,
      "존잼": 9880,
      "포항": 9881,
      "##라가": 9882,
      "##트리스": 9883,
      "하지마": 9884,
      "공부하고": 9885,
      "인터넷에": 9886,
      "유튜브에서": 9887,
      "어쩌다": 9888,
      "고등학생": 9889,
      "독서": 9890,
      "뒤집": 9891,
      "로켓": 9892,
      "시기": 9893,
      "장비": 9894,
      "장점": 9895,
      "전주": 9896,
      "##있으면": 9897,
      "##정을": 9898,
      "모르니까": 9899,
      "무슨일": 9900,
      "내용이야": 9901,
      "줄어들": 9902,
      "겨우": 9903,
      "구나": 9904,
      "귀신": 9905,
      "닮았": 9906,
      "아껴": 9907,
      "여론": 9908,
      "잘나": 9909,
      "크면": 9910,
      "폭발": 9911,
      "##산은": 9912,
      "##해지면": 9913,
      "##진다고": 9914,
      "##정민": 9915,
      "##값이": 9916,
      "##싶네": 9917,
      "안되는데": 9918,
      "싸우는": 9919,
      "여친이랑": 9920,
      "일어났": 9921,
      "나빠": 9922,
      "나혼": 9923,
      "낮에는": 9924,
      "닭가슴": 9925,
      "딸기": 9926,
      "미루": 9927,
      "부끄": 9928,
      "안내": 9929,
      "정촌": 9930,
      "죽은": 9931,
      "천안": 9932,
      "태워": 9933,
      "포켓": 9934,
      "##용으로": 9935,
      "##신사": 9936,
      "##눈썹": 9937,
      "결혼해서": 9938,
      "둘이서": 9939,
      "이따가": 9940,
      "캐스퍼": 9941,
      "이구아": 9942,
      "그룹": 9943,
      "반복": 9944,
      "반품": 9945,
      "인가": 9946,
      "전부터": 9947,
      "##하겠어": 9948,
      "##제품": 9949,
      "그렇다면": 9950,
      "날씨에": 9951,
      "공부도": 9952,
      "드라마가": 9953,
      "월드컵": 9954,
      "어쨌든": 9955,
      "갖다": 9956,
      "검정": 9957,
      "게스트": 9958,
      "달리": 9959,
      "레벨": 9960,
      "못함": 9961,
      "버디": 9962,
      "사나": 9963,
      "살지": 9964,
      "읽어": 9965,
      "제주": 9966,
      "착한": 9967,
      "캐나": 9968,
      "탈레반": 9969,
      "패스": 9970,
      "아닌가요": 9971,
      "자세히": 9972,
      "가성비": 9973,
      "suv": 9974,
      "기초": 9975,
      "사이가": 9976,
      "적도": 9977,
      "중에서": 9978,
      "코난": 9979,
      "##나나": 9980,
      "##배우": 9981,
      "##바람": 9982,
      "##입고": 9983,
      "찾아보니까": 9984,
      "좋아하나": 9985,
      "조용히": 9986,
      "런닝맨": 9987,
      "고슴": 9988,
      "내리": 9989,
      "말자": 9990,
      "번에": 9991,
      "분리": 9992,
      "브라": 9993,
      "외출": 9994,
      "의료": 9995,
      "한다던데": 9996,
      "##로워": 9997,
      "##습니까": 9998,
      "들어와": 9999,
      "먹는다": 10000,
      "전기장판": 10001,
      "자연스럽게": 10002,
      "어울려": 10003,
      "심각한": 10004,
      "정확히": 10005,
      "어떨까": 10006,
      "개웃": 10007,
      "느꼈": 10008,
      "똑같아": 10009,
      "물을": 10010,
      "아웃": 10011,
      "애초에": 10012,
      "쪽에": 10013,
      "##구리": 10014,
      "##접종": 10015,
      "해야해": 10016,
      "##하다는": 10017,
      "언제부터": 10018,
      "여자들은": 10019,
      "내일부터": 10020,
      "행복한": 10021,
      "수영장": 10022,
      "저희는": 10023,
      "잘생겼": 10024,
      "300": 10025,
      "매력이": 10026,
      "시청": 10027,
      "신선": 10028,
      "에스": 10029,
      "인강": 10030,
      "있겠어": 10031,
      "작아서": 10032,
      "조합": 10033,
      "줬어": 10034,
      "타지": 10035,
      "##식도": 10036,
      "##디션": 10037,
      "##급이": 10038,
      "##율이": 10039,
      "##권이": 10040,
      "아니겠지": 10041,
      "멋있다": 10042,
      "신경쓰": 10043,
      "부작용이": 10044,
      "놀랐어": 10045,
      "음주운전": 10046,
      "되겠지": 10047,
      "맞는데": 10048,
      "먹으": 10049,
      "모기": 10050,
      "버리는": 10051,
      "사먹": 10052,
      "속눈썹": 10053,
      "스테": 10054,
      "않았는데": 10055,
      "알러지": 10056,
      "와야": 10057,
      "진작": 10058,
      "##단이": 10059,
      "##드릴": 10060,
      "##대에": 10061,
      "좋아하잖아": 10062,
      "음식은": 10063,
      "아쉽네": 10064,
      "마시면": 10065,
      "가긴": 10066,
      "단어": 10067,
      "매달": 10068,
      "좋겠네요": 10069,
      "진정": 10070,
      "##시네": 10071,
      "##할래": 10072,
      "##준다": 10073,
      "##금도": 10074,
      "##되나": 10075,
      "게임인데": 10076,
      "괜찮다고": 10077,
      "이용하는": 10078,
      "가봐야": 10079,
      "곱창": 10080,
      "꿀잼": 10081,
      "되서": 10082,
      "뭐라도": 10083,
      "시스템": 10084,
      "타야": 10085,
      "##하기는": 10086,
      "##랑이": 10087,
      "##영업": 10088,
      "미국이": 10089,
      "음식도": 10090,
      "귀엽겠다": 10091,
      "보이스": 10092,
      "고생이": 10093,
      "2차까지": 10094,
      "끝내": 10095,
      "두꺼": 10096,
      "스피": 10097,
      "시도": 10098,
      "오버": 10099,
      "우승": 10100,
      "유학": 10101,
      "진지": 10102,
      "탈색": 10103,
      "##식을": 10104,
      "가족들이": 10105,
      "부모님도": 10106,
      "옛날엔": 10107,
      "노래가": 10108,
      "영향을": 10109,
      "간단하게": 10110,
      "가볍게": 10111,
      "해리포터": 10112,
      "그동안": 10113,
      "모가": 10114,
      "싸워": 10115,
      "이왕": 10116,
      "중인데": 10117,
      "초밥": 10118,
      "퇴직": 10119,
      "하실": 10120,
      "##할거야": 10121,
      "##달라": 10122,
      "##였음": 10123,
      "벌써부터": 10124,
      "무섭더라": 10125,
      "이미지": 10126,
      "##이었던": 10127,
      "길에": 10128,
      "나라도": 10129,
      "따고": 10130,
      "마저": 10131,
      "먹는거": 10132,
      "밀키": 10133,
      "엄빠": 10134,
      "일교": 10135,
      "적어": 10136,
      "채널": 10137,
      "편지": 10138,
      "홍콩": 10139,
      "완전히": 10140,
      "남자애": 10141,
      "나이에": 10142,
      "된다면": 10143,
      "저렴하게": 10144,
      "거북이": 10145,
      "닭가슴살": 10146,
      "기숙": 10147,
      "끝난": 10148,
      "들을": 10149,
      "레전드": 10150,
      "멋져": 10151,
      "서든": 10152,
      "아름": 10153,
      "양궁": 10154,
      "##아파": 10155,
      "##겠냐": 10156,
      "##전이": 10157,
      "친구네": 10158,
      "문제지": 10159,
      "나왔으면": 10160,
      "사진도": 10161,
      "값이": 10162,
      "다치": 10163,
      "더욱": 10164,
      "맞게": 10165,
      "별루": 10166,
      "수분": 10167,
      "중학생": 10168,
      "차려": 10169,
      "##때마다": 10170,
      "##카롱": 10171,
      "##던데요": 10172,
      "재밌긴": 10173,
      "다음주에": 10174,
      "필요할": 10175,
      "누나도": 10176,
      "스릴러": 10177,
      "ost": 10178,
      "매주": 10179,
      "면역": 10180,
      "안하는": 10181,
      "어지": 10182,
      "왜이": 10183,
      "유퀴즈": 10184,
      "##아빠": 10185,
      "##겠는걸": 10186,
      "##서는": 10187,
      "##해지고": 10188,
      "##바지": 10189,
      "##는데도": 10190,
      "괜찮았": 10191,
      "나오잖아": 10192,
      "아이들은": 10193,
      "여자는": 10194,
      "비싸긴": 10195,
      "아프지": 10196,
      "할머니가": 10197,
      "아버님": 10198,
      "KT": 10199,
      "봤네": 10200,
      "식품": 10201,
      "요가": 10202,
      "하세요": 10203,
      "항공": 10204,
      "##보기": 10205,
      "##료가": 10206,
      "##러서": 10207,
      "##성도": 10208,
      "하하하": 10209,
      "하나는": 10210,
      "맛있는거": 10211,
      "그랬으면": 10212,
      "다이어트는": 10213,
      "바닷가": 10214,
      "것들": 10215,
      "고무": 10216,
      "끓여": 10217,
      "도둑": 10218,
      "됐다": 10219,
      "빠져서": 10220,
      "사게": 10221,
      "안오": 10222,
      "알겠다": 10223,
      "있다니": 10224,
      "장점이": 10225,
      "제목이": 10226,
      "타봤어": 10227,
      "페이": 10228,
      "##무새": 10229,
      "##셨는데": 10230,
      "##였구나": 10231,
      "1년에": 10232,
      "피해가": 10233,
      "스키장": 10234,
      "구조": 10235,
      "도서": 10236,
      "맛나": 10237,
      "비해": 10238,
      "빠지는": 10239,
      "선배": 10240,
      "자영업": 10241,
      "전용": 10242,
      "찍는": 10243,
      "평균": 10244,
      "플스": 10245,
      "하기로": 10246,
      "해가": 10247,
      "##산에": 10248,
      "##대도": 10249,
      "##던디": 10250,
      "어제는": 10251,
      "누구야": 10252,
      "스타일이": 10253,
      "생각나네": 10254,
      "고슴도": 10255,
      "까다": 10256,
      "될지": 10257,
      "라는": 10258,
      "바보": 10259,
      "사자": 10260,
      "얼만": 10261,
      "입는": 10262,
      "지어": 10263,
      "짧아": 10264,
      "쳐다": 10265,
      "##이기": 10266,
      "##주인": 10267,
      "##금을": 10268,
      "##바닥": 10269,
      "##약이": 10270,
      "##볶음": 10271,
      "생각난다": 10272,
      "운전을": 10273,
      "20분": 10274,
      "교육을": 10275,
      "신랑이": 10276,
      "크리스마스": 10277,
      "빠질": 10278,
      "신민": 10279,
      "심즈": 10280,
      "안들": 10281,
      "편이": 10282,
      "하필": 10283,
      "##식은": 10284,
      "##화를": 10285,
      "##모님": 10286,
      "여러가지": 10287,
      "적당한": 10288,
      "가상": 10289,
      "단백": 10290,
      "목숨": 10291,
      "배워서": 10292,
      "사천": 10293,
      "셋이": 10294,
      "손해": 10295,
      "어째": 10296,
      "짜장면": 10297,
      "치아": 10298,
      "##이냐": 10299,
      "##다리": 10300,
      "##드리": 10301,
      "##기면": 10302,
      "##러워서": 10303,
      "지금이라도": 10304,
      "얘기를": 10305,
      "아파트에": 10306,
      "뉴스에서": 10307,
      "힘드네": 10308,
      "어쩐지": 10309,
      "21": 10310,
      "고소": 10311,
      "길고": 10312,
      "끝날": 10313,
      "번은": 10314,
      "소주": 10315,
      "좋더라구": 10316,
      "있는거야": 10317,
      "있나봐": 10318,
      "어울리는": 10319,
      "비트코인": 10320,
      "가벼": 10321,
      "무너": 10322,
      "버리": 10323,
      "선풍": 10324,
      "아우": 10325,
      "작업": 10326,
      "출산": 10327,
      "##받아": 10328,
      "그러나": 10329,
      "친구한테": 10330,
      "어려서": 10331,
      "보이던데": 10332,
      "알았네": 10333,
      "불쌍해": 10334,
      "1번": 10335,
      "간만에": 10336,
      "덥고": 10337,
      "볶음": 10338,
      "비오": 10339,
      "이겨": 10340,
      "주기적으로": 10341,
      "짱이야": 10342,
      "##시가": 10343,
      "##하실": 10344,
      "##하더라구": 10345,
      "##싸움": 10346,
      "##향이": 10347,
      "좋아한다": 10348,
      "시작하면": 10349,
      "좋았던": 10350,
      "남친이": 10351,
      "답답해": 10352,
      "고속도로": 10353,
      "같다고": 10354,
      "걷는": 10355,
      "군데": 10356,
      "눈도": 10357,
      "맞습니다": 10358,
      "멀어서": 10359,
      "무궁": 10360,
      "블로그": 10361,
      "뽑아": 10362,
      "서서": 10363,
      "숙제": 10364,
      "에너": 10365,
      "전동": 10366,
      "키가": 10367,
      "##드만": 10368,
      "##마블": 10369,
      "##색이": 10370,
      "##함이": 10371,
      "먹어봤어": 10372,
      "멋있는": 10373,
      "머릿결": 10374,
      "가득": 10375,
      "군인이": 10376,
      "때매": 10377,
      "벌고": 10378,
      "사오": 10379,
      "앵무새": 10380,
      "칭찬": 10381,
      "코코": 10382,
      "폭력": 10383,
      "##차도": 10384,
      "맞아도": 10385,
      "아니니": 10386,
      "다음엔": 10387,
      "이러다가": 10388,
      "한달에": 10389,
      "만약에": 10390,
      "호캉스": 10391,
      "나라는": 10392,
      "누워서": 10393,
      "뒤로": 10394,
      "많구나": 10395,
      "벗고": 10396,
      "트렌": 10397,
      "##원에": 10398,
      "##자너": 10399,
      "##식품": 10400,
      "##연이": 10401,
      "##색으로": 10402,
      "아무나": 10403,
      "10만": 10404,
      "비싸게": 10405,
      "20년": 10406,
      "개선": 10407,
      "걔가": 10408,
      "대선": 10409,
      "무난": 10410,
      "연구": 10411,
      "울고": 10412,
      "카레": 10413,
      "카메": 10414,
      "화이트": 10415,
      "효도": 10416,
      "##치킨": 10417,
      "##주라": 10418,
      "##저히": 10419,
      "##석이": 10420,
      "사람한테": 10421,
      "다른거": 10422,
      "몰라요": 10423,
      "선수가": 10424,
      "사건이": 10425,
      "##라스틱": 10426,
      "간호": 10427,
      "관리가": 10428,
      "내야": 10429,
      "노잼": 10430,
      "되려나": 10431,
      "싸웠": 10432,
      "안해도": 10433,
      "않더라": 10434,
      "여기도": 10435,
      "전투": 10436,
      "조정": 10437,
      "조심히": 10438,
      "형도": 10439,
      "##보가": 10440,
      "##다닐": 10441,
      "##드위": 10442,
      "##한거야": 10443,
      "##디슈": 10444,
      "걱정하지": 10445,
      "어제도": 10446,
      "관련된": 10447,
      "지리산": 10448,
      "고급": 10449,
      "군복": 10450,
      "님은": 10451,
      "루미": 10452,
      "마인": 10453,
      "못하는데": 10454,
      "물놀이": 10455,
      "방문": 10456,
      "씻고": 10457,
      "일기": 10458,
      "할만": 10459,
      "했지만": 10460,
      "화면": 10461,
      "##겠니": 10462,
      "##상을": 10463,
      "##정은": 10464,
      "##큐브": 10465,
      "우리나라에서": 10466,
      "좋을텐데": 10467,
      "궁금해서": 10468,
      "좋아하는구나": 10469,
      "보여줘": 10470,
      "안돼서": 10471,
      "어울릴": 10472,
      "어머니가": 10473,
      "모가디슈": 10474,
      "독일": 10475,
      "딸이": 10476,
      "뚜벅": 10477,
      "목소리": 10478,
      "못하지": 10479,
      "바다가": 10480,
      "생리": 10481,
      "아가": 10482,
      "이마": 10483,
      "이웃": 10484,
      "있네요": 10485,
      "타본": 10486,
      "##하노": 10487,
      "##졌다": 10488,
      "다니는데": 10489,
      "마음을": 10490,
      "나온다고": 10491,
      "학원을": 10492,
      "선수들": 10493,
      "캐나다": 10494,
      "계곡": 10495,
      "깔아": 10496,
      "놓으면": 10497,
      "말하면": 10498,
      "목이": 10499,
      "몰아": 10500,
      "보낸": 10501,
      "얘기가": 10502,
      "어리": 10503,
      "찍은": 10504,
      "처럼": 10505,
      "##겠던데": 10506,
      "##너무": 10507,
      "나오는거": 10508,
      "생각해보면": 10509,
      "있을거야": 10510,
      "봐야겠어": 10511,
      "피곤해": 10512,
      "해봤지": 10513,
      "데려가": 10514,
      "지난번에": 10515,
      "상관없": 10516,
      "피씨방": 10517,
      "바퀴": 10518,
      "별거": 10519,
      "즐겁": 10520,
      "##이상": 10521,
      "##소가": 10522,
      "##바로": 10523,
      "##통이": 10524,
      "##운동": 10525,
      "저도요": 10526,
      "연애를": 10527,
      "불편한": 10528,
      "해봐서": 10529,
      "영향이": 10530,
      "마라탕": 10531,
      "스토리": 10532,
      "갯마을": 10533,
      "관절": 10534,
      "급하게": 10535,
      "노노": 10536,
      "복지": 10537,
      "써도": 10538,
      "이걸": 10539,
      "체질": 10540,
      "그래그래": 10541,
      "맛있었어": 10542,
      "어떤데": 10543,
      "드라마는": 10544,
      "어려워서": 10545,
      "난리야": 10546,
      "귀엽고": 10547,
      "특별한": 10548,
      "90": 10549,
      "공장": 10550,
      "다친": 10551,
      "돌고": 10552,
      "들려": 10553,
      "맛은": 10554,
      "산청": 10555,
      "생김": 10556,
      "쉬워": 10557,
      "왔지": 10558,
      "일요일": 10559,
      "자라": 10560,
      "종목": 10561,
      "주의": 10562,
      "찾기": 10563,
      "청년": 10564,
      "했구나": 10565,
      "##랬는데": 10566,
      "##받는": 10567,
      "##페이": 10568,
      "그렇구만": 10569,
      "괜찮더라": 10570,
      "언제나": 10571,
      "생각해요": 10572,
      "나왔던": 10573,
      "어때요": 10574,
      "보내는": 10575,
      "아버지가": 10576,
      "격리": 10577,
      "단계": 10578,
      "따듯": 10579,
      "막걸": 10580,
      "방학": 10581,
      "빌라": 10582,
      "연기를": 10583,
      "잃어버": 10584,
      "자면": 10585,
      "하거든": 10586,
      "##지더라": 10587,
      "##어로": 10588,
      "##겨울": 10589,
      "##간에": 10590,
      "##피아": 10591,
      "운전병": 10592,
      "여름은": 10593,
      "알았다": 10594,
      "올리브": 10595,
      "35": 10596,
      "가려면": 10597,
      "넓은": 10598,
      "넣으면": 10599,
      "두피": 10600,
      "마무": 10601,
      "몇개": 10602,
      "못하게": 10603,
      "물리": 10604,
      "보네요": 10605,
      "블루": 10606,
      "양이": 10607,
      "전철": 10608,
      "차량": 10609,
      "테트리스": 10610,
      "트러": 10611,
      "##있음": 10612,
      "##으론": 10613,
      "##오빠": 10614,
      "##탈출": 10615,
      "들어온": 10616,
      "회사도": 10617,
      "무서웠": 10618,
      "키워보고": 10619,
      "있으니깐": 10620,
      "쿠팡에서": 10621,
      "성형수술": 10622,
      "거부": 10623,
      "고르": 10624,
      "목소": 10625,
      "뭐하고": 10626,
      "않다": 10627,
      "죄송": 10628,
      "지갑": 10629,
      "크지": 10630,
      "한판": 10631,
      "##였네": 10632,
      "##겟다": 10633,
      "좋아했": 10634,
      "생각할": 10635,
      "아이는": 10636,
      "날씨는": 10637,
      "배우면": 10638,
      "가능할": 10639,
      "##하기로": 10640,
      "느껴져": 10641,
      "극장판": 10642,
      "누구나": 10643,
      "드론": 10644,
      "마카롱": 10645,
      "설거지": 10646,
      "싸울": 10647,
      "왜냐": 10648,
      "입으면": 10649,
      "자차": 10650,
      "제모": 10651,
      "춥지": 10652,
      "플라스틱": 10653,
      "##미는": 10654,
      "##과는": 10655,
      "##쯤은": 10656,
      "##갔는데": 10657,
      "##이랑은": 10658,
      "시작했어": 10659,
      "3시간": 10660,
      "거절": 10661,
      "그저": 10662,
      "돈까": 10663,
      "마약": 10664,
      "몰라도": 10665,
      "샌드위": 10666,
      "의자": 10667,
      "한지": 10668,
      "##이겠다": 10669,
      "##되네": 10670,
      "##터널": 10671,
      "##성화": 10672,
      "##박스": 10673,
      "##간다고": 10674,
      "##랐어": 10675,
      "물어보고": 10676,
      "있을까요": 10677,
      "있으신": 10678,
      "연예인들": 10679,
      "여친이": 10680,
      "정해져": 10681,
      "쿠키런": 10682,
      "거만": 10683,
      "거로": 10684,
      "경력": 10685,
      "다섯": 10686,
      "많나": 10687,
      "보증": 10688,
      "없던데": 10689,
      "오를": 10690,
      "##사진": 10691,
      "##거면": 10692,
      "##소음": 10693,
      "##금은": 10694,
      "##성에": 10695,
      "사람이야": 10696,
      "마음은": 10697,
      "보내줘": 10698,
      "떨어진": 10699,
      "가까워서": 10700,
      "배워야": 10701,
      "정신이": 10702,
      "걸리지": 10703,
      "곳이야": 10704,
      "뉴욕": 10705,
      "먹어요": 10706,
      "몇년": 10707,
      "빠졌어": 10708,
      "식물": 10709,
      "안됨": 10710,
      "친절": 10711,
      "##상도": 10712,
      "##레스": 10713,
      "##봤다": 10714,
      "정말로": 10715,
      "재밌던데": 10716,
      "키우는데": 10717,
      "여자들": 10718,
      "추천해줘": 10719,
      "시켜야": 10720,
      "준비해": 10721,
      "있다던데": 10722,
      "계단": 10723,
      "낮은": 10724,
      "댓글": 10725,
      "됐으면": 10726,
      "되었": 10727,
      "모시고": 10728,
      "무지": 10729,
      "버렸": 10730,
      "안다": 10731,
      "오피스": 10732,
      "자야": 10733,
      "조아": 10734,
      "주민": 10735,
      "크크": 10736,
[...]
