[PAD]
[UNK]
[CLS]
[SEP]
[MASK]
!
"
#
$
%
&
'
(
)
*
+
,
-
.
/
0
1
2
3
4
5
6
7
8
9
:
;
<
=
>
?
@
A
B
C
D
E
F
G
H
I
J
K
L
M
N
O
P
Q
R
S
T
U
V
W
X
Y
Z
[
\
]
^
_
`
a
b
c
d
e
f
g
h
i
j
k
l
m
n
o
p
q
r
s
t
u
v
w
x
y
z
|
}
~
·
ˊ
ˋ
ˎ
ˏ
˗
̀
̄
̆
̈
̎
̑
ට
ᄏ
ᄒ
ᅟ
ᅮ
ᅲ
ᆢ
ᴗ
–
‘
’
“
”
•
…
→
↔
∼
☆
♡
✧
❤
〰
ㄱ
ㄲ
ㄳ
ㄴ
ㄷ
ㄸ
ㄹ
ㄻ
ㅁ
ㅂ
ㅃ
ㅅ
ㅆ
ㅇ
ㅈ
ㅉ
ㅊ
ㅋ
ㅌ
ㅍ
ㅎ
ㅏ
ㅐ
ㅑ
ㅒ
ㅓ
ㅔ
ㅕ
ㅖ
ㅗ
ㅙ
ㅚ
ㅛ
ㅜ
ㅝ
ㅟ
ㅠ
ㅡ
ㅢ
ㅣ
ㆍ
㎏
㎝
㎞
㎡
中
原
和
岳
岸
弘
文
田
石
雄
꙼
가
각
간
갇
갈
갉
감
갑
값
갓
갔
강
갖
갗
갘
같
갚
갛
개
객
갠
갤
갬
갭
갯
갰
갱
갲
갴
갵
갷
갸
갹
걀
걋
걌
걍
걐
걑
걔
걘
거
걱
건
걷
걸
검
겁
것
겄
겅
겆
겈
겉
겋
게
겎
겐
겔
겜
겟
겠
겡
겣
겤
겦
겧
겨
격
겪
견
겯
결
겸
겹
겻
겼
경
곀
곁
곂
계
곈
곌
곗
곘
곜
고
곡
곤
곧
골
곪
곯
곰
곱
곳
공
곶
곷
곸
곺
과
곽
관
괄
괌
광
괔
괘
괜
괞
괨
괬
괭
괯
괴
괸
굉
굎
교
굔
굠
굣
굥
굨
구
국
군
굲
굳
굴
굵
굶
굼
굽
굿
궁
궂
궄
궅
궈
권
궐
궜
궤
궸
귀
귄
귈
귐
귑
귓
귘
규
귝
균
귤
귯
귱
그
극
근
귿
글
긁
금
급
긋
긌
긍
긐
긔
긩
기
긱
긴
길
긺
김
깁
깃
깄
깅
깈
깉
깊
깋
까
깍
깎
깐
깔
깜
깝
깟
깠
깡
깢
깤
깥
깦
깧
깨
깬
깰
깸
깹
깻
깼
깽
꺄
꺅
꺌
꺙
꺠
꺰
꺳
꺵
꺼
꺽
꺾
껀
껄
껉
껌
껍
껏
껐
껑
껒
껔
껕
께
껜
껬
껭
껰
껴
껼
꼇
꼈
꼉
꼌
꼐
꼔
꼬
꼭
꼰
꼳
꼴
꼼
꼽
꼿
꽁
꽂
꽃
꽈
꽉
꽌
꽐
꽝
꽤
꽥
꾀
꾁
꾕
꾸
꾹
꾼
꿀
꿇
꿈
꿉
꿋
꿍
꿎
꿏
꿑
꿔
꿘
꿜
꿧
꿨
꿩
꿰
뀌
뀐
뀔
뀜
뀨
뀬
뀰
끄
끅
끈
끊
끌
끓
끔
끕
끗
끙
끛
끝
끼
끽
낀
낄
낌
낍
낑
나
낙
낚
낛
난
낞
낟
날
낡
낢
남
납
낫
났
낭
낮
낯
낰
낱
낲
낳
내
낵
낶
낸
낼
냄
냅
냇
냈
냉
냌
냏
냐
냑
냔
냘
냠
냣
냥
냨
냫
냬
너
넉
넋
넌
널
넒
넓
넗
넘
넙
넚
넛
넜
넝
넠
넣
네
넥
넨
넫
넬
넴
넵
넷
넹
넼
넽
넿
녀
녁
년
념
녓
녔
녕
녖
녘
녜
녯
녱
녴
노
녹
논
놀
놈
놉
놌
농
놐
놑
높
놓
놔
놧
놨
놬
놰
뇌
뇨
뇬
뇸
뇻
뇽
눀
눂
누
눅
눈
눌
눔
눕
눗
눙
눜
눞
눠
눴
눼
뉑
뉘
뉜
뉨
뉭
뉴
뉵
뉸
뉼
늄
늉
늏
느
늑
는
늕
늗
늘
늙
늠
늡
늣
능
늦
늨
늩
늪
늬
닁
니
닉
닌
닏
닐
님
닙
닛
닜
닝
닞
닠
닢
닣
다
닥
닦
단
닪
닫
달
닭
닮
닳
담
답
닷
당
닼
닿
대
댁
댄
댈
댐
댑
댓
댔
댕
댖
댘
댜
댥
댯
댱
댴
댸
덌
더
덕
던
덚
덛
덜
덟
덤
덥
덧
덨
덩
덫
덮
덯
데
덱
덴
덷
델
뎀
뎁
뎃
뎄
뎅
뎈
뎉
뎊
뎋
뎌
뎐
뎔
뎟
뎠
뎨
도
독
돈
돋
돌
돐
돔
돕
돗
동
돜
돟
돠
돨
돰
돼
됀
됃
됄
됌
됏
됐
됑
됔
되
됙
된
될
됤
됨
됩
됫
됬
됭
됴
둉
두
둑
둔
둘
둠
둡
둣
둥
둨
둫
둬
둿
뒀
뒈
뒤
뒷
뒹
듀
듄
듈
듐
듕
드
득
든
듡
듢
듣
들
듦
듬
듭
듯
등
듴
듷
듸
디
딕
딘
딛
딜
딤
딥
딧
딨
딩
딪
딫
딬
딮
따
딱
딲
딴
딸
땀
땁
땃
땄
땅
땈
땋
때
땍
땐
땔
땜
땟
땠
땡
땢
땤
땨
땸
땽
떄
떈
떌
떔
떗
떘
떙
떠
떡
떢
떤
떨
떫
떰
떱
떳
떴
떵
떻
떼
뗀
뗄
뗌
뗏
뗐
뗘
뗬
뗴
뗼
또
똑
똘
똟
똠
똥
똨
똬
똭
뙇
뙜
뙤
뚜
뚝
뚠
뚤
뚫
뚬
뚯
뚱
뚴
뚸
뛔
뛰
뛴
뛸
뜀
뜁
뜅
뜌
뜨
뜩
뜬
뜯
뜰
뜸
뜹
뜻
띃
띄
띈
띌
띔
띠
띡
띤
띱
띵
라
락
란
랃
랄
랅
람
랍
랏
랐
랑
랔
랖
랗
래
랙
랜
랟
랠
램
랩
랫
랬
랭
랰
랲
랳
랴
략
랸
럅
럇
럈
량
럤
러
럭
런
럴
럼
럽
럿
렀
렁
렂
렄
렇
레
렉
렌
렐
렘
렙
렛
렜
렝
렠
려
력
련
렬
렴
렵
렷
렸
령
렺
렼
렿
례
롄
로
록
론
롣
롤
롬
롭
롯
롱
롴
롶
롷
롸
롹
롼
뢈
뢍
뢓
뢔
뢰
료
룐
룜
룟
룡
룧
루
룩
룬
룰
룸
룹
룻
룽
뤀
뤄
뤗
뤘
뤠
뤼
륌
류
륙
륜
률
륨
륭
르
륵
륶
른
를
름
릅
릇
릉
릎
릏
릐
릔
리
릭
릯
린
릳
릴
림
립
릿
맀
링
맄
맆
맇
마
막
만
많
맏
말
맑
맘
맙
맛
맜
망
맞
맟
맠
맡
맣
매
맥
맨
맫
맬
맴
맵
맷
맸
맹
맺
맻
먀
먄
먕
먖
먗
머
먹
먼
먿
멀
멂
멈
멉
멋
멍
멎
멐
멓
메
멕
멘
멛
멜
멤
멥
멧
멩
멬
며
멱
면
멶
멸
몀
몄
명
몆
몇
몈
몌
모
목
몪
몫
몬
몰
몷
몸
몹
못
몽
뫃
뫄
뫘
뫠
뫼
묘
묜
묠
묭
무
묵
묶
문
묻
물
묽
뭄
뭅
뭇
뭉
뭌
뭍
뭐
뭔
뭗
뭘
뭡
뭣
뭤
뭥
뭨
뭫
뭬
뮈
뮌
뮤
뮨
뮬
므
믄
믈
믐
믓
믜
믱
미
믹
민
믿
밀
밈
밉
밋
밌
밍
밎
및
밐
밑
바
박
밖
반
받
발
밝
밟
밤
밥
밧
밨
방
밪
밫
밬
밭
배
백
밴
밸
뱀
뱁
뱃
뱅
뱉
뱌
뱍
뱔
뱡
버
벅
번
벋
벌
범
법
벗
벘
벙
벚
벛
벜
벟
베
벡
벤
벨
벳
벵
벼
벽
변
볃
별
볈
볍
볏
볐
병
볔
볕
보
복
볶
본
볻
볼
봄
봅
봇
봈
봉
봊
봌
봐
봑
봒
봓
봣
봤
봥
봨
봫
봬
뵀
뵈
뵉
뵌
뵐
뵘
뵙
뵜
뵤
부
북
분
붇
불
붉
붌
붐
붑
붓
붕
붘
붙
붸
뷔
뷰
뷴
뷸
븃
브
븍
븐
블
븜
븝
븟
븨
비
빅
빈
빌
빔
빕
빗
빘
빙
빚
빛
빜
빠
빡
빤
빧
빨
빰
빱
빳
빴
빵
빻
빼
빽
뺀
뺄
뺌
뺏
뺐
뺑
뺘
뺨
뺴
뺵
뺶
뺸
뺼
뻄
뻇
뻈
뻉
뻐
뻑
뻔
뻗
뻘
뻠
뻣
뻤
뻥
뻬
뻰
뼈
뼉
뼘
뼛
뽀
뽁
뽄
뽈
뽐
뽑
뽕
뽝
뾰
뾱
뿅
뿌
뿍
뿐
뿔
뿕
뿜
뿟
뿡
뿨
쀼
쁘
쁜
쁠
쁨
쁩
쁭
삐
삑
삔
삘
삠
삣
삥
사
삭
삮
삯
산
삳
살
삵
삶
삻
삼
삽
삿
샀
상
샄
샅
샆
샇
새
색
샌
샐
샘
샛
샜
생
샠
샣
샤
샥
샨
샬
샴
샵
샷
샸
샹
샾
섀
섖
서
석
섞
선
섣
설
섥
섬
섭
섮
섯
섰
성
섴
섷
세
섹
센
셀
셈
셉
셋
셌
셍
셔
셕
션
셜
셤
셥
셧
셨
셩
셰
셴
솀
소
속
솎
손
솓
솔
솜
솝
솟
송
솤
솥
솨
솩
솬
솰
쇄
쇠
쇤
쇳
쇼
쇽
숀
숄
숍
숏
숑
숖
수
숙
순
숟
술
숨
숩
숫
숭
숯
숰
숱
숲
숴
쉅
쉈
쉉
쉐
쉑
쉘
쉣
쉨
쉬
쉭
쉰
쉴
쉼
쉽
쉿
슁
슈
슉
슌
슐
슘
슛
슝
슠
스
슥
슨
슬
슭
슴
습
슷
승
슺
슼
슽
싀
싄
시
식
싞
신
싡
싢
싣
실
싦
싫
심
십
싯
싰
싱
싳
싴
싶
싷
싸
싹
싼
싿
쌀
쌈
쌉
쌋
쌌
쌍
쌐
쌓
쌔
쌘
쌜
쌤
쌥
쌨
쌩
쌰
쌴
썁
썌
썜
썡
써
썩
썪
썬
썯
썰
썸
썹
썻
썼
썽
쎀
쎄
쎈
쎌
쎔
쎕
쎗
쎘
쎠
쎴
쎵
쎼
쏀
쏄
쏌
쏘
쏙
쏜
쏟
쏠
쏧
쏨
쏭
쏰
쏴
쏵
쏼
쐇
쐈
쐐
쐤
쐬
쐴
쑈
쑝
쑤
쑥
쑨
쑴
쑹
쒀
쒕
쒸
쒹
쓔
쓕
쓩
쓰
쓱
쓴
쓸
씀
씁
씅
씈
씌
씨
씩
씪
씬
씯
씰
씸
씹
씻
씼
씽
씾
앀
앃
아
악
앆
안
앉
않
앋
알
앍
앎
앏
앓
암
압
앖
앗
았
앙
앚
앜
앝
앞
앟
애
액
앤
앨
앰
앱
앳
앴
앵
앸
야
약
얀
얄
얇
얊
얌
얍
얎
얏
얐
양
얒
얔
얕
얖
얗
얘
얙
얜
얫
얬
어
억
언
얹
얺
얻
얼
얽
엄
업
없
엇
었
엉
엊
엌
엍
엎
엏
에
엑
엔
엘
엠
엡
엣
엥
엨
엫
여
역
엮
연
엳
열
엶
엷
염
엽
엿
였
영
옄
옅
옆
옇
예
옌
옐
옘
옙
옛
옜
옝
오
옥
온
옫
올
옮
옳
옴
옵
옶
옷
옸
옹
옻
옼
와
왁
완
왅
왈
왐
왑
왓
왔
왕
왘
왜
왠
왤
왭
왯
왱
왴
왶
외
왼
욌
욐
요
욕
욘
욛
욜
욤
욥
욧
용
욪
욬
욯
우
욱
운
울
움
웁
웃
웄
웅
웇
웈
웋
워
웍
원
웓
월
웜
웝
웟
웠
웡
웢
웤
웥
웧
웨
웩
웬
웰
웸
웹
웻
웼
위
윅
윈
윌
윔
윕
윗
윙
윟
유
육
윤
율
윰
윳
융
윷
윸
으
윽
은
을
읊
읋
음
읍
읎
읏
읐
응
읓
읔
읕
읖
읗
의
읜
읠
읬
읭
읮
읰
이
익
인
읹
읺
읻
일
읽
읾
잃
임
입
잆
잇
있
잉
잊
잌
잍
잎
잏
자
작
잔
잖
잗
잘
잙
잚
잠
잡
잣
잤
장
잦
잨
잫
재
잭
잰
잴
잼
잽
잿
쟀
쟁
쟈
쟉
쟌
쟐
쟘
쟛
쟝
쟠
쟤
쟨
저
적
전
절
젊
젋
젏
점
접
젓
젔
정
젖
젘
젛
제
젝
젠
젢
젤
젬
젭
젯
젱
젲
젴
져
젹
젺
젼
졀
졈
졋
졌
졍
졎
졐
졔
조
족
존
졸
좀
좁
좃
종
좆
좇
좈
좋
좌
좍
좔
좝
좡
죄
죔
죗
죙
죠
죤
죦
죨
죰
죳
죵
죸
죻
주
죽
준
줄
줉
줌
줍
줏
중
줔
줗
줘
줫
줬
줭
줰
줴
쥐
쥑
쥔
쥥
쥫
쥬
쥭
쥰
쥴
쥼
즁
즄
즇
즈
즉
즌
즏
즐
즑
즘
즙
즛
증
즠
즤
즥
즬
즹
지
직
진
짆
짇
질
짊
짌
짐
집
짒
짓
짔
징
짖
짘
짙
짚
짜
짝
짠
짢
짤
짦
짧
짬
짭
짯
짰
짱
짲
짴
째
짹
짼
쨀
쨈
쨉
쨋
쨌
쨍
쨔
쨜
쨩
쨰
쩃
쩄
쩅
쩌
쩍
쩐
쩔
쩖
쩜
쩝
쩠
쩡
쩧
쩨
쩰
쪄
쪈
쪌
쪗
쪘
쪙
쪼
쪽
쪾
쫀
쫄
쫌
쫍
쫑
쫒
쫓
쫘
쫙
쫜
쫨
쫴
쬐
쬘
쬬
쭈
쭉
쭐
쭘
쭝
쭤
쭬
쮜
쮱
쮸
쯔
쯜
쯤
쯧
쯨
쯩
쯪
쯴
찌
찍
찎
찐
찔
찜
찝
찡
찢
찧
차
착
찬
찮
찯
찰
참
찹
찻
찼
창
찾
찿
챃
채
책
챈
챌
챔
챕
챗
챘
챙
챠
챡
챤
챦
챱
챴
처
척
천
첞
철
첨
첩
첫
첬
청
체
첵
첸
첼
쳇
쳐
쳔
쳘
쳠
쳣
쳤
쳥
쳨
초
촉
촌
촐
촘
촛
총
촣
촤
촥
촨
촬
촴
촵
최
쵝
쵸
쵹
춌
춍
추
축
춘
춚
출
춣
춤
춥
춧
충
춰
췃
췄
췌
췍
췐
췟
취
췩
췬
췸
츀
츄
츈
츌
츕
츠
측
츤
츨
츰
층
츼
칑
치
칙
친
칠
칡
침
칩
칫
칬
칭
칰
카
칵
칸
칼
캄
캅
캇
캉
캐
캔
캘
캠
캡
캣
캤
캥
캬
컀
컄
컈
커
컥
컨
컫
컬
컴
컵
컷
컸
컹
컼
컽
케
켁
켄
켈
켐
켓
켔
켕
켘
켜
켠
켤
켬
켭
켯
켰
켱
켴
코
콕
콘
콜
콤
콥
콧
콩
콰
콱
콸
쾃
쾅
쾌
쾡
쾨
쿄
쿜
쿠
쿡
쿤
쿨
쿰
쿱
쿵
쿸
쿼
퀀
퀄
퀘
퀠
퀭
퀴
퀵
퀸
퀼
큄
큅
큐
큔
큘
큠
큨
크
큭
큰
클
큼
큽
킁
킄
킈
킛
키
킥
킨
킬
킴
킵
킷
킸
킹
킼
킾
타
탁
탄
탆
탈
탉
탐
탑
탓
탔
탕
탘
탙
태
택
탠
탤
탬
탭
탯
탰
탱
탸
탹
턍
터
턱
턴
털
턽
텀
텁
텃
텄
텅
텈
텋
테
텍
텐
텔
템
텝
텡
텤
텨
텯
텻
텼
톈
토
톡
톤
톨
톰
톱
톳
통
톼
퇄
퇴
퇵
퇼
툇
툐
투
툭
툰
툴
툼
툽
퉁
퉈
퉌
퉛
퉜
퉤
퉷
튀
튄
튈
튐
튕
튜
튤
튬
튭
트
특
튼
튿
틀
틈
틋
틍
틎
틐
틑
틔
티
틱
틴
틸
팀
팁
팃
팅
파
팍
팎
판
팓
팔
팖
팜
팝
팟
팠
팡
팤
팥
패
팩
팬
팯
팰
팸
팹
팻
팼
팽
퍄
퍈
퍼
퍽
펀
펄
펌
펍
펏
펐
펑
페
펙
펜
펠
펩
펫
펭
펴
펵
편
펺
펼
폄
폅
폈
평
폐
포
폭
폰
폴
폼
폿
퐁
퐄
퐈
퐉
퐝
푀
표
푝
푠
푱
푸
푹
푼
풀
품
풉
풋
풍
풒
풰
퓌
퓨
퓰
픂
프
픅
픈
플
픔
픕
픙
픟
피
픽
핀
필
핌
핍
핏
핑
하
학
한
핝
핞
핟
할
핡
핥
핧
함
합
핫
핬
항
핮
핰
핱
핳
해
핵
핸
핼
햄
햅
햇
했
행
햊
햌
햏
햐
햔
햘
햤
향
햨
햩
햬
헀
허
헉
헌
헏
헐
헑
험
헙
헛
헝
헣
헤
헥
헨
헬
헭
헴
헷
헸
헹
헿
혀
혁
현
혈
혐
협
혓
혔
형
혜
호
혹
혼
혾
홀
홈
홉
홋
홍
홐
홑
홓
화
확
환
활
홥
홧
황
홫
홬
홭
홯
횃
회
획
횐
횔
횜
횟
횡
횤
효
횽
후
훅
훈
훌
훑
훔
훕
훗
훙
훜
훟
훠
훤
훨
훼
휀
휄
휑
휘
휙
휜
휠
휨
휩
휭
휴
휸
휼
흇
흉
흌
흏
흐
흑
흔
흘
흙
흝
흠
흡
흣
흥
흨
흩
흫
희
흰
힁
히
힉
힌
힐
힘
힙
힛
힜
힝
힞
힠
힣
️
！
＄
％
？
｡
##수
##개
##념
##인
##가
##골
##에
##만
##육
##관
##보
##사
##지
##로
##아
##야
##겠
##어
##원
##락
##직
##했
##구
##나
##용
##이
##라
##고
##도
##셋
##트
##들
##잖
##있
##안
##걸
##까
##타
##게
##는
##데
##속
##된
##거
##을
##볼
##든
##때
##니
##다
##양
##상
##자
##렌
##았
##난
##테
##크
##앤
##치
##즈
##무
##시
##주
##면
##단
##하
##민
##희
##랑
##첵
##넝
##서
##산
##더
##래
##리
##끔
##물
##텐
##ㅜ
##국
##의
##드
##올
##일
##업
##요
##죠
##봐
##기
##르
##유
##퀴
##잼
##잇
##럭
##려
##폰
##밥
##밖
##병
##었
##즌
##r
##t
##친
##건
##강
##식
##화
##돼
##장
##해
##티
##문
##곤
##할
##꺼
##찬
##네
##팬
##달
##전
##응
##한
##돈
##신
##스
##대
##감
##은
##셨
##당
##녀
##여
##족
##소
##를
##으
##증
##맞
##벅
##브
##루
##키
##였
##던
##듯
##마
##3
##질
##레
##비
##료
##디
##매
##연
##메
##영
##껴
##빙
##미
##없
##진
##갑
##겨
##6
##엄
##절
##곶
##냐
##릉
##났
##중
##오
##께
##켜
##준
##짜
##버
##ㅠ
##노
##군
##0
##억
##푼
##포
##람
##금
##끝
##빠
##출
##근
##풍
##정
##되
##져
##ㄴ
##ㅔ
##혼
##청
##찮
##앝
##공
##과
##껄
##행
##같
##제
##훈
##배
##우
##롱
##럽
##천
##왔
##재
##넴
##송
##값
##것
##음
##광
##프
##느
##형
##s
##u
##v
##9
##택
##숙
##술
##본
##적
##투
##갈
##답
##워
##와
##엑
##숨
##바
##쳐
##부
##놀
##릴
##역
##회
##복
##태
##랜
##심
##파
##쭘
##러
##늘
##터
##항
##습
##먹
##독
##똑
##깝
##쉐
##성
##렵
##처
##럼
##톡
##계
##팡
##맨
##싶
##척
##조
##룰
##왓
##두
##쌤
##등
##황
##울
##날
##씨
##카
##승
##린
##먄
##동
##후
##집
##란
##교
##클
##임
##긴
##랬
##탄
##패
##딩
##깐
##률
##옥
##경
##왕
##뤄
##토
##깔
##j
##분
##꾸
##학
##체
##저
##며
##8
##코
##닉
##쓸
##징
##견
##센
##름
##봤
##쉽
##모
##글
##환
##추
##철
##차
##혜
##급
##웠
##읍
##내
##발
##길
##굴
##색
##통
##예
##충
##류
##생
##활
##2
##슷
##멈
##알
##못
##옮
##ㅣ
##받
##몀
##C
##막
##걷
##몰
##운
##른
##말
##참
##덥
##님
##솔
##온
##츠
##럴
##줘
##년
##능
##곡
##귑
##함
##그
##슴
##살
##됐
##딜
##런
##얘
##림
##m
##열
##겟
##애
##결
##졌
##쪽
##쏠
##케
##랩
##R
##밀
##잔
##긋
##순
##녕
##품
##립
##릎
##좋
##평
##끼
##ㅋ
##ㅌ
##련
##망
##욬
##딘
##쳤
##엽
##렸
##넼
##담
##쟤
##맹
##확
##촉
##둡
##션
##휴
##잘
##명
##탈
##번
##점
##선
##불
##쇠
##섭
##킬
##퇴
##백
##렘
##랙
##플
##링
##큼
##픈
##햇
##쥬
##획
##멘
##틱
##씩
##쁘
##넹
##웃
##흑
##뀌
##싸
##낼
##줄
##멜
##낭
##휘
##향
##밌
##험
##짝
##밭
##푸
##박
##헤
##커
##쯤
##격
##력
##움
##꼬
##f
##c
##따
##셈
##뽕
##템
##캬
##쿠
##먼
##실
##혀
##현
##약
##끌
##떡
##겼
##너
##탐
##간
##땡
##누
##세
##k
##볶
##법
##둠
##초
##석
##입
##탕
##벤
##갔
##걀
##둑
##밍
##i
##냥
##남
##씀
##닥
##호
##엔
##옷
##넣
##외
##율
##새
##꿀
##끄
##틴
##깃
##합
##권
##귀
##책
##싱
##밈
##숑
##쓰
##냈
##봇
##히
##삭
##써
##샘
##떄
##줬
##벙
##뉘
##피
##염
##펠
##침
##악
##쌔
##작
##둘
##풀
##뮤
##팔
##표
##슈
##목
##멧
##ㅏ
##붙
##덤
##삼
##촌
##딱
##샤
##켓
##팅
##멀
##뿌
##판
##믄
##편
##놓
##반
##4
##5
##긍
##쁜
##궁
##꽃
##엉
##슬
##룩
##퍼
##컵
##닝
##뇨
##렇
##놨
##월
##또
##측
##뷰
##냉
##ㅎ
##뿐
##둥
##칠
##규
##랐
##갓
##냠
##엇
##널
##방
##뚜
##껑
##옆
##룡
##델
##페
##닼
##놈
##쩜
##렀
##듣
##째
##줌
##칭
##땜
##쿼
##앱
##퍽
##펏
##넨
##뉴
##ㄱ
##옴
##않
##앗
##넌
##뒀
##꾼
##쨈
##톱
##쇄
##댜
##겅
##론
##덜
##량
##틸
##언
##될
##설
##위
##H
##O
##낚
##랄
##십
##베
##종
##댄
##댕
##잡
##머
##빈
##좌
##잉
##축
##층
##객
##혁
##넘
##랏
##랫
##딸
##낸
##빨
##낫
##암
##겁
##탁
##각
##떤
##낳
##P
##범
##죄
##빵
##샷
##꼰
##북
##웅
##허
##뢰
##넷
##둬
##창
##덕
##총
##춘
##룸
##셔
##쌐
##깨
##곳
##싼
##램
##돌
##랴
##빅
##핏
##익
##필
##혔
##툰
##벼
##녁
##찌
##폼
##록
##짐
##킨
##싯
##뭐
##뵤
##핑
##쩍
##씅
##ㅁ
##엘
##힌
##텔
##랗
##쨍
##벌
##첨
##혈
##듈
##땐
##맥
##떻
##숭
##채
##잌
##딪
##턱
##낄
##콤
##싫
##늦
##봄
##벗
##굼
##뼈
##령
##찾
##곱
##룻
##밤
##팍
##n
##햐
##뵈
##극
##얄
##숩
##뒤
##슨
##춰
##샀
##뎈
##쟁
##효
##챙
##겹
##껀
##김
##찝
##곸
##퉁
##1
##욕
##짱
##흡
##o
##b
##l
##e
##괜
##렉
##뗘
##콘
##졸
##콩
##잠
##꼽
##g
##빼
##얌
##떠
##썹
##숱
##씹
##놔
##댁
##찜
##꿍
##롤
##봉
##존
##검
##픔
##홀
##벽
##욜
##셀
##짘
##블
##컷
##릏
##튬
##짓
##특
##뽑
##변
##X
##끊
##죽
##럤
##됨
##낰
##궜
##찍
##E
##킥
##ㅡ
##L
##손
##돕
##렴
##쉬
##뻐
##틋
##쌀
##뜻
##욱
##D
##꼈
##힘
##즐
##뱅
##볍
##붕
##뚫
##뻣
##캠
##팩
##쯔
##눅
##밸
##쟈
##뎅
##많
##띄
##떨
##덮
##납
##킁
##쭉
##별
##짤
##콕
##첼
##엌
##밋
##숴
##I
##섰
##깡
##뎁
##껌
##액
##혐
##땠
##닐
##쏘
##ㅈ
##눠
##앙
##꿈
##접
##뚱
##끗
##옹
##홈
##롯
##솟
##끈
##켰
##큐
##빜
##멍
##팀
##즙
##릭
##씻
##꿨
##ㄹ
##뿜
##랔
##픽
##흥
##뚤
##팟
##댐
##갛
##괴
##흘
##융
##털
##샵
##깜
##쭐
##맛
##봨
##륙
##빽
##랍
##폭
##완
##착
##닌
##핥
##캐
##컴
##퓨
##볐
##롭
##펌
##욤
##꼴
##꼭
##샹
##취
##뚝
##득
##뜨
##쩌
##멋
##ㅗ
##폴
##T
##A
##캄
##쟐
##틀
##홍
##잤
##묘
##빔
##릿
##F
##폈
##콜
##례
##끙
##빤
##딴
##힠
##띠
##ㄲ
##슼
##쩡
##끽
##푹
##맙
##낙
##Y
##댔
##귄
##쌍
##컨
##췄
##찔
##멤
##좀
##덟
##젠
##눔
##낑
##닭
##뇌
##헐
##탱
##뺀
##돋
##랭
##킹
##낌
##깼
##쎄
##셉
##7
##읔
##젖
##뻔
##뻤
##협
##윤
##농
##곘
##찢
##a
##씬
##텨
##렁
##뷔
##걱
##귈
##칼
##캔
##얼
##컬
##릅
##겄
##첬
##춥
##듬
##륵
##탬
##냄
##눈
##갖
##닷
##랅
##첩
##찐
##젤
##멸
##쭈
##떼
##헬
##y
##돗
##릇
##뜸
##p
##빴
##븐
##탑
##녔
##땈
##볕
##돔
##h
##d
##꼐
##꿉
##왴
##둔
##탠
##뎌
##웨
##뀔
##얔
##갠
##뻑
##륜
##펀
##읽
##튜
##츄
##ㄷ
##덩
##즘
##쵸
##캡
##몇
##닛
##앞
##닦
##됬
##낮
##쥴
##죸
##캉
##섯
##략
##핍
##쥐
##ㅓ
##ㄻ
##캤
##쩔
##졋
##귱
##쌈
##왜
##쥑
##뚠
##껭
##왈
##랰
##퐁
##됴
##ㅇ
##ㅅ
##녹
##갘
##ㅒ
##탔
##켁
##뱃
##섬
##꿧
##녘
##튀
##껍
##쿤
##닫
##썽
##꿔
##밑
##찰
##쇼
##킴
##M
##Z
##떢
##뤗
##숍
##낀
##흇
##ㅊ
##뛰
##텍
##삶
##펐
##궈
##V
##N
##압
##헌
##맘
##곽
##딧
##썼
##윈
##돠
##칸
##싹
##뿨
##겻
##쁨
##J
##럿
##롬
##쁠
##균
##팥
##벨
##룽
##빛
##폐
##힐
##튼
##ㅆ
##찹
##깄
##셧
##윙
##듀
##봣
##겐
##솝
##앜
##춤
##넓
##U
##봅
##ㅕ
##톨
##K
##엿
##똥
##겜
##뜩
##엠
##쓴
##몽
##렙
##햌
##죵
##턴
##웜
##봒
##냘
##닿
##짠
##옄
##빌
##샌
##캣
##G
##룜
##듷
##펙
##쌓
##륨
##렷
##룹
##텀
##껏
##넬
##텼
##짬
##잰
##걌
##톤
##몬
##탙
##뮬
##큰
##뜰
##혹
##댓
##갱
##렛
##곀
##숲
##ᄏ
##끓
##얏
##냨
##룬
##윸
##쪙
##S
##땅
##긱
##벟
##쪼
##펜
##댘
##읏
##삽
##쟉
##덚
##띵
##썩
##곰
##챠
##왱
##쿵
##몸
##묻
##빗
##꺾
##뭉
##떵
##탸
##렺
##x
##뺄
##넥
##슐
##핸
##툼
##켄
##쭤
##뒹
##깁
##좔
##W
##B
##옵
##최
##뭇
##얻
##렬
##묜
##녜
##칙
##쮸
##춧
##앉
##쨋
##윕
##팝
##짧
##웟
##봥
##딛
##꾹
##쉑
##뽀
##눌
##홉
##믹
##늬
##핌
##웈
##ㅐ
##얀
##뱀
##슛
##맀
##킸
##논
##큘
##슥
##겸
##ㅑ
##앵
##빡
##덴
##헉
##빳
##떴
##핀
##햅
##짼
##멩
##섴
##귿
##똘
##삥
##뜬
##깈
##짖
##뭄
##귤
##쒹
##햏
##맣
##댱
##솥
##높
##겔
##쨰
##넛
##쳣
##찡
##팠
##펴
##짆
##괄
##쐬
##칰
##맑
##찼
##삿
##w
##걍
##깅
##묵
##뼘
##튿
##닮
##쏴
##뤘
##쉈
##겡
##줴
##뼛
##뵙
##눴
##웰
##캅
##뀐
##뭔
##쌩
##핮
##쉰
##샜
##졍
##붐
##잦
##땟
##탓
##숏
##듭
##펑
##냇
##젝
##쿨
##촬
##몫
##싢
##윌
##잎
##렼
##텁
##푠
##벡
##늑
##쑥
##웡
##틈
##앆
##샴
##깤
##쪈
##텝
##밟
##늠
##켈
##삘
##욧
##즛
##쿄
##쿜
##힣
##딕
##팽
##켕
##삐
##즤
##썻
##씰
##잨
##ㅉ
##덯
##툴
##쬬
##눙
##쏟
##헨
##닙
##꽈
##됩
##뤼
##벚
##̆
##̈
##뺌
##칩
##죙
##쥼
##즉
##꽂
##땃
##셜
##맺
##셴
##뺏
##홬
##떙
##핫
##툽
##헥
##젓
##맷
##굽
##좁
##솜
##뜯
##댈
##뎀
##쩐
##줍
##겤
##땢
##밉
##쪘
##쌌
##왘
##뿟
##옇
##욥
##쿡
##깍
##맴
##씯
##쫄
##켯
##옸
##쌰
##쾅
##펼
##퀄
##빱
##턍
##쁩
##햄
##칫
##젼
##Q
##퀼
##얗
##츤
##뿔
##휠
##췌
##췃
##뽄
##믿
##뚸
##뭡
##쒸
##짚
##렄
##쓱
##쪄
##롷
##킷
##떈
##붓
##욯
##윽
##튤
##넉
##샆
##츈
##긁
##씽
##쎈
##딨
##뗄
##푀
##웤
##뵌
##읻
##펄
##훙
##봌
##땄
##헴
##갤
##닠
##뭘
##녓
##벳
##겋
##톰
##옛
##얒
##켔
##옌
##덧
##깢
##섹
##맡
##퀘
##곧
##셰
##냫
##맵
##ᅲ
##렐
##쒀
##쯩
##쑤
##ᴗ
##뿅
##갚
##눼
##깠
##팸
##탭
##쩄
##촣
##죻
##흐
##귘
##깻
##잭
##팜
##쥥
##팁
##쾌
##흰
##썸
##엣
##꽐
##썬
##꿋
##툭
##뻘
##므
##쯜
##깦
##팰
##텻
##륭
##됏
##랲
##뺴
##짹
##켘
##묶
##췸
##닏
##뎃
##콰
##땀
##쏭
##꽁
##넜
##뗀
##떳
##ㆍ
##펫
##쯧
##굣
##섞
##컸
##첸
##갯
##댯
##빚
##킼
##윗
##씁
##밨
##뭣
##샐
##켤
##둣
##엥
##텅
##귐
##쉴
##렜
##젱
##밴
##풋
##읺
##겈
##쟝
##쪗
##뷴
##쟀
##멬
##윅
##챔
##뜹
##흔
##쭝
##헣
##얐
##걔
##낯
##맠
##잣
##꽝
##맸
##깋
##홐
##긔
##듸
##궄
##썰
##랠
##뗴
##깎
##텡
##ㅝ
##챌
##컥
##씸
##꼌
##뛴
##몄
##꼼
##짢
##믈
##뾱
##슘
##햊
##줫
##흉
##볈
##셍
##ㅃ
##맬
##딥
##듦
##웍
##깊
##깥
##쑈
##싴
##헷
##룐
##옝
##닣
##뻥
##늄
##셌
##헛
##뇽
##퉜
##쉼
##뱉
##뎨
##솓
##졐
##욘
##죔
##챈
##짴
##뉸
##돜
##픟
##칬
##줭
##츰
##궐
##잊
##놧
##웹
##뀬
##냅
##됫
##궂
##늙
##쩅
##춍
##숄
##쑴
##캇
##훨
##틐
##앴
##눗
##뿡
##슉
##ᄒ
##볃
##죤
##뻗
##퉈
##쮜
##꼇
##뺑
##뾰
##곜
##뚬
##돟
##껰
##뇸
##힝
##꿇
##훌
##꺽
##쟛
##훼
##즁
##븜
##컄
##큅
##틔
##몈
##굳
##맄
##곗
##딫
##듐
##봈
##롴
##챱
##쉘
##퀀
##훗
##탤
##∼
##볔
##졎
##헸
##횽
##뺼
##튭
##ට
##삑
##젬
##랖
##뤠
##헝
##ㅛ
##펍
##챘
##덛
##좡
##컹
##갰
##㎞
##흣
##젲
##껜
##콧
##윳
##탰
##쨌
##쩨
##곌
##젯
##젊
##콥
##ㅚ
##윰
##밬
##짯
##줏
##앨
##앸
##옼
##꽉
##ㄸ
##읹
##흙
##늉
##홓
##젛
##픙
##쌉
##땽
##댴
##헀
##핡
##첫
##넫
##z
##홧
##쨩
##겆
##팎
##쨔
##샨
##씪
##싀
##웁
##픕
##앖
##졔
##핵
##횡
##폿
##엨
##굵
##맇
##흠
##쿱
##휙
##ㅍ
##얇
##줰
##쥔
##앳
##좃
##뽁
##흫
##늨
##렠
##꽥
##q
##멐
##븨
##♡
##냣
##뛸
##굿
##걐
##눕
##잿
##됔
##샾
##왑
##녖
##낵
##촘
##짭
##쫍
##꿏
##됀
##엎
##쿸
##젢
##씌
##숯
##놬
##셩
##뻬
##쩝
##웩
##댑
##쑹
##뎔
##웬
##긌
##ˊ
##˗
##쉅
##ㄳ
##핼
##췬
##꺌
##뺐
##섮
##횟
##렂
##갬
##덷
##섖
##ᅟ
##괔
##킵
##ㅂ
##읜
##쏙
##딤
##왁
##딬
##윔
##힜
##혓
##쎌
##썜
##펺
##뎐
##촐
##놐
##룧
##뵜
##갸
##펭
##궤
##빕
##쎼
##샥
##깉
##쫀
##튕
##힙
##펩
##굔
##퉤
##읰
##꺠
##핳
##놉
##쒕
##꺅
##랳
##봬
##짰
##탉
##츕
##졀
##먿
##싣
##햬
##뢈
##슝
##챃
##얹
##퇄
##닢
##셥
##쨜
##뎠
##잫
##뭌
##앀
##껕
##ᆢ
##웄
##퀸
##쌴
##앟
##잃
##앰
##쏄
##̑
##갭
##흩
##봊
##켠
##싰
##잏
##앓
##쫌
##햨
##겦
##씾
##켭
##샠
##냬
##쌘
##즥
##숫
##핟
##힛
##땨
##밝
##덱
##깽
##웇
##멎
##굥
##쫒
##콸
##퀵
##챦
##넵
##뉜
##젔
##뢔
##얍
##뿍
##탆
##됭
##뉼
##빘
##냔
##몪
##벜
##젴
##틑
##긐
##㎝
##숟
##뮨
##텤
##쎀
##켴
##갉
##및
##깟
##읎
##큭
##뉨
##셕
##밧
##쿰
##듢
##숰
##뚯
##릳
##햤
##괬
##땤
##넿
##팤
##퍄
##엏
##홫
##칵
##껬
##쫓
##즠
##듕
##긩
##뒷
##ㅖ
##흨
##뗌
##럈
##촵
##얜
##붘
##뀨
##뷸
##꼉
##벵
##쫘
##뀜
##뱍
##큄
##켬
##믓
##롄
##혾
##갲
##찻
##좈
##읮
##읋
##줉
##곈
##뉑
##쫙
##맆
##렝
##돰
##쳘
##됙
##겧
##슭
##벘
##컫
##됌
##쫑
##솤
##텈
##뎊
##늪
##닁
##귯
##잗
##얖
##낞
##롣
##믐
##굨
##웼
##겪
##훅
##롸
##큨
##웧
##땁
##퓌
##쪾
##싞
##텄
##쮱
##샄
##뜌
##룟
##❤
##솨
##랃
##홭
##풉
##듴
##밫
##띤
##껔
##됄
##낟
##븝
##섷
##늡
##췐
##쎔
##쏰
##핬
##퇼
##짌
##ˋ
##ˏ
##쌋
##깧
##븟
##멓
##슺
##헿
##햩
##옳
##뎄
##춌
##꼿
##쾃
##촨
##짲
##둿
##똠
##럇
##챡
##븃
##갹
##큔
##뱁
##눜
##챗
##썯
##쟠
##읠
##팯
##퉌
##섀
##왼
##횤
##펵
##챴
##큠
##웝
##륌
##씈
##럅
##릔
##뼉
##괭
##븍
##촤
##늏
##삯
##퉛
##쥭
##젺
##뱌
##댖
##캥
##젹
##☆
##킄
##믜
##젘
##웋
##쁭
##앍
##곺
##핰
##뗐
##겎
##잙
##샛
##훠
##탹
##쥫
##횐
##켱
##썡
##헹
##붑
##ㅢ
##먕
##탯
##끅
##닞
##먀
##쳨
##굲
##랸
##왠
##읐
##꽤
##굎
##뱡
##죦
##겉
##셤
##츌
##멱
##깬
##붇
##엍
##삠
##쳔
##쐈
##밐
##귝
##껐
##쓩
##덫
##뱔
##멶
##쌜
##씼
##놰
##촥
##홋
##윷
##얬
##갗
##꼔
##＄
##츼
##샣
##퀠
##휜
##즏
##껼
##졈
##꾀
##읕
##욐
##퐄
##릐
##쏀
##홥
##쉉
##댸
##텃
##팓
##뺸
##맫
##쾨
##텋
##냌
##쌥
##싿
##껉
##쏼
##뎟
##꿎
##궸
##뵐
##릯
##띃
##됑
##즬
##늕
##넙
##떘
##욛
##쎕
##쫨
##떰
##쉨
##렿
##쵹
##쏜
##둨
##즄
##뎋
##엡
##앚
##뫼
##싳
##뫠
##쟘
##녴
##뫄
##롼
##닪
##샅
##멕
##넠
##삳
##묭
##굶
##넽
##좆
##깰
##샇
##냏
##퐝
##샸
##겣
##쇽
##틎
##낲
##쑝
##뇻
##쉣
##땸
##̄
##쎠
##뢓
##쎵
##곯
##쩧
##떗
##뺘
##낍
##헏
##팼
##덨
##샬
##늣
##걋
##짔
##횔
##둉
##잽
##㎡
##㎏
##뛔
##앃
##갷
##붉
##뽈
##쉭
##쓔
##얕
##킈
##먗
##닳
##뺵
##킛
##즹
##싷
##롶
##춚
##뉭
##띔
##픅
##챤
##잴
##엳
##읓
##숖
##텯
##늩
##냑
##삣
##봑
##궅
##띱
##컀
##뒈
##쳥
##췩
##뤀
##낱
##맜
##퍈
##슽
##훟
##깸
##긺
##랟
##덌
##퇵
##쑨
##솰
##괸
##꙼
##̎
##띈
##꿜
##슠
##눀
##엫
##뻉
##뢍
##잍
##갇
##쩃
##읗
##팃
##톼
##붌
##앋
##뺶
##뙤
##쏧
##꿑
##삔
##쳇
##쬐
##륶
##쩖
##몹
##꺵
##꺄
##썁
##쳠
##뇬
##둫
##늗
##힞
##갴
##뚴
##삵
##줔
##웢
##끕
##듡
##횜
##슌
##웓
##첞
##볏
##ᅮ
##꿘
##핞
##뎉
##찧
##죳
##뻄
##쀼
##찎
키키
##는데
진짜
그래
##더라
맞아
아니
##니까
##에서
ㅠㅠ
너무
나도
나는
같아
많이
좋아
그런
하하
근데
우리
그러
있어
그렇
사람
##으로
##다고
요즘
##겠다
##잖아
##이야
##하는
생각
##으면
##하고
그거
그럼
엄청
##던데
##이라
하는
지금
그냥
##해서
그래도
##들이
##구나
##었어
그래서
ㅜㅜ
같은
내가
하고
게임
좋은
##겠어
##더라고
##어서
정말
거야
##야지
재밌
한번
있는
오늘
같이
##하면
이제
들어
힘들
이번
##라고
아직
##하지
##인데
##까지
##겠네
모르
##이랑
거기
친구
영화
##어요
괜찮
##아서
어디
그렇게
##하게
##려고
여행
##다가
##리고
무슨
하나
##보다
엄마
##에는
보고
얼마
나오
##었는데
없어
그건
시간
응응
그러게
##네요
완전
##지만
##보고
##는거
결혼
하면
싶어
어떻
그게
아이
언니
어떻게
##아지
정도
##부터
##을까
##들은
##한테
맛있
##기도
##로나
다들
다른
군대
해야
##이지
어떤
알아
코로나
##았어
##겠지
##거든
운동
먹어
가서
아니야
강아지
이런
##니깐
것도
먹고
##하다
하지
아무
##니다
보면
그니까
같은데
##인가
회사
##거야
##해야
제일
않아
##기가
##것도
##문에
이번에
##기는
##이나
그치
싶다
##더라구
##했어
봤어
##이다
##은데
하는데
기억
그러니까
다시
언제
오빠
가고
##지는
자주
다음
그러면
그랬
남자
오래
계속
키우
##야겠다
##다는
겨울
10
그리고
건강
해서
요새
너는
때문에
여자
##들도
좋지
처음
비싸
가족
그때
날씨
다니
가는
대박
아닌
다녀
##봤어
##면서
공부
좋아해
별로
##이네
같아요
##지고
했어
그럴
##에도
머리
조금
있지
아파
##중에
재미
문제
예전
##리는
있는데
##으니까
그렇지
무서
하더라
##나라
생각해
아빠
뭔가
사람이
걱정
많아
##ㅠㅠ
빨리
##하는데
##이가
거의
그런가
좋겠다
있을
얼마나
이상
다행
전에
뭐야
##라서
가면
집에
했는데
##이면
##자기
없는
혼자
##심히
나가
필요
신기
있어서
##워서
##하네
요즘은
고양
나중에
저는
찾아
우리나라
거지
갑자기
나왔
배우
##이라고
싫어
느낌
만들
되는
부모
맨날
드라
##00
버스
사고
어제
바로
열심히
원래
챙겨
있었
사람들
어때
먹는
##나요
당연
백신
가을
##적으로
수도
##친구
##지도
타고
내일
얘기
일단
있으면
동생
보는
그것도
그렇구나
대단
맞아요
병원
##대로
##라도
##처럼
마음
##세요
피부
저도
##래도
만나
##렇게
중요
집에서
않을까
시작
안되
드라마
고양이
아침
아프
##했는데
##시간
몰라
말고
그런데
알려
##이트
역시
운전
있나
##리가
부모님
##다니
가능
많은
##한데
있고
##았는데
없어서
##주도
해도
나와
사람들이
하긴
추천
고민
봤는데
가자
좋을
알바
사실
자기
##스크
어려
누나
나온
##마다
일본
중국
너도
아파트
사는
여름
시켜
##에요
사진
아냐
가격
서울
벌써
하루
##었지
학교
##더니
저녁
이렇게
##만원
되게
보내
지금은
좋아하
받아
한데
궁금
준비
학원
가야
최고
나이
##주는
제주도
애들
있다
좋아하는
먹을
옛날
저번
항상
스트
혹시
##으니
주말
들어가
일이
##이어
건가
##하기
관리
##머니
나오는
##라는
아마
너네
몰랐
미국
##습니다
음식
돌아
##이는
##려나
아니면
##다던데
인터
한국
가끔
##더라구요
##져서
##나봐
말이야
아니고
스트레
힘들어
무섭
싶은
##이고
##적인
많아서
어릴
뭐가
예전에
아무래도
물어
조심
##시는
생활
좋다
보니까
##봤는데
싶은데
연애
##있어
유명
노래
말이
장난
##학교
올라
귀여
세상
이름
나라
아주
기분
이미
귀찮
인터넷
##한다
배달
##정도
##려면
때는
##어나
살아
##어야
하더라고
난리
관심
어렵
##해요
동물
##하긴
##겠어요
##가는
##하더라
##인이
##지가
하던데
그걸
알고
##기로
맞어
되면
##였어
##봐야
떨어
아직도
누가
다이어
괜찮아
재밌어
귀엽
다르
지하
해외
화장
스트레스
맞다
##려서
##조건
쇼핑
얼굴
다이어트
##이었
기다
끝나
##만에
같다
무조건
비슷
이거
주변
##하니까
매일
너희
시간이
만화
있잖아
이야
부럽
새로
마스크
유튜
프로
놀러
맞는
한다
텐데
##텐데
누구
##해도
저번에
없지
있어요
20
사랑
##같아
먹으면
지하철
갔다
여기
남편
##보자
영어
##이라도
보여
약간
나랑
카페
뉴스
좋은데
시험
##생님
아하
연락
##게임
재미있
너가
얼른
캠핑
건데
중에
지나
교육
##들이랑
우리는
보통
##거나
그만
아는
모르겠어
불편
해주
있음
오랜
##겠는데
출근
##는게
되지
##보면
애기
##징어
무서워
스타
아니라
좋겠어
커피
이용
하니까
엄마가
##길래
최근
선생님
거기서
어디서
아아
고마
##줄게
소리
위험
자격
따라
알지
돈이
확실
산책
해야지
##구만
##졌어
외국
동네
미용
우와
전기
##이래
가지고
봐야
##냐고
다음에
추워
##가서
하자
유튜브
이게
말하는
##에서는
키워
어느
오징어
따로
전화
비행
축구
와서
##하자
##기를
힘든
이유
##한다고
##보는
##력이
##요일
가까
##스트
##에서도
##볼까
해보고
인정
하네
자격증
먹었
생각보다
생겼
안돼
반려
보이
아닐
30
고생
이사
밖에
아닌가
기사
등산
##이라서
여자친구
오는
점심
##스터
없다
효과
아까
그런거
했지
##여행
티비
##하면서
고마워
치킨
멋있
한다고
자꾸
##하나
취업
선물
생기
전세
보다
당연히
##한거
같애
우리도
##같은
##어도
먹었어
없이
않았
신경
##는지
남자친구
특히
먼저
않나
하지만
행복
당근
그렇긴
오면
##주고
보러
여러
아님
##줘야
##지면
걸로
선수
##겠네요
서로
내용
어쩔
오랜만에
기대
맞지
은근
좋았
##장이
##자가
##인지
오늘은
있었어
웅웅
##리면
##군요
오오
없고
있다고
그니깐
달라
보네
낚시
##하니
이해
##했다
##러워
없는데
가장
근처
해봐
##하잖아
시키
날씨가
군인
내년
사이
사람도
같아서
바람
하다
부산
금방
미안
##밖에
가보고
수영
결혼식
받고
직접
##에게
좋더라
보험
주는
##전에
맛있는
안나
확실히
되고
알았
괜찮은
기억이
쓰고
생각이
알았어
사람은
넷플
쓰는
##는거야
훈련
##건가
어어
비싼
사회
##었다
퇴근
주말에
이쁘
잘못
당연하지
둘이
배워
있을까
사용
##으러
필수
##해야지
주고
입고
##같이
나서
##여서
##ㅜㅜ
우리가
##일이
연예
수술
예약
이야기
##동물
##었나
마자
최근에
키우는
정신
거래
##이잖아
이러
직장
##시고
아닌데
##해줘
절대
제대로
해요
어쩌
맞고
추억
##어가
가지
없을
아침에
언니는
들고
친구가
사람들은
보니
애들이
##운데
만들어
주택
수가
##이긴
사야
##더라고요
바다
인기
##이니까
##자나
##하다고
부럽다
살고
된다
청소
대학
##끼리
##거지
캐릭
미리
오호
하잖아
기본
일찍
키우고
못해
##드라
##르고
한번도
때도
##렸을
##기만
##보니
다양
##가지
지원
해봤어
##와서
할인
아예
##전거
있더라
저렴
없네
영상
지금도
웃기
##스타
편이야
##봐야겠다
저희
있으
사서
아쉽
계획
소개
주문
내려
하기
다녔
있어야
받는
##예요
##라인
접종
곳이
우린
##했지
##사람
되는데
잘해
들었어
##하시
나름
캐릭터
치료
##이라는
구경
비행기
할머니
가기
종류
교통
피곤
휴가
다닐
않았어
스포
먹어야
##리도
야구
##원도
아버
니가
자전거
점점
올해
어머
##등학교
쇼핑몰
연예인
맛집
세계
중이야
##수도
있으니까
우리집
자동
반려동물
2차
겁나
쿠팡
##사가
##지막
##드는
##었던
11
##님이
가져
있대
받았
##이크
해본
나와서
에이
예쁘
웹툰
알려줘
##였는데
주식
마지막
어린
수업
##스가
##성이
솔직
영화관
많더라
작은
##개월
##이었어
방법
같던데
안좋
웃겨
##보다는
1년
월급
일어나
##라이
아닐까
따뜻
어렸을
##수가
결국
##겠지만
남친
짜증
자연
집은
할까
학생
인생
택시
##가고
알겠어
##르는
아르
골프
재밌게
추석
하면서
##제로
부분
##볼게
부담
어울
좋고
게임이
감기
사건
솔직히
##리지
##셔서
주로
쉽지
적이
유행
모르겠네
엄마는
아니지
##웠어
신청
대신
앞으로
크게
##가면
친구들
못하
좋긴
##보니까
방송
냄새
##바이트
요즘에
경우
지내
괜히
구매
100
나올
##고기
아르바이트
나면
##랜드
12
##비가
##되는
##그램
가게
샀어
##주일
없으면
중고
##스럽
큰일
##이에요
왔어
월세
시원
도움
##레이
##싶어
##싶다
딱히
비가
하시
##라리
##다더라
##이버
어디로
그나
##했네
차가
핸드
##할까
나한테
##라면
생각나
회식
##주면
늦게
했던
##보단
관련
##있는
좋아하는데
맛있어
아들
기억나
##주에
##생활
기차
데리고
있었는데
아니가
##려구
집이
##해지
편의
다행이다
해봤
주변에
바뀌
아빠가
귀여워
##렸어
##되면
##다면
차라리
##먹고
##리어
##히려
오빠는
다니는
있긴
작년
말해
재밌는
검색
오히려
모든
하려고
보는데
많고
##아야
그래야
에어
요새는
고기
많지
##수록
광고
같긴
분위
피해
##치는
없나
##하는거
돈을
아픈
좋아서
배송
헤어
##라니
##리를
갔는데
일반
##했던
제가
느껴
봐요
##건데
자유
현실
자동차
영양
##퓨터
안해
##원이
군대에서
해줘
##리스
그러고
전기차
어머니
가르
##된다
생긴
싸우
##할게
일주일
컴퓨터
봐도
요즘엔
##작용
주인
되어
안타
문제가
유명한
도전
적당
자취
##식이
옛날에
##보네
갔어
도와
봐서
##하려고
싶네
여친
어려워
잠깐
스포츠
예능
같더라
그것
어떡
지역
계절
부작용
보기
번도
이는
인테
나쁘
빠르
##시에
##대요
모르겠다
##스는
보자
싶어서
않은
않고
해보
##적이
##었어요
신기하다
핸드폰
가야지
대한
##점이
그런지
개인
네이버
그거는
새벽
##하던데
중요한
타는
##오는
정도면
2년
데려
사면
애들은
노력
그러니깐
미용실
그랬어
훨씬
##이도
있던데
물건
받을
직업
##하겠다
##왔어
프로그램
안전
##이라니
있네
주차
느낌이
봐야겠다
##학생
않을
카드
뭔데
간다
몸이
때가
선택
##봐서
그나마
라면
생일
신랑
잘하는
##오면
그렇고
포기
하는거
눈이
맞춰
위드
##대가
힘들지
겨울에
많은데
자체
성공
##소리
거는
돼서
부족
심각
##동안
사라
##상이
##까지는
마음이
감사
이유가
간식
모르는
보드
##었잖아
꾸준
자세
니는
됐어
알았는데
올랐
좋았어
##정이
성격
기념
말도
염색
##합니다
하겠다
행님
화이
아이고
관심이
추천해
걸리
##하러
피부과
##난다
좋아해서
이제는
같기도
경험
상황
헬스
확진
스타일
##동산
게임을
거라
글쎄
태풍
편해
##만한
마시
넷플릭
괜찮을
확인
ㄷㄷ
##저씨
##겠더라
회사에서
동안
##가지고
지난
시즌
##으려고
##부분
50
검사
좋다고
##놓고
15
##때문에
가격이
미쳤
다니고
연기
건조
##거리
나만
아쉬
전혀
##도가
애니
##화가
하나도
많았
##림픽
똑같
##아니
##들을
이건
있구나
##동생
가봤어
자신
했다
상관
이래
나오면
시골
##셨어요
같네
택배
##제가
하게
좋네
하니
조심해야
경기
호텔
인테리어
새로운
때마다
명절
정도는
놓고
업무
한대
좋아요
생각하면
편의점
기회
어른
필요한
##교육
##아버
기간
##디어
아기
##장님
##입니다
오늘도
앞에
화장실
생겨
꾸준히
안에
파는
##셨어
배우고
갈래
맞았
오고
##는다
##느라
갈까
마트
뭐든
##기에
##가요
##미가
저녁에
##사는
당장
아저씨
대중
제발
게임은
힘드
사람들도
##잖아요
국내
부동산
강원도
넷플릭스
##했대
이것
ㅡㅡ
답답
가본
신고
##하다가
##려야
이젠
##자는
보면서
말을
##치가
##명이
가는데
##겠죠
가도
같음
이후
평생
적은
싶어요
화장품
듣고
잘생
하늘
갖고
공군
맞네
해결
나이가
기름
되나
##마트
햄스터
##장에서
대출
언니가
도시
만든
##크림
봤지
조카
환경
이상한
가려고
일을
##타민
##000
만족
실제로
모두
##까요
##더나
바꾸
그러게요
##감이
나왔어
조용
그리
패딩
##가가
잡아
맛이
위해
차이
무섭다
사기
안가
올림픽
자고
비슷한
알아서
온라인
감독
바꿔
저런
없음
그렇다고
밤에
요리
##였지
##퇴근
상상
하다가
대부분
거리
머리가
무서워서
대단하다
약속
어땠
있겠다
아니냐
##로는
빼고
면허
어플
##다며
비용
진짜로
굳이
대체
수학
받은
어려운
없었
챙기
##차피
어차피
이모
날이
느끼
##다는데
단풍
움직
중간
오빠가
넣어
##먹어
메뉴
김치
연습
##하기도
마블
최대
##교통
배고
영양제
곳은
##할때
엄마도
##들어
##으면서
키울
##장에
눈치
많을
##는거지
가을이
스키
그래요
바쁘
진심
##하더라고
비타민
##되고
##지지
##해봐
재밌을
이름이
뭐라고
어휴
활동
있더라고
모르겠
세상에
육아
대중교통
바빠
와우
거긴
심해
불쌍
영향
##거든요
하루에
국가
싶었는데
육군
되겠다
오토
정리
출퇴근
##거같아
넘어
불안
있으니
##걸로
안하고
##없이
끝나고
취미
##한대
먹으러
그러네
것이
평소
나갔
##했어요
여름에
몰랐어
했잖아
했었어
##더만
뭔지
성형
받아서
데이트
돈도
유럽
된다고
##차가
대박이다
거기에
매력
없어요
##하네요
나오고
##스도
예쁜
40
결제
맞나
먹어서
아무리
신기해
동생이
눈물
되니까
##지어
싫다
후회
##가봐
것만
때문
충분
##했다고
##었을
대단한
달에
이쁜
주에
집값
했나
그걸로
근처에
완젼
위해서
##거래
효과가
응원
일어
정보
걸어
발라
무서운
나쁘지
없었어
함께
##지를
##우면
이가
전쟁
먹은
오토바
##치고
##그래
재밌더라
때부터
쉽게
##이네요
속상
오르
##하는게
모바
이번엔
아무것도
다행이네
엄마랑
거임
재택
##비도
운동을
만났
힐링
외모
##이프
정도로
겨울이
거면
##만큼
우선
##없어
가봐
며칠
못할
사촌
인간
좋겠네
##수는
경제
##장도
재밌겠다
했었는데
##꺼야
##스러
먹지
슬프
않는
자기가
오래됐
엄청나
아직은
시술
마셔
배구
심지어
타면
##해주
##때는
거기는
국민
시리
##도록
##었음
충격
쿠폰
##었네
모바일
워낙
이슈
##프로
나갈
부대
그때는
많다
걸려
##이요
나가서
몰랐네
영화는
예뻐
음료
##보드
고등학교
다같이
정확
##영화
그러는
봐야지
여유
유치
기분이
나두
무료
##머리
오징어게임
##했나
놀이
살면
샀는데
계약
대구
멋지
없잖아
일하는
낫지
한달
그랬는데
편하게
해야겠다
강아지가
싸게
정해
집중
형은
##였나
에어컨
둘째
그러지
친구는
먹자
받았어
할아버
그정도
신혼
네네
식당
해군
기념일
##이더라
먹음
대충
뭐지
자리
주사
##나서
친구들이랑
못하는
주면
카트
생각을
아무튼
건지
들어서
제품
가보
같고
경찰
근무
드디어
맞을
심심
##이구나
고맙
살이
용돈
이따
##했잖아
좋아하지
만나서
모습
인스타
##던가
아이들
우리나라는
하러
피부가
귀찮아
##마리
봐봐
코로나가
##스로
##은거
##마자
맞제
써야
간단
숙소
최고야
막상
설마
생각도
번씩
##장은
집도
##인은
가입
기억에
힘들다
멀리
궁금해
수준
추운
마라
투자
##등학생
안그
##겠나
##기고
10월
그대로
중독
##이었는데
강아지는
수능
재난
그만큼
기다려
가까운
먹었는데
맞으면
이뻐
북한
불러
시끄
올려
##까진
##오고
옆에
##인거
##었대
##계가
대기
게임도
쉬는
쓰레
전문
했어요
죽을
반대
##리아
갔을
근육
##들한테
가봤
공유
만큼
10년
지방
후기
##카오
##분에
대학교
상태
하셨
모르겠는데
눈썹
받으면
안보
##인트
괜찮지
만드는
##00원
신발
않아서
되더라
상품
##었거든
전역
##했을
##벤트
대단해
살짝
거라고
토끼
##이브
##마켓
담배
물고기
아깝
자식
##돼서
브랜드
##이니
인터넷으로
스토
##히는
알아보고
결정
지켜
##해보
##버스
##저것
##인가요
마음에
귀여운
볼까
아빠는
찍어
##구가
##도로
##타고
많잖아
##학년
그림
끝났
나아
없다고
일부
취향
편한
##시아
##던거
비싸서
좋아해요
빠져
추워서
##하지만
이것저것
축하
부러워
시켰
재밌지
궁금하다
##린다
##나는
싶지
오락
같지
깔끔
매번
##에선
그런가봐
시간에
방금
치고
꺼내
시대
이불
파마
해봤는데
아버지
거잖아
전부
커서
##케이
이런거
않아요
건강에
도움이
주인공
왔는데
젊은
##웠는데
우리나라도
놀아
해외여행
대화
적응
##들의
못하고
생각만
아이돌
예전에는
남편이
뛰어
카카오
타이
탈모
별로야
책임
##가락
어찌
이벤트
봤어요
비교
##대체
왠지
우산
##비는
사람을
친구랑
다녀왔
초딩
##진다
먹어도
소식
요즘에는
일은
할래
아니요
그렇겠지
이번에는
깨끗
도대체
떡볶
초등학교
다행히
##지로
내년에
##었다고
부모님이
마리
이동
해병
##사도
조금만
나을
나쁜
달라고
뭐라
있니
조금씩
대해
##으시
##쳐서
계란
차를
커플
가능한
맞추
소름
유지
시간도
받아야
기술
놀랐
어이
생각은
영화가
고양이는
맞아야
갔다가
개봉
##가야
##피스
##목이
유산
맛있겠다
못해서
문화
범죄
애가
집안
허리
##천원
##일에
남았
암튼
힘들겠다
배우는
어떡해
줘야
틀어
##거같
##구요
많네
벌레
인기가
##시켜
##물이
사망
졸업
했으면
1시간
안녕
토익
그렇죠
잘하고
팔아
했대
처음에
체험
체력
아무도
왔다
있다는
도착
##자고
무리
일이야
형님
무시
부탁
어디가
맛있지
아파서
한참
가르쳐
거북
슬슬
아휴
##리카
##달라고
##두고
##말고
재밌었어
##로도
##하대
사과
싶음
짱구
특별
##랑은
##리기
있는거
여행은
많던데
볼게
피자
##르면
##우스
가수
누나는
차이가
##이션
##으로도
30분
안먹
집을
모르고
듣는
만약
쓰면
애매
언젠
직원
분위기
맞은
좋겠
까먹
꺼야
##주가
##으니깐
안되는
생기면
금액
애들도
제한
##우고
보지
##즈니
한번씩
시리즈
개발
곳도
다리
진행
##장을
11월
어린이
쉬운
좋대
좋은거
상담
몸에
할게
했을
소개팅
어땠어
남아
좋음
줄게
관광
식단
크림
##까봐
##하신
친구도
다행이야
##요일에
적당히
몰라서
무엇
싶긴
있겠지
장르
해주는
##하셨
##되어
놀고
누군
3년
독립
않냐
##사고
아이가
가족들
기준
돌아가
높은
반팔
없더라
##했으면
##다니까
중요해
충전
##다네
##주로
있어도
##으로는
회사는
똑똑
와이프
추가
하더라구
##가능
귀찮아서
아팠
익숙
##버거
좋을까
하더라구요
같더라고
넘게
않지
##사를
결과
밖에서
##대는
##우는
힘들어서
##해야겠다
시급
어떨
주위
줄어
##통령
괜찮은데
걔네
우유
##시다
생각하고
거니까
##놀이
여행을
중요하지
메이
보호
본인
오지
생겼어
아플
##주행
##하세요
##줬어
끝나면
안정
전공
##이스
문제야
모양
현금
들어봤어
공간
뒤에
이럴
##자리
걱정이야
공포
##지원
##니스
알려주
갈게
그쵸
부자
빠지
잡고
##봐야지
농구
등록
마당
있게
있나요
창문
##어버
아니다
신기하네
들었는데
살았
삼성
안된
취소
하는게
언니도
가족이
안타깝
이상형
너랑
액션
없으니까
영국
입어
해볼까
##말이
운동도
선생님이
보게
야식
치과
카톡
자체가
디즈니
##구마
##키로
18
니도
담에
돌려
안쓰
그렇네
난다
만에
보일
일도
##도는
재미가
예전엔
맞았어
자가
회의
##이로
거기도
꾸미
돈은
살기
전자
##있어서
##분이
급여
물론
싶더라
싶다고
역할
지키
##아리
화이자
유치원
그땐
첫째
스케
##했음
##을때
달고
##장판
##저트
느낌이야
1차
당첨
야외
쿠키
##부가
작년에
디저트
좋더라고
게임이야
간다고
우울
생각하는
이해가
아쉬워
다닌
보이는
복무
빨래
##겠구나
같은거
들어가서
가방
도망
롯데
분양
군대는
걸린
감동
닌텐
이직
##었으면
나오더라
나가는
갈아
걸까
곳으로
상대
어우
확진자
곳에
과일
넣고
대통령
만원
웃긴
많이들
안좋아
건물
외식
몰랐는데
대형
벅수
블랙
순간
지구
차는
프리
생겨서
가정
여성
##맞아
##량이
거랑
##시면
##드려
비싸지
다녀야
맘에
친척
현질
##에만
##간다
나네
청약
##하냐
다양한
최대한
했네
##민턴
걱정이
있었으면
최고지
더워
되잖아
똑같은
##주의
먹는데
모더나
발전
안될
휴대
##카드
가보자
배드
잘할
##하죠
##한게
외국인
개그
빌려
##겠다고
먹어야지
알려줄게
레이
모아
배울
##중이야
있었던
오락실
남는
의미
##일까
##것같아
결혼은
조심해
나눠
스펙
나오는데
추울
특이
설명
고양이가
배드민턴
대전
사이트
할지
해줄
혜택
힘이
어디야
로망
시절
야근
만나면
막내
말씀
연봉
하네요
##아노
오토바이
안그래도
예정
의사
하는구나
가만
그날
의외
하던
##는걸
##으라고
말이지
실패
그렇다
각자
간지
나고
도로
사귀
했음
##카페
요즘도
남자가
거짓
마시고
배그
잔인
하겠지
##번에
엄마한테
맛있게
가격도
내고
막히
실내
하이
##으신
필요해
만날
반찬
세금
장면
해보자
그랬지
##스크림
힘든데
가야겠다
다이
둘다
##심이
물어봐
네가
쌀쌀
최악
##우파
들어갔
아마도
덕분에
공부를
거도
드는
어딜
나가면
먹기
멀미
피아노
나왔는데
2주
내는
분이
쓰레기
구워
매운
사업
은근히
문신
선선
스우파
오후
참고
##났어
대박이네
바이
친구들이
다녀와
미래
원룸
음악
중학교
생각이야
이래서
충분히
거구나
걸릴
멋있어
어마
올리
즐겨
찾아서
키웠
##사지
할아버지
과자
##없는
새벽에
부르
여기는
특전
##가도
##더라도
하나씩
학교에서
25
괴롭
눈에
알게
한잔
##관이
##하라고
돌아다니
강의
모아서
사주
운영
##가자
##시나요
바빠서
까지
보다가
##해보고
##으려나
그래야지
되겠네
앉아
##시지
##드가
##러스
##세권
들어본
회사에
그러니까요
재미있어
곳에서
기업
쉬고
싸움
종일
##다구
##면허
##터디
영화를
어렵지
써서
##이터
##있는데
##인가봐
짜증나
맞춰서
공기
있던
나오지
오빠도
많다고
많더라고
말야
##한가
결혼을
오빠야
부러
있거든
조만
최저
포인트
##란다
##줘서
좋아할
퇴근하고
때까지
하도
하냐
##트가
##화점
좋아함
대해서
사려고
수는
초반
치는
서울은
떡볶이
거가
보냈
얘들
쪽으로
풀어
##이죠
##시키
##좋아
여자친구랑
일상
모르는데
강아지도
조만간
##나고
정도야
너네는
공무
무한
보려고
스터디
##인도
어디에
키우면
나야
점이
##셨나요
누나가
좋죠
아이스크림
건강을
설레
옷을
유전
##쇼핑
있는지
당근마켓
거네
##볼래
##되지
##코로나
너희는
사이즈
일주일에
휴대폰
같습니다
##야해
##하겠지
##나봐요
거예요
나의
않은데
햄버거
들어간
맞음
배가
앞에서
##이던데
##권도
그럴까
만화책
따뜻한
해병대
걸렸
아는데
##들만
##기간
##겹살
만들고
공감
긴장
슬퍼
좋겠어요
해준
해줘야
맛있더라
좋던데
아빠도
지나가
보드게임
복잡
은행
##었겠다
만나고
##000원
##지원금
19
어깨
판매
##나면
##혀서
좋아했어
그런건
내일은
가까이
생길
있겠네
한두
시간을
될까
새끼
않네
죽는
키운
해봐야
경쟁
끔찍
서비
좋았는데
##보려고
##다녀
##스러워
##률이
아니라고
생각했는데
군대에
일부러
공원
교정
했다고
결혼하고
200
봤다
식사
여긴
진주
그런게
그쪽
되네
맥주
미세
사료
위에
##치면
고민이야
고속
없으니
이랑
정치
케이크
##해졌
동생은
깜짝
렌트
아나
크리스
##드름
그렇군요
하는거야
나보다
면접
보톡
봤나
찍고
하라고
##내고
결혼하면
아빠랑
마켓
모으
몰래
본다
분명
##을걸
##겼어
불편해
위드코로나
오른
##겠습니다
##국수
미안해
네일
입원
김밥
##라스
##되서
거기가
메이플
거에요
나를
돈으로
디자
만난
실력
작품
##저기
힘들었어
여기서
거짓말
가깝
만한
자는
자랑
##이였
##거운
##우니까
##운전
아니에요
다녀오
끼고
나중
모임
미친
백화점
시킬
전체
것보다
스릴
예민
집으로
영화도
여자친구가
24
바닥
이것도
전에는
##야겠어
##겠군
##해진
##천히
하는지
운동은
않았나
##스럽게
이후로
닌텐도
생기는
정부
체육
편리
합니다
##먹는
모르지
여기저기
60
감자
매년
배운
일하고
있다가
좋으면
천천히
##이여
##자마자
##근무
##롭게
종류가
어떠
오키
##주지
##한다는
##되는데
##월에
아이템
오래된
얼굴이
추워지
남자친구랑
ㅠㅜ
돼지
발견
세일
아메
있지만
##것같
어디든
가니까
나은
스킨
입대
맞아서
멋진
신세
없었는데
옆에서
한번에
들어갈
이용해
것을
베트
빠졌
삼겹살
선호
냉장
벌어
사는데
이도
버스가
TV
두고
빠른
취직
##러지
부모님이랑
심한
안에서
정상
출신
##잖어
재미없
위험해
가만히
5년
꽤나
인도
##있지
##생각
여름이
인터넷에서
비염
새우
파티
##려는
사고가
가구
가기로
들었
말은
밥도
정주행
태어나
혼자서
만나는
유산균
노는
좋잖아
필라
##줄까
그러다가
아프면
가능해
다운
무릎
여드름
출발
태국
포장
들어봐
아쉽다
베트남
나옴
사장님
오케이
##제도
다르지
대세
매우
문자
볼링
한다는
##식으로
##스를
재밌는데
들어가는
1박
거에
에휴
있냐
환승
##로만
올해는
초등학생
프랑
##메이션
##선이
됐는데
많으면
##아도
이번주
내내
로또
성인
오프
용품
자살
##아가
##하기가
##겨서
그러더라
언제쯤
있다면
멤버
부지
아니라서
결혼할
가족들이랑
남자친구가
로맨
방탄
비트
원하는
형부
경우가
들으면
바르
인사
하니깐
힘내
##산이
회사가
다니면
가봤는데
김에
설치
잘하
최애
추위
콜라
피시
했었지
##지컬
##했었는데
##차는
모르겠어요
세상이
예비
##검진
그러다
그렇겠다
아이들이
운동이
미국은
필라테
반응
초코
##해주는
##비를
찾아봐
경우도
고구마
사교육
장소
저렇게
행동
좋아졌
다음주
물어보
부부
우주
잘됐
포함
##라나
그랬구나
많아요
중국은
평소에
것은
낳고
대로
멀어
샐러
아내
아뇨
좋게
코인
##으셨
아이유
애니메이션
더운
외로
하시는
##있고
##자들
##질이
부지런
직구
##지에
##했었어
가족끼리
3일
가요
능력
손님
실화
입장
##트도
##주택
##래요
게임에
알아봐
코로나로
됐지
매매
치즈
여행도
다가
들면
많아지
사무
싶을
안맞
줘서
편하긴
현대
##어는
##짜리
가라
너의
보니깐
차도
형제
##줬으면
##램핑
만들어서
대학생
냉장고
바닷
예방
##져야
그랬던
부모님은
걸리는
글램핑
기계
말만
모를
사러
손이
유투
초대
다녀왔어
올라가
너한테
대리
먹을까
이어
이혼
입을
##봤지
살아야
화이팅
대기업
얘들아
경주
뭐해
슈퍼
연휴
한강
##하던
##해져서
##성을
방법이
나지
미니
부스터
빨간
오픈
왜케
##구먼
##트는
진짜요
있었지
동생이랑
갔었어
거고
남동생
들은
많으니까
예매
왔으면
##수를
##이를
처음엔
일본은
미쳤다
검은
그분
바라
최소
친한
##사랑
##하려면
##부터는
놀랬
똑같이
발생
어딘
유기
##학원
들어도
들어오
처음에는
피시방
가성
된대
불법
소음
스페
엉엉
잘했어
징그
하와
모르겠지만
신기한
유튜버
20대
훈련소
경기도
누워
##라구
10만원
공무원
고고
공항
글치
한가
환절
##자도
##하구나
##티콘
궁금하네
나라에서
6개월
남은
노트
시국
위한
층간
한거
##기엔
재밌었는데
어려울
싫어서
싶네요
종종
편하고
##장님이
##마을
##점은
##갔어
웃기네
성격이
굉장
기능
제대
지옥
##영상
##이라면
얼굴에
늘어
살까
어케
여수
즐기
휴양
##단다
##기적으로
10분
미국에서
노래도
스벅
아들이
애플
촬영
##봐야겠어
영화관에서
나무
모델
사다
스파
싫은데
##어마
##렸는데
겨울은
먹으면서
모른
보상
조건
펜션
해라
##관리
아파트가
기다리
보이더라
골라
늘어나
안됐
이리
##게요
##할거
##먹을
이상해
날짜
마찬
마련
피씨
##나도
##건지
##여야
##금이
좋아했는데
어머님
검색해
가나
나는데
사야지
앉아서
어색
여보
콘서
햇빛
그랬나
강릉
되는거
모여서
행사
##ㅋㅋ
아니지만
마을
먹게
옷이
시키는
비트코
70
공짜
때만
뮤지컬
안경
인상
입맛
크고
##하니깐
##하시는
내용이
공사
면회
주름
탁구
##의원
##던지
아니니까
다른데
이상하게
말고는
중국이
당일
더워서
심해서
원피스
이틀
잠을
처벌
캐스
태어
##전히
##집에서
##흥민
하더라고요
3번
걸리면
김선
성적
어딨
온다
의견
##해라
##봤어요
어릴때
어마어마
국제
냉동
싶당
옷도
지진
팔고
##어를
##하진
##었구나
찾아보고
크리스마
났어
사지
세탁
손흥민
음주
임신
필러
형이
##는다고
##별로
맛있는데
신혼여행
ㅇㅈ
불가능
지리
코스
##겠음
##집이
건강한
고민이
떨어지
동남
말한
모자
살아서
싫은
일정
##선수
키우기
긴팔
땜에
목표
밑에
신나
하려면
##치료
##적이야
##부대
##슬라
##방이
대단하네
애기들
중간에
갔던
걸어서
구입
대표
바르고
소중
않게
요소
테니스
##치기
##계절
아니잖아
힘들긴
알아보
다음날
마찬가지
붙어
업체
##만이
##야겠네
##할듯
##재석
##갔다
맞아맞아
건강이
가슴
거죠
런닝
미술
번호
봤음
살인
싶었어
않음
##찌개
좋아지
힘들고
드라이브
원래는
부분이
국밥
다를
말라고
밥을
시설
심하게
지루
##시까지
##살이
##종일
##에서만
김연
달달
보다는
산다
##버렸
##실에
나가고
2개
아이디
군대가
빡세
슬픈
유재석
인형
타서
##았다
##하셔
##리네
##엄마
아이폰
여자가
가자고
지원금
금지
낮에
단발
돼요
베이
식으로
이기
인천
##이었지
아니었어
오늘부터
시간은
장난감
귀엽지
2시간
서운
애견
자기는
##수술
##자들이
##배송
##카락
건강검진
어렵다
김선호
강남
과연
시장
없대
의무
케이
##겠당
가을에
들어가면
특전사
1위
세대
체력이
##이머
머리카락
무서울
저녁은
도시락
배고파
1등
대상
대회
봤던
수면
홈쇼핑
##용품
##제를
엄청난
괜찮다
싫어하는
병원에
않을까요
##봐야겠네
안타까
그립
라떼
못가
본인이
월드
##이란
얼마전에
운전면허
좋아하시
##이었나
##같은거
17
갔었는데
못했어
배웠
소고기
온다고
좋겠는데
차박
##보험
##나가
##진짜
##패딩
있었나
음식이
배워보고
분위기가
과목
넘나
홍삼
필요가
해주고
같어
안된다
##데이
##않아
기억도
오빠랑
동생도
소리야
아까워
바람이
아메리카
극혐
높아
시내
전지
팝콘
##일은
##한지
##한테는
지나면
80
거니
되더라고
많대
했더니
히히
샐러드
굉장히
독감
먹으려고
입양
전국
조절
##랄까
여행지
최고의
카트라이
여튼
주지
치면
##수있
##겠노
강아지랑
군인들
당황
두번
소리가
시킨
크아
표현
##치도
##장면
##키키
스트레칭
다녔어
되긴
부터
싶기도
차로
##는디
##하겠네
해야겠어
안되지
제주도는
지하철이
노트북
2번
만드
안마
열어
지도
탈출
##들고
그래야겠다
##시간에
계절이
따라서
비밀
실망
퇴사
##대면
##줘야지
영화야
##려구요
검진
관계
밥은
쓰지
잠시
족구
존재
할로
##아이
언니랑
겨울에는
우리나라가
이름은
배고프
집값이
고딩
끌고
끝까지
많긴
소형
여동생
예상
편하지
##도전
##치를
##인데도
아이스
병원에서
기다리고
엄청나게
예비군
동남아
등등
선임
호캉
환불
##디오
##줬는데
걱정되
하루종일
떨어졌
러시아
자극
재료
저거
제목
침대
##방에
겨울엔
찾아봐야겠다
냄새가
13
경차
믿고
아녀
요샌
일할
좋네요
아파트는
미세먼
할로윈
가볍
갈비
논란
달려
대만
때려
바쁜
생명
소문
할텐데
##더랑
##증이
##였던
지금까지
아프다
주위에
보일러
땡기
말아
못한
뿌듯
스마트
저기
##데요
##병원
하나만
있으려나
시끄럽
어이없
과외
단순
많았어
연결
했거든
##회사
사람이랑
챙겨야
중국에서
동네에
도전해
금요일
든든
봤을
짬뽕
킥보드
##로가
##봐요
##초에
##언니
레이저
날은
데는
번개
수입
싶고
오는데
재방
##지네
##어빵
##나보네
좋아하고
사람마다
괜찮네
집에만
갈수록
논산
살면서
역세권
태권도
한동안
##인듯
##자를
##하느라
##듯이
##줌마
가격은
보내고
떨어져
남편은
재미있는
바꾸고
달라서
데가
바꿨
보긴
샤워
없을까
죽어
##했거든
##때도
어떤거
서울에서
헬스장
미치
보낼
위주로
적게
짧은
테슬라
편할
흥미
##인줄
##라던데
##신이
##린다고
친구야
다니면서
기대된다
카트라이더
가려
라고
목욕
어쩐
얼음
챙기는
##보지
친구들도
이쁘게
걸려서
로션
링크
물고
버티
없긴
통화
호주
##이에
##여도
웃기다
따뜻하게
전지현
고통
쉬어
않으면
옷은
출연
##병이
##년에
##으로만
##이라던데
누구랑
행복해
##스러운
1인
1억
됐네
마시는
받지
버는
소화
없애
장마
존맛
지났
한창
##든데
##하거나
##스에
##포터
그러자
나오던데
공부는
유튜브로
티비에서
생기고
못하겠어
무한도전
아메리카노
1도
놀면
손가락
튼튼
플레이
##도도
##왔는데
##둥이
친구들은
위험한
재택근무
끝이
디피
선크림
입어야
있습니다
조기
하죠
아니네
남자들은
얘기해
피부에
추억이
놀라
리뷰
손톱
##ㅅㅇ
그러던데
그렇더라
해야겠네
싫어해
비용이
재난지원금
달고나
서핑
싸고
않니
##준다고
##해줘서
3개
교수
나간
날아
마이
마니
물이
바뀐
빠진
시댁
아줌마
족발
털이
해볼
##인을
##리나
##달에
##으세요
##집은
##경이
아프고
서울에
귀엽다
보톡스
신세계
16
기온
붕어빵
샴푸
없지만
해리
여행이
먹어보고
가족은
예쁘게
확진자가
고맙다
유투브
가더라
같네요
길어
받으러
상처
애들이랑
연차
잡아서
헷갈
##보는데
##프트
##세가
##하는거야
감염
글쵸
술을
실제
싶으면
연장
완료
잡는
패키
##리더라
##싶은
강아지들
다행이지
나라가
감성
갔지
게다가
맞았는데
짧게
화가
과학
다쳤
동기
보인
습관
좋지만
피파
할거야
##로운
##해지는
##스토
##모가
##방에서
그거도
강아지를
건강하게
해주면
거다
내기
스위
애교
억울
##만해
있는게
다르게
가볼까
양념
어쨌
없네요
##라는데
##도에
##분간
관리를
보여서
재미있게
다양하게
스페인
걔는
대비
두개
마사지
머릿
배민
시행
있죠
잘라
##인들
##르기
버스는
오프라인
감당
개꿀
고장
국물
메타
명이
벚꽃
베놈
아끼
인원
지는
학습
##보여
##있다
##게이머
##았지
그렇지만
괜찮았어
날씨도
문제는
일본어
기다리는
프로게이머
개그맨
14
거리가
돈만
뭐냐
빨라
없는거
오우
##상은
##집에
##덜덜
그러니
생각해서
힘들게
없어도
처음부터
저렴한
공익
데서
떠나
벌어서
분들
쓰는데
지가
##이드
##시대
##리는데
이번에도
비싸더라
오랜만
콘서트
ㅇㅅㅇ
믿을
봤었어
하셔
화나
##가에
##리게
##위가
남의
먹으니까
완벽
잘해서
즐거
하겠네
할거
##일로
##싶은데
##센터
##UV
시키고
길게
넣어서
동영상
스크
잔소리
찾는
회복
##시경
##할지
남자는
시키면
그려
넘어가
발표
싸이
여전히
한의원
##지마
##용이
##들끼리
##시나
올라오
어느정도
전세계
이러다
강화
나타
많음
받았는데
야채
장사
제작
종이
한명
##지나
##단계
##해질
떨어져서
프랑스
매장
비쌀
왜요
##해가
##스템
언제까지
아침부터
귀엽더라
그것만
상황이
슬프다
5만원
계산
단체
동의
세트
손목
점수
핑크
##했구나
비싸다
어쩌다가
일어나서
기회가
축하해
3개월
SUV
것처럼
당분간
뭐래
작가
잘해야
코트
##만하면
##하거든
##받고
지금부터
공부하는
뉴스에
부스터샷
500
길이
보조
사니까
사야겠다
스스로
위생
이마트
토요일
한테
현재
##해져
##동석
고양이도
이모티콘
4년
제사
찝찝
##하우스
##갈비
##동네
##호선
건가요
스타벅
해봐야겠다
필수야
남친이랑
국룰
되니
만만
먹었지
사도
약국
정책
준다고
참여
##이거든
##도를
##러운
나오네
군대를
ㅜㅠ
내도
놓은
명작
모름
이하
잠이
타보고
##나보다
##많이
생활이
세계적으로
거겠지
마취
물에
색깔
소비
처리
##거라
##uv
##까지만
백신을
바래
아래
지각
##두면
힘들더라
힘들다고
없어졌
##한테도
옛날에는
5분
내말이
바꿀
볼래
봤었는데
이득
타러
티켓
합격
후에
##겠구만
##리트
##st
우리집은
멋지다
서비스
필라테스
나더라
실수
체크
##이지만
##이였어
##거는
##전드
##였으면
##워야
##부로
##월드
결혼한
걱정이다
빠르게
명절에
환절기
마다
오니까
월요일
텐트
##로그
##퀴즈
##제는
##체가
재밌다
다녀서
나가야
나온다
시켜서
쇼핑몰에서
나머
몇번
방역
비대면
사줘
실비
욕심
##만의
##걸까
##든지
##일도
##레반
##차차
##쪽으로
있어야지
아직까지
봐야겠네
기간이
하와이
가는거
비빔
이구
이정
잘했네
차에
하신
하더니
홍보
##가루
##가슴
##려니
##할텐데
##재가
##동이
지금이
외국어
있으세요
개인적으로
명품
버려
속이
수상
수밖에
위로
##리에
그거랑
다녀온
머리를
동네는
마동석
##지게
##을텐데
아니더라
정말요
가끔씩
유튜브에
롱패딩
영업
올라서
존잼
포항
##라가
##트리스
하지마
공부하고
인터넷에
유튜브에서
어쩌다
고등학생
독서
뒤집
로켓
시기
장비
장점
전주
##있으면
##정을
모르니까
무슨일
내용이야
줄어들
겨우
구나
귀신
닮았
아껴
여론
잘나
크면
폭발
##산은
##해지면
##진다고
##정민
##값이
##싶네
안되는데
싸우는
여친이랑
일어났
나빠
나혼
낮에는
닭가슴
딸기
미루
부끄
안내
정촌
죽은
천안
태워
포켓
##용으로
##신사
##눈썹
결혼해서
둘이서
이따가
캐스퍼
이구아
그룹
반복
반품
인가
전부터
##하겠어
##제품
그렇다면
날씨에
공부도
드라마가
월드컵
어쨌든
갖다
검정
게스트
달리
레벨
못함
버디
사나
살지
읽어
제주
착한
캐나
탈레반
패스
아닌가요
자세히
가성비
suv
기초
사이가
적도
중에서
코난
##나나
##배우
##바람
##입고
찾아보니까
좋아하나
조용히
런닝맨
고슴
내리
말자
번에
분리
브라
외출
의료
한다던데
##로워
##습니까
들어와
먹는다
전기장판
자연스럽게
어울려
심각한
정확히
어떨까
개웃
느꼈
똑같아
물을
아웃
애초에
쪽에
##구리
##접종
해야해
##하다는
언제부터
여자들은
내일부터
행복한
수영장
저희는
잘생겼
300
매력이
시청
신선
에스
인강
있겠어
작아서
조합
줬어
타지
##식도
##디션
##급이
##율이
##권이
아니겠지
멋있다
신경쓰
부작용이
놀랐어
음주운전
되겠지
맞는데
먹으
모기
버리는
사먹
속눈썹
스테
않았는데
알러지
와야
진작
##단이
##드릴
##대에
좋아하잖아
음식은
아쉽네
마시면
가긴
단어
매달
좋겠네요
진정
##시네
##할래
##준다
##금도
##되나
게임인데
괜찮다고
이용하는
가봐야
곱창
꿀잼
되서
뭐라도
시스템
타야
##하기는
##랑이
##영업
미국이
음식도
귀엽겠다
보이스
고생이
2차까지
끝내
두꺼
스피
시도
오버
우승
유학
진지
탈색
##식을
가족들이
부모님도
옛날엔
노래가
영향을
간단하게
가볍게
해리포터
그동안
모가
싸워
이왕
중인데
초밥
퇴직
하실
##할거야
##달라
##였음
벌써부터
무섭더라
이미지
##이었던
길에
나라도
따고
마저
먹는거
밀키
엄빠
일교
적어
채널
편지
홍콩
완전히
남자애
나이에
된다면
저렴하게
거북이
닭가슴살
기숙
끝난
들을
레전드
멋져
서든
아름
양궁
##아파
##겠냐
##전이
친구네
문제지
나왔으면
사진도
값이
다치
더욱
맞게
별루
수분
중학생
차려
##때마다
##카롱
##던데요
재밌긴
다음주에
필요할
누나도
스릴러
ost
매주
면역
안하는
어지
왜이
유퀴즈
##아빠
##겠는걸
##서는
##해지고
##바지
##는데도
괜찮았
나오잖아
아이들은
여자는
비싸긴
아프지
할머니가
아버님
KT
봤네
식품
요가
하세요
항공
##보기
##료가
##러서
##성도
하하하
하나는
맛있는거
그랬으면
다이어트는
바닷가
것들
고무
끓여
도둑
됐다
빠져서
사게
안오
알겠다
있다니
장점이
제목이
타봤어
페이
##무새
##셨는데
##였구나
1년에
피해가
스키장
구조
도서
맛나
비해
빠지는
선배
자영업
전용
찍는
평균
플스
하기로
해가
##산에
##대도
##던디
어제는
누구야
스타일이
생각나네
고슴도
까다
될지
라는
바보
사자
얼만
입는
지어
짧아
쳐다
##이기
##주인
##금을
##바닥
##약이
##볶음
생각난다
운전을
20분
교육을
신랑이
크리스마스
빠질
신민
심즈
안들
편이
하필
##식은
##화를
##모님
여러가지
적당한
가상
단백
목숨
배워서
사천
셋이
손해
어째
짜장면
치아
##이냐
##다리
##드리
##기면
##러워서
지금이라도
얘기를
아파트에
뉴스에서
힘드네
어쩐지
21
고소
길고
끝날
번은
소주
좋더라구
있는거야
있나봐
어울리는
비트코인
가벼
무너
버리
선풍
아우
작업
출산
##받아
그러나
친구한테
어려서
보이던데
알았네
불쌍해
1번
간만에
덥고
볶음
비오
이겨
주기적으로
짱이야
##시가
##하실
##하더라구
##싸움
##향이
좋아한다
시작하면
좋았던
남친이
답답해
고속도로
같다고
걷는
군데
눈도
맞습니다
멀어서
무궁
블로그
뽑아
서서
숙제
에너
전동
키가
##드만
##마블
##색이
##함이
먹어봤어
멋있는
머릿결
가득
군인이
때매
벌고
사오
앵무새
칭찬
코코
폭력
##차도
맞아도
아니니
다음엔
이러다가
한달에
만약에
호캉스
나라는
누워서
뒤로
많구나
벗고
트렌
##원에
##자너
##식품
##연이
##색으로
아무나
10만
비싸게
20년
개선
걔가
대선
무난
연구
울고
카레
카메
화이트
효도
##치킨
##주라
##저히
##석이
사람한테
다른거
몰라요
선수가
사건이
##라스틱
간호
관리가
내야
노잼
되려나
싸웠
안해도
않더라
여기도
전투
조정
조심히
형도
##보가
##다닐
##드위
##한거야
##디슈
걱정하지
어제도
관련된
지리산
고급
군복
님은
루미
마인
못하는데
물놀이
방문
씻고
일기
할만
했지만
화면
##겠니
##상을
##정은
##큐브
우리나라에서
좋을텐데
궁금해서
좋아하는구나
보여줘
안돼서
어울릴
어머니가
모가디슈
독일
딸이
뚜벅
목소리
못하지
바다가
생리
아가
이마
이웃
있네요
타본
##하노
##졌다
다니는데
마음을
나온다고
학원을
선수들
캐나다
계곡
깔아
놓으면
말하면
목이
몰아
보낸
얘기가
어리
찍은
처럼
##겠던데
##너무
나오는거
생각해보면
있을거야
봐야겠어
피곤해
해봤지
데려가
지난번에
상관없
피씨방
바퀴
별거
즐겁
##이상
##소가
##바로
##통이
##운동
저도요
연애를
불편한
해봐서
영향이
마라탕
스토리
갯마을
관절
급하게
노노
복지
써도
이걸
체질
그래그래
맛있었어
어떤데
드라마는
어려워서
난리야
귀엽고
특별한
90
공장
다친
돌고
들려
맛은
산청
생김
쉬워
왔지
일요일
자라
종목
주의
찾기
청년
했구나
##랬는데
##받는
##페이
그렇구만
괜찮더라
언제나
생각해요
나왔던
어때요
보내는
아버지가
격리
단계
따듯
막걸
방학
빌라
연기를
잃어버
자면
하거든
##지더라
##어로
##겨울
##간에
##피아
운전병
여름은
알았다
올리브
35
가려면
넓은
넣으면
두피
마무
몇개
못하게
물리
보네요
블루
양이
전철
차량
테트리스
트러
##있음
##으론
##오빠
##탈출
들어온
회사도
무서웠
키워보고
있으니깐
쿠팡에서
성형수술
거부
고르
목소
뭐하고
않다
죄송
지갑
크지
한판
##였네
##겟다
좋아했
생각할
아이는
날씨는
배우면
가능할
##하기로
느껴져
극장판
누구나
드론
마카롱
설거지
싸울
왜냐
입으면
자차
제모
춥지
플라스틱
##미는
##과는
##쯤은
##갔는데
##이랑은
시작했어
3시간
거절
그저
돈까
마약
몰라도
샌드위
의자
한지
##이겠다
##되네
##터널
##성화
##박스
##간다고
##랐어
물어보고
있을까요
있으신
연예인들
여친이
정해져
쿠키런
거만
거로
경력
다섯
많나
보증
없던데
오를
##사진
##거면
##소음
##금은
##성에
사람이야
마음은
보내줘
떨어진
가까워서
배워야
정신이
걸리지
곳이야
뉴욕
먹어요
몇년
빠졌어
식물
안됨
친절
##상도
##레스
##봤다
정말로
재밌던데
키우는데
여자들
추천해줘
시켜야
준비해
있다던데
계단
낮은
댓글
됐으면
되었
모시고
무지
버렸
안다
오피스
자야
조아
주민
크크
투표
해보는
홈트
##줄께
##실에서
운동하는
말고도
음식을
장난아니
이유는
좋았지
12월
놀이터
의외로
로맨스
건너
규제
끊어
신입
애완
있더라구
자기도
잘하면
추운데
해볼게
##소에서
##우가
##긴해
알아요
있었네
무섭지
주변에서
어쩔수
오래됐어
가진
같았어
고수
고려
기부
로봇
매니
못살
반지
봄이
세포
신체
연말
잘하지
좀만
참아
파스타
##였어요
##생이
얼마야
당연한
나온대
연애는
해보려고
루미큐브
걷기
교환
눈을
땡큐
본가
울릉
의미가
입술
좋으니까
천둥
평일
폭행
허리가
##양이
##주세요
##국이
##비로
##미디
##됐어
##셔야
재밌다고
나오니까
언니네
먹어봐
비싸네
아프다고
청소년
올랐어
디자인
트러블
맛없
산에
생신
오전
유일
잘하더라
종합
하려나
할걸
##가족
##텐츠
##미리
##길에
##호가
그러냐
싶다는
예전부터
시작해
비싼데
상상도
동해
되겠어
먼가
뭐니
미쳐
분들이
소녀
슬의
장단
차차차
출장
트럭
판타
팔았
하길래
##인들이
##보이
##원에서
##라우
##자로
##선을
##이라는데
힘들었
없어지
안되나
끝나서
단백질
무궁화
1일
고쳐
공격
날라
많았는데
믿어
방에
본적
사계절
살게
상당
시대가
어두
외롭
의심
제거
찾고
춥고
하구
알아봐야겠다
안되고
유명해
가까워
특이한
가잖아
가봐야겠다
광주
먼지
모닝
비만
싸운
아놔
않나요
어르
잠도
축제
##사관
##땜에
있었음
가을은
병원은
말하는거야
30대
사이에
기후
기운
버거
버리고
보단
부상
않는데
억지로
없죠
줄은
즐기는
타격
##트를
##안이
##모델
##실이
##놓은
그럼요
운동하고
다니기
무서운데
수도권
교육이
대한민
안타깝다
김연경
2일
떠오
부르는
상사
싱가
아부
언어
오더라
하겠어
해먹
헐랭
##호회
좋아야
그렇군
같은데요
10시
공부할
생각해보니
들어가고
해봤어요
미세먼지
강철
개념
규칙
뭘까
본방
불렀
빠지면
소소
전환
하기도
##시설
##감을
##발이
코로나때문에
##해야겠어
다음에는
다니지
배우가
좋을거
선물로
지내고
오피스텔
PX
ㄹㅇ
가네
고추
나니까
노동
데도
마실
마냥
말해줘
먹여
보신
애기가
잡았
장애
주인이
줄여
하얀
해줬
##수업
##드도
##일걸
##출이
아니구나
재밌음
아이를
그때가
그럴수도
아침마다
사는게
알려줘서
빠르다
간대
꼼꼼
동료
몰아서
손에
수제
옹옹
웬만하면
이길
질문
코미디
터키
했고
##산물
##쪽에
하나봐
내일도
무섭긴
영어는
층간소음
계시
극장
내렸
맛도
쏠쏠
왤케
춥다
##원은
##형이
##내는
##히고
##놨어
##ST
생각했어
##하다니
않아도
가고싶어
가는게
병원을
노래방
자신이
모르겠고
스크린
강제
꾸며
놀았
단독
무겁
보라
오리
온대
온천
은퇴
자르
장만
진상
해봄
##했다는
##이즈
##서가
##봐도
##돌이
재밌어서
없어진
머리도
보여주
점심은
전세로
공연
맛난
방향
비도
안해서
얀센
엊그
예고
유용
줘도
테러
틀고
파리
편안
한정
할리
헐헐
##하더라구요
##냥이
생각하니
아무거나
부모가
여름엔
연락이
지나고
부담스럽
중고차
경비
산다고
신중
얘기는
없더라고
오메
이전
줘야지
초보
컴터
탈영
##나무
##기사
##갈게
운동화
얘기하는
고양이를
##시간이
일본이
비슷해
추워져서
알았지
아픈데
거리두
언젠가
기준이
도서관
가시
거였어
것들이
당한
더웠
동호회
무거
밥이
살자
상승
엄두
엉망
완결
운이
위치
이루
적어도
찍어서
풀빌
하여
한식
##아냐
##겠더라고
##으려면
##음이
##긴다
게임으로
기억난다
걱정이네
캐릭터가
그정도면
달팽
배려
베란다
석탄
세워
시에
실력이
썼어
일인데
제로
추세
피티
화려
##에다가
처음으로
대박이야
그럴걸
알바는
앞으로도
100만원
어린이집
OST
ㄴㄴ
개가
담당
당구
더위
배경
벤츠
병사
세월
예를
올렸
준다
지인
타투
##된다고
##시로
##주년
##었고
##모르
##졌는데
그러는데
그렇대
모르게
정도만
그때도
머리는
있었잖아
떨어질
티비에
부산은
감사합니다
온라인으로
시켰어
내시경
모니
뭐였지
수리
수익
싫을
역사
이터널
입은
흔들
##하려나
##모로
##운드
##애들
먹어야겠다
##해야해
남자들
오래돼서
어렵네
떨어지는
멋있더라
안된다고
기숙사
대한민국
같으면
급식
남았어
내서
닮은
동거
듯해
바디
부정
성장
센터
없겠다
엉덩
존경
타임
##시국
##하구
아니래
한번은
##하지는
기억해
비싸고
있을지
시작한
보내줄게
좋아하더라
마지막에
기름값
누군지
포켓몬
올리브영
9월
단점
도마
마즘
못하면
밤새
여군
유니
장거리
정기
조개
조사
펜트
한글
활용
##니당
##다운
##버리
##버려
##쿠버
나오나
많아져서
있을걸
아프간
생활을
기분이야
##같아요
카페에서
먹었어요
다녔는데
대형견
스타벅스
KTX
곳을
공개
길어서
멀쩡
봤거든
살려고
싫고
쓰게
장기
죽고
지겨
한약
##가기
##보러
##있나
##스키
##음식
##적이지
##추는
##하는구나
힘들어요
있었대
알바가
동물을
괜찮아요
연락해
이러고
지내는
직업군
움직이는
뒤집어
어르신
고모
다리가
리얼
숙박
약을
와도
자율
찬성
할때
##한번
##바이
##성은
재밌더라고
들어야
##해야겠네
챙겨서
일단은
여름에는
노래를
예쁘더라
신민아
3만원
6시
농사
답이
만두
먹방
무신사
삼촌
생산
외제
유통
잘하는데
처방
친정
했다가
향수
##로로
##버렸어
##따라
사람들이랑
말하는거지
추억의
부담이
속상해
군생활
들지
못했
바나나
보나
생선
셀프
심장
웨딩
적립
질병
키워서
희망
##께서
##쓰고
많아졌
배우들
가야겠네
##사람이
마지막으로
큰일이네
확인해
여유가
갔으면
고정
과거
대장
드려
비비
싫더라
안심
안하면
요구
자리가
컴활
폰으로
한라
##지않
##라니까
##대를
##먹으면
그렇게까지
아프더라
취미로
나중에는
유기견
카메라
가스
도수
라이
바꼈
보는거
봐바
부드
스티
스노
안아
알면
옵션
유리
잔뜩
잘되
한시간
##가를
##드로
##정보
##워치
아니냐고
그런것도
게임만
정도가
우리나라에
좋아하세요
받아야지
있었어요
가져가
태풍이
가봐서
고스
긍정
기도
날에
낭만
내면
몰입
아오
안했어
얇은
외동
좀비
즐길
트레이
하우스
할려고
후후
##시더라
##하며
##말이야
여행사
다른가
언제야
가족이랑
##이었음
효과는
않았을까
들었어요
큰일이야
모습이
취향이
##거같은데
가디
구름
나아지
늦은
댄스
디아
매형
바뀔
박스
비오는
산업
쓰러
애도
왕복
통해서
화상
후임
##있어요
##하하
##일을
##려다가
##한텐
그런걸
결혼하는
군대도
아닌거
찾아보
찾아볼게
버스를
중국어
동물의
스트레스가
기다려야
이쁘고
이슈가
무료로
22
거제
모여
법이
보이고
없다는
##지기
##크래
##냐구
##온다
##히면
이번주에
찾아봐야
유명하지
어렵더라
다르긴
보통은
##건가요
추석에
시원한
싸우고
도와주
없었으면
만만치
샌드위치
구독
기침
꿀팁
말티
바지
삼천
시민
안들어
열정
잠잠
집들이
##있을
##공원
##센트
##줄래
##ㅡㅡ
들어왔
어떤게
기억은
가고싶다
부모님한테
##다니는
특별히
걸고
고객
느낄
머야
빌려서
손으로
스카
오네
왜그
의지
자매
재개
차별
황정민
##하길
##기지
##셨나
찾아보면
교통사고
예쁘고
아깝다
주인공이
자가격
오후에
마켓컬
엊그제
5만
5천
감정
계셔
깜빡
대답
도쿄
동반
따야
많겠다
면제
뭘로
술도
전통
좋다는
죽겠어
줄이
증말
천재
한거야
##했겠다
##잖니
##다음
##군데
##것만
##갈까
##꾸미
사람만
괜찮으면
싶어도
아이디어
재미도
다행이
나온거
준비하는
학원도
살아야지
다르니까
이야기를
프로포
한다더라
사랑이
이쁘더라
교통이
23
kt
간부
길러
대여
되어서
샀다
알레
알제
에고
잡을
저랑
한복
##겼는데
생각하는데
들어와서
남자들도
여자들이
안되면
많은가
학교에
경험이
타이밍
마무리
2층
기상
말할
못먹
미군
보이지
분야
비는
빼면
신호
아들은
애는
인턴
자서
자녀
잠들
짱이지
허락
##개가
##지니까
##트리
##는뎅
##거에요
##하라
##기구
##럽다
##적이고
요즘에도
그거야
있었구나
먹었나
행님은
느끼는
바이러스
밀키트
일기예
가디건
9시
겉옷
나에게
날도
내리는
드림
말라
모래
몸을
본거
삶의
샀지
안남
야간
없구나
오르는
왕따
일자
진료
쪽은
추웠
테스트
회원
##인디
##가나
##이팅
##게티
##해주고
##대서
##본다
##울렛
좋아진
거기로
얼굴도
비슷하게
점심에
잘생긴
간단한
가볼
가짜
간편
기생
기록
남들
내려서
당시
된다는
미끄
실천
싫어요
일만
일하면
코딩
허허
협상
황소
흑흑
##시험
##였잖아
##진이
좋아졌어
모르지만
알아보는
알바도
누나랑
학원은
뉴스를
비행기가
전문가
메타버스
1학년
4시간
넘는
맞죠
벌금
부른
부딪
쇼미
안먹어
요거
이탈
춥더라
터지고
편이라
##도그
##자야
##치지
##함을
좋은가
거기다
보고싶
중요한데
시켜줘
사진을
아마존
보험은
종류도
안좋은
자유롭게
미쳤어
오빠야는
##모델링
더러워
목적
몸도
보더라
붙여
사장님이
연기도
우짜
인공
있데
패션
평범
##이든
##있네
##거라고
##리핀
##감도
##공부
##차를
##위로
그치만
그러면서
대박이지
아빠한테
걱정돼
다행이네요
준비하고
유명하잖아
남편이랑
##스트코
어쩌고
미리미리
월급이
일어나면
일어날
공간이
간장
기절
됐나
듣기
딱지
맘대로
밤에는
봐라
아픔
않겠나
앨범
자막
저두
전원
제도
코스트코
필리핀
##가게
##보내
##했다가
##있더라
##타는
##시피
##기한
##집도
##박이
##력도
##벌이
머리에
안되네
가끔은
해외에서
20살
하자고
보이는데
야구장
물건을
감독이
수학여행
시대에
스마트폰
이구아나
가평
강추
개는
그르
눈은
목도
배틀
병아리
삭제
앞머리
왁싱
인증
인성
책을
탔는데
##때가
##난화
##물은
재밌고
궁금하긴
마스크를
주택이
강한
넣는
더울
망가
맞긴
반반
버텨
심리
안주
여태
전에도
축의
후보
후라이
##을듯
##신데
##방은
생각한
어떻게든
알아야
먹고싶
무섭네
지하철은
캠핑카
미안한데
애니팡
넷플릭스에
다녀왔는데
패키지
돈까스
거냐
높아서
담임
사귄
살찌
아울렛
않지만
어서
없었던
열이
오나
적용
챙길
##보면서
##든가
##다면서
##레놀
##중이
##활동
##능이
##애가
##선생님
##베이터
##벌레
하는건
알아봐야
먹고싶다
사람들을
백신이
준비해야
제주도에서
혹시나
한국에서
이름도
치킨은
중고거래
세상에나
초반에
도마뱀
1종
가봄
그닥
남해
돼야
레저
리모델링
어항
인데
전라도
제법
좋으
초록
##시스
##되니까
##토리
##력을
##숭아
그런거야
우리랑
하나요
마음대로
최고인
와이프가
태어난
공주
극단
내친구
닭발
될거야
변화
수수
않겠지
오전에
정답
##답니다
##맛이
##을까요
나왔대
싫어해서
일본에서
관심을
202
생각나는
휴양지
이정재
왜냐면
장단점이
그릇
당신
독도
룸메
밀어
바리
불멍
없냐
올린
옮겨
잘안
차이나
코시국
통영
파충
하다니
해드
##어울
##타임
##거리는
##테니까
##시코
##시네요
##하더니
##청소
##두는
##쳤어
##커피
##쯤에
너무하네
그랬대
이상은
나왔다고
11번
해본적
일어나는
할까요
파충류
2명
난방
눈사람
땀이
마피아
맞으
먹나
발목
버릴
사형
속에
아세요
인구
임대
조작
종교
컨셉
한마
##아아
##때까지
##물을
##기업
동생한테
먹을래
떨어지면
먹었다
부족한
하늘이
일어난
만났어
안타까워
비빔밥
가다가
놓을
동아리
디지
못했는데
받음
번째
상상이
소나
이라고
있더라구요
잡혀
찢어
치매
치러
컨디션
편이지
했었
##니가
##테니
##디가
##졌대
##잡고
##검색
그렇겠네
힘들었겠다
모르겠네요
겨울옷
비싸잖아
조금이라도
주말에는
배달이
남편도
교수님
PC
거라서
구피
놨어
도박
됐다고
등교
말하니까
바랄
바르는
오랫
줄까
테니까
특수
할수
핫딜
##했더니
##안에
##시도
##서도
##할걸
##학과
우리동네
재미로
문제인
신기하
시작하는
안되서
드라마도
운전하는
재미있을
기사님
필수지
시원하게
타이레놀
기술이
진지하게
강요
강력
냉면
머선
바빴
사격
심하다
얼어
완화
잘한
저러
주세요
창업
첨에
추우면
탄산
티빙
했었나
##가는데
##이들
##다녔
##리러
##소에
##였다
##부부
##저나
##봤네
다녀올
시작해서
아프리카
가능하지
세상에서
기다렸
커피는
위험하지
학생들
못하겠다
신랑은
바꿔야
아팠어
공짜로
걸어가
구하기
낳으면
놀랍
담주
마치
물가
미사
봄에
사와
선진
싸웠어
애를
어쩜
얻어
오기
의문
치맥
칼로
컵라면
키보드
파란
평일에
##무게
##리티
##해본
##전도
##그라
하는거지
괜찮고
그랬잖아
학교는
음식점
귀여운데
매일매
카페도
중고로
중고나라
가기도
국방
나요
난민
낮잠
너넨
더더
둘러
말하고
맘이
미역
볼만
불가
뷔페
성폭
승용
없겠지
울산
이과
작아
접속
좀더
준대
줄줄
탔어
품절
화목
##했고
##했었지
##다른
##기념
##기랑
##되는거
##하는지
생각에
돌아가고
바람도
직장인
어울리
앞으로는
15분
불안해
금액이
3만
가니
기미
대면
동갑
되어야
많으니
말에
스무
신축
쏘는
않으니까
유미
장갑
전까지
주는데
클래
편해서
##사야
##자들은
##하려
##기에는
##장으로
##바다
##먹었어
##내서
##졌다고
들어오면
버스도
피부는
사랑하는
4일
거여
겠다
경제가
그린
되는거야
먹이
비오면
않겠어
올까
응급
이랬
일년
재활
코가
클라이
해줄게
##식당
##스틱
##소년
##미널
##프레
##린데
아니였어
보고싶다
맛있다고
생각해도
나가기
다르네
스트레스를
축구는
치료제
기억나는
두꺼운
얼만데
고스톱
갈려고
낳을
능력이
되었어
들으니까
말까
발사
밝은
배부
서류
소설
숨쉬
열고
유연
일하면서
지지
집밥
타는데
테니
##인거야
##로우
##래서
##질까
##우먼
재밌나
나오더라고
아이구
이런데
무서움
걱정마
나왔을
만들었
한국인
저희도
피곤해서
이후에
상상만
챙기고
나갔다
고슴도치
기생충
김태
나보고
남겨
막혀
물도
보람
안보고
양상
양말
이정도
쭈꾸미
##리자
##기야
##복이
##권을
다시는
보는게
제주도에
##한다면
201
좋았겠다
가보려고
꾸미고
잘됐다
판타지
4명
8시
거울
니네
달리기
들었던
마늘
무도
반도
벗어나
비혼
스쿼
올게
올리는
왔어요
원작
잡혔
좋겠지
중심
지냈
타입
##나오
##해졌어
##알아
##세여
##렉스
##웨이
아니었
그러잖아
생각함
##이라구
들어봤는데
결혼도
나이키
불편할
이유로
안나네
부분은
대신에
그래야겠어
핸드폰으로
빼고는
스케이트
혜택이
선풍기
오메가
풀빌라
걸렸어
노란
드릴
라인
리니
먹더라
목줄
못생
비숑
살다
색이
수당
수족
얘기도
연속
온도
웬만한
작고
정류
조그
천만
초콜
킹덤
튀김
티가
해운
##된대
##하나봐
##물도
##드라고
##해보자
##소희
##엑스
다행인
알바를
보내주
나이도
관리도
돌아가는
한국사
키워본
않았어요
부산에
##가봐요
보인다
말티즈
클라이밍
2천
2만원
길거리
넘어서
땄어
몸무게
문화가
민망
본다고
시위
싫다고
싸서
않더라고
약도
어이가
오자
이력
잔잔
잘함
장교
절반
착각
카라
크로
##이니깐
##없다
그러시
하고싶
맛있음
해야하나
1000
만들어야
먹는다고
대단하시
집에서도
운전할
아파트에서
동물병원
이거는
바뀌는
그리워
예정이야
볶음밥
가라고
거나
건축
나나
낚시는
내부
다름
당뇨
도라
되기
먹잖아
물려
물품
배웠어
복귀
빠지고
사전
아동
아닝
안사
엑스
유료
존중
출시
케이스
테이
##리터
##파크
##긴한데
##챙겨
좋아하면
필요하지
챙겨먹
백신도
자기계
만화가
12시
그나저나
아저씨가
김치찌개
유산소
잔인한
요소수
슬의생
SN
구할
기존
무기
배변
쓰니까
좋다던데
주유
직관
통과
투룸
패러
풍경
학창
핫도그
해산물
##이더라고
##는가
##하데
##비싸
##준대
##알바
##블로
그러더라고
재밌어요
들어올
힘들잖아
챙겨주
마음의
물어본
등산은
아까워서
깔끔하게
정부에서
프로포즈
같았는데
거보다
더럽
뜨는
뜯어
받는데
백수
병장
분은
사드
산거
슬펐
않다고
오르고
유독
잘만
잘은
전날
점도
크니까
투잡
허용
##에겐
##고가
##속에
##자네
##았어요
##하셔서
##리오
##분은
##졌으면
##곳이
##쟁이
##욕이
##앞에
좋아행
생각하지
여자도
다녀야지
##면서도
만들기
버스타고
노래는
올라와
난리도
사랑해
출근할
편의점에서
조카가
고맙지
나중엔
사무실
어딨어
갔다고
곰팡
너만
덜덜
도입
며느
무사
발이
보장
비상
승부
신뢰
악마
에서
역대
오라고
주나
줄이야
쪽이
코믹
타자
함부로
##개는
##였대
##던대
##번호
생각하니까
아이들도
생활은
만화는
지나서
전화해서
기회에
어른들이
공군은
지키는
이탈리아
36
거실
걸리고
골라서
굿즈
기타
낫겠다
늙어서
먹다가
물가가
뭐고
바르면
발톱
보라고
봤구나
싱크
어후
없니
조언
직거래
차단
총기
폭탄
핑계
해피
##진대
##같은데
##습기
##됐대
사람의
영화나
해야하는데
운동할
나왔지
중요하다고
안되겠다
인터뷰
귀여워서
살아보고
한다면
캠핑은
교육은
남자친구는
여러모로
넷플에
어쩌지
##드라마
일반인
##크래프트
매일매일
자기계발
감수
고3
단지
마주
말이다
모공
발달
부위
샵검색
오잉
잤어
적금
한때
했었잖아
##인걸
##을거
##하길래
##일듯
##플레이
##놔야
그래픽
아니여
좋아지는
힘들대
건강은
재미없어
만나자
많은거
자기네
있다더라
부럽네
산책도
외국에서
신경을
내용은
사회가
이쁘지
주택은
소개시켜
이상형이
자가격리
3명
강제로
국어
다큐
바깥
배터
복지가
색으로
솔로
시집
실업
쏟아
어짜
이병
잡으면
절약
줄이고
지속
집단
천국
판단
팔았어
해보면
환갑
휴게
흉터
##구는
##구니
##시기
##산도
##유의
##신다고
##던뎅
##받아서
게임하고
아이도
먹어봤는데
먹는게
만나야
올라가는
살아남
귀엽게
프로젝
보이긴
전세가
주문해
다녔지
어렸을때
해줘야지
건조해서
음료수
나눠서
울릉도
유통기한
일기예보
성폭행
가실
것으로
고전
관계가
대처
듣는데
리그
마법
바른
박서
봤니
봤냐
빼는
수록
웃김
음성
질려
짜는
차지
참치
하려
훌륭
##이겠지
##자랑
##자의
##스테
##비에
##갈때
##참에
사람인데
들어보
어디를
남자도
문제다
피부도
관리하는
너네도
조심해야지
너희들
멋있지
선물은
큰일이다
건조기
불러서
이터널스
양상추
공공
늦어
들이
렌즈
마져
맞앙
반전
봉사
봤잖아
뿌려
손을
안걸
연인
위에서
이참에
잘먹
줬으면
증가
짐이
집사
참을
할듯
##했나봐
##나물
##이더
##거려
##일이야
##건강
##졌어요
##쓰는
##퍼센트
모르니
강아지들은
가고싶
신기하더라
영어를
가져다
느껴지
업무가
이하늬
1층
2만
교회
넓어
돌파
무거운
민간
뿐만
아닙
예의
요금
자존
주더라
짜리
편집
해당
##트로
##데이트
##리스트
##마토
##람쥐
##방도
없어지는
대단한데
드라마를
시켜먹
귀찮다
있잖아요
재미있더라
##하자고
내년에는
컴퓨터로
똑같네
스테이크
막걸리
가치
간절
갔잖아
갤럭
구글
기가
담아
도저히
되냐
들여
리조
먹으라고
벌어야
보구나
사장
살다가
수강
신서
안간
안써
약은
작게
적어서
추리
칼국수
타기
터질
편인데
했더라
##을거야
##주나
##역이
##편이
별로인
조심해서
귀여움
이름을
나라에
##기로는
이야기가
티비로
남친은
전기차가
자체를
어딘데
할리갈
1개
2000
45
5일
단점이
떠서
많더라구
바꾼
번거
보습
빵빵
빼야
살도
쌍커
전엔
주먹
케어
팀이
펌프
피로
하느라
학대
핫한
##사에서
##볼께
##시장
##리니까
##할머니
##제한
##러가
##저분
##환경
우리의
그렇네요
해야할
다니자
문제도
신기했어
나와야
중국에
애들한테
인터넷이
해주지
소리도
키워야
신경써
알았어요
괜찮은거
모두의
비용도
남았네
거북목
신서유
28
400
걸림
남녀
댄서
도배
도깨
듯요
많네요
복숭아
비하면
사줄게
산불
속도
신용
싫음
아시아
잘했다
장판
천원
트라우
편하겠다
##게도
##았네
##시절
##기전에
##해줘야
##한다던데
##셨대
##느냐
##순이
##점을
##쿠폰
##갔다가
##냄새
어디에서
##다는게
조금은
집에서는
좋아하거든
주변에도
20만원
지나가는
생겼는데
해봐야지
잘못된
방법은
상관없이
넷플릭스에서
때문인가
오래됐다
근육이
부탁해
24시간
브라질
SNS
ㄱㄱ
ㅋㅋㅋ
가질
가는거야
결말
내릴
넣은
면도
바껴
벌면
부르고
소속
소식이
실험
안본
올리고
이만
이라는
일회
지워
처갓
천사
치열
컨텐츠
평화
##관계
##있었어
##상품
##요가
##대기
##버림
##느낌
##졌네
##좋다
##놓으면
괜찮나
하나가
나오긴
공부가
운전은
학원에서
얼굴은
선물을
기본적인
휴가를
40분
재방송
강철부대
트라우마
3천
갈라
감옥
강사
같기는
거를
고등
대책
독학
드니까
레드
매직
못하니까
뭐하니
방이
배추
비해서
생존
손님이
없겠네
오이
읽고
잊지
자르고
잡아야
집이랑
철권
치우
하라
한마리
힘을
##수육
##상에
##하이
##님은
너무해
##인데요
##다가도
하나하나
코로나는
하루가
보내야
어렵다고
미용에
반려견
저렴해
계획을
방법을
발라야
둘째는
상품권
집안일
걔네는
태어나서
그립다
기온이
일교차가
알레르기
가기가
공동
과제
글고
나누
난다고
날씬
모야
몸은
베스트
빼빼
뽑기
엽떡
일해
있자나
재밋
지저분
페이스
하드라
허니
형수
훔쳐
##인지는
##시죠
##드를
##오징어
##봤나
##봤자
맞아ㅠㅠ
아니더라도
하고싶어
그랬어요
날씨야
걱정은
준비를
나이들
물어봤어
연애할
올라온
사랑을
시험은
따라가
보험이
피해를
예뻐서
대구는
정해진
시켰는데
싱가포
달팽이
지겨워
스티커
데리러
두려
드네
듣기만
만져
못했네
보셨어요
순삭
시러
아네
애인
오케
와야지
이태
입주
잡은
종식
주행
짧아서
청첩
친해
평가
한쪽
현지
##수수
##들에게
##주는데
##해줄게
##으셔
##없어서
##차로
##베큐
생각중이야
아이언
언니한테
맛있다
남자들이
무서웠어
생각해봐
나가지
만들면
병원도
받아도
한국에
한국어
귀여울
어렵고
귀엽긴
해외는
##이었으면
최근에는
자격증은
점심시간
티비를
오오오
어머님이
월급도
어떡하지
환경이
프리미
가냐
가면서
걔도
고향
구멍
김장
꿈이
남성
늦지
뭐하는
바베큐
버섯
번지
보기만
빠르고
사례
수다
엘리
원씩
인명
인식이
있기는
있겠네요
조리
줄넘
쳐서
춘천
한편
헬멧
##고만
##있는거
##유럽
##었습니다
##났는데
##왔다
##부턴
같아도
많이는
언니들
가능성이
어려운데
좋아하니까
귀찮은
동물은
떨어지고
마스크도
먹었던
기사가
그니깐요
훈련을
수술은
예약해
월세가
생각나서
##아니가
메뉴는
##거같아요
꾸미는
우울증
바닥에
놀랬어
분리수
갔어요
골목
공기가
그리스
극한
남아서
말로
밀가루
버릇
변이
봅니다
살던
쉽지가
입마
잘한다
지네
지겹
지마켓
짜고
책도
크다
탈락
편이에요
하노
해볼래
##아는
##나지
##카는
##센스
##모임
##받을
아니구
너무하다
##하는건
재밌었지
##하지도
영화로
아침은
몰랐지
커피를
교통비
맛집이
11시
프로그램이
안전하게
시끄러
맞추는
벌레가
하여튼
바리스타
BT
DP
고인
공급
기르
끌려
나처럼
때랑
뛰는
머스크
뭐로
민폐
바쁠
선거
수원
슬리
싸지
애기는
와이
일하는데
있길래
잘했
주소
즐거운
찜질
포토
하겠지만
한소희
##수기
##겠따
##안나
##았으면
##크가
##서를
##리긴
##화는
##패스
좋아질
그런것
그렇더라고
들어보는데
아직까지는
운동하면
있었거든
있나여
일본에
가야겠어
카페에
외국은
여자친구는
##이었어요
월급은
안해봤어
외모에
오버워치
가전
갈때
것인가
곳인데
딱딱
말투
맡겨
무척
변경
보관
속초
순위
써야지
애용
양심
왜왜
의지가
주방
진로
짓을
찍을
촉촉
케익
터미널
편은
허르
헤헤
형이랑
##겠는
##자면
##하더라고요
##리로
##올라
##업이
##신다
##스턴
##없지
##동에
##플레
그런건가
##이라며
코로나도
그때부터
공부해
필요는
필요하다고
제주도도
한국은
나라를
불편하지
가까운데
좋았을
쿠팡이
##해지지
배송이
물건이
모르겠음
안녕하세요
마당에
복무기간
갈아타
로망이
괜춘
내에서
놀다
놔야
늘고
댕댕
뜨거운
맞기
맞는거
방치
분들도
살해
소송
신분
야야
왔나
일이지
잊어버
줬는데
지뢰
펜싱
할라고
행정
확정
##가야지
##해주면
##루토
##듯해
##되겠다
##날씨
##외과
진짜야
생각해야
어디까지
맛있던데
나왔잖아
아프네
있다는데
연애하고
다르더라
다이어트를
##이었네
재미있었어
등산을
취업을
군인은
지난번
시즌2
뭐든지
누군가
스케일
최저시
싸이월드
나혼자
펜트하우스
삼천포
마켓컬리
가루
가보는
곱슬
꺼냈
꼰대
넘쳐
넣어야
대란
만남
맞재
멀지
밖으로
부실
상영
설탕
수달
썰매
쓸데
우연
이수
정형
제육
주니까
쨍쨍
콧물
토요일에
틀린
하셔서
하셨어요
한옥
했으니까
##겠넹
##어어
##여름
##브리
##두부
##너스
우리보다
들어오는
언제든
다녀와서
있을거
나왔더라
만들었어
##가는게
이러면
아버지는
보기엔
50만원
어플로
시국에
더더욱
2박
3분
가던데
꽃이
낫다
마치고
맞으러
뭐였
반대로
부활
살펴
삶이
삶을
세단
소스
소풍
숫자
식빵
안봐서
양보
없었지
오일
이빨
입에
있더라고요
장모님
점은
중단
짜릿
차고
참가
크루
한파
##시는데
##었죠
##문제
##마저
##준비
##말로
##놨는데
##십니까
좋아져
생각이다
그랬다
키우게
겨울에도
가족여행
많아야
나왔던데
주말엔
끝나는
그만두고
불편해서
소리를
내용인데
군인들이
주식은
100만
안전한
힘드시
느끼고
대중교통이
오토바이는
깨끗한
졸업하고
결과가
자가용
괴롭힘
달달한
빡세게
이루어
한라산
요거트
27
가물
갈지
것보단
고기도
과정
관람
교과
금요일에
기구
되니깐
메가
반영
서브
소용
순천
시어
신박
왔네
의경
이발
입국
자국
찰떡
찾을
콩나물
탕수육
한개
##보게
##들이야
##걸이
##하나요
##리면서
##적이라
##갈래
##력은
##kg
##법이
##방송
##종이
##김에
아니던데
힘들었는데
이번달
아직까진
얼마에
여자애
학교도
학원이
난리네
동물이
스트레스야
##이었다
취업하고
행복하게
사회적
추억이다
할인도
아닐까요
##스럽다
에어팟
인테리
마트에서
힘드니까
모두가
눈물이
정확하게
시끄러워
마찬가지야
거리두기
미역국
4번
가해
공교육
길을
깔고
남이
닮았어
뒤에서
들음
로제
보세요
뽑는
뿐이야
셀프로
신규
쓰기
영원
오바
재수
제공
창피
칼날
파는데
할꺼
현장
##가스
##하시고
##적이다
##터가
##저래
##류가
##그런
##염이
결혼기념
애들아
미국에
무섭고
조심하자
부럽더라
사랑의
위험할
30만원
직장생활
계획이
해줘서
아쉬운
왔다갔다
배고프다
2달
5개
7년
계좌
공산
귀멸
그전에
꺼려
닫고
또래
루테
막혀서
말려
맥도
모이
못한다
문과
버틸
소원
수단
순수
안고
안봐
연어
왓챠
잠만
장수
채소
취급
치워
팔면
풀고
필기
합의
해수
호호
흰색
##아요
##이제
##도시
##들과
##르르
##족이
##먹기
##년생
##머리가
오늘의
시간만
그랬음
찾아봤는데
중요하게
좋았어요
야구는
관련해서
가르치
성격도
150
신나게
학습지
상당히
슬리퍼
난감
다크
단골
말하지
먹긴
메이크
뭐뭐
보던
봐주
부를
부사관
사주고
소독
순대
신문
심하지
싶었던
썬크림
쓰나
양치
업데이트
원더
읽는
입이
자제
직원이
참지
특유의
하아
하대
학부
해달라고
##수로
##았나
##일까요
##요한
##신대
##미도
##파이
##분도
##받은
##그러
##렸다
##점에서
그러긴
거기다가
영화에
괜찮던데
여행가
코로나라서
문제네
백신은
안되니까
최고다
카페가
해주세요
산책을
추워지면
전화해
미안하다
보험도
사회생활
사용해
기본적으로
##하시나요
구경하고
휴가도
반려동물을
못하겠더라
자세가
프리랜
모른다
가벼운
선진국
유미의
빼빼로
29
ㅋㅋ
가혹
갔나
단속
대화가
되던데
따는
땡겨
레시피
마쟈
맛에
머지
먼데
박보
받으
사태
살래
상견
생필
아랫
오뎅
오겠지
워라
이케
일자리
전신
좋나
좋더라구요
하기는
황당
후드
##지긴
##라네
##물로
##스킨
##그럼
##뒀어
괜찮겠다
괜찮아지
##하다던데
오래되
키우지
가족을
드라마야
주말마다
들어가야
비슷하네
영어로
##이래요
추워질
이사를
여러번
도움을
직업이
많았지
호텔에서
조용한
시급이
왜이렇게
ktx
수수료
아이언맨
BTS
생필품
감정이
고기는
곤란
귀가
눈으로
던킨
동시에
때나
맑은
몸살
뭐더라
밀크
보건
보이면
불이
살려
슬기로
실습
쓰던
안부
알러
연수
오예
전시
증상이
지급
집주인
텀블
하셨어
했죠
후배
후반
##관도
##구이
##렌징
##기네
##었더라
##신가요
##갑다
##오지
##되더라
##그네
##놈의
아니아니
괜찮을까
그렇게나
하지는
그랬을
재미는
알려줄
좋아하니
나이는
관리비
돌아다녀
조심하고
비슷하지
한다는데
##했다네
필수로
기억나지
마셔야
언젠가는
똑똑한
역할을
모으고
전체적으로
당분간은
슬기로운
00
px
ㅇㅇ
개도
계발
계열
구하는
기안
남매
든다
들더라
때리고
뜨면
마감
마른
방탈출
버린
복싱
봤다고
비온
빨라서
시기가
아진짜
안할
알겠지
일로
정돈
죄다
중앙
짜파
참석
첫눈
키웠는데
탄수
토마토
호박
##가면서
##했더라
##했지만
##달까
##버랜드
##바퀴
##얘기
##혔어
들어보는
모르면
괜찮았는데
오빠한테
건강해
있을게
챙겨야지
제주도로
말이죠
이름만
이미지가
교육도
자격증이
자격증도
사용하는
계획은
##사람들
현실은
그러고보니
##아니야
방탄소년
라떼는
예고편
엘리베이터
3차
7시
갔네
거진
김희
데뷔
두부
뚱뚱
뜨고
명은
모기가
무게
배는
본지
사탕
손도
쇼파
술집
싶습니다
써보고
않잖아
예술
이겼
일에
있구
자다가
전달
중계
차에서
초기
커버
큰일이
통일
파워
풋살
하울
한계가
확률
활발
##에스
##사에
##사회
##지랑
##나게
##래곤
##리랑
##르지
##할께
##와도
##추고
##년도
##점도
게임하는
재밌는거
하나로
얼마정도
있었을
있었다
준비가
나이를
한국이
기사를
##한거지
선수들이
보험료
사용할
연예인이
우리집에
국가에서
모바일로
할아버지가
모으는
입장에서는
스파이더
논란이
나머지
진정한
엄두가
외제차
이력서
1급
3학년
4개
같더라구
개월
경기가
고래
공룡
기저
까먹고
꼬꼬
낳아
내랑
노후
닮아서
데로
들었다
마침
모이면
몰디
문의
벅수는
빡빡
섭취
신행
실감
연재
연기가
이쁨
잠옷
정했어
죽음
중이
중딩
지면
체형
친하게
투명
편한데
편하더라
피는
하냐고
혼났
회계
##라기
##도우
##무가
##하심
##었나봐
##티비
##우니
##투맨
##곳에
보고싶어
먹어본
사람들의
추천할게
있다네
##이었잖아
축구를
주택에
접종률
연예인들은
학생들이
자세히는
모습을
가봤지
다이소
트렌치
어짜피
박서준
페이스북
몰디브
가더라고
감고
강호
교체
구해
내꺼
놀래
되네요
된거
막아
멘탈
뭐였어
밥만
보잖아
분들은
사막
쌤은
썼는데
어벤
엑셀
엘베
여권
오려나
왔음
일으
잊고
재산
제도가
조치
졸귀
즐기고
집어
책상
터졌
통해
플랫
후유
##다보니
##병은
##대표
##루마블
##역에서
##카가
##길이
##플러스
##겠다는
회사를
나왔다
얘기하니까
마음도
올라갈
배달도
주변에는
만화를
시험이
보이더라고
기대돼
기대하고
근처에서
훈련이
대학원
냄새도
네이버에
부족해서
확인하고
육아는
불쌍하다
인간이
11월에
친척들
사귀고
##시키는
##것같은데
조건이
조정석
귀멸의
tv
감이
광안
교사
김종
너를
누굴
느낀
라디오
롤은
맨투맨
몸매
민방
반성
비닐
성적이
수고
싶더라고
안받
얘네
예체
욕을
울었어
워터
장염
제시
주거
중소
지낼
취득
츄르
크레
하려구
한적
환상
##라며
##있잖아
##때부터
##리는거
##대에서
##정한
##렸지
##악산
아니더라고
모르겠더라
어떤지
오빠네
건강도
예전보다
얘기만
중요하다
고민해
서울로
궁금하네요
옛날부터
##이어도
관리해야
미국도
올라왔
생겼네
특히나
내용도
결혼식은
어쩌냐
저렴하고
같긴해
가르치는
##명이서
햄스터는
둘째가
심심할
10월에
바꿨어
페이커
까다롭
11번가
오랫동안
이병헌
분리수거
탄수화
거리는
걷고
공인
꼬박
꿈을
다님
동감
라식
레알
마그네
몇십
불어서
살림
소재
싶진
쌀국수
쌍둥이
알람
원피
유도
이네
입시
좋으시
주가
주연
죽으면
질이
짓고
추우니까
퀄리티
팔아서
현타
화산
화해
##인것
##기요
##였거든
##배추
##프라이
##럼프
그래두
아니었나
좋아합니다
##이라네
알아볼게
이상이
운전해서
고민중
아파트도
보여줄게
이용해서
근처로
어머나
쿠팡은
부족해
어른들은
나갔어
오래됐네
스토리가
끝났어
1명
2인
99
개운
경매
경기는
넣을
녀석
막히는
망했어
목요일
믹스
반가
부조
비쌌
사는거
산이
살살
술은
시력
안봤어
없습니다
여럿
오해
일해서
작가가
전력
제정
주시
착용
취미가
클럽
투어
풀리면
하기가
화내
흘러
##보호
##보네요
##지는데
##지잖아
##구경
##랑도
##일거야
##릴까
##애는
##졌지
##망이
##선도
##페이지
게임기
재밌었
힘들면
하나의
언니야
가족들은
공부해야
사람들만
##적으로도
아침엔
받아본
준비할
주말에도
귀엽잖아
얼굴을
마스크는
아는구나
수영을
거래량
사야겠어
자동으로
받았지
하시더라
하시나요
헤어진
똑같지
비용은
경찰이
장면이
징그럽
스위스
5천원
강동
기아
넓어서
노답
다쳐서
다람쥐
대하
될걸
두근
드시
들으면서
막창
많다던데
민족
보진
불면
쉬어야
알기
약해서
육회
입사
잘되어
접근
즉흥
추락
태양
통신
프렌
해놓고
##보니깐
##어야지
##이였는데
##한건
##감은
##심을
##조차
##케팅
##돌아
##핑크
그런듯
하나에
없어질
가서도
언제가
다음달
별로였어
그런가요
일본도
아파트로
연애도
마스크팩
사랑니
수업을
카드로
미쳤네
어른들
그정도는
대통령이
추워지기
시설이
보증금
아부지
직업군인
쌍커풀
맥도날
5살
갔었지
남을
됐을
매트
몇시에
미뤄
비추
샀어요
생수
서해
수요일
쉬울
실시간
욕심이
유저
인구가
장바
정이
제외
졸라
죽겠다
중성화
철저
틱톡
편히
##원으로
##았다고
##국밥
##르게
##티가
##대신
##소개
##포인트
##씨가
##약을
너무너무
맛있을
맛있어서
가족사진
다니니까
가능하다고
고민중이야
연애가
시험을
여러개
기대가
시원하고
스타일이야
단풍이
나갔는데
정확한
관광지
전자상
세탁기
디아블로
응급실
처갓집
메이크업
예체능
1회
갑오징어
개이
구분
귀칼
금붕
깔아서
넘치
녹차
막힐
말구
맛잇
무인
문을
바라는
밝혀
밥먹
봤으면
속에서
수월
실용
쌓아
아이랑
연하
원인이
이민
인권
잡히
저것
조명
주무
줄여야
중에는
쪄서
칼퇴
하구나
한우
합리
허벅
##사건
##직이
##나와
##시켰
##계획
##등이
##km
##갔으면
##렀어
그런다
그러겠지
게임에서
들어는
##까지도
생각해보니까
원래도
몰랐다
힘들어도
물어보면
연락을
선생님은
##구만요
반려용품
등산도
부산에서
웃기더라
포기했어
간식도
어른이
깔끔한
꺼내야
보냈어
네일아
반응이
서운해
갤럭시
스파이더맨
3주
가보면
강하게
걸어야
나루토
낭비
당하는
덥다
되더라구
두통
드러
따면
떠나고
막장
먹구
몇살
뭐에요
분노
불어
빠짐
사줄
살쪄
수건
시려
쌓여
아기가
알라
어떰
원숭
자식이
조선
좋으신
주부터
찌는
초에
출석
키웠어
팔이
플립
화요일
확산
##가로
##에몽
##어리
##구도
##데기
##민이
##화도
##전은
##셨을
##질도
##준호
##훈련
##적이네
##날이
##린대
##겟지
들어요
힘들듯
없어졌어
되는구나
중요한거
먹을게
무섭게
재미있지
비행기는
생기지
당근에
이러면서
기본으로
다양해
경우는
100일
아르바이트를
12월에
월세는
바뀌고
빠르네
보자고
시골에
사기꾼
메뉴가
국가대표
사촌동생
숙소는
짱구는
추위를
소문이
땡기네
오랜만이다
느꼈어
즐겁게
애완동물
모니터
초콜릿
입마개
최저시급
텀블러
마그네슘
가겠다
기르고
길에서
끊고
나니
농담
달래
두렵
드리
듣는다
들수록
듯이
따지면
라라
망할
먹네
면세
뭐여
민감
부서
불고
비누
수소
아재
오글
왔다고
요청
으악
의식
일들이
일하기
장인
젊을
주제
직장이
집주
찾으면
첨엔
취사
팔자
향이
혼나
흥미가
##인다
##했으니까
##했는지
##나이
##라떼
##상태
##았대
##할꺼
##스포
##진거
##적은
##날에
##줘도
##갔지
##많은
좋아하네
그런다고
영화인데
자주는
아닌지
많아졌어
느낌으로
사람들한테
##다니고
추천할
캠핑장
선물도
내년엔
청소기
내려가
받는다고
다닐까
##할까봐
검색해서
자취하면
간식을
바쁘다
##스러워서
언젠간
어깨가
그쪽으로
스킨스
아내가
안타까운
전세계적으로
독서실
단독주택
미사일
숨쉬기
신서유기
관리는
덕에
데이터
딩크
딸은
레슨
먹던
멍청
미스터
박쥐
보임
보급
불고기
붙이고
사준
살을
상의
상쾌
생생
쓰리
안가고
없던
오냐
와라
우동
잊을
적극
큰데
한숨
했었어요
형제가
호랑이
##사로
##지는거
##하군
##었다가
##질을
##제이
##왔지
##먹지
##교환
##렸대
##움이
나도나도
좋아지고
좋아했던
이제부터
힘들겠지
괜찮더라고
없어져
맛있고
코로나라
먹어라
이런게
이런건
비싸다고
머리숱
찾아보니
그런데도
사진으로
가격에
좋아하겠다
##하기엔
음식물
##한다는데
난리던데
떨어졌어
다르고
동네에서
그렇긴한데
하다보면
나쁘진
에너지
리니지
도라에몽
플랫폼
스킨스쿠버
5시
5시간
6년
갈거야
겁이
구성
노출
들었지
때리는
못해요
문어
받으려고
배불
복층
볼만한
섭섭
수출
습관이
오겜
요리를
웃겼어
의사가
인해
잘모르
잡았어
정규
진리
청춘
타다가
틀면
파라
팔더라
편이가
피카
필테
할만한
행군
확률이
##아프
##했으니
##이군
##타워
##서야
##셨으면
##맞고
##메뉴
##오는데
##부도
##부는
##쿠터
##곳은
힘들었을
나오겠지
그랬었는데
10억
신기하지
찾아봐야지
어제부터
가을옷
장난이
살아도
귀엽네
너희도
너희들은
한다며
무서워요
확실한
취업이
행복할
접종을
잘해주
수업이
데려다
포기하고
이래저래
응원할게
수준이
돌아다니는
어딘지
지옥철
목소리가
장바구니
4단계
가든
간다면
값도
갔음
개구리
거품
고깃
공중
교촌
국산
그중에
근로
근력
깎아
나게
나더라고
낙엽
날에는
달아
당당
될거
리트리
맛을
보수
사줘야
생일이
소품
스몰
시킴
시장이
않는다
약이
약한
없게
없거든
이지
이영
인연
입혀
있엉
장롱
재능
정해서
짓는
축가
트로
편하다
혈액
##아닌
##하냐고
##드나
##돼지
##영이
##오네
##것이
##차만
##열이
우리한테
우리끼리
힘들다던데
그랬었지
요새도
그럴거야
그럴지도
배우러
드라이
자기소개
저녁엔
궁금한
몰랐던
몰랐음
난리더라
동물들
기다릴
뉴스가
시험도
선생님들
여자친구도
치킨이
반려동물로
성공한
바꾸는
관광객
##니스탄
스케줄
입맛이
나머지는
프로젝트
것보다는
과장님
관한
다해
달리는
된장
드세요
듣네
러닝
말입니다
먹으니
멜로
몰려
민주
사이다
샀다고
상해
상위
성향
소화가
시세
실컷
심하네
열대
오만
오던데
웃음
웃겼
입어도
잠수
접수
주잖아
최초
파악
해물
혼내
환장
##거리가
##드리고
##대회
##소한
##영웅
##긴데
##말야
##쪽은
##좋게
##렸나
##놔서
##니까요
좋아보
게임이지
재밌네
힘들더라고
결혼이
##해야하는데
처음이라
공부해서
느낌인데
대단하지
나와도
저녁에는
학원에
소개해
반려동물이
##라이딩
학생이
나한테도
북한이
사이즈가
에스파
재개발
싱크홀
도깨비
UR
가볼래
갈색
거미
겪어
고라니
구몬
났는데
다신
단기
덜덜덜
돌리고
드래곤
디스크
땡긴다
만해
못해도
못하잖아
민트
배출
소득
순식
싶던데
싸다
써봤어
아고
아항
아이라
아시는
않네요
오타
와인
외교
요번에
울어
유모
이중
이대로
일과
자긴
저요
죽이는
증명
진자
채워
##사리
##타면
##서로
##리잖아
##드림
##셨군요
##30
##메달
##났다
##럽고
##랬어
##경기
##됐으면
##쪽이
##잔치
##판에
##검사
그렇잖아
그렇기는
한번만
엄마아빠
없어져서
알아봤는데
10명
다니던
찾아야
느낌도
병원이
사실상
누나들
좋아하실
좋아하시는
재미있겠다
스타크래프트
말하는거
남자친구도
비싼거
어쩌겠어
연예인들이
광고도
스포츠는
해보지
신랑도
오르면
간단히
이뻐서
줄어든
오지게
최악이야
들어갔어
운영하는
분명히
완벽한
##주인공
간호사
유일한
축의금
한마디
곰팡이
민방위
리트리버
URL
5억
가지는
계급
골고
국회
굴러
깊게
깊은
끊을
낮아
노예
놔두고
단축
달린
대결
될듯
떨려
리듬
먹다
못봤어
발로
번이나
별일
부르면
살은
살았어
소금
식구
신의
신곡
엔진
여기가
와중에
왔잖아
우아
임영웅
잘어울
조회
주려고
증상
창고
천지
타짜
폐쇄
프린
##원을
##했데
##안해
##자만
##기까지
##할수
##전을
##갑네
##계약
##클럽
##님도
##량을
##끈한
생각엔
재밌더라구
다녀도
필요하면
있었다고
안되더라
고양이들
부모님께
사진은
받아보고
물어봤
지하철을
그만두
전화를
이해해
군인들은
결국은
말해봐
어떡하냐
걸리는데
맞았지
외모가
전역하고
대화를
첫째는
가깝고
미니멀
저두요
시어머니
전자상거래
감성이
갬성
고를
구체
난리가
난이도
낮엔
넉넉
넓고
놀았어
단단
당시에
대응
던져
되나요
두껍
립스틱
물은
미성
발급
보였어
브랜
쓰는거
양배추
열차
오긴
왕창
운행
위치가
일이다
자를
잘해줘
장도
장점은
저게
정착
줄께
창원
큰거
토욜
페북
풀려서
하거나
형태
호불
##가다
##이너
##려는데
##셨네
##중독
##갈이
##와야
##집으로
##렸다고
##격이
##롭고
근데도
재밌었던
여행가서
하더라도
고양이랑
느낌이라
사고는
나와요
자기야
받아봐
저번에도
올라가서
어렵긴
귀엽던데
지하철도
선생님도
전기세
##하자마자
멋있게
바다도
하잖아요
지원해
세계에서
택시비
자유를
핸드폰도
연기자
부대찌개
냉장고에
홈쇼핑에서
엉덩이
싱가포르
스케일링
이케아
개이득
2종
고용
군사
끝이야
끝내고
눌러
닥터
동계
드리고
뜬금
라이브
막막
많죠
방은
뱃살
분도
사상
살라고
수염
수시로
없었다
없었나
예뻤
오니
이걸로
인라인
일일
일해야
잇몸
잔소
중순
지정
처형
터져서
팀장님
포르
포메
해줬으면
##로에
##때문
##니아
##산다
##기다
##유가
##싶어요
##알지
##움을
##석에
##ㅈㅈ
아니어도
생각난
있는가
##부터가
운동으로
다니더라
가는구나
대박인데
걱정된다
필요한거
있었고
병원비
알바비
가격을
학교가
좋아하긴
가야해
물어볼게
지나간
##가지구
쇼핑몰이
연예인은
우리집도
2차는
있대요
주식을
배송비
어머니는
인스타에
애매해
1박2
나혼산
테이블
청첩장
5명
고르는
꿈이야
끌어
나긴
남았는데
눈싸움
돼도
드레스
따서
또한
많더라구요
말해서
말아야
매콤
미션
박사
반값
방영
비벼
사본
사냥
스쿠터
싫지
아반
에바
오라
이한테
인식
입었는데
잘하나
전설
제출
좋기는
주워
주더라고
집콕
치기
친환경
커트
터진
터져
테마
통통
포상
푸는
하심
화생
히터
##라인이
##들어서
##리호
##일지
##었다는
##화폐
##대한
##오래
##점프
##줬지
나도야
생각인데
괜찮겠지
하나야
##아지는
강아지들이
오래걸
자기들
사진이
학교를
가야하는데
주말은
들어가지
기분도
귀찮고
다르구나
화장을
누구지
먹었네
생겼으면
바람의
사회적으로
하기엔
받는다
인생이
그러니깐요
가봐야지
깨끗하게
시절에
바이러
선호해
주름이
소중한
##버렸네
물리치료
할리갈리
짜파게티
방탄소년단
알라딘
26
건설
공모
귀에
그지
그녀
기적
남궁
낳는
단점은
달러
대량
덥지
됐대
드는데
따릉
마사
받기
법을
변화가
볼려고
뿌리
숨겨
시계
쓴다
아앗
없나봐
에구
에버랜드
오사
있냐고
자료
자야지
작성
잖아
정작
지브리
진주에
추진
타야지
편인
플러스
해변
했다는
환자
환기
회화
흥행
##가을
##만족
##고사
##있게
##안을
##자에
##하우
##하려는
##친다
##였을
##패드
##호텔
##50
##방을
그러진
그거라도
들어봤
힘들지만
영화에서
없어야
먹어줘야
마음으로
아프가
준비해서
몰랐어요
올라오는
연락도
애기들이
애기들은
커피가
이용할
바람에
택시가
부분도
나한테는
바뀌면
그것이
지역에
주차장
조심해야해
공군이
바꿔서
만났는데
집중이
멀리서
직원들
좋겠당
제한이
안된대
가라앉
당일치
환절기라
진작에
전원주택
역대급
007
꼬꼬무
강호동
중소기업
갑니다
개를
갱신
걸까요
교도
기미가
나잖아
내리면
넘은
녹음
농장
놓는
니트
돌리
됩니다
땅콩
뛰고
리스트
마비
맞을까
멈춰
면이
몸만
무대
물류
발가락
뽑고
상추
서른
심해지
싶지만
악기
양도
여의
옆집
오마
오빤
온난화
올려서
이른
인종
입학
잔여
점프
정부가
제네
조종
중인
피엑스
하트
호날
##가네
##있던데
##았을
##주름
##적일
##결제
##베리
맞아야지
아니게
그렇기도
괜찮대
아이키
코로나에
강아지들도
비싸던데
가족도
나왔어요
누나한테
##이었거든
아까운
이쁘긴
자전거를
유행하는
현실적으로
대출도
인스타에서
알려주세요
웃긴다
다이빙
일상생활
소형차
존맛탱
세포들
기상청
해운대
상견례
거라도
걸으면
걸린다
것에
구해서
나네요
단톡
동그
되야
말로는
메시
못보
못사
못나
발언
번역
빠를
속도가
쉽고
스튜
시기에
신부
실물
쓰려고
안했는데
알어
언론
엠비
여보는
오아
용기
유아
이광
일인
입구
주라
죽기
쩐다
쫓아
캠프
코카
편도
포스터
하진
한끼
호빵
##직원
##이어서
##이기도
##된거
##주사
##주니까
##올게
##봐라
##였다고
##애들은
##긋지
##남자
##않을까
##빨리
##김밥
좋아져서
힘들겠어
맛있었는데
강아지나
10개
문제로
나가도
가을이라
얘기야
만나러
아침에는
운전도
귀찮을
##한다더라
배달음식
##이었구나
수영은
예쁘지
방송에서
지난주에
많았잖아
정리하고
해군은
마라톤
어이없어
장르가
대형마트
목욕탕
개웃겨
##드릴게요
일교차
바랄게
미성년
아프가니스탄
2배
4만원
5번
가다
가치가
계정
구래
그람
더운데
될텐데
두세
마케팅
말랐
망설
맞췄
못했다
바둑
방에서
백만
백종
버블
번만
변비
살만
상하
소고
소파
소방
손절
수행
싫었어
아쿠
않어
엔씨
온몸
올해도
우도
원이면
위메
입장에서
자켓
잡채
재해
전략
좋구나
주던데
죽었어
줄도
지구가
진출
집착
짜서
크기
타도
터널
피크
허전
화학
##만은
##보도
##겠군요
##라더라
##고는
##시킬
##단지
##리즘
##려도
##장이랑
##신가
##스에서
##중인데
##날은
##순위
##초코
##판이
##층이
##블리
##쿨링
진짜가
좋아한다고
생각하세요
재밌잖아
여행가고
결혼하기
맛있긴
맛있잖아
맛있더라고
겨울도
문제를
드라마에서
알바생
좋다더라
비슷한데
카페는
커피도
수영도
어쩌면
없을걸
##사람들은
골프는
월세로
싸우면
노력해
##아니고
환경을
나갔다가
좋을까요
모양이야
잘됐네
지진이
배고파서
수분크림
길고양이
pc
가던
같대
거였는데
것같아
꼬리
내린
내리고
데이
도넛
동성
듬뿍
맞앜
멀다
목에
민원
반은
배치
버전
보충
보셨나요
사주는
사주면
샤넬
셋째
승차
쓰더라
안지
우왕
입니다
있군요
자소
잘하잖아
적성에
전과
조인
좁은
죽여
찍었
타봤는데
팍팍
프라
피가
피구
해놨
희한
##가물
##있었는데
##거가
##다이
##시티
##면이
##화로
##신청
##공간
##막이
##림이
##결혼
##립니다
##명을
##간히
##셔요
사람인
하고싶다
힘들겠네
##하지마
거기까지
여행의
회사로
10번
그런가보다
찾아보자
가을엔
드라마에
운전이
저녁으로
생활에
하던데요
거기서도
이유를
시키지
사이버
이러니까
교통수
부담스러워
못하겠네
많았던
강원도는
이모가
##스러울
계약직
롯데리아
지구온
콜라겐
외로워
머리카락이
오메가3
휴게소
프리미엄
골고루
아반떼
1주일
간혹
갈라고
같을
개미
그랭
길면
꿀맛
놀자
대놓고
됐잖아
되죠
두드
레스토
말해도
목적으로
무리가
발레
별론
사볼까
설득
센스
순한
승인
시력이
실종
아들도
아그래
아시나요
안바
안먹고
알약
알뜰
양파
우찌
저지
좋으니
죽어도
진주는
참나
캐시
편하
할께
했으니
##관에서
##아들
##고은
##고구마
##있으니까
##니는
##시원
##주니
##기기
##랬지
##저리
##그치
##겟네
##샀어
##껀데
해야하는
##면서요
나왔나
운전하기
많은지
제주도가
올라가면
동물도
지하철에서
연락은
##겠는데요
비행기를
낚시도
사이에서
알았더니
주문했어
작은엄마
자연재
인생을
구매할
시원해
기차가
지역은
감사해요
답답해서
하늘을
##영화는
급여가
사귀는
공기업
이어폰
태어났
케이블
티켓팅
수상스키
도수치료
신용카드
인명피
고인물
2급
3시
간이
개방
곤충
구두
구교환
그릭
그리는
근교
기프
꿈도
내복
넷이
년도
느와
됐어요
맞춤
먹던데
메모
멕시코
모은
뭐죠
미팅
방사
배낭
배움
보기가
분석
사생활
산소
살려면
성분
심한데
쓴다고
안한
원격
으응
인원이
일요일에
존버
타게
터지는
파이팅
펑펑
한자
합법
희생
##이자
##다닥
##하루
##하셨어
##없고
##부인
##웠지
##온거
##그레이
##살에
##세대
##10
너무나
사람과
사람보다
다른건
다녀오면
예전처럼
걱정도
혼자가
가을을
시켜야지
돌아갈
취업할
않았냐
이해는
알았으면
나서는
영상을
접종률이
웹툰은
일어나고
##할까요
자유로운
염색은
만족해
정확히는
기념일에
급여는
끔찍하다
캐스팅
소녀시대
어두운
버거킹
소소하게
승용차
가꾸
갑질
결론
골치
구슬
늦잠
똥손
맞으라고
먹이고
미드
반바지
받으니까
배신
배를
배차
별걸
본격
비쌈
샀음
설계
소통
수치
시트
심할
싶었
싶기는
않으니
없었어요
오홍
위협
이라
이천
이성
재고
점수가
주머니
질러
찍으면
찍었어
척추
탄소
테이프
통제
포도
플레
한다니
핫팩
했는지
했었거든
호흡
흐름
##지노
##했다던데
##라미
##거예요
##테크
##무시
##하구만
##셨지
##버스가
##우기
##러쉬
##먹음
##차별
##백신
##않나
##늦게
##떨어
아니겠어
힘들었던
##보다도
그니까요
남자랑
키우면서
건강해지
필요하다
찾아보는
배우들이
버스로
중요하니까
시작할
보내면
물어보는
동물원
스트레스는
##이었대
한다니까
카페인
선생님한테
키워봤어
자격증을
결혼식에
안나는데
바다에
##스타일
신청해
구매해
피해자
잠깐만
걸리기
상관없어
대출이
기다려봐
맞추기
18개월
유전자
로맨틱
탈레반이
마인드
못살아
리조트
우연히
1월
2살
각질
경유
고기가
공식
그라
그전
김고은
너처럼
노인
노제
달은
독특
두면
들었나
딱이야
많으시
무려
무튼
버튼
보안
볼께
스프
신상
안대
안하게
예쁠
오로
완성
왔을
이별
인한
입었어
자는데
잔다
쟤는
점검
정기적으로
좁아서
주장
쪽에서
카이
크으
클립
클렌징
키도
탄탄
트럼프
틈틈
하더만
했네요
현역
현명
화투
후리스
힘듦
##있다고
##았음
##렇지
##PG
##몬드
우리만
사람이네
힘들었지
모르잖아
기억하고
뭔가요
만들지
먹을거
돌아가면
귀찮은데
배달은
해외로
보여주는
선수도
알았음
훈련도
웃기지
수업은
방법도
인생에
택시를
하시는데
했던거
전기차는
자취하고
도와주는
도와줄게
부작용은
사라진
호텔이
영양제도
정보가
자리에
제품이
가봤어요
누군데
마당에서
영국은
고속버스
유일하게
타격이
반도체
가물가물
어벤져
크레이지
피카츄
3살
고백
괴물
글로
껴서
낫겠지
낳아서
냥이
년에
당할
더우면
돼지고
뚜렷
막힌
많다더라
머니
몇일
받으면서
발바닥
비워
사가
소리는
수요가
스틱
신어
싶대
않겠다
연세가
였어
오는거
원에
유부
인지
입금
있기
잘돼
잠은
적혀
전남
제복
좋더라고요
최전
토트
파스
푸들
피고
학폭
할인이
혁신
홈페이지
후딱
후덜덜
흔한
##관을
##어디
##다이가
##주기
##르몬
##었네요
##었는지
##마냥
##비슷
##쳐야
##파티
##분들
##글라이딩
##2년
##몰라
##좋은
##렸으면
##씩은
##반이
##둬야
##닌깐
아니죠
같아ㅠㅠ
그러기엔
생각합니다
겨울왕
다니려고
공부만
신기하게
나왔네
싫어하는데
챙겨보
만나기
사진찍
준비는
올라간
나라면
다르다
주변엔
추워졌어
생겼더라
낚시를
바다에서
자전거는
세계가
받았대
말해줄게
경험을
자신감
영양제는
유럽은
지방은
##해보려고
기준으로
현금으로
소음이
베이징
자극적인
다쳤어
뚜벅이
세월이
학부모
금붕어
라라랜드
남궁민
느와르
3000
가겠어
가운데
급한
기를
늙어
다만
다는
단호
대사
들리
라섹
메인
메달
모레
못타
못쓰
뭐했어
미얀
밴드
버킷
부장님
붙어서
식탁
실행
심야
쏘카
연관
오줌
올릴
요기요
이십
있겠지만
쟁여
중이라
중에서도
지치
진돗
춤추는
토론
파나
풀리
풀릴
해줬어
해드려
했길래
했었던
히트
##인거지
##관련
##로울
##야구
##자들도
##무서
##하도록
##티브
##버린
##환이
##그릇
##됐다고
##량도
##범죄
그러네요
하는디
이제야
들어보면
여행으로
나오기
##아지고
군대리아
오래됨
대박이
배우도
느낌은
버스에서
당연하죠
좋을듯
사랑이야
시험기간
지나갈
동네가
효과를
치킨을
주택에서
자전거도
부분을
방송에
편의시설
헤어지
심각해
기념으로
아기자기
40대
깔끔하고
타이쿤
마리오
무엇을
어떨지
다닌다
징그러워
아름다
초록색
줄넘기
원더우먼
네일아트
기프티콘
2억
PT
sn
가위
갇혀
갖춰
같더라구요
겠어
극복
놀다가
높이
될까요
등장
따지
마땅
못한다고
바삭
받게
방과
버터
버렸어
벗어
보이네
브레
뻐근
사춘
사라고
사달라고
세게
수박
신비
씻는
안하는데
양양
얘가
어묵
외할머니
우째
운명
울면서
월요일에
임시
자본
좌석
지상
찾았어
채팅
최종
축축
쾌적
타니까
터지
통장
파이터
팔지
폐지
피었습니다
해장
현상
화물
황매
##만두
##고도
##렌지
##은지
##으셔서
##레스트
##버리고
##저녁
##차게
##렸네
##랐는데
##찾기
아니예요
사람으로
이번이
모르네
싶어졌어
그랬었어
다녀요
사고를
챙겨먹어
##적으로는
얘기하고
운전하고
보내준
생활비
세상을
##정도는
스트레스도
만화방
가까우면
##하면서도
이해를
치료가
구경하는
웹툰이
주식도
결국엔
남친도
##해지네
검색하면
해보셨어요
안가봤어
움직여
투자를
체력도
우울해
##시키고
어떠세요
세일러
선호하는
미치겠어
##아파트
루테인
호날두
토트넘
8년
8만원
가죽
간에
갔구나
거제도
내장
내놓
넘으면
눈만
당해서
드물
들긴
때로
때라
때쯤
말지
망한
맡아
모텔
모아야
바다는
별의
보던데
복권
봉쇄
불닭
사슴
상생
서민
세수
세부
시그
시누
신난다
싶지는
싸워서
쓸모
씻어
알잖아
연상
연극
오염
오잖아
옥수수
왔대
외투
원인
유튭
이누
이뻤
일한
전망
정성
조각
지게
청구
태안
패턴
풀린
했었다
활성화
효율
휴식
##겠고
##고생
##았던
##드에
##르트
##해줄
##대장
##마크
##마일
##연애
##되어서
##란트
##코트
##졌나
##위에
##십니다
##이라니까
같은게
좋은지
힘들거
힘들었어요
모르나
하나를
정도의
군대에서는
코로나만
다녀오고
생각해본
바로바로
중요하긴
아프겠다
역시나
##한다네
난리다
이야기는
30년
치킨도
취업하면
이해할
##에게도
필수인
수술을
이야기야
바다를
영상이
다녔던
반려동물은
회식은
도전해봐
그것은
상황에
건조한
조심해야겠다
환경에
활동을
이쁜데
근육통
상태가
아깝지
오락가락
적응이
가족들끼리
전공이
외로울
안됐어
여보가
흥미진
여론이
시스템이
아름답
있으신가요
목도리
아닙니까
강동원
미얀마
4만
4살
4개월
같지만
거실에
귀염
나들이
놀랄
놨는데
담주에
당해
대우
덥더라
덮고
돈벌
등급
매출
모일
버려야
복구
사긴
사려면
산은
삼시
설정
소모
손재
안빠
여쭤
원은
임플
질색
차리고
최신
크네
풀옵
하락
한꺼
협박
혼인
화폐
##수에
##수당
##했죠
##타운
##시니까
##하드라
##드랑
##증은
##디야
##져요
##과가
##역에
##후에
##임이
##저런
##웠겠다
##그룹
##좋지
##점에
##너가
##세지
##곳에서
##콜라
아니까
그거만
하는것
재밌었겠다
있는건
들어봄
힘들텐데
아이러
##을까봐
그치그치
계속해서
건강해야
그때까지
공부에
했어야
없는게
버스나
가을인데
내일로
시작이
시작했는데
드라마로
여름에도
학원비
무섭기도
물어봐야겠다
배달의
##정도로
누구한테
출근하는
인정해
그런거지
좋았음
사이판
저렴해서
주문한
##사람은
맛집도
##해지니까
배송도
도와줘
올랐대
추천해줄게
지난주
잘생겼어
챙기면
##장에선
진심으로
놀이기구
기념일은
북한은
꺼내서
애매한
카톡으로
지키고
예민한
지루해
미치겠다
머릿결이
아가씨
매니아
무사히
번지점프
31
500원
가겠네
고기를
그알
넣었어
도는
돌리는
되도록
때리
뚝딱
랜덤
말인지
맛이야
목포
미어
방지
방해
봤더니
설렌
송중
시야
시장에서
써봐
연령
온나
외곽
요요
윗집
유출
자른
정준
제약
지킬
직전
총리
춤도
코인은
트위
하얗
했나봐
호떡
히어로
##에이
##겠냐고
##어택
##했던데
##거려서
##다보면
##주네
##하가
##의를
##봐봐
##신고
##오나
##되니
##공포
##재료
##글이
##됐다
##겟어
##션이
##세계
##댔어
사람이라
그거로
게임할
힘들죠
괜찮긴
엄마들
얼마전
아이크림
운동선수
언제든지
다니다가
걱정했는데
많아진
필요도
되는게
사고싶
보는구나
시작해야
싶은거
물어봤는데
##있어야
영어도
지나가면
달라질
잘못한
정신없
웃기고
아쉽긴
주문하면
##하시면
주식이
인생은
작년에도
미용실에서
라면이
행님도
검사를
화장실도
하늘에
영양제를
불안해서
물어봐도
김연아
조기교육
동의해
로켓배송
면역력
스노우
배틀그라
카라반
이태원
포토샵
알기론
겨울왕국
흥미진진
한꺼번에
같노
고집
기르는
났네
높게
놔서
다치면
닭강
대천
대가족
둘은
따려고
떠날
마스터
많겠지
망고
매미
몇명
모이는
무관
뭐를
병행
보지는
비디오
사요
사왔
사내
사장이
셔츠
손녀
승진
심하면
안하지
않던데
압박
여섯
온도가
요양
유난
이란
일론
일하러
장례
저질
졌어
줄어서
지고
찾기가
챙겼
철수
첫사랑
타요
튀어나
편함
하며
한방
했니
헝다
홍천
##보세요
##이얌
##있더라고
##을껄
##다나
##더래
##신기
##근처
##부지
##평가
##선은
##엔딩
##19
아니거든
그러려고
그거에
괜찮음
그건가
해야겠어요
처음이야
비싸더라고
다니잖아
있을때
되는지
대단하네요
아프대
알려주고
궁금한데
난리났
어렵게
다이어트가
다이어트에
먹었더니
선수는
결혼식을
##에게는
직장에서
기본이
2차가
월급을
##레이닝
노력을
피부과에서
움직이
오징어게임이
담배를
##케이드
생각만해도
어찌나
다녀왔지
가능한가
안쓰는
당근마켓에서
해준다고
추워지니까
모른다고
어색해
##리트먼
왜이리
꼼꼼하게
디지털
배터리
고등어
위메프
세일러문
2학년
3달
3월
4천
가습기
갔더니
것이지
경계
김포
누님
다루
다다음
된거야
뜨거
레몬
마이네
마셔서
만지
말로만
맛으로
맥날
바닐
보더라고
복수
부루마블
비율
살거야
성별
소년
손목이
쌤이
안팔
알죠
엔딩
예측
오더라고
옥상
왔었어
우는
워킹
이등
인물
자만
잘하네
재워
재작
저축
젊어
지경
진단
진급
집앞
찬바람
치약
키로
키즈
팔아야
하라는
해가지고
##보로
##아치
##구낭
##난다고
##주를
##하당
##의가
##소식
##비용
##노래
##바리
##웠던
##세를
재밌대
다음달에
키우려면
10대
가족의
별로다
있을텐데
혼자는
신기하네요
사고도
얘기하면
중국인
서울이
하루하루
있다구
저번에는
유명해서
유명한데
말이에요
비슷해서
영어가
연락할게
여자친구한테
##하잖아요
캐릭터는
종류는
안좋아서
개인의
사라져
##으면서도
슬프네
심심해
그런가봐요
입어보고
연봉이
무릎이
여드름이
많아지고
빨간색
의견이
물고기는
홈트레이닝
꼬박꼬
3천원
가뭄
가거나
경로
경치
경영
고파
그다음
까지는
꿈의
끼는
나물
나쁠
낫다고
높지
눈빛
다칠
든다고
딱인데
멀긴
뭐임
발음
밥먹고
보태
봉준호
비올
빵집
뼈가
뽀로로
뽑아야
사재
사줬
수십
수명이
쉬면
싸긴
쌉가능
쓸쓸
아구
아기는
알투
알긴
애기도
야생
연금
외우
외부
이끌
임상
임산
조립
지성
지인이
책이
쳐야
크다고
테라스
파업
퍼즐
표정
풀려
하차
한순
한방에
할껄
행운
헤이
##개사
##인지도
##거리고
##하여
##리에서
##업체
##해준
##스랑
##증도
##듯요
##프라
##적도
##처리
##조가
##조심
##20
##품이
##끼고
##선으로
##위를
##셔츠
##김치
##이라더라
재밌겠네
있는지도
오늘이
들어보니까
##려고요
여행갈
결혼해
기억을
가족들도
공부하기
필요해서
피부관리
알려주는
부모님들이
들어가기
관리해
생활도
올라가고
이거지
##게임이
불편하긴
생겼다
멋있네
사회에
사용하고
다양해서
휴가가
쿠팡으로
따뜻해
자유여행
현실이
지역이
바꾸면
불쌍한
인간의
##프로그램
용돈도
실내에서
당근마켓에
갈비찜
바쁜데
어이없네
단체로
세트로
서든어택
걱정하지마
보라카
수족관
해수욕
맥도날드
오사카
마이네임
꼬박꼬박
4계절
가래
가신
가겠지
개만
거요
기특
끼워
나눔
났을
낮아서
내동생
닭갈비
대탈출
됐음
맞출
멀었어
멍멍
모범
모으면
미련
벽에
보약
뽑을
선언
세종
속으로
슬플
안올
안보는
양쪽
언능
없으니깐
열풍
올리면
우박
워치
윷놀이
으이
이를
자도
자대
저건
적에
제2
젤리
조깅
졸랭
주도
주기
중이래
지쳐
지그
짧고
차타고
철저히
축복
치우고
카투
커튼
타코
트리트먼
특징
했겠다
휴무
흡연
##인으로
##들면
##다닌
##난이
##서에
##리겠다
##전환
##되게
##프다
##적인데
##동은
##견이
##긋다
##DT
아니어서
생각으로
들어오고
여행가면
없어져야
기억남
키우더라
비싸요
가는건
별로더라
다행이에요
##시간은
가능하대
물어봐야
생활하는
올라갔
부럽네요
마스크가
놀러가
놀러와
맞는다고
20만
전화도
##하자나
먹었니
먹었음
않았으면
남자친구한테
당근에서
이쁘던데
잘못하면
영상도
캐릭터를
신청했어
헤어지고
안해봤는데
경험해
당장은
기름이
어플이
챙기자
예쁜데
대구에
지켜야
야식은
역할이
해줄까
끔찍해
포함해서
직구로
핑크뮬
부끄럽
고무신
무지개
스카이
보람이
패러글라이딩
박보검
이누야
3대
3억
RPG
가려구
개나
갱년
견디
겸사
고치
골드
금욜
기어
끄고
날이야
낳은
내에
넘었어
도토리
두마리
뚫고
롤러
루피
많지만
말곤
맞다고
무언
바탕
발령
배웠는데
법적으로
변하는
보글
사항
사온
샘플
생소
서버
세번
신작
알파
어무
이나
이쁠
재건
제빵
좋겠지만
주부
죽인
차례
키는
타봤
팔던데
햇볕
형부가
횡단
휴직
##사이
##는건
##속에서
##으실
##비트
##미터
##과의
##클래
##웠다
##말라
##위는
##TV
##튀김
그렇진
그렇겠죠
하는건데
게임해
한번쯤
어디지
정도라고
먹어보
먹어봤
다음부터는
아파도
생각해야지
많아도
알려준
운전자
고민을
사실은
있다며
미국의
돌아오
캠핑을
봐야겠어요
전화로
내용을
알았잖아
예약하고
청소도
다녔었어
캐릭터도
여친도
여친은
건조해
나만의
기회를
힘드네요
화장품은
조카들
없었음
속상하다
경제적으로
여유롭게
멋지더라
안그러
하셨는데
토끼가
아버지랑
뛰어놀
깨끗하고
전자발
시절이
렌트카
유투버
검은색
케이티
걱정되네
수입이
즐거워
떠오르
신중하게
정형외과
당일치기로
1호선
5월
ㅇㅋ
각각
갑갑
걸요
경기를
공구
공복
기획
나던데
내한테
너흰
넘사
대략
더이상
돌싱
득템
떠나서
마르
마셨
많어
맞으셨
못본
뭐먹
배도
보지도
샀잖아
새삼
성실
성향이
세차
스킬
아찔
여신
열일
오옹
오세요
옮기
우먼
이자
이익
인건
일이네
잔디
잘한다고
저흰
지은
집까지
집에도
춥다고
캔디
하시고
헛소리
환자가
후로
휘발
##가보다
##야끼
##했네요
##안하고
##시트
##시킨
##주더라
##면에
##산으로
##의자
##기름
##었더니
##할아버
##셨네요
##소를
##맞다
##없네
##버릴
##같다
##년대
##졌을
##픈데
##현이
##놓을
그렇게라도
결혼생활
운동해야
먹고싶어
겨울을
10키로
여자들도
##리는게
신기하고
찾아봐야겠네
가을에는
가능하다
어려웠어
관리하기
관심은
사랑은
사랑한다고
##게임은
멋있긴
배워볼까
영상으로
가져야
받았어요
하시지
자동차가
전기차로
부작용도
선택할
스타일은
수학은
##할때는
위해서는
브랜드가
탈모가
맞추고
벌레도
돌아가면서
본인의
180
상대방
지나가다
키운다고
진주에서
기능이
대상으로
매니저
소소한
##바이벌
소나기
지그재
전자발찌
4월
가이드
갈수
계신
고층
과장
교복
구해야
국수
규제가
글을
금메달
길은
나겠다
내지
니랑
다듬
되더라구요
두분
많지는
많다는
말리
말대로
맞네요
맹장
먹기로
못했지
보직
보리
불만
뻔했어
새롭
송강
술이
스팀
앞이
어학
얻을
없나요
에센스
연고
오디션
올인
이기는
이때까지
입지
입기
자부
절대로
조던
좁아
주신
죽이
줄래
줄이는
지름
쫄깃
체인
체중
쳤어
크긴
트와
파괴
평점
포카
폭등
플라
행님이
힘듬
##사친
##지니
##구매
##이겠네
##있으니
##치즈
##주자
##일수록
##스라
##스코
##과도
##느니
##와의
##끼리는
##cm
##반도
##뿐만
아니겠나
좋아도
그렇던데
들어보네
맛있었겠다
이런저런
회사랑
그랬다고
그랬더니
건강식품
다녀옴
그럴만
예전에도
나가니까
느낌을
백신접종
알려주면
추천하는
좋아하셔
스트리트
##하기만
귀찮긴
그만둔
출근해
확실하게
동네도
먹었잖아
고생했어
효과도
##했다는데
이쁘다
아쉽겠다
내려오
구경도
맛집은
영화관에
신청해서
광고가
어머니랑
싸우지
네이버에서
인테리어는
조카도
때문인
멋지네
부러워요
안정적인
공포영화
안타깝네
야외에서
상대방이
하이킥
한두번
늘어날
늘어나는
헷갈려
이마에
꼼꼼히
유니폼
잔잔한
학창시절
영원히
집주인이
제네시스
백종원
보글보
지그재그
1분
AI
가수가
같진
같더라고요
것들은
글쿠
기관
기모
길도
길냥이
깔깔
대접
동백
되요
드셔
들었을
디게
마신
많더라고요
명도
바늘
바짝
반짝
발리
버텼
보컬
북극
분홍
수정
수납
싸네
쓰다
쓰긴
씁쓸
악용
어둡
영혼
오죽
온다는
자상
자리도
정비
조교
좋구
진도
집에는
체온
최선을
충치
터지면
파트
팔더라고
프라이
학점
한결
할라
해석
해줌
해킹
확보
확장
환영
##겠구먼
##직업
##시작
##주차
##하늘
##하렴
##드시
##려다
##장애
##해짐
##브레
##공항
##우유
##값도
##부름
##세끼
##새우
##풀이
##5일
##빼고
너무한
생각중
그럼그럼
같은디
하고있어
한번쯤은
엄마의
운동만
운동장
건강할
비싸면
날씨를
이상하지
필요한데
우리나라의
타고난
마음만
중요하지만
고민이네
서울대
애들만
너네집
배달비
쇼핑을
선생님들이
훈련은
사야겠네
예쁘다
핸드크림
회식도
회식을
안해봐서
중독성
전역한
끝났으면
카카오톡
영국에서
외국인들이
조심해라
지나가다가
복잡해
그분은
단순한
대비해서
무슨일이야
트로트
지구온난화
별론데
sns
바닐라
재건축
6살
8월
가로
갔대
겠어요
구하고
극장에서
까불
껀데
끈적
달걀
당하고
당했어
더블
돈가스
돌잔치
두산
등원
따기
라멘
마요
말했던
머라
멈추
명씩
모집
뭐냐고
받나
받겠다
분식
사겼
사봤어
상사가
새록
손바닥
쉬지
식습
식욕
싫었는데
쓰잖아
아싸
안으로
알림
앱으로
온갖
왜그래
우려
우체
원이
이뤄
인싸
인도는
잡기
저장
주니
중이에요
지긋지
쩔어
찜닭
책은
커야
통하는
투니
특정
파전
폭우
피해서
필드
하객
해바
했을까
협찬
혼란
홍수
##인게
##인의
##사서
##했겠네
##도어
##꺼같아요
##되어야
##져도
##먹어서
##먹어야
##동도
##그리
##명이나
##줄알
##간대
##법을
##머신
우리엄마
그러는지
##이라는게
게임들
좋은것
들어왔어
여행하는
얼마씩
결혼까지
알아본
알아볼까
하는데도
여자랑
처음들어
그럴려고
재미를
사람이면
이상하네
우리나라에도
대단하더라
안되겠네
아프다던데
##다니면서
좋을것
알바몬
일이고
나라의
다르다고
지하철역
아아아
위험하다
비싼가
사회복
퇴근할
정신적으로
어쩌려고
만들어진
피곤한
자연스러운
쉽지않
유행이래
바뀌어서
작년에는
사라지는
자신의
조카는
면허는
모르겠던데
때문이야
자리에서
토끼는
추가로
막내가
의외네
도로가
최악의
부러운
비염이
형부는
햇빛이
트레이닝
PC방
스무디
안간지
레스토랑
지긋지긋
2호선
CC
가시는
간다는
갈대
강해서
거였
겠네
결말이
고령
골든
공통
공기도
기여
깁스
끝도
나감
나한텐
널널
놓치면
대게
드시고
떠올
뚜껑
만도
많으신
말썽
맞이
맞벌이
머가
먹기도
메시지
모을
물로
박물
박정민
밥이랑
방구
브이로
비린
사냐
사소한
산에서
살았는데
샀네
샹치
속옷
수육
숨어
습한
시비
시승
실기
야자
에피
오름
와요
용서
원어
으으
이다
이긴
잔치
잡힌
제철
조직
좋습니다
지낸
질리
치사
크기가
터치
평택
푸석
했겠지
했다던데
화재
후쿠
##인건가
##아님
##거리도
##자한테
##자나요
##자전거
##았잖아
##산을
##리다
##었으니까
##화장
##당이
##소도
##프팅
##러울
##교정
##내면
##발로
##받았어
##휴일
##명은
##실을
##입을
##완료
아니긴
좋아한
##하고는
좋은거야
##이랑도
거기에서
코로나를
다니나
했는데도
버스비
고민하고
중국도
있다니까
돌아왔
귀여우
알고있어
알고리즘
보여주고
연락하고
산책하는
축구도
부산도
사회에서
##이잖아요
바다로
##사람들이
피곤하다
인생의
택시도
감기걸
좋긴한데
나올까
관련이
에어비
예능이
심각하게
15년
했다네
기간도
해결이
조용하고
그정도로
해병대는
스펙이
들어본다
해봐야겠어
이정재가
목소리도
기운이
탈영병
신기하당
결혼기념일
워라밸
기저귀
워터파크
삼시세끼
보글보글
2마리
38
ㅠ0
갈께
감각
건물이
계시는
고충
금융
김민
깜놀
꾸밀
끼면
끼리
다야
대피
되길
되었지
된다던데
때면
때메
때보다
땡기는
랭킹
레깅
마마
모병
미접종
받는거
번쯤은
보냐
비건
사양
사극
산을
샀거든
상큼
설렘
설악산
손질
쉐이크
심플
심했어
심부름
싶단
싼데
쌍수
쓰여
안만
안봤는데
애국
어캐
영웅
예선
오려고
의존
인재
인력
인해서
일하느라
있도록
잘해요
전해줘
전까지는
제왕
줄을
직전에
진해
천차만
쳤는데
총을
치명
치는데
키고
타나
티몬
팔려고
페인트
할꺼야
했습니다
효녀
##보라고
##사무
##로드
##아웃
##는지는
##거장
##자인
##테고
##테일
##주려고
##하겠는데
##올림픽
##일텐데
##르다
##달러
##키는
##중간
##오스크
##근데
##되잖아
##럽게
##투어
##먹자
##랬나
##렸잖아
##권은
##피싱
##편이야
##듣고
##축구
##봅니다
##하는것도
게임이나
있는거지
힘들었다
괜찮겠어
없어지면
해야돼
알아볼
알아봐야지
먹어봄
강아지한테
아무데
오래되서
겨울이야
겨울이라
건강해서
나왔었어
어려움
하루만에
너네가
기분은
배달을
어렵네요
##이었다고
캠핑도
해주나
해주는데
축구가
달라지는
사이좋게
수술하고
이러니
할머니는
먹어야겠어
냄새는
아르바이트는
하시네
차가운
느껴지는
자유가
가르마
자취방
도와줄
지역마다
핸드폰을
카드를
맞춰야
염색을
추천해줄
똑같구나
가본적
대중교통을
응원하는
전쟁이
외모를
경제적
경찰에
인스타그램
책임감이
##거같다
알려주라
오락실에서
도로에
다이아
미래를
실화냐
시국이
두번째
퇴직금
아름다운
사계절이
삭제된
후라이팬
크로플
인테리어도
공인중
유모차
스튜디오
조인성
##닌깐요
브이로그
ㅠ0ㅠ
천차만별
1달
33
32
4시
가니깐
가세요
개냥이
거칠
교양
끼어
나을까
낫더라
뉴질
단위로
대마
돌려서
드려야
등에
따가
땅이
뜨겁
말인데
맞더라
뮤직
미만
밑에서
병이
볼라고
산부인
샀던
샀다가
상대가
서바이벌
소유
식사는
써본
써봤는데
아몬드
안키
알겠
양반
엄격
없구
이재
이슬
이전에
인상이
입장에선
잡으러
저래
전반
주는거
죽이고
중이다
진학
착하게
채우
체감
추웠어
코에
하이브
할부
해양
했겠네
호르몬
훈훈
##보구나
##사항
##는지도
##때만
##자매
##시를
##더군요
##대출
##소리가
##되기
##형은
##학습
##추행
##온다고
##런지
##푸드
##갔을
##넣고
##봉이
그렇겠네요
그렇다더라
##이야기
생각에는
좋은게
친구를
어디다
엄마를
어떤걸
알아봤
알아보자
운동해서
건강에도
비싸도
나가야지
운전하면
자기들이
서울도
받아봤어
궁금해요
올라와서
동물농
한다네
사랑이지
갔다왔어
산책하기
유튜브도
유튜브를
고생했네
않았던
부산이
결혼식이
예약을
내려가서
치료제가
종류별로
아버님이
쇼핑몰은
받았다고
어린애
할까봐
유행이
##스럽지
시원해서
편의점이
해봤나
분위기도
어머니도
생긴다
마시지
50분
편의점도
기회되면
기간은
마트가
마트에
넷플릭스로
잘생겨
평소에는
정보를
##그래서
속상하겠다
먹자고
책임감
개봉한
토익은
무엇보다
치과는
첫째가
선선한
인도네
단순히
보이스피싱
싱가폴
평범한
제정신
브레이크
2회
4인
8시간
ᄏᄏ
간격
거라는
그중
꿀알바
나간다
너두
넘치는
노을
놀기
누리호
늘려
늘었어
늙은
님이
돌봐
됐구나
되겠네요
되는거지
되었으면
드립
땅따
떨린다
리틀
먹겠다
명의
몇백
몇몇
모발
몸으로
뭐예요
뭐랄까
백만원
봉투
부려
브런
비어
사기가
사먹어
상용
세척
센과
소용이
수목
스쿠버
식도
실적
쓰면서
안하나
언덕
없더라구
열면
열린
온수
입어서
잊혀
잘해야지
장이
장르는
정식
조조
좋앙
중임
쫄보
컴백
코어
키오스크
타려고
피지
하이라
한대요
합시다
해지
##했었나
##니티
##병으로
##었니
##장하고
##스카
##여친
##질은
##버려서
##린거
##분들이
##분들은
##통에
##못해
##그거
##꼬치
##편은
##잡이
##롭지
아니었는데
하는건가
재밌다던데
나오니
없어지고
그러게나
코로나19
운동해
키우려고
다니던데
나왔음
챙겨주고
얘기해서
만나지
누나야
나온다던데
아주머니
어렵던데
해외에
끝나지
재미있었는데
출근길
추워도
아닐걸
거래량이
청소는
아쉽지만
아버지도
수업도
자연이
회식이
헤어졌어
##할게요
지역으로
계절을
빠르지
15만원
거리에
##해봐야지
오토바이가
##만큼은
걸려도
심심해서
상태로
메이플스토
디자인이
편리한
감자탕
좋아졌다
가성비가
공항에서
가슴이
고무줄
님은요
돌고래
무거워
무거워서
우짜노
재활용
피크닉
두드러
황매산
우체국
가리고
가기는
갈듯
같다는
개씩
거슬
거거든
곳만
구비
굿굿
길지
닦아
뒤쳐
뜻이야
마우스
멀미가
무선
문구
미주
박지
반갑
반년
백숙
봤대
봤었지
부업
붙이는
빗소리
빙수
빠지지
사수
산거야
샤브
섞어서
성추행
시장에
식겁
아바
악역
안해요
안난다
애쉬
엘지
염증
영하
오브
웃는
웨이브
이렇
입력
있겠죠
전참
천연
첫날
캐치
탈수
토스트
픽업
현관
형한테
호수
화날
황금
##사면
##있대
##거니
##크레
##하려구
##기라
##화까지
##장창
##문신
##마음
##레인지
##없으면
##절로
##되긴
##음료
##습니당
##집을
##졌잖아
##명도
##초밥
##될까
##머리는
##곳도
##ㅇㅈ
아니니깐
좋아했지
생각하게
지금처럼
게임이라
있는것
엄마들이
맛있어요
키우자
이상기
사고싶어
만나기로
저녁을
스트릿
돌아다닐
귀찮지
비슷비슷
영어공부
외국에
전화가
전세도
이러는
내려갈
##하시지
받았다
아르바이트가
120
광고를
피해는
스포츠를
선택을
사라질
올랐다고
글쎄요
50대
이후로는
화장품도
그리구
연습을
바쁘게
국민들이
쿠폰도
쓰레기가
신발도
전부다
안좋아해
사이트에서
25만원
##인가봐요
최소한
물고기도
지났는데
스페인어
검정색
게스트하우스
##볶음밥
조그만
바껴서
일회용
두려워
임플란트
넘사벽
인도네시아
1만
ㅌㅌ
과목이
구니까
규모
근디
꿈은
남지
네비
넥슨
놀람
높고
단어가
되어가
두는
등이
딱이네
막고
맑고
맛없어
매물
멈췄
멘붕
몇시간
몬스터
몰고
묘미
물에서
박수
박나
발에
밤엔
배로
번식
번갈
빼서
사은
사정
사귈
사정이
설거
손맛
십만
아따
아낄
알기로는
양식
얘는
없다니
없으시
에프
오게
올래
왔더라
우중
원조
이색
일석이
자네
자몽
잘하니까
정지
지코
질투
집만
쪘어
치마
커다
커리
콜드
크잖아
택시는
통신사
패드
폭설
프레
한일
한겨울
혼날
후기가
##인드
##했습니다
##이비
##거덩
##즈음
##시게
##일껄
##건이
##장훈
##할것
##할려고
##소는
##으라
##께요
##같애
##부모님
##카도
##차나
##내야
##른다
##냈어
##샤브
##싫어
그렇게는
##는거라
결혼에
정도였어
하지도
키우던
건강관리
그럴거
배우자
배우들도
챙겨보는
얘기한
고양이들이
고양이들은
부모님들은
자기랑
중국집
좋아하겠네
한국의
물어볼
한다구
지하철로
그만뒀
키워야지
않았지만
미안하지만
예약했어
다양하고
아쉽네요
자전거가
웹툰을
월세도
예능은
그것보다
새벽배송
마시는데
상관이야
화장실에
멋지게
식당에서
도착하면
까먹었어
금액은
디저트는
초반에는
훈련소에서
처벌이
선임이
감당이
명이서
아끼고
신선한
반지의
일자리가
쇼미더
승부욕
형수님
##프라이즈
자기소개서
드래곤볼
순식간에
화생방
이광수
교통수단
휘발유
투니버스
1시
가는거지
갔거든
거꾸
검토
과정이
구속
그분이
기독
길다
깐부
날까
낫긴
났다고
놀란
다니다
들겠다
떠들
리가
말래
말리고
멀티
목적이
못봤는데
무역
버림
보기도
부부가
북적
사네
사투
사갈게
산으로
샀나
선정
성분이
스탈
심하긴
심장이
안과
알리
암벽
얌전
어엉
영환
영창
오천
우정
인성이
자나
재입
적고
제약이
좋구만
주셨어
중이지
차근
착해
최곤
크더라
타면서
파이어
팬이
편인가
폰도
피싱
합쳐서
해안
휴일
##개를
##겠대
##들로
##자리가
##주시
##티슈
##꺼는
##대사
##연수
##오라고
##왔어요
##적이라고
##와요
##파야
##조절
##받으면
##그때
##됐는데
##케이크
##ㅋㄱ
##현실
##셔도
##변이
생각하면서
생각했던
생각났어
지금보다
같은뎅
게임이라고
들어야지
아이들을
맛있었
겨울만
여자배
나가는데
시작을
드라마나
알려줄까
고민하다가
저번주
저번주에
살아가는
동물들은
다르잖아
뉴스도
##게임을
해주라
해주더라
출근하고
애기들도
위험해서
이사가
아닌가봐
신경이
행복하다
##줘야겠네
넷플에서
수술도
##하시나
##하시는데
우리집에서
받았으면
가게가
늦게까지
바뀌었어
같긴한데
느낌이랄까
감사해
간식으로
기념일이
거라던데
도시가
응원해
신혼부부
스토리도
빠져나
소식은
가르쳐줘
모양이
롯데월드
가정을
최저가
유재석이
퇴사하고
베놈2
지금부터라도
바래야지
에너지가
바퀴벌레
크크크
놓을게
며느리
뭐였더라
프리랜서
후드티
##스포츠
설렌다
배틀그라운드
일석이조
42
가난
각종
감소
거주
거니깐
과속
국비
국가가
그니
김해
남주
남들이
낯설
노력이
놀아야
눈치가
단위
델타
듣지
따돌
땀을
많나봐
말뚝
버리면
변덕
보스
보기는
봐볼게
봤고
비와서
비오고
뺏어
사치
사왔어
서장훈
속기
수확
스도
식비
식중독
신과
안드
안한다
얻는
올영
웨이팅
위가
응답
이맘
일종
잘살
잘했는데
잘했지
잘하던데
적절
전해
정직
좋데
좋드라
죄야
지우
집앞에
짱이다
찍어야
채용
치우는
태연
풍부
하든
한게
화를
휴지
흘려
흰머리
힘도
##수저
##보더라
##들여
##들어가
##하래
##더군
##드려야
##할라고
##전부터
##돈데
##바게
##차이
##그림
##햇는데
##갔네
##써서
##작이
##낚시
##봅시다
맞아여
영화만
여행할
운동에
##인가보네
그럴까요
아파요
걱정이긴
걱정이네요
없는듯
필요없
우리나라만
우리나라랑
챙겨주는
동생들
가능하
사실이야
하루도
좋아하던데
세상엔
나랑은
교육에
출근해서
위험하긴
동네로
점심시간에
티비는
않았지
##했다더라
안나서
구경만
골프가
친구들한테
기차는
에어랩
자동차를
계절에
직업을
걸리네
했다는데
시골에서
아저씨들
화장품이
어플도
시리얼
집중해서
그정도야
중독이야
사망한
언젠데
과일도
대전에서
각자의
막히고
세금을
바이든
다녀오자
부지런히
이왕이면
다치지
긍정적으로
비혼주의
대단하시다
슬펐어
가전제품
알러지가
김희진
원숭이
정규직
여의도
오아시스
이누야샤
2시
2분
600
7살
7만원
VR
건드
경차가
관객
교훈
구했어
금리
길로
깨달
꽃게
꿈에
나뉘
날려
너나
놀았는데
늘어서
덥지도
들었음
떄문에
리더
마싯
막을
많거든
맞으면서
맥주도
메롱
몇시
못자
박살
배탈
별점
보도
복도
살이야
삼십
서프라이즈
세우
섹시
손주
스팸
식스
실사
쌓고
쏘고
쏟아지
쓰는게
안생
안챙겨
않죠
애정
야놀
없엉
에효
연출
예쁨
오목
외계
울신
위주
위염
일하다가
있노
있겠나
잘랐
장비가
재계약
저출
전보다
정정
정하는
제습기
조승
죽었
죽어서
줄일
쳐도
측정
치자
치히
컬러
편이다
편해요
폭풍
학년
한계
헤드
형네
형님이
혼났어
회색
훌쩍
힙합
##수지
##가라
##가에서
##보드는
##지방
##로션
##타닉
##즈아
##시리
##ts
##티지
##당한
##매매
##형으로
##회의
##조림
##쌤이
##후군
##내시경
##말도
##RT
##약은
##세도
##입이
##편도
##종류
##뭐하니
##겄다
아니었으면
이번주는
하나라도
시간되면
군대에서도
알아봐야겠네
비싸니까
다니게
걱정이에요
신기하긴
찾아봐야겠어
싫어하지
느낌이지
챙겨줘
어때서
시작하고
안되는거
부모님들
하루만
받아들이
먹을지
돌아올
나라야
얼굴만
##이었을
비슷한거
불편하겠다
##스트라
생기네
좋았을텐데
시키려고
퇴근하면
추억을
청소하고
할인해
피곤할
쇼핑몰도
연예인들도
헤어지면
노력하는
##소리야
간식은
성격은
피부과는
인테리어에
업무를
감독은
약속하자
육군이
부대는
심심하면
상태에서
그림체
타이타닉
안쓰고
막히면
들어갔는데
키웠었어
실력은
가깝지
늘어난
목표로
##하셔야
연결해서
국룰이지
미루고
별루야
칼로리
파란색
자소서
방사능
자만추
CCTV
메시지입니다
하이브리
샤브샤브
기독교
스도쿠
가지가
간거
곳이라
공이
구석
그대신
김혜
깨고
날엔
넘넘
노선
담양
돈주고
돌아서
동방
듣던
듣긴
들으니
떴어
맑아
못하네
뭐하러
밀려서
밤마다
방울
벗겨
병아
보시
볼륨
봄은
봐줘
뻔뻔
사봐
상징
새롭게
성질
성범죄
센스가
소아
수거
수험
순서
승객
싫으면
싶노
싸다고
써요
안구
안왔
안갈
양아치
업그레이
여우
예보
올려야
웰시코
윤아
이스라
인질
일욜
일정이
있단
자르는
잘하긴
전복
전염
주스
죽었대
중반
짱짱
차만
차리
차들이
천만원
체계
취약
태우고
파도
하정
했데
했냐
했었음
헌혈
홀리
화분
흐리
흡수
##보이더라
##사님
##지더라고
##아이가
##아저씨
##했니
##했냐
##했겠지
##기능
##해줬
##달래
##돈으로
##정리
##적이긴
##란드
##긴다고
##체험
##받아야
##실은
##간지
##세윤
##갔대
##ip
##필요
게임하면
같이하자
힘들던데
엄마들은
없어짐
결혼했어
아무런
공부한
공부하면
있는데도
생각해보고
아빠를
만나게
운전해
자기한테
저녁도
최고긴
일이래
연애의
해외도
쇼핑은
너희가
여기에
여기까지
이용하고
소리지
산책은
추워진
비행기도
힘든거
먹었다고
생겼던데
기사도
않았을
가보고싶어
수술한
주문해서
구경하러
할머니랑
피곤하고
어린데
웃겨서
하시더라고
기차여행
있긴한데
스포츠가
예능도
않을래
라면도
1500
아쉬울
맞았어요
강원도에
햄스터도
충분해
##해주지
##들한테는
소식을
좋겠다고
창문을
안쓰러워
당첨되면
미래가
끔찍한
부지런해야
슈퍼마리
쉬어야지
마이너스
브라운
자영업자들
적립금
긍정적인
클래식
그러시군요
전시회
살쪄서
단단히
망설여
어벤져스
버킷리스트
닭강정
뉴질랜드
하이라이트
이스라엘
1화
가심
가봐야겠어
개선이
거창
거냐고
건전
계기가
교차
구미
군부대
군고구마
금연
긴급
낙태
났다
났대
너에게
높아지
누룽
늦어서
담날
돈이야
돋아
되지만
되냐고
똑바로
로드
롤이
만료
말했는데
못참
못했어요
무신
묻어
물티슈
미스트
번쯤
벌기
법도
보셨
보였는데
부셔
빡센
사시
살때
색다른
생물
샤인
세우고
쉬면서
시공
식기
실버
십만원
싶엉
싸더라
쓰라고
악플
안에는
안주는
안하니까
약해
열받
열정이
오십
와플
요리도
원인가
월욜
의도
이어서
인수
인거
일식
자외
저절로
적지
접촉
제트
주짓
줄여서
지어서
짐도
착하고
초등
최강
춥긴
치지
코드
키움
텔레
팬들이
편이라서
항의
해보니까
휴학
희귀
##관에
##사수
##겠습니까
##했었잖아
##는구나
##주는거
##일거
##려니까
##은행
##오더라
##본적
##적이었어
##바겐
##파는
##성으로
##린이
##저스
##차근
##차이가
##웠어요
##불고
##떡볶
##누나
##새록
##댄스
그래라
우리신
사람에게
그거를
하고는
들어보니
들어있는
어디꺼
먹어볼까
회사생활
언제적
가족과
머리로
무서웠는데
걱정해줘서
나가게
필요하긴
배우지
챙겨먹고
내일까지
아프긴
가능하면
스트리
##이어야
돌아다녔
난리래
끝나야
만화도
영어학원
뉴스로
애기를
키워도
생겼다고
생겼잖아
기사는
취업도
선물이
주문했는데
내려올
나름대로
종류의
웹툰도
친구들끼리
경우에는
##스럽고
도와주고
기념품
어른들도
화장실이
햄스터가
전문적으로
반대야
하셨나요
안보여
허리케
식단이
와이프는
와이프랑
아팠는데
마당이
블랙핑크
괴롭히
글램핑은
유기농
잠시만
놀면뭐하니
교수님이
약국에서
사나이
가상화폐
그저께
놀이터에서
연말에
떠오르는
장애인
모니카
스노쿨링
미끄러
복무기간이
댕댕이
이수근
후유증
된장찌개
따릉이
글로벌
사재기
에피소
차근차근
UDT
갈걸
갔어야
거일
거리도
걸을
것들을
견적
결심
공용
구내
국외
기니
기계가
깡패
끊어야
납치
높다고
달부터
담요
더러운
델꼬
동대
둘리
들잖아
듬직
듯한
땡겨서
리스
마셨어
많으니깐
문이
물가도
미칠
받더라
벼락
벽지
보살
보겠네
본적이
본인은
부대가
불량
사우
사시는
사줬어
살수
삼아
상가
새치
선생
설빙
세대가
소상
순두부
술마
숨은
슬픔
시나
시외
시합
싫겠다
심하더라
씹어
아기를
안자
알차게
야무
어떄
없으
없노
여성이
오길
왔거든
요트
웃고
웃으면서
원빈
으로
으휴
일등
일하니까
있제
있겠구나
자리를
잘되는
장가
장학
재벌
재채
재능이
져서
좋니
죽었다
중증
중형
지르
직종
집순
참으면
찾으러
추구
친해지
캐리
캣타워
콘텐츠
타는거
파일
편하다고
편하더라고
평거
폭락
플래
한입
할만해
해체
했던데
화창
환급
히피
##에여
##지역
##로서
##이슈
##있긴
##있다가
##자재
##치게
##의사
##기보다는
##르륵
##해는
##전으로
##마비
##비타민
##과학
##말을
##실도
##블럭
##힘들
##팀이
##댔지
##갖고
좋아했었는데
그러려니
게임이잖아
같이가자
여행이나
보고있어
알아봐야겠어
운동하자
10시간
건강하지
여자를
그럴듯
문제고
싫어할
만들자
먹는건
내일이
안되더라고
가능할까
사진만
최고임
좋아하는거
먹을려고
##라는게
한국도
무섭겠다
어릴적
귀찮네
관심도
떨어지지
비슷할
연락하는
불편하고
생겼대
등산이
그런거는
기대해
좋았다
좋았으면
낚시가
내년부터
예약이
거래가
##해줘야지
사야해
청소를
대학을
종류를
주식으로
남친한테
구매하는
구매해서
검색해봐
전기차도
포기할
추천해준
답답한
잘생기고
실제로는
중간고사
마블은
영향도
평소에도
오래됐는데
시술은
눈썹문신
책임을
무리하지
11월부터
익숙해지면
살았으면
다닌다고
의외다
경쟁이
보톡스는
멤버들
초코파이
ㅇㅈㅇㅈ
대회도
보인다고
##스토어
시도해
찬성이야
구체적으로
포르쉐
새록새록
박나래
사은품
거꾸로
슈퍼마리오
6만원
가발
간거야
갈만
감상
갔었잖아
것부터
것들도
괴로워
구이
구역
규모가
그체
깻잎
나이지
날만
남성이
넘겨
농작
느려
달아서
당하면
도장
되거든
되었네
된데
두루
땅에
로코
마세요
메일
못만
못하지만
밀려
받잖아
번을
보시는
본거야
볼때마다
부자가
뻔한
뽀송
사놓고
산지
산대
서면
성우
세개
세대는
소질이
숨이
쉬엄
쉬운데
시끌
신라면
씨씨
안락
안동
안함
양평
엑소
였는데
오리지
웃길
워크
원주
위기
위반
육지
일상이
잃어
잡자
정체
제조
징역
차승
차분
참는
춤을
취준
캐리어
컸어
타보
테일
트렁
판다
팔았는데
평상
폰을
피규
하던가
한여름
할배
혈압
흡입
##인건
##나더라
##이시
##안은
##주얼
##산에서
##었으니
##한잔
##돈이
##스레
##스라고
##감독
##근한
##같아서
##계탕
##류를
##살은
##결이
##휴가
##플루
##쓰면
##엇어
##층에
같아여
우리처럼
생각남
여행지가
나오려나
결혼해도
아이오
맛있으면
군대생활
이런것도
10시까지
비싸겠지
그렇지도
걱정해
다행이긴
신기해요
찾아가
아프더라고
##한데요
나온다는
먹을라고
프로필
남편한테
선수들도
기대되네
바람은
직장을
##어가지고
피곤하지
자전거로
받았나
어울린다
사건도
100원
아르바이트도
어려워요
예능에
지역에서
성공해서
염색도
시즌이
아쉬웠어
상관이
시골이라
택배로
대중교통은
40만원
외모는
국민지원금
근육을
가봤네
파마를
기술을
남았다
언젠지
시리즈가
시급은
삼성전
이상형은
디즈니랜드
어마무시
설레는
해준대
경쟁률
공원에서
전체가
대리만족
즐기면서
태어날
소중해
갈비탕
튼튼한
아웃도어
셋이서
전투기
자차로
특수부대
정류장
탄수화물
바이러스가
아쿠아리
돼지고기
최전방
사춘기
지게차
공인중개사
3마리
55
800
가리는
간접
간첩
간간히
갈치
개최
거길
건빵
게을
공을
그제
낙하
낮춰
내주
넣어도
노가다
놔야지
다치는
대는
대전에
던지고
덥다고
동양
되나봐
두배
뒤늦게
등을
딸도
땅을
마심
마이크
막혔
매장에서
몰카
물만
배에
배경이
범인
별게
보기로
복불
상장
서빙
설사
소수
소지
수사
스윗
스마일
식혜
신나서
심사
쓰자
쓰던데
아유
안하
엠티
오렌지
왔다가
왜죠
외워
외박
요번
우웅
웨이크
이집
이겼어
입장이
작은데
저만
전어
주네
주목
주면서
질질
짜장
짱인
찌개
찾은
체벌
춥네
카니
캡쳐
콘솔
킬링
토할
티셔츠
판다고
펭귄
평이
표정이
하래
할려면
호기
홈플러스
후기도
흐음
##했을까
##트랙
##안에서
##타가
##하라는
##국은
##일부터
##유치
##여자
##소비
##으며
##프리
##파리
##코인
##모님이
##내가
##예약
##말라고
##졌음
##긋네
##순환
##곳으로
##혈압
##멤버
진짜루
아니제
좋아했었어
생각날
그거나
하는가
하는걸
해야겠지
기억안나
그랬나봐
오래야
10시에
이상하다
다행인데
찾아봤어
싫어함
가을도
대단한거
중요시
아침밥
아프진
중국의
준비하면
주말이
귀여웠어
세상은
동물들이
해외에서도
이야기도
맞는다
나랑도
캠핑이
그만해
출근을
확실해
산책할
미용을
기사로
점심을
전세계가
바람막이
예약도
지원을
내려와서
다녔어요
##하시네
친구들하고
나올지
해봤다
##했던거
자동차는
생일인데
괜찮을거야
택배가
업무는
국내여행
부동산에
하늘에서
환경오
어땠는데
면허도
대체로
단풍도
활동적인
육아가
취미를
오래됐지
음료는
해군이
도착해서
의미로
특전사는
시킬까
멤버십
행동을
사무직
예방접종
연휴에
유튜버가
스파게티
늘어나고
좋아하시겠다
미세먼지가
말아야지
##언니가
아껴서
어지럽
안들어가
목숨을
트러블이
자율주행
비비큐
서브웨이
프렌즈
허벅지
취사병
두껍게
인종차별
엠비티
진돗개
쇼미더머니
소상공
1순위
7번
8천
가사
가셨
가거든
감탄
감튀
강해
강습
거까지
거처럼
경상도
구만
그쳤
놈들
도지
동창
동유럽
드럼
따갑
떨고
라이프
많겠네
말았어
말리는
맙소
매출이
먹이는
못느
무좀
물놀
미나
밀고
밑으로
밥값
밥이나
방어
방식
배멀
배스킨
벅토
보쌈
보겠어
보너스
부는
부품
뾰루
살거
살찐
삼계탕
상해서
새집
성과
세제
수집
식은
심하고
싶었거든
쌓인
씻겨
양가
얼죽
없다던데
에그
오더니
오자마자
온거
온라인이
와닿
왜지
외가
웃겼는데
웅변
이뿌
읽을
잃은
입히
잘맞
정서
졸려
죽지
줄고
줌으로
쭉쭉
찌고
채식
청원
최민
최우
취해서
캡틴
켜고
코끼리
타운
터짐
토스
틀어야
팩도
폭염
필터
하려는
한화
할매
했어서
형아
혹은
##사이즈
##지네요
##구에
##구멍
##다행
##상으로
##자라고
##하제
##래미
##국에
##국에서
##었었는데
##한다니
##으려
##마인드
##비만
##비아
##비랑
##메이크
##없음
##진데
##진은
##오니
##ㅠㅜ
##청정
##재밌
##회가
##토피
##차이즈
##급여
##능력
##놓는
##머스
##릭터
##웨딩
생각인
나오더라구요
결혼정보
##기도하고
알아듣
다시보기
비싸진
그럴껄
생각해볼게
집에선
신기함
느낌인지
버스에
사람들에게
사람들끼리
병원비가
마음껏
고민하는
일본으로
시켜줄게
돌아간
생활할
기분전환
어렵더라고
부럽습니다
##게임도
출근하면
안돼요
30만
않았음
보러가
달라진
야구도
세계적인
따뜻하고
골프도
##스럽네
작년부터
자유로
자취할
개인적인
생일에
염색하고
시즌1
맞았다고
강원도로
잘생겨서
바꾸려고
패딩은
위해서라도
놀이공원
계약서
식당도
제품을
##들한테도
범죄자
집안에
형님은
똑똑해
걔네가
안쓰럽
상대적으로
배그는
공원에
포장해
포장마
힘내자
이리저리
검색해보니까
이기면
나간다고
맛난거
더위를
어르신들
훌륭한
사례가
아이라인
국회의원
본격적으로
방과후
정준하
알투비트
겸사겸
원어민
1편
39
6천
7시에
가리
가지도
개냥
격투
고문
고프
고른
고데기
공고
과도
균형
금전
꿈꾸
난로
넘었는데
눈뜨
답도
대머리
더러
돗자리
동일
두발
두명
두시간
뒤로는
드셨
들리는
랜드
러브
많데
말처럼
말하기
맞으니까
맵찔
뭐람
밀면
바가지
바이크
반에
발라도
방콕
변호
보는거야
부디
불행
붙은
빌릴
빼곤
뽀뽀
사연
삼각
상병
상술
선고
수용
숟가락
식재료
신이
싫더라고
안싸
앞서
업계
왔었는데
요정
요약
욕먹
용기가
웃을
원카드
으아
음쓰
이놈의
자궁
잘하자
잘되고
잘나가
잘랐어
재발
전셋
주구
지적
집이야
짤로
쪼금
차야
차서
찾게
채로
철이
추적
캥거
커뮤
퀴즈
클리어
타더라
통합
튜브
파바
팔에
편하니까
플렉스
피어
하겠
하길
할수록
헬스는
##가보네
##만화
##관은
##보다가
##보여서
##지요
##어져
##이름
##고무
##도리
##있니
##치로
##무원
##면도
##드니
##일세
##기차
##밥이
##었던데
##tv
##해봤어
##문제가
##한듯
##스파
##였고
##오키
##되겠지
##같지
##배달
##부에서
##등급
##탐정
##세트
##법도
##피그
##판을
##1년
##많아
그러겠다
생각이네
게임의
게임들이
재밌었어요
정도에
맛있대
알아보려고
먹어봐야겠다
다음은
10일
있을듯
나왔더라고
배우려고
느낌인
버스랑
백신패스
있으면서
보는건
병원으로
만나보고
안되잖아
드라마인데
있나보네
고민이다
사실을
자기들끼리
준비해야지
애들을
일이구
##정도면
어렵잖아
떨어짐
괜찮아질
화장도
쇼핑도
사랑으로
사랑스러워
출근은
기사에
아까울
행복하지
부산까지
수영이
##건가봐
청소하는
##사람도
치료를
할머니도
받았었어
예쁘긴
부분만
해봤네
작년엔
분위기는
분위기를
되어있어서
계절마다
부작용으로
2년이
주차할
않을거야
신랑이랑
심각하네
사라짐
50억
기간에
맞았나
바쁘지
육군은
때문이지
워낙에
정해인
할아버지는
식당이
주사도
탈모는
사망자가
반팔에
도망가
공기청정
오키오키
당일치기
필러는
걱정되긴
손톱이
아웃백
사천성
보라색
방향으로
안아프
드림카
클래스
365일
공산주의
가혹행
팔자주름
1박2일
유난히
트리트먼트
핑크뮬리
##클래스
이상기후
업그레이드
34
4학년
6개
900
cc
개조
개판
개인이
곳이지
구운
구하기가
권태
규제를
그놈의
글씨
남양
남극
넣었는데
노리고
노선이
누르면
눈썰
늙으면
다정
달성
대청소
더웠어
도미
돌리면
되기도
되면서
두달
들더라고
똥을
뜻이
말이라도
먹지도
먹거나
못받
배꼽
변신
본데
봉지
뿐인데
사인
사다가
살인데
삶은
상식
성인이
셔틀
소세지
신생
실감이
심했다
싶나
싶으세요
싼거
아들이랑
아케이드
안맞아
알면서
없겠어
여배우
열려
오시
옷에
와야겠다
유엔
이쪽
인연이
일하다
일년에
있군
자랐
자려고
자야겠다
잠바
잡혀서
저리
전성
점차
정수
조커
좋냐
죽겠네
준다는
중에도
줘라
짝퉁
쫓겨
차이는
춥던데
춥지도
콧물이
쿵쿵
큰집
클라
토르
통닭
투썸
편하잖아
편이긴
편해지
피디
하체
할지도
핫해
호주가
혹한
화나서
회도
후속
흐린
흐흐
##개발
##보는게
##지말고
##어스
##어진
##구로
##구역
##자격
##크로
##크는
##시안
##시즌
##하셨어요
##물에
##건조
##장만
##할인
##신거
##마마
##질환
##진도
##오늘
##준이
##되요
##송이
##느라고
##쳐도
##내기
##말은
##줄은
##규모
##손으로
아니였나
좋아했어요
우리딸
재밌으면
영화제
맛있나
해야죠
운동하기
회사에서도
다음으로
10살
아닌듯
별로고
부모들이
챙겨드
아침에도
하루는
무섭다고
배달시켜
갔다왔
갔다와서
재미있는데
커피랑
이용하면
위험이
이유도
먹었을
생겼어요
30살
고생하셨
취업해서
그렇긴하지
보험을
안나오
가지구
주택도
주택으로
있으시
치료는
신청하면
친구들과
기억나네
해봤음
헤어질
개인정보
생일은
성공할
성공하면
올랐더라
시골은
부동산이
신고를
화장품을
잘생기
어플에서
진심인
매력적이야
오르지
무료배송
가보지
치고는
대화도
비교해
커플이
놀랐잖아
익숙해져서
줄어드는
가방에
세금이
해준다
서비스가
오른쪽
실력도
벌어야지
의무화
전국적으로
버티고
소비자
실수로
스피드
군복무
본방사수
코시국이라
디지몬
쓸데없는
제육볶음
광안리
딩크족
장롱면허
틈틈이
우중충
스트리밍
아쿠아리움
맙소사
겸사겸사
캥거루
4대
48
5개월
6월
ㅋㄱ
감을
감기가
거보단
걸음
것이야
게으
경락
경력이
고성
과일이
그랫
급증
기장
김수
꿉꿉
년째
늦으면
단양
당사
더빙
덥긴
도심
되었는데
되겠어요
들켰
따져
때의
떨면서
랜선
러쉬
리터
만기
말인가
맞춘
맡기
맡기고
먹냐
멀면
명이나
뭐하냐
반납
받긴
받는게
발라서
방심
보려면
복직
분당
뽑아서
사드려
삼성이
새차
생에
서늘
서랍
섞어
성대
세븐
소재가
쉽지는
승마
싶니
싸면
쌍꺼
썼지
쏘리
쓰다가
아지
아홉
안입
않으
앞두고
없으려나
영역
오션
왔구나
이주
이곳
인내
입문
입으로
점에서
정장
조상
조식
주요
죽는다
줄서
중식
진통
질렀
쯔양
차은
추는
친가
타이어
탈퇴
트리
팬티
팬이야
포지
포커
풀리고
했더라고
현빈
홈플
휴전
휴가는
##에다
##만으로
##있던
##걸요
##았거든
##리그
##물어
##기나
##었지만
##었나요
##장터
##티는
##증을
##없는데
##오오
##금액
##과목
##배기
##택시
##두근
##모양
##온대
##줘요
##번은
##피부
##블릿
##BS
아니라도
그러기
그렇제
사람처럼
하고싶은
힘들것
##는거는
결혼한다고
싶어하는
자주가
그때그때
걱정을
있을꺼야
나왔거든
먹는구나
대단하긴
안되게
사는건
여름을
보내줄
가야하나
##주는게
관리하고
어릴땐
세상이야
##하더라도
다르겠지
위험하다고
산책하고
고생하는
없다면
취업하기
선수를
달라요
낚시대
이쁘겠다
이쁘잖아
받았을
부분에서
하시나
광고하는
느껴진다
현실에서
라면을
자체는
감사한
50만
똑같다
호텔은
아저씨는
국내는
기름값이
실제로도
조용해서
비타민은
심해져서
일어났어
마셔도
놀이동산
숙소가
신발은
끝났는데
시리즈는
와이프도
회의를
현질을
오락실에
보냈는데
해봐야겠네
TV에서
태어나면
용품도
징그러
안됐는데
손흥민이
뿌듯해
손가락이
개념이
하여간
당시에는
그르게
극단적인
기다렸다가
민간인
자존심
극한직업
고깃집
잔여백신
아이러니
레깅스
아바타
주구장창
2천원
3박
3단계
5000
6시에
가산
가볼게
가구가
가즈아
감시
강형
갖는
같당
같더니
개정
거리를
겁니다
경주에
국토
국물이
그떄
기내
껍질
껴입
남음
냈어
넷마블
다짐
달도
독박
되자
되려고
둬야
드리는
드셨어요
들려서
들었네
땄는데
뛰어나
뜨더라
만성
말랑
맞으려고
매물이
면에서
명곡
명탐정
못찾
못하나
못나가
물회
믿는
배에서
벌려고
법으로
베라
변한
봤습니다
북유럽
불꽃
뿌리고
뿐이지
사더라
서양
서귀
속기사
손예
쇼트
수련
승리
시달
시럽
식욕이
신났
십년
싱싱
싸웠는데
쓸어
씨는
안산
안봤
안와서
안어울
야경
양세
엄만
없이는
오다가
옮길
울컥
유혹
이랬는데
일시
잃고
잘때
잘될
장사가
장비도
전면
전여친
정시
제맛
존예
좋거든
좋으려나
주실
진화
집합
쪼개
차원이
철봉
초겨울
칸쵸
캡슐
텃밭
토토
트레
해먹어
혐오
##수칙
##골이
##구에서
##이는데
##도까지
##들었어
##있는지
##하겠다고
##리더라고
##물고
##요금
##강아지
##문화
##소리도
##비빔
##군이
##느데
##와는
##먹은
##싶어서
##카고
##류는
##함에
##케익
##링크
##약도
##세는
##피는
##범이
##효신
아니었음
그런대
우리회사
하는군
오늘따라
힘들까
여행에서
시간표
군대에선
하는데요
기억력
기억하지
그랬었나
키우는거
겨울인데
좋지요
비싸구나
다니는게
다녀봤어
별로임
그럴수
뭔가를
많아질
있을지도
혼자만
싫어하잖아
느낌인가
백신맞
대단하다고
일본인
이렇게까지
궁금했어
혹시라도
돌아가서
돌아오는
한국인이
물어보니까
나라로
귀찮게
귀찮음
어렵다던데
귀엽다고
다이어트도
기다리면
연락처
그만둬
먹었냐
생기더라
전세는
신경쓸
그렇긴해
##했다며
결혼식도
안나와
이쁘다고
연예계
##하시네요
쇼핑몰에
가져가서
받았네
골프채
추석때
##레이션
않은가
라면은
사라졌
마시면서
괜찮을거
하늘도
해결해
대부분의
없었네
김치랑
정리해
성형은
매력적인
인간들
번씩은
스토어
취향은
아이돌이
놀랐겠다
##거같아서
까먹음
공간을
##자리에
아쉬워요
블랙위
##카드로
##것같아요
돌아다니고
공무원이
키운다
경쟁률이
디자인도
바닥이
편리해
자살한
바르게
늘어났
호주에서
애교도
오랜만이네
나타나
비대면으로
정촌에
포켓볼
가벼워
생리통
PX에서
라이딩
왜그러
김태리
허니제이
당당하게
열대어
호불호가
시그널
트위터
타코야끼
에어비앤
커다란
기니피그
서귀포
1주년
2도
2월
2개월
LA
vip
같지는
경남
공장에서
광역
굶어
귀농
그자
깍두
깔려
꽃은
남으면
낫나
났지
낮에도
너거
너보다
넘지
다다
단절
더군
동작
두유
둘만
때야
떠나는
맛이지
맛없는
맡기는
먹기만
목걸이
박은
반이
반차
반드시
뱅기
벅수가
베뉴
복용
부수
부채
빌딩
빨래도
빵은
상거래
선착
소라
수만
습해서
시크
시금
신나는
심정
아기도
안잡
얘긴
엘에이
여전
역전
열리는
예정이
오열
옷만
요즈음
원두
육개
있겠어요
있구만
자란
재우고
전도
정원
제니
죄책
주입
주제가
줄임
지독
체포
충성
친오빠
크면서
탔지
털갈이
통학
팀장
포레스트
피로가
하제
학기
할것
해고
홈런
흑인
##가는거
##만하지
##사이트
##겠더라구요
##했었거든
##나오는
##라면서
##들에
##들이라
##시오
##주잖아
##하단
##드립니다
##일수도
##디다
##미용
##오니까
##되는게
##형님
##바디
##린지
##모는
##운이
##말에
##줘라
##살기
##됐네
##간이
##세용
##입니까
##갔나
##5년
##령이
##뒤에
##눈데
##앞에서
##는데요
아니였
좋아짐
그러는거
##하는거지
##하고도
이제라도
들어보고
거기선
나오겠네
싶어지네
어떤가요
운동이야
가족들한테
아닌것
이상해서
느낌의
부모의
사고싶다
대단해요
아프게
가능한데
많은가봐
중국이랑
사는구나
여름도
먹을만
미국에서는
싶은게
좋다는데
이름으로
난리잖아
지하철에
갔다온
재미있다고
출근하는데
출근하기
출근길에
이용하지
어느새
힘든가
인정이야
기사님이
멋있잖아
않았었나
당근으로
근처는
수영하고
알았거든
정신건강
추억도
가지러
주문하고
하기에는
마지막이야
일어나지
결국에
사건은
사건사고
방송을
12시간
하시면
안해본
해보긴
해보세요
네이버페이
물건도
않을텐데
심각하다
사라지
걸리더라
태풍은
넷플릭스가
힘드니
약속해
배고플
넘어갈
평소보다
외모도
엄청나네
시술을
쿠폰을
제품은
귀찮아도
수준이야
시끄러워서
##해보여
비교하면
##거같애
금액도
현금이
입어야지
설명을
만날까
매운탕
괴롭히는
싸움이
휴대폰도
아나운
문자로
한강에서
환절기에
마을버스
입맛에
냉동식품
만드는데
생명을
물고기가
넘어가면
여론도
베란다에
살찌는
스쿼시
교과서
두근두근
이등병
임산부
상용화
더군다나
1조
6만
7만
85
8시에
IT
갈만한
개구
개막
걔랑
건의
겁난다
결제가
고칠
관상
관중
구하면
구워서
구해줘
구하기도
권고
그늘
급격
긍게
기네
기뻐
까는
꺼는
끝남
날인데
날리는
높은데
달랐
도우
돌이
만하지
많기는
말라는
망해
먹겠네
먹기는
멸망
못갈
무뚝
뭐하지
미식
바를
박효신
발랐
밤에도
백퍼
벌크
법칙
베스킨
별명
볼거
불매
브이
비와
사직
사니
사올
사기도
삭발
소울
소홀
수백
슬램
습하고
시시
시티
쐬고
아랍
안썼
안가는
안한다고
알면서도
얇게
에혀
에엥
영구
온거야
옮기는
옮기고
외우는
요금이
욕하고
원이야
유류
이때
이식
인근
일러
자라서
잔다고
잘된
정수기
제습
종전
종목이
중에서는
증거
지을
지날
지렁
지들이
진한
찍었는데
참신
참기름
찾았
체리
캄서
캘리
코스로
키위
탄다고
테런
틈이
하데
하겠는데
학과
화난다
흐려
흘리고
##인다고
##아침
##나니
##트맨
##속으로
##난리
##즈는
##무섭
##면에서
##국수도
##드니까
##일때
##일까지
##기라도
##었냐
##화된
##할지도
##스티
##대고
##셨구나
##셨겠어요
##브라
##였더라
##영화가
##금지
##왔네
##것보다
##바위
##파가
##항공
##84
##차에
##생에
##함도
##잔데
##렸던
##번째
##선물
##링도
##쓰기
##량은
##놔야겠다
##쉬엄
##랍니다
아니겠다
그렇다던데
게임이랑
게임인가
있는건가
들어감
힘들진
나오겠다
시간에는
알아봤어
알아보면
오래오래
별로라고
이상할
나가자
나왔었는데
아프니까
아프잖아
알려줘야
가능해서
추천해줘서
보내자
좋아하던
먹을거야
몰랐네요
놀러가서
무서워해
선생님이랑
거기서는
위험한데
따라하는
알지알지
행복을
여러분
좋았고
어어어
없을거
살고싶어
아쉽게
다녔었는데
먹어야해
받았던
예쁘겠다
마지막이
결국에는
가게에서
헤어졌
느껴질
전기차를
생긴다고
감사하게
자세하게
상황을
잘생김
만든거
패딩을
면허증
스키는
육군으로
집값도
힐링이
않는다고
부대에
갔을때
지방이
우산을
소개팅은
기준을
18세
전자레인지
스케일이
걸린다고
안될까
외국인들
설명해
의사생활
그날은
막히지
매운거
선선하고
##좋아해
새끼를
백화점에서
재미없을
환승연애
장소가
많아지는
사무실에
골라야
어릴때부터
목표야
##버렸지
어이없다
버티는
없애는
스위트
아끼는
찝찝해
고추장
조개구이
바꼈어
수족냉
신경써야
인테리어가
원피스는
스몰웨딩
땅따먹기
브런치
메이플스토리
쉬엄쉬엄
복불복
강형욱
무뚝뚝
슬램덩
5000원
CG
SK
가늠
각오
간판
갈등
갑작
거인
경량
경주는
고지
구라
군산
군악
그럭
그랜
그사람
기기
김치가
논문
당함
덩치
데에
데스크
될것
드문
드시는
딱이지
때를
로그
룽지
리메이크
막는
만병
말년
말세
맞나요
물린
뭐하나
미뤘
미디어
밖을
밖은
받네
받을까
방을
벌자
변요한
별개
보복
보석
불쾌
붕괴
붙으면
비난
사와서
삼일
서현
소원이
솔깃
수습
수색
쉬니까
식이
실외
싫긴
써야겠다
썼다
쓰러지
아인
악세
안와
안추
안나요
않도록
알지만
알겠는데
없는거야
여고
여주인공
예식
오백
옷이랑
외에는
용어
울렁
으음
이디야
인당
일이라
잡았는데
잤는데
장작
쟤가
전교
젊어서
정석
조끼
좀따
좋당
주근
지출
지불
지르고
지쳐서
지났어
진입
집행
짱구가
책으로
초중
최선
출전
캐쉬
코는
큰아
팩트
평창
폰이
하렴
하겠더라
한몫
한바퀴
했다더라
행위
화요일에
회전
##수야
##가니
##가격
##보신
##했대요
##이예요
##라이트
##도라
##트롤
##자동
##즈가
##하넹
##하겠어요
##병도
##었다던데
##돼야
##해봤는데
##해놓고
##네는
##신을
##비스
##진다는
##버리는
##동에서
##학기
##코드
##봤거든
##함은
##남매
##책임
##줬잖아
##허브
##뭐야
##곱슬
##11
##얼마
아니네요
아니었지
사람에
사람인가
생각한다
생각하자
여행가는
언제지
그랬던거
문제긴
문제라고
다행이라고
나가려고
우리나라에서도
만들었는데
버스타
사람들이야
대단하신
피부를
부모님의
어려우니까
일본의
보내려고
좋아하셔서
한국인은
무섭네요
싶은디
##적인거
살아있는
난리나
너희들도
좋은데요
보이니까
고생했다
티비가
치킨집
멋있고
##줘야해
해봐요
##었다는데
웃기던데
아쉽지
치료도
쿠팡에
학생들은
냄새나
기차타고
##해지더라
배송비가
헤어지는
해줘라
컴퓨터를
여친한테
해보신
카드가
포기해야
스타일로
아기랑
대출을
올림픽에서
대체적으로
없었을
느끼게
움직이고
심해지는
충분하지
걸어다니
시술도
국민의
부대에서
계약을
주사를
인스타로
숙소도
만큼은
나아질
다행히도
좋겠음
다리에
무엇이
우유랑
아플까
1차는
걸린대
혜택을
잔인해
다이슨
다녀와야
미래에
미래의
돌아다니면서
기업이
공감해
체육대회
혼자서도
콜라보
사교육이
부지런한
사무실에서
제대하고
베이킹
제목은
습관을
##센터에서
보조제
방역수칙
남자애들
종합비타민
외롭지
하얀색
엄두도
강력한
이정도면
노란색
패러디
더럽게
나이들면
신분증
꺼냈어
##마저도
한적한
부조리
여럿이
공모주
온몸이
케이블카
단호박
이슬람
환경오염
1로
2는
2대
4주
4층
5배
75
7월
SRT
가나요
간다던데
값은
거였나
걸러
게이
겨드
견딜
경대
공략
과태
구구
국군
군필
금수저
기한
기왕
길치
김준
꽃다
놀라서
닫아
담엔
대용
덕분
동전
두뇌
드신
딱이다
리프팅
많잖아요
맘카페
못하니
묶어
뭔들
밀웜
박람
받으려면
방식이
뱀은
보스턴
복지는
붉은
비를
비번
비판
비주얼
빌라는
상대로
새거
소심
수시
술만
쉽진
슈가
시세가
싶구나
싶었어요
싸니까
쎄서
아옹
안날
않습니다
알겠네
알겠습니다
영통
옆으로
오매
올렸어
외할아버
욕조
위장
이시
인삼
인쇼
일주
임금
자차가
장발
저한테
전골
전자기
전단지
절친
젊었을
정리가
제때
쪼꼬
청주
체코
초보자
촉법
카타
카지노
타다
타잖아
파이
파는거
퍼스
풀리는
하얘
해소
형성
호주는
화성
흑역
##관계가
##보는거
##지겠다
##로리
##잖여
##안해도
##타이
##는대
##면은
##리던데
##일리
##었었어
##한걸
##감기
##셨던
##마넌
##없나
##억이
##되니깐
##우도
##재를
##것다
##먹는다
##모도
##길은
##받지
##림도
##멜로
##쯤이면
##간의
##세로
##삼촌
##꽃이
##엇는데
##방학
##칭이
##베이
##맛도
그래봤자
그러길
그러려나
있어야겠다
그거지
하는것도
좋은듯
영화지
엄마표
나오게
먹고싶네
아무렇지
키우다가
가족한테
다녀오는
그럴때
있는데요
신기할
중요할
안되겠어
가능성
알바할
나온데
아파트를
시켜도
하루라도
받아요
가야할
들어가도
들어가는데
나오는지
연애하면
유명하던데
올라야
##한다며
만화야
누구를
뉴스는
아니라면
커피숍
따라갈
봐야해
하자나
해보고싶어
보이잖아
멋있는데
생기니까
당근이
서로의
좋았나
달라져
시키는데
같아서요
##었다며
사용해서
사용하지
예약해서
정신차
##이긴한데
나름의
먹어야겠네
야구를
##었던거
가져와
방법으로
따뜻해서
큰일나
하시던데
기차도
귀여워요
현실적인
해줘도
예능에서
사라졌어
태풍도
확인을
기름진
차이를
없었고
없었거든
##할때도
진심이야
응원하고
속상하네
배구는
충격이다
에어컨이
좋아하지만
가입해
담배도
결정을
초딩들
어이없는
범죄가
독립하면
결과는
이상형이야
반찬이
다이소에서
199
예민해서
여기저기서
60대
멋진데
유산균은
우주선
한가득
피씨방에서
시설도
애견카페
극혐이야
선크림은
하셔야
조합이
무난하게
따듯한
잃어버린
무궁화호
기후변
쏠쏠해
타이밍이
신호등
드릴게요
해피엔딩
이만저
전력난
장바구니에
##ㅈㅈㅈㅈ
유아인
보라카이
사회복지
여자배구
웰시코기
cctv
주근깨
겨드랑이
37
5층
sk
ㄱㅋ
가둬
가뜩
갈꺼야
갑시다
강아
거겠죠
검찰
것까지
계셔서
고혈압
곳인가
광명
귀차
기자
기겁
김동
까진
꺼임
끝이지
나락
나음
나란
낚싯
남기
남한
났나
났잖아
내다
내는데
놀게
높다
다하고
달이
당일에
댕기
덮어
도도
독도는
돈이나
되려면
뒹굴
듣기로는
디스
땀도
뜨끈
류준
류승
마녀
마리가
만지고
맘스터
맞벌
매워
맨몸
맴찢
머라고
먹거리
모셔
무단
물멍
뭔지도
미치는
믿기
믿음이
밀린
박명
배정
변화를
본가에
볼수
뵈러
부어
붙을
붙여서
비율이
빵이
뽑았어
사원
사봤는데
손잡고
수성
순살
신사
쓰이는
아미
아ㅠㅠ
아스트라
앱에서
어버
없제
엠넷
역에서
연주
예산
오븐
오겠네
옷장
완치
왔던
원해
원전
유효
유지가
육준
이기고
인하
임용
있기도
있거든요
자자
자잘
자니까
자라는
잘지
잘했나
잼나
적을
전우
전형
정우
정하고
조율
종영
진격
질환
차면
차갑
처남
추우
칼슘
케미가
테라
팀원
펀치
품종
풍경이
피자는
하원
하겠네요
한살
한가봐
허무
허위
형식
호랑
##개도
##가든
##만으로도
##보이는
##사나
##겠더라구
##구려
##잖앙
##데가
##때매
##상식
##시던데
##주라고
##하겠네요
##하겠습니다
##리단
##기보단
##밥도
##장한
##해가지고
##대야
##대랑
##마가
##마이
##비인
##료도
##매트
##적이라서
##랜드는
##체크
##철이
##슴다
##쪽에서
##줬다
##반찬
##4일
##텔라
##놔야지
##캐슬
나는거
우리애
사람이나
생각하긴
그거보다
지금의
오늘만
들어봤지
영화들
영화보고
괜찮게
나오네요
해야할까
운동복
운동이나
##해야죠
남자를
다니니
했어도
재미난
문제임
이상으로
없는지
병원가서
고민인데
고민이에요
누나들이
좋아하진
좋아하는지
올라오고
다르니
해외직
끝나도
뉴스에도
스타트
최근엔
키워볼까
인정이지
먹었으면
보이게
이사할
멋있었어
내용인지
달라지
근처라
군인도
결혼식장
필수템
예약은
정신과
된다구
된다더라
된다니까
캐릭터로
피곤하면
짜증난다
유행이야
방송이
지내지
지내면
고기랑
자취를
자취하는
보기에
않은거
데려와서
미용실은
주차가
선택했어
마시러
검사도
똑같은데
경기장
편의점에
맞았대
마트는
부동산은
안가봐서
움직이면
눈치를
바쁘고
바쁘네
때문인지
##해주세요
에어컨을
카트는
수능이
지방에
하셨나
지켜보고
끝났지
축하한다
해외여행은
커플링
유지비
##시켜서
팔아도
식단도
우유도
삼성페이
안타깝네요
순간부터
사업을
250
19금
사료를
작품이
아이템을
실화야
어마어마하게
신혼여행은
패키지로
화나네
색깔이
면역력이
전동킥
파리바게
천재지
##다면서요
컨디션이
놀랍다
줄줄이
무기력
신뢰가
핑계로
실업급여
나혼자산다
호호호
워라벨
기안84
11번가에서
갱년기
산부인과
동물농장
이맘때
트렁크
그럭저
가뜩이나
1은
3배
3층
52
6명
700
8명
LG
감기도
개부
개성
개통
거얌
거라면
거였구나
게하
계시지
고발
관찰
광팬
기쁨
길드
까먹어
깨는
꿔바로
끄는
끝냈
나으려나
날을
남산
낯가
놀면서
놓지
느는
늦을
닦고
달이면
달라는
대가
대고
더우니까
돈독
돈이라도
동원
동결
드리면
뛰어서
만보
만오
만점
말이네
명예
몇달
목이랑
못키
못먹어
무술
묻는
민초
발품
발목이
방도
방충
버리지
벽돌
보더니
봄도
뵙고
부여
부추
뽀글이
뿌리는
사육
사유
살잖아
살기도
상한
색상
샤오
섬세
소매
손은
숨을
쉬다
시체
실비는
싸는
쌓이면
아토피
안이
안감
안다고
압도
얻고
얼려
없데
없자나
없으신
엘사
오신
오겠다
오셔서
옷들
요리는
위치는
유익
잃는
자르면
잘되면
정글
정년
졸잼
종아리
주시는
줘봐
질주
징징
치안
컨트롤
코인이
코스가
킬러
타워
탑승
통에
파우
팬클럽
피피
하다고
하겠다고
한문
한명이
해방
후다닥
흑돼지
##인에
##인들은
##가입
##보조
##나야
##니즘
##상황
##치네
##시더라고
##단에
##희가
##리언
##기보다
##르네
##병에
##었데
##티도
##전에는
##셨다
##족발
##영은
##냐에
##바케
##먹는데
##교시
##법은
##줬음
##놓은거
##짐이
##bs
##눈물
좋아좋아
우리를
같은건
힘들었나
영화랑
괜찮겠네
여행이지
여행하기
얼마인데
나오자마자
아이패드
정도인데
군대로
##하다보니
회사에서는
비싸대
그때로
그럴게
예전만큼
좋겠다는
필요성을
신기해서
되는건가
백신맞고
얘기해줘
시작도
어려웠
시켜주
시켜야겠다
보내야지
받아야겠다
준비도
미국이랑
음식에
물어봐서
좋다좋다
올라왔어
이름이야
살아요
난리임
##였어도
##봐야겠어요
다르더라고
##이었고
놀러가고
맞는지
누구는
해주니까
이용진
고마운
소리만
외국에서는
미용사
말하는건가
고생을
고생이다
등산하는
티비도
멋있어서
취업은
선물해
생기기
생기긴
안나가
괜찮은가
##었다네
마자마자
정신을
직장은
할인을
영상은
아쉽게도
할머니한테
예쁘다고
인생에서
느껴져서
생긴대
되어있
노력하고
간다며
피부과에
경험은
상황에서
괜찮을듯
했다며
호텔도
인테리어를
받은거
중간중간
넘어가는
것만으로도
만났지
용돈을
자식들
그림이
이불도
뛰어내
다녀왔어요
떡볶이는
식단을
무엇인가요
메이커
본인도
전공을
안된데
야식으로
대통령은
하이틴
최악이다
선선하니
키웠었는데
할아버지랑
오빠야도
최저임
포인트로
복잡한
##해졌으면
TV에
인도에서
혼자서는
필라테스는
많아지면
누워만
의견도
의견을
코스프레
##엄마가
안마의자
소형견
유투브로
애교가
아직까지도
suv가
시청률
꿀잼이야
자매가
카라멜
대단하시네요
신박한
가해자
김종국
오타쿠
작은엄마는
##공포증
글쿠나
동백꽃
분홍색
차승원
배멀미
눈썰매
쇼트트랙
블랙위도우
캘리포
퍼스널
그럭저럭
1대
2리터
49
5시에
8살
dp
가이
가습
가동
강국
객관
견뎌
결승
계세요
공감이
그에
그른
급할
기승
까만
꽃을
끊임
남긴
내야지
너구리
넘을
네모
놀지
놀리는
농촌
농협
놓쳤
늦었어
다리도
덩치가
두툼
드레
듣게
따위
따르는
딸을
라운
런던
로마
맞지만
먼지가
못봤
못가고
못봐서
무드
물량이
뭔지는
발야구
번쩍
벌어도
법이지
베네
별명이
복학
본게
본대
볼보
봤지만
뷰가
브리
사세요
사이는
산다는
쉬게
스폰
신인
썼던
씨가
씻기
씽씽
아디다
안일
안막
안자고
알로에
애로
얍얍
없었잖아
엘레
여기로
월차
유자
육상
응ㅠㅠ
의학
이적
일한다고
일해야지
있단다
자면서
잘라서
재질
저작
종료
좋지는
좋으세요
중이라고
지식
지붕
질리지
차릴
챙겼어
추첨
출입
치더라
코알
크는
클리
터트
특가
팀을
파견
페이지
표시
푸른
풀어야
피할
피하고
하도록
하려니
한당
할수있
해제
호러
혼수
효자
흥분
희안
##인간
##가며
##보긴
##상담
##시니
##주던데
##리만
##장갑
##셨다고
##으나
##였죠
##였다가
##디는
##영수
##오가
##프가
##회에
##파이터
##조사
##줘야겠다
##렸어요
##휴직
##킬로
##플렉스
##합시다
##피가
##반에
##뿐이야
##듣는
##될지
##잡을
##둬야지
##짬뽕
##웹툰
너무나도
많이도
그러닌깐요
그렇나
사람이다
생각없이
##이라면서
친구의
괜찮아서
괜찮네요
여행지는
시간이면
아이허브
알아야지
먹어보자
가고싶은데
키우잖아
키우던데
겨울이니까
문제지만
빨리빨리
이상한데
우리나라로
우리나라에서는
느낌이에요
드라이버
챙겨봐
아프던데
알려줄께
있나봐요
##스크가
시켜주고
##더니만
저번엔
들어가게
##하기에는
관리비가
노래만
귀여웡
동물들도
괜찮아졌어
기다린
너희집
보여줄
카페를
지나야
그만한
선생님들도
비행기로
이사가고
않았다
달라지지
해봐라
부산으로
퇴근길에
지원도
웃기겠다
저희가
##하시더라
##하시겠어요
11시에
예쁘던데
부분에
방송도
큰일날
생각나고
생각나네요
기억나나
기차를
기차표
빠르긴
데려오
직업은
안전이
주차도
올랐으면
걸리게
많았어요
자신감이
화장실을
화장실은
마트도
답답할
안가본
온라인에서
요리하는
김치도
취미생활
집값은
인간은
배구가
경찰서
고맙네
하셨죠
눈썹이
결정해
이불을
책임질
무리해서
애매해서
가족들과
충전소가
익숙해
주위에서
갈게요
당첨된
모더나가
빌려줘
쌀쌀해
다녀오려고
돼지국밥
능력자
대학생들
경기도는
처벌을
냉동실에
베이비
샤워하고
흥미를
장마가
작가님
아래로
개웃기네
무난한
경력직
고쳐야
화려한
트레이너
구름이
길거리에
주유소
불이익
하울의
후유증이
합리적인
적극적으로
이영애
호불호
미성년자
넷이서
별의별
사슴벌레
풀옵션
비린내
따돌림
수험생
히피펌
오리지널
아이오닉
커뮤니티
꽃다발
7천
8천원
RO
가네요
가려나
같잖아
게시
겪고
경차는
곳이면
공급이
국악
굽네
꿀잠
낙지
남미
남들은
녹아
놀았지
높을
느긋
당겨
던지는
덴마크
돈이면
됐던
때까지는
떼고
또는
뛰면
라켓
만지면
많자나
말했어
맡은
매너
매장이
맥심
맨유
먹거든
멋지지
메리
묵고
문열
박혀
베테
보거든
복습
불과
비글
뺐어
사기는
사줄까
샀대
새는
색은
성희
성매매
소비를
수비
수액
수칙
쉬워서
시사회
실수를
싫대
싶거든
쌍둥
아점
아녔
안했
안한지
알겠어요
약만
약사
어몽
언급
언닌
얼핏
없구만
열도
였나
올바
완공
유격
유머
육성
이내
이었어
인가요
일리
자금
자리는
정한
제이
주자
지들
진리지
집엔
짜면
짱인데
차이도
참견
첨부터
총리가
카운
케바케
코너
탄다
탈까
태우
한심
한거지
할일
핵심
허리는
호갱
혼나고
##가지가
##관리를
##어른
##이런
##이구만
##라임
##있을때
##무진
##시겠다
##하더만
##서울
##의로
##요거
##었더라고
##꺼에요
##달이
##스탄
##대나
##대비
##감자
##소스
##으셨어
##브랜드
##였는지
##던가요
##진않
##포도
##근육
##정류
##되면서
##같네
##제네
##부에
##부장
##터리
##먹는거
##카로
##경을
##센티브
##내내
##님들
##플립
##씩이나
##간거
##세에
##피언
##방으로
##찌가
##엘라
##많아서
##맣게
아니었네
같은것도
들어봤어요
들어왔는데
힘들겠지만
영화였어
괜찮으려나
여행에
여행하고
무슨일이
결혼하니까
코로나랑
##인가보다
키우기가
가족모임
그때만
공부한다고
별로라
있을껄
찾아가서
사고로
있었다니
만나야지
시작이야
##시간도
가능함
자기를
가격대가
좋아하더라고
최고죠
들어가나
생활에서
##있어도
나라들이
살아본
쇼핑이
부럽긴
맞는게
교육의
애기야
자격이
유튜브가
생겼더라고
이사갈
않았고
기대되는
달라졌
달라졌어
이쁘면
배워야지
예약해야
정신병
쇼핑몰로
연예인도
2차도
##볼게요
좋긴하지
생긴거
보기에도
##적이더라
새벽부터
프로그램에
프로그램도
선택해서
자체도
자세한
화이자는
아저씨도
해결할
안가도
올림픽은
대부분이
약속한
이모네
##었을걸
만났네
힐링하고
우선은
배구선수
고맙다고
숙소를
불러야
담배는
젊은이
맞추면
맞추기가
문화를
사망자
볼게요
까먹어서
했을걸
액션이
1차만
빨래는
##드려요
로망이야
실패한
키웠던
돌아다니면
기업들이
포인트가
그쪽에
그쪽은
네일샵
배운다고
매매로
초대해줘
남동생이
크리스마스에
과목을
크아는
재료가
놀라워
놀라운
잘라야
오프라인에서
SUV가
구조가
길고양
죄송합니다
평일에는
어두워
수도권은
후라이드
스쿼트
수강신청
안본지
2박3
녀석들
배불러
매콤한
주머니에
전남친
장례식
카투사
바탕으로
안그러면
해바라기
사투리
조승우
치히로
재채기
손예진
선착순
슬램덩크
진격의
성희롱
1인가
9시에
bts
cg
간식이
갈아서
감흥
강도
같구
것과
겠네요
공지
국뽕
그루
그놈
꼭대기
꽃보다
꿀이지
나비
나까지
나은거
날마다
남고
낳기
내성
내집
낼은
노랑
노숙
높으면
누난
늦기
다리를
다치고
대도
더웠는데
덕후
덥네
도구
동상
동화
되겠
되겠더라
두통이
드실
뜨끈한
롤도
많냐
말릴
망하는
맞냐
맞더라고
매점
멀고
몰러
못들어
못했을
무작
물리면
뭐만
미혼
밀양
바라고
발도
방식으로
백두
밸런
벌지
벌초
벌었어
벗을
보려구
복근
불시
붙는
빙어
빙고
샀었어
선명
세무
소변
수요
수를
수치가
술래
숨만
스캔
스탠
시동
시범
식량
식사를
쓰더라고
아에
아시죠
안재
안주고
않겠네
애한테
양조
어필
어젠
여주
여왕
역류
연계
예외
오다
오류
오만원
오시는
올때
올겨울
옷이나
왕자
외근
왼쪽
요플레
원도
원치
원짜리
유해진
이의
일일이
장을
점을
점핑
정리도
제안
젠가
조급
좋기도
주간
준거
줄었어
짱임
찍음
착해서
채워야
체질이
춤추
치와
치울
친근
침해
커져서
코로
코를
큐브
타일
탱크
턱에
통일이
통증이
팬들
편견
편이네
편지를
포뇨
폭로
폰에
폴더
풋풋
하드
하겠습니다
한의
할줄
했자나
호감
후원
후기를
##보라
##보트
##했어서
##나두
##거등
##하듯이
##기준
##르니까
##었겠네
##rt
##전공
##신도
##스런
##소득
##맞어
##엄청
##버스는
##되겠어
##되겠네
##되었으면
##공주
##우리
##본데
##부를
##역으로
##먹어도
##계란
##체를
##80
##름이
##끼는
##력으로
##세척
##써야
##줬대
##둘이
##벼락
##TC
좋아보여
그런걸로
그렇더라구
있는걸
있는지는
같이하면
힘들걸
영화배우
하나보다
결혼해야
기억하는데
다니긴
다니기도
다녀야겠다
있을라나
나왔구나
나왔다던데
버스정류
얘기하는데
얘기해봐
시작하자
시작하려고
추천좀
고민은
고민되네
좋을지
중국으로
애들끼리
들어가니까
연애하는
어렵겠다
부럽당
사랑에
갔다와
보여요
보여준
재미있어요
그만하고
그만뒀어
선생님들은
전화는
인정하는
이사가면
아까움
멋있을
전세금
없이도
보러가자
낚시에
시키자
수영복
##었다더라
수술이
##었나보네
##이긴해
지원이
지원해주는
주문할
내려가면
구경해
구경할
교통도
웹툰이야
영화관이
영화관도
같던데요
일어나야
인생샷
생각나지
자유로워
보기에는
노력하면
미용실에
편의점은
국내에서
답답하다
평생을
조카랑
약속을
수학을
많을걸
비타민도
성형외과
전쟁을
배구도
충격적인
음료도
근무하는
그림체가
취향에
깔끔해
파마도
놀아야지
카카오페이
유지하는
유지비가
거북이는
애매하네
애매하긴
충전소
익숙한
공간도
건물주
##드려야지
발전이
스펙을
사주려고
오빠야가
대해서는
걸렸는데
정치에
감자튀김
다운펌
포장해서
다음주부터
발생한
발생하는
검색해보니
성적은
강남에
독감처럼
시끄럽고
보낼게
1인당
소화제
스위치
종이의
정책이
괜찮았어요
도둑들
쳐다도
포켓몬스터
정기권
무신사에서
##선생님이
중고나라에서
초콜렛
아닙니다
일회용품
지겹다
진로를
짜릿해
비온다고
트렌치코트
브랜디
브랜드는
장도연
그릭요거
워킹맘
멍멍이
어무니
하이브리드
농작물
엠비티아이
쌍꺼풀
류준열
엘레베이터
2등
2편
4차
65
ㅁㅈ
가셔서
감정을
강원
같앙
같구나
개야
개벅
거랑은
검증
경고
고질
고작
고기만
공원이
교감
궁합
궁굼
기울
긴데
길렀
깜깜
꽂아
끊었어
끝에
나였으면
나돈데
난대
날리고
낫네
넘기
다낭
달만
던데
돈에
되겠는데
되겠나
된거지
될지도
뒀어
뒷산
듀오
드렸어
땄지
떨려서
뜨던데
렌탈
루지
말하는데
먹더라고
몸치
못된
못봄
무식
무소
무제한
묻고
물풍
뭐에
미지
바글
반만
밤을
밥에
밥솥
배타고
뱃살이
변해
별별
보유
봤죠
봤겠네
분담
붙잡고
뷰티
빼야지
사갈
사는거야
사가지고
산악
선발
설문
성능
세련
소통이
속은
수선
수요일에
슬쩍
시각
식감이
싫지만
심어
심석
싱글
싶겠다
씻으면
아스
안개
안양
안봄
안가서
안하려고
안그래
앉을
않구나
알겠더라
애인이
양꼬치
억지
없더라구요
오면서
온다는데
올렸는데
요런
이승
이종
이잖아
자요
잠실
잡히면
재판
잼있
전직
절실
제설
조세
좋대요
주라고
죽일
준다던데
줄었다고
줄이기
지우고
초과
축소
충돌
카리스
코앞
쿠션
타는게
태권
털도
트램
티도
파산
팔도
패밀
포스
포근
하반
한게임
함정
허가
헌병
현상이
현장에서
화살
##만명
##원이야
##나온
##이게
##이기는
##았다가
##테이
##주신
##하믄
##민은
##요리
##친다고
##꺼면
##달아
##전화
##스틴
##대의
##셨음
##브루
##루나
##연기
##갑니다
##났지
##오는거
##져야지
##공사
##배가
##광고
##바글
##회사는
##파도
##임대
##경찰
##봤음
##모습
##생은
##받았
##잔아
##맹이
##불이
##갔던
##남이
##권에
##히지
##샤인
##베리아
##PS
##랗게
##밤에
##pg
##봣어
##BA
##됩니다
너무했다
그러려면
생각났는데
지금이랑
##들이나
오늘까지
거기만
하나지
아이쿠
군대가면
해야되는데
코로나땜에
운동하러
가서는
기억나요
언제인지
남자라
공부나
머리만
생각해보자
싫어도
느낌이다
사람들과
중요하고
집에서만
아프기
고민도
좋을꺼
시켜먹어
서울까지
학교다닐
준비한
제주도를
제주도라도
주말도
돌아온
무섭잖아
무섭던데
연애할때
어렵나
해외를
얼굴로
영어유치
선생님을
어디서든
외국에서도
키워봐
가까우니까
멋있다고
생기는데
##한거는
같애요
서로가
미안하다고
보험금
퇴근은
사용이
이러지
어쩌나
추억이지
없을거야
없을텐데
만들어야지
사야하나
기본이야
기본이지
내려가는
교통비도
웹툰으로
구매했어
해봤니
아픈거
도전해보고
데려왔
꾸준하게
1500원
아쉬웠
많았나
자신을
호텔에
아기들
도시어
만든다고
감독님
없었대
마블영화
심해진
정리하는
불안한
사촌들이랑
집중력이
에어컨도
투자하는
시끄러운
신발이
자식을
스토킹
시대를
타이틀
깨끗이
틀어놓고
어린이집에서
돌아가신
익숙해서
시급도
닌텐도로
다녀야겠어
대전은
말씀드려
반찬은
어딜가나
은행나무
키운다는
200만원
사료도
##것같다
휴양지로
늘어나서
살인사건
단발로
여동생이
플레이스테
재난지원금으로
상처가
프로게이머가
바꿀까
욕심은
검정고무
버디가
스피커
관절이
왜냐하면
평일엔
규칙적인
삼촌이
화목한
천만다행
그래픽이
주먹밥
##상품권
대책이
크루즈
##티비티
두렵다
난이도가
##다이빙
시트콤
미어캣
아따맘
영환데
최곤데
야놀자
누룽지
시나리오
포장마차
전동킥보드
끊임없이
불시착
2위
59
8억
8개월
NBA
가비
간도
간병
갈거
갈려면
갔었
갔는지
같으니까
거지만
거같아
걷어
결재
경각
계실
고학년
고모가
공차
공약
국대
그죠
기피
김은
깨닫
꺼지
꿀이야
끼니
나빴
나이야
낙이
넓게
넘었지
노르
노려
느려서
답장
당직
댕겨
덥던데
됐더라
되기는
따른
따숩
딱이겠다
뜨개
뜯고
립밤
마누
말해야
말라서
맡길
무책임
물량
뭐하게
뭐부터
미룰
미백
믿음
바뀜
법은
별도
본것
봄이랑
봄에는
봐줄
부인
부들
부리
부리는
분류
불을
붙이면
브로
비지
비둘
빌보드
빛이
빨갛
빵을
뻔했네
뽑은
뿌염
사기를
사거리
산도
소질
소액
속도를
수컷
식초
신라
신는
쌓여서
썼네
씻어야
아역
아슬
아닠
안은
안심이
애틋
양을
억새
영광
오올
오니깐
요일
운치
의류
이물
인자
인제
인기를
인물이
인센티브
일방
자원
자라고
작으면
잡지
잡음
전만
점령
제사를
조성
좋진
좌우
주는게
준수
줘요
지점
지바겐
집인데
쪽도
차려야
초기에
총으로
추움
춥게
치질
카누
큰애
클라스
타긴
퇴원
튀겨
팔로우
패치
평등
포천
폼클
프사
피하는
하우
할라면
핫하던데
해놓
했는
했제
후보가
흔치
##가니까
##가다가
##사태
##아래
##아닐
##어때
##용도
##라요
##트에
##있는게
##안하면
##즈도
##시장이
##하겠
##기술
##잇어
##려나요
##해달라고
##할수도
##달라는
##감염
##마요
##마귀
##마스크
##료를
##났네
##났대
##포로
##정돈
##우면서
##부족
##조리
##두지
##후로
##철도
##그냥
##살도
##열차
##너비
##세상
##입은
##갔잖아
##둘게
##표를
##효과
##챙기
##봉지
##블루
##댔나
아니었던
많이해서
좋아지면
우리오빠
그러겠네
그러더니
##으로서
그거면
##들이네
좋은건
좋은거같아
들어간다
힘들거야
모르냐
친구처럼
괜찮더라구
그렇게도
하나쯤은
얼마지
얼마인지
시간과
##는거죠
##는거네
##는거같아
아이에게
다른게
운동하면서
##하다보면
##이다이
그러니까ㅠㅠ
가고싶은
남자야
남자의
키우니까
1000원
가는지
다행이고
싫어해요
만들었대
있었죠
있었나요
가을이니까
얘기하더라
나온지
보내지
보내서
애들하고
나오는구나
생활의
나라들도
기다려서
주변은
영어랑
재미있어서
지나도
불편한데
해주던데
출근해야
산책이
외국도
동네에도
전화하면
축구선수
먹었엉
않았니
이쁘더라고
잘못했네
배워보려고
거래처
##어가고
지원해서
할인쿠폰
다녔잖아
##하시다
캐릭터들
캐릭터들이
가기엔
교통비가
반려동물도
에이스
주식에
영화관을
##이었어서
방법이다
어울리지
신청할
구매한
100명
생각나더라
해봤자
어머니한테
##적이게
데려온
미용실도
물건은
안전을
않을거
올랐네
확인해봐
시즌3
15000원
업무도
국내도
요리사
챙기지
움직여서
중간에서
출퇴근이
매력을
이쁜거
사촌언니
슬프더라
가입해서
가입하면
그대로야
아이돌은
비교도
이동하는
있다는게
사과를
안먹으면
##하셨나요
똑똑해서
추가해서
보호대
빠지게
빠지더라
살았지
과일은
블랙헤
모아야지
해줄래
혜택도
오토바이를
세금으로
장면도
원룸은
일상으로
서비스로
렌트해서
유산균도
바르는데
행동이
좋아졌네
우주여행
아내는
손님들
현대에서
보상을
골라봐
좋아지긴
높아져서
##회사에
든든하게
역세권이
아줌마들
양념이
떠나자
즐거움
회복이
한의원에서
미루는
개웃기
먹으려구
어지러워
자영업자
사오라고
칭찬해
드론으로
로봇청소
바디로션
비오는날
알레르
인공지
엑스레이
실시간으로
예뻤어
대량으로
자연재해
##무서워
송중기
재작년
전참시
일종의
소아과
샤인머스
장학금
테일즈
피규어
카니발
호기심
벌크업
박람회
카타르
육준서
ROTC
플레이스테이션
3D
6시간
가계
가정이
간다더라
건성
걸그룹
공사를
구축
군번
규정이
급해서
기반
긱사
김우
김정은
까페
깔면
깨지
깨서
끊는
끌리는
내보
내돈
내과
낼부터
놀라고
놀아서
놈이
눈감
닉네
님도
다쳐
도매
돌릴
동선
두기
두둑
들여서
따끔
따지는
따지고
떡갈비
뜨자
말인
매장에
먹는거야
모의
무덤
문세윤
바뻐
법과
벗는
베이지
변하지
보편
보완
보냄
보도록
보시나요
불만이
비리
비켜
사니깐
살어
살벌
상어
생크림
서리
세입
셧다운
솔솔
숏컷
순정
술자리
신장
신형
실명
쓸게
씻을
아트
악몽
안살
암기
얇아서
얘길
없겠지만
역이
예스
오복
오스트
옮겼
울음
유인
유발
으른
이럼
이차
인권이
있거나
잘모
잘하시
잘했을
장에
장미
저격
적자
전사
전파
정호
정치는
정리를
제도를
조마
졸음
주관
주기로
주사가
주가가
죽었다고
지배
지에스
직빵
짐승
집순이
초음
출동
춤추고
치나
캬캬
켜서
클릭
클수록
투블럭
파인
파고
펴서
포스트
푸드
풍선
한통
항체
해적
향기
호프
호주에
확대
황리단
훼손
휴스턴
##인뎅
##보려구
##안가
##걸음
##을지
##다니깐
##무지
##시러
##시라고
##하겠지만
##하겠죠
##하려니
##서클
##드렸
##드렸어
##기두
##장이야
##문자
##전에서
##한것
##여정
##브이
##포가
##정하고
##청에
##제에
##러그
##먹게
##싶네요
##조아
##조끼
##코스
##코스터
##통수
##함께
##그렇
##링클
##햇어
##박한
##갔어요
##책을
##샀는데
아니라는
많이해
하는듯
하는지도
재밌는지
힘들구나
##라고는
괜찮니
무슨소리야
얼마를
없어지지
언니들은
군대서
군대가서
해야하지
운동해야지
회사야
##해야할
##해야겠어요
키우다
건강식
건강보험
여자로
여자한테
처음이
다녀본
공부하려고
별로지
별로일
그럴려면
무서웡
우리나라보다
배우는데
병원에서는
안되니
아침저녁
가능하고
가능하니까
추천한다
알바하는
사실이
자기전에
나온거야
가격으로
서울에는
서울에서는
하루를
좋아하시나요
준비할게
가야죠
나이스
##하기에
음식으로
어릴때는
생활하면서
올라올
귀여웠
떨어뜨
다르겠지만
쇼핑할
기다렸어
##보자고
재미있다
외국어는
미용은
##보는건
인정하지
서로를
낚시하러
군인들도
부산행
퇴근시간
배워봐
배워두면
사야하는데
다양하지
웃기노
웃기긴
잘해줘야
피곤하겠다
받았잖아
월급날
자연인
자연을
하면서도
못하겠어요
생각나면
바뀌지
모든게
헤어팩
일반적인
가르치고
컴퓨터가
주인을
되어있어
도와줘야
도와주면
나쁘게
개인주의
데려와
미용실을
직업도
올랐는데
화이자가
피부과를
경험도
똑같애
똑같아서
##교육을
힘드실
위해선
면허가
어려운거
움직여야
배고픈
많을텐데
많을수록
육아를
정리해서
데이트를
유럽에서
결제해서
후회할
만났을
경제도
쿠폰이
모바일로도
오징어게임은
신혼집
가보신
아이들에게
쓰레기를
공유가
공유해
상품이
주인공은
해외여행도
이벤트를
체험해
무시하고
좋겠따
좋겠습니다
까먹을
제한을
장르의
독립할
독립하고
농구는
순간이
외국인이랑
연봉도
문신은
강의를
휴대폰으로
햄버거는
##다녀서
디자이너
신세대
물어보지
그분도
기능도
콘서트도
비트코인이
주지훈
스트레칭도
없애고
감염이
강화도
나타날
한명은
닮았다고
스피킹
오버워
남자애들은
더욱더
어지간
까다로운
상관없지
땡큐지
부정적인
유니버
안심하고
매형은
산업체
오랫만에
##하려는데
기존에
들여다
머스크가
다크서클
분노의
민주주의
교도소
결론은
해장국
귀염둥이
손재주가
한순간
제2의
롤러코스터
후쿠오
고충이
아무데나
지코바
재입대
하정우
피어싱
도미노
캘리포니아
바글바글
아따맘마
47
5키로
9월에
9시까지
가드
가죠
가수는
간당
갔니
강쥐
같지도
개털
거든
거즘
거실에서
걸어도
겹쳐서
공휴일
광수
국립
군것
그곳
근래
근질
글렀
기원
길래
꺼면
나은데
낙곱
날이라
남은거
낳았어
네덜
놨지
눈높
대본
덩어리
돌림
동심
됐고
들게
때에
때에는
레터
말이가
말하니
맘껏
맡고
멈출
명령
무의
무인도
문득
물러
뭐할
뭐시기
미우
미생
미필
믿지
바쁨
병영
보겠다
보느라
복합
봐줘야
부적
불구
블라
블록
빅뱅
빨개
빨강
빼려고
뽑으면
살에
살긴
상여
생신이
서러
선행
섭외
성관계
세단이
수지
수동
숱이
쉬는데
승모
식상
실질
심하다고
심하대
싶었지
싸인
싸잖아
아라
안하는거
안하는게
않더라구
양육
어허
연기는
영수
오다니
온통
올지
올드
왜캐
용감
우기
울지
울었잖아
유분
일하지
일이라고
읽었어
임마
입점
입에서
있오
있습니까
자산
작전
잘하더라고
장화
장악
전인가
절레
제페
조치를
죽겠는데
질려서
쯤에
차선
채우는
챔피언
쳐봤어
총알
충동
치솟
친화
커요
퀘스트
큰가
태극
틀어도
팔만
편하겠네
하수
학업
학군
한박스
할일이
할때는
합기도
해ㅠㅠ
해줬는데
했나요
했잖아요
허걱
허리도
허스키
협력
확고
흘렀
힘으로
##만도
##보나
##보기로
##사자
##사단
##지면서
##어머
##했었
##했나요
##라지
##타페
##난데
##테니깐
##주문
##하곤
##산데
##더스
##ㅜㅠ
##국가
##올린
##일인가
##일어나
##기라고
##꺼같아
##스케
##으루
##영도
##진호
##준데
##준다는
##되더라고
##청에서
##과금
##같고
##프리카
##답게
##회전
##회복
##터는
##내려
##길도
##열은
##품으로
##링이
##커플
##꼬리
##줬던
##피트
##퍼가
##뒀는데
##찌는
##샵에서
##댔는데
##덩이
맞아ㅜㅜ
우리학교
우리때는
사람이지
##하는건가
재밌더라구요
이제서야
모르니깐
하나같이
얼마였어
군대의
해야될
해야하고
하지말고
10개월
10프로
해서요
날씨네
그럴리가
문제집
문제인데
문제네요
좋겠다ㅠㅠ
찾아볼
되는가
되는건
만나도
안되던데
안되네요
##했는데도
부모님과
##다니면
받아볼까
학원비가
생활용품
유명하긴
유명해졌
나라들은
살아야겠다
비슷하다고
만화카페
부럽지
한다더라고
남편분
시험에
재미있나
불편하다
불편해요
불편하더라
외국인이
##하자면
이유식
생겼지
아닐텐데
30평
고생한
점심으로
멋있던데
보다보면
당근은
내년에도
나서도
추억이네
대학병원
다닐때
스포티지
세계로
세계를
쿠팡을
짜증날
부담스러
감기처럼
지내야
나올걸
12만원
아픈가
영양제가
싸우는데
새벽까지
노력은
노력해야지
프로그램을
선택이
사라져서
감사하다
자세를
동안은
택배도
화장실에서
갈까요
올림픽이
비슷한가
아니냐구
챙기기
넣어야지
눈치도
비타민이랑
육아휴직
대중교통도
결제하고
먹은지
오르네
충격이야
##프로필
대구에서
둘째도
가입했어
토끼를
그림을
이벤트가
이벤트도
사과는
피자도
시리즈도
할게요
와이프한테
우유를
본인들이
알려주지
등록금
감동적인
웃긴데
외식을
레이싱
배울래
특이하다
세금도
즐겨야
즐겨야지
하나씩은
사주지
걸렸대
케이크도
거짓말을
자랑스러워
출신이야
용품은
장소는
아이유가
아이유는
능력을
매매가
모를까
초대해
기다리다가
어머님은
불가능한
미술학원
유재석은
170
시내에
시끄럽게
레이저로
번개장터
논산에
테슬라가
지났네
160
국물에
메타버스가
완벽하게
보조개
없어졌으면
장점도
부끄러
엄빠가
아우디
울고불고
화면이
어리니까
35범
블루베리
친절하게
##보이는데
불렀어
과거에
부드럽고
고객센터
탄산수
의문이야
번거롭
##느냐에
대책을
갈아타야
힘드시겠다
자국민
밀크티
철저하게
마사지도
오로라
편의시설이
으이구
##말라야
저출산
허리케인
오션뷰
이곳저
포지션
만병의
강아지만
방충망
검정고무신
승모근
제페토
3점
4명이
7일
8만
88
9호선
가늘
감명
갔었던
개장
개빡
걸렸을
견주
공홈
괜한
교실
교사가
구기
군면
권유
권장
그대
그레이
꿈에서
끓여서
나냐
나아서
낙찰
난폭
났던데
났었어
낭만이
냈는데
냥냥
놔야겠다
느린
다트
다해서
달력
달콤
데만
데워
도보
도덕
돋는다
두지
뒤져
등반
떨리겠다
뜯어서
마디
마셨는데
만질
많겠어
많더만
말린
말까지
머네
먹겠어
먹기가
먹으니깐
목살
목격
문젠
미끼
밀리
박고
반신
반항
반곱슬
받으라고
버틴
벅차
변이가
보넹
보셈
부쩍
불리
비치
비하
비키
비위
빌런
사각
사려구
살기가
샀을
색칠
생태
서포터
성수
세균
세우는
소장
술먹고
숫자가
쉬다가
스승
스텝
실은
실탄
심함
쌓아야
알콜
얌전히
양성
어라
없당
오천원
옥션
옷입
외삼촌
욕하는
용암
우비
원인데
원인을
유해
유쾌
육체
윤계
이이
이외
이놈
이거야
이비인
인맥
일병
일인가
자지
자이
자게
잘해도
저가
저냥
전이
전이라
전주는
전까진
정육
주휴
죽었을
지칠
진실
질병이
짱이
참으로
처분
척척
춥잖아
친목
탐방
태워서
터지기
털어
판대
평수
폐업
플랜
피해도
피자가
하겠어요
할부로
해독
해달라
허브
헬기
호두
황태
히말라야
##수준
##수있어
##개봉
##만을
##사탕
##사나이
##아니다
##했자나
##나네
##고양
##고요
##있거든
##된다는
##다더니
##자라
##치면서
##산거
##돼도
##장구
##해줬으면
##티드
##전이야
##셨거든
##마루
##오일
##버섯
##되기도
##되었다고
##역은
##터라
##맨이
##조를
##조마
##교사
##봤잖아
##봤지만
##길을
##류탄
##말자
##살때
##살이야
##실래요
##넣어
##율도
##책이
##줬어요
##삼아
##규칙
##위해
##뭐니
##효진
##폭탄
##뻔했어
##샴푸
아니겠니
좋아하게
재밌죠
재밌었다
있는듯
있는디
힘들지는
어디어디
여행이야
나오거든
없어ㅠㅠ
시간이야
시간이나
결혼하는데
싶어해
아이의
다른나라
알아보니까
운동신
회사들이
남자로
키우나
10주년
날씨다
다니네
대박인
그런가보네
배우들은
느낌이었어
원래부터
백신으로
시작은
안되겠지
아침도
아침을
많은게
시켜주는
사진으로만
보내기
궁금하지
먹을때
먹을수록
귀찮다고
인터넷은
##한다구
기다리기
기다렸는데
비슷하긴
만화로
프로그래
사랑스럽
재미있긴
불편했어
해주시는
무서워해서
위험하니까
따라하고
생겼나
고마워요
생기나
사이코
하다보니
생각이에요
사회는
사용하면
우리가족
저렴한데
##스타일이
내려오는
받았음
학생들도
골프장
감기에
신청하고
12시까지
느껴짐
자유롭
현실을
가르칠
싸우게
중요한게
물건들
프로그램이야
주차는
성공했어
부족하다고
심각한데
모르는구나
자세로
올랐다
걸리나
헬스장은
편해졌어
검사는
많았을
많았다
신고해
환경도
안가져
단풍은
움직이지
김치찜
바쁘면
재밌을거
육아에
정리할
평소엔
결제를
정보도
무서운거
오르막
경제적인
슬프지
마셔야지
고등학교때
유치원도
할아버지도
상태야
아깝고
이불은
커서는
##케이팅
대화하는
탈모에
소식이네
이동할
계란도
계란후
개봉하면
허리에
체력을
무시해
독립을
똑똑하고
아팠던
걔네도
취소하고
야식을
급여도
지키기
도망갈
사이트가
도로주행
과자도
초반엔
만화책이
실력을
예민해
아메리
가구도
무릎에
추위에
외로운
안맞는
안맞으면
피시방에서
떨어지더라
대표적인
표현을
관계를
선임들이
떨어졌대
아줌마가
화나게
500만원
부끄러워
레벨이
음주운전은
무너지는
산청은
아부지는
불렀는데
편안하게
수익이
올리브영에서
단점도
요구르트
외동이라
시민들이
잠잠해지면
재개봉
딱지치기
전날에
며느리가
컨텐츠가
독학으로
오마이
독특한
히트텍
시야가
이끌어
돌싱글
외계인
동방신기
##도리탕
가혹행위
라운딩
조마조마
이비인후
1이
4000
6학년
vs
가지만
가셨어
갈등이
감싸
감기는
갔더라
갔었나
같나
개고생
갯벌
거네요
고사
고르고
고르기
골때
곰돌이
과실
과제가
교재
그말
기발
기쁘
김무
깜박
꼬마
나같은
남기고
남사친
났음
내게
년이
놀림
놀래서
높대
눈에는
다정한
단합
단어를
덮밥
데나
도보로
돼지가
되었다
되겠죠
디젤
디테일
떠올라
라이트
루틴
룰은
말레이
명이야
몇인데
못마
못한대
몽골
무뎌
무늬
뭘까요
미워
믿기지
바에
박진
반겨
반바
받자
밟으면
방음
벅수도
번다고
번화가
보세
보드는
볼만해
봐주고
봤자
부장
부침
불효
붓고
빵도
뻑뻑
사모
살빼
샀었는데
상도
상반
색도
서점
성취
성수기
세안
소진
소셜
송도
스쳐
스켈
시부모님
신차
싣고
실현
싶더라구
쌓이는
쌤도
써라
쎄게
쓰니
쓰냐
아카
아베
아이야
안달
안틀
안하니
앉으면
않거든
알까
약하게
양심이
얘도
얘들은
어쨋
엉뚱
에펠
여사친
여건이
연세
열두
오는거야
오복이
올거야
왔더라고
외에
외우고
월요
위안
유툽
이순
이쯤
이건가
자다
자퇴
재혼
재배
적합
정해야
주긴
주사는
줬지
줬나
지식이
진동
진압
진하게
쫀득
찔끔
채우고
천고
첨에는
추고
카더라
캠페
컷트
크겠다
크기도
키티
타던
태블릿
텅텅
토너
특공
팀으로
팔뚝
폭주
프랜
피면
피우
해놨어
화사
화제
##에에
##만들
##만해서
##보이던데
##사의
##아슬
##야말로
##겠제
##나니까
##다수
##자녀
##자금
##시마
##면을
##면으로
##리얼
##일인데
##해볼까
##문을
##할만
##대교
##으심
##오브
##노동
##출근
##정에
##되네요
##제거
##우드
##왔더라
##투스
##부들
##부리
##싶음
##조각
##분들도
##코리아
##모를
##색도
##통은
##알려
##년도에
##졌나봐
##평이
##쳤는데
##선에서
##따로
##누구
##입어
##갔을때
##외국
##판은
##잡아서
##축제
##층에서
##빵이
##액이
##큐어
맞아봤어
좋아했음
그러셨군요
생각했었는데
하고싶은데
게임방
영화라고
영화보러
여행계획
시간대
결혼하지
맛있겠네
먹고있어
다음번
그랬거든
건강해질
여자애들
날씨에는
공부하느라
별로던데
그럴거면
사람이구나
걱정돼서
##하는데도
싫어했어
드라이기
사고싶은
있었지만
얘기하지
대단하
대단함
중요하잖아
중요하대
중요하죠
##시간을
알려줄래
부모님을
알바나
누나네
나온다더라
보내주고
보내주면
좋아하시지
최고로
최고여
최고라고
나이대
일이니까
생활하면
연애만
노래에
올라오면
##한다니까
배달로
귀엽더라고
해외에서는
쇼핑으로
누구였지
갔다오
갔다오면
남편과
해주려고
출근이
아니라구
이용한
위험하고
위험하게
따라가는
추워지고
전화번호
먹었었는데
생겼을
취업난
선물하기
##같은게
이해하고
근처가
근처에는
수영장도
주말에만
정신적
거래는
추억은
없을듯
##이니까요
대학은
내려야
접종자
비행기에서
교통편
다닐래
우리집이
가져오
가져온
가져와서
에이블리
마지막회
영화관은
짜증이
택시타고
신청은
못하겠던데
방송국
바뀌니까
피해자가
현실에
지역을
2년은
직업으로
주차장에서
않을걸
포기하는
걸리긴
스타일을
마시려고
똑같을
##아니면
명절에는
생겨야
맞았을
답답하지
해결해야
대출은
조용해
패딩도
안가봤는데
상상을
면허를
비용을
##먹어야지
연습하고
활동이
활동도
모르겠넹
성형을
매력있어
때문이
마셔요
국민이
이슈야
나갈까
집중을
숙소에서
공유하자
스토리는
지켜야지
지켜봐야
##해보지
우산은
깨끗해
나을지도
무리야
무시하는
쉬운게
남아요
우유가
이럴때
살았던
꾸미기
도망가고
친척들이랑
막히게
문신을
선선해서
부르지
특전사가
25만
들어간다고
##기간이
##이였음
ㅠㅜㅠ
##생각이
베트남에서
사장님도
대세야
멤버가
어딘가
요소가
업체가
##버렸다
단발머리
김선호가
수면제
팝콘도
배고프면
침대에
침대에서
땡기는데
번개가
물고기를
버티면
오프라인으로
실비보험
태워줘
이구아나는
버디는
괜찮았던
안오네
고슴도치는
바보야
21개월
어려서부터
관절에
두피에
광주에서
부담스럽지
멀쩡한
길거리에서
찜질방
살해한
사태가
면세점
추천할만한
머리숱이
최초로
프라하
캐시백
아름다워
재작년에
해수욕장
수목원
그니께
홀리뱅
혹한기
진통제
수련회
##비빔밥
소라게
육개장
아나운서
지렁이
과태료
맘스터치
아디다스
김우빈
레터링
3회
82
9살
95
as
가봐야겠네
간신
갈건데
갔었어요
갔었거든
개별
개들은
개비싸
격하게
견종
고독
과금
과잉
과하게
교무
교생
군기
그랴
근본
글킨
길이가
길가에
김치는
꺼도
꾸덕
나기
내놔
내보다
넘는데
넣지
년을
년도에
노홍
노리는
논의
농사지
높여
늘지
늘었대
단정
달리면
답인
답변
닿는
대사관
됐네요
되돌
되더라고요
되었어요
된다니
들릴
들러
레고
레이어
마루
막국수
만능
만끽
말어
말다
말아서
맑음
매진
맥시
맥북
먹니
먹여야
멜론
모았
무쌍
무면허
문닫
미인
미녀
민속
바버
받으셨
발송
밤이
밤낮
버즈
번이
변했어
별다른
병문
보겠더라
볼일
볼까요
봐볼까
봤제
봤엉
분해
불도
불려
비정
빈혈
빌리는
빛을
빨아
뿌링클
사관
사겨
사먹는
사줬는데
사달라
사연이
상금
상남자
서는
석유
섞여
설날
성지
성숙
세뇌
소스가
수류탄
순발
숨기고
습득
시사
시츄
시선이
신동
신도시
싫네
싫던데
싶더라구요
싸던데
싸이버
아퍼
안하네
안가지
알기로
얇아
얘들이
어바
없군
없잖아요
연동
오심
오셈
웃어
워드
원이래
원장님
응모
이론
인문
인절
일곱
읽기
있진
있잖어
자러
잘했다고
잡히는
장비는
저학년
적성
전개
정전
좋겠더라
주냐
주는거야
주셔서
줄지
지장
집근처
짓이야
짜야
찍자
차랑
차차
차이야
차량이
참아야
창의
창문에
첨들어
쳇바퀴
쳐본
춥겠다
카푸
캣맘
탑텐
털은
티볼
판에
팔릴
폰게임
한것
한류
할머
해여
형편
호강
홈즈
홍차
화났
회를
후진
후추
휘두
흐르
##수리
##가리
##보더라고
##보이고
##했길래
##구라
##니엘
##난화가
##리라고
##강이
##식사
##해장
##전용
##셨잖아
##듯해요
##마니
##질러
##메이
##60
##켜서
##버리면
##끝나고
##출신
##청약
##워크
##부대는
##임을
##분양
##저블
##철에
##색은
##통닭
##24
##애플
##졌더라
##케어
##렸다가
##불고기
##따고
##너츠
##피도
##판으로
##않고
##량으로
##설록
##층은
##싫다
##홀로
##캠프
##IP
##꿈치
##릅니다
아니었구나
아니여도
ㅠㅠㅠ
그러실
있어가지고
그렇담
그렇습니다
생각했지
하는구만
하고요
게임이다
같이해
힘들더라구
영화인가
괜찮죠
보고만
나오더라구
아이티
언니들이
어떤점이
알아도
##겠지요
그니까ㅠㅠ
##해야돼
기억력이
##지는게
다음에도
남자라면
오래전에
건강에는
그럴려나
있을것
혼자만의
필요하
필요하고
나왔었지
배우게
배우기
##00만
사고나면
챙겨가
당연하게
동생을
안되어
고양이한테
아침이
고민할
자기만
누나들은
중국에서는
중국어는
시켜줄
가격만
보내주는
받아들
받아주는
궁금했는데
준비하는데
준비한다고
있다더라고
관리해야지
무섭더라고
물어봤지
맞어맞어
떨어진다고
다르면
화장하고
누구보다
사랑하지
남편을
연락해서
지나가고
그만두면
아는형님
봐야겠네요
고생이야
이사한
기사에서
등산화
등산하고
여자친구를
점심때
아까운데
기대했는데
근처에도
바람을
금방이야
퇴근이
배워보자
필수다
필수라고
나서서
이야기해
거래를
이러나
추억으로
기본이고
다양하더라
받는대
구경이
피곤하네
야구가
맛집이야
세계관
겁나서
쿠팡도
119
가져갈
1년은
어울림
신청했는데
구매하고
구매하면
12살
가게도
아들들
검색하고
에어프라이
광고에
배송은
컴퓨터에
주인도
적당하다고
스포츠도
계절은
보자마자
해보셨나요
데려오면
노력해야
프로그램은
선택한
헬스장에서
확진자는
스타일도
스타일이라
거라며
글쎄다
미쳤나
미쳤음
똑같음
상관없는
하늘나라
잡아야지
약속이
없었다고
김치전
김치볶음밥
키울래
바쁘니까
모르겠당
심해졌어
심해지면
충분한
했나보네
전쟁은
##스러웠어
걸려요
음료를
식당에
맞을걸
모습도
수능은
전문적인
10년은
아깝긴
시켰지
놀아주
이벤트로
우산도
나을거
범죄를
도착해
도착했어
형님도
까먹었다
개발한
크림이
충전기
익숙하지
디저트로
모아둔
말씀하시는
부러웠어
설레고
설레네
복잡하고
198
어깨도
판매하는
다운로드
사장님한테
대기업이
징그러워서
모델이
목표는
이기적인
좋아하시나
과목은
노트북으로
대만은
찝찝해서
아웃겨
먹으려면
유퀴즈에
맛나지
가상세계
##드리자
고소공포증
체질에
산청에
의자에
한지민
뭐니뭐니
비비고
라이언
황소는
당신은
조그마
다큐멘
지저분해
메가박스
소원이야
오래되긴
보건소
##아닌가
포메라니
상하차
##공간이
화물차
두드러기
파이어족
응답하라
김혜수
식기세척
주짓수
텔레비
##떡볶이
사우나
신생아
전성기
어몽어스
강원랜드
물풍선
유니버셜
낙곱새
아메리칸
말레이시아
에펠탑
000원
1팩
200원
3인
5학년
5월에
72
FPS
GT
VIP
kf
ㅎㅋ
가지면
가보니까
간소
갈수있
갑네
갔냐
같지가
갚아
개복
개편
갠춘
걔들은
거군요
것이다
견과
고개
골키
골반
골랐
공방
공주가
괴로
구명
구박
그그
그생각
글도
글쿤
글렀어
급행
긴머리
꺼낼
끊어서
끝판
날듯
남부
남쪽
남겼
남는게
낫겠어
났더라
낮게
낳았
내외
낸다고
달리고
닮아
담그
더라
돈아
돋네
되도
되다니
뒤면
뒤에는
드니
드네요
들리면
디엠
따르
딸려
뛰어가
로스트
루머
룰이
리필
많을까
많대요
말리지
맞자
맞겠다
맞잖아
먹일
명만
명확
모드
못하는거
몽이
무증
문방
믿겠어
밀접
박군
받으시
밝아
방석
배상
백일
벌었
변동
별이
보구
보며
보거나
봐봐야겠다
부천
붙이
빠진다
뽑았
사둔
사가야
상하이
서예
선뜻
성의
속을
손잡이
수단이
숨도
쉬어서
쉬려고
스시
스웨
시렵
시베리아
식장
실시
심한거
쌤들
쌩쌩
썩은
악당
안무
안친
안쳐
안방
안오면
않으면서
암막
암컷
양악
언어가
없진
에잇
에라이
엠씨
여수는
오는게
오설록
우편
운도
울집
울엄마
웅장
원장
원데이
인줄
인바디
일이나
잃으면
입게
입소
있찌
재테크
쟤네
저럴
저스트
전은
접어
접고
젓가락
정관
정복
정권
젖어서
종은
주기도
주려나
주시면
쥐가
쥐어
지니
지디
집이나
쪽을
찍으러
차원에서
챙김
초창
축구나
칠순
커지는
코도
타령
타려면
통행
투성
튀어
트래
틀었어
팀은
팔공
패스트
편임
편했어
편지도
편이고
피워
하려다가
핸들
했었대
허술
현미
황희
회는
휘청
휩쓸
희소식
##사라
##사이에
##지밥
##아이는
##했다니
##나여
##도야
##잖슴
##있구나
##속이
##거고
##거리를
##다시
##상복
##더미
##올까
##일기
##업도
##업을
##잇고
##병을
##꺼라
##한디
##한대요
##대지
##났나
##포에
##풍이
##되야
##과자
##같음
##제라
##형도
##부러
##파서
##먹으려고
##등록
##긴하지
##왕이
##센치
##차지
##년이
##품을
##품은
##좋고
##렸음
##선수가
##실험
##갔다고
##피곤
##표가
##딱지
##편지
##슬링
##퍼는
##퍼센
##째로
##될듯
##머리를
##맥스
##뱅크
##쩌고
##겄네
같아ㅠ
좋아했잖아
그렇지는
그렇다는
생각지도
하는중
게임인
게임이네
게임하는데
게임하면서
재밌기도
보고싶은데
얼마안
시간씩
시간가는
어떻게해
##한테만
다른지
어떤거야
강아지야
다음부턴
그랬겠지
겨울되면
다니는거
했어야지
필요해요
찾아볼까
우리나라처럼
배우야
만들려고
되는디
부모는
버스보다
있었던거
먹는대
얘기할
마음가
시작한지
알바로
자기의
일본어는
사는지
시켜줘야
저녁에도
먹을수
건가봐
관리비도
나오는게
생활하고
유명하고
올라가야
귀여웠는데
난리지
어렵겠지
알고보니
화장은
비슷하다
놀러갈
20개
약간의
##게임이야
재미있더라고
지나가서
해주잖아
스타가
소리에
따라와
미용도
추워요
추워지는
유튜브는
전화하는
이사도
등산복
오는구나
아까는
남자친구를
행복이
해봐도
사이드
바람직
미안하네
수영장이
수영장에서
퇴근해서
잘못을
이야기하는
거래요
직장도
추억에
없을껄
다양하네
저렴하네
영상통
내려와
하기에
다녔나
접종하고
할머니댁
교통체
쇼핑몰을
세계에
받았거든
해본적이
예쁘잖아
일어나니까
일어나자마자
골프를
방송은
100억
그래야겠네
광고는
되어있는
자취생
##하겠다는
안전운전
생일도
생일날
포기한
부족하지
보드가
걸리잖아
헬스를
연기하는
조심해야겠어
맞았다
힘드셨
이것만
이후에는
만족하고
어땠는지
대체공
단풍구경
대중교통으로
출퇴근은
넘어져서
넘어졌어
매력에
후회는
후회하는
후회하지
사촌오빠
엄청나지
국민들
##했나보네
투자하고
안보게
상품을
파마는
계란찜
가르쳐주
##말고는
안먹어서
진행하는
크림도
장르를
보호자
안정환
디즈니는
역할도
스케쥴
쿠키영상
지구를
개그우먼
빌려줄게
막내는
막히더라
하이큐
##시키면
##들만의
오른다고
어떠냐
빠른데
태어나고
사장님은
물어보더라
형제자매
놀랬잖아
징그러운
애플워치
나무가
면회도
어마어마해
목표가
소중함을
슬픈데
없을까요
억울할
싸이코
올라오더라
손목에
의료보험
이겨내
무서웠겠다
어쩔수없지
힘들었겠네
질문을
보여주기
바디프로필
대형견은
부드러워
강추야
바빴어
얼어죽
둘러보고
김태호
장교로
하려니까
애인이랑
와이파이
공산당
아랫집
뚱뚱한
퀄리티가
오마카
현명한
자본주의
무관심
키즈카페
무언가
알파카
횡단보도
공복에
트와이스
식습관
콜드브루
식스센스
에피소드
동대문
시외버스
차은우
시금치
죄책감
스위트홈
수족냉증
천재지변
샤오미
피피엘
무작정
그릭요거트
아슬아슬
정호연
어쨋든
천고마비
1키로
1월에
2세
2주에
2000원
3까지
6일
87
LH
가줘
가더라도
가시나요
갈라면
거쥐
게이머
겪는
경상
고로
고르면
공기는
과정을
관악산
교장
교대
교정도
구단
구출
구간
구분이
권투
규정
그집
그마저도
길러서
까칠
깨지고
꼭꼭
나겠네
나이트
낳지
내보내
널어
뇌가
누우면
눅눅
단기간
담고
답이야
당신이
대행
대사가
돌체
돌려야
돼야지
되려
듯한데
등짝
디퓨
따야지
딸이랑
때려서
락토
리마인드
막연
막차
망하면
맥주는
먹통
멀었다
메탈
명소
모나
모발이
몰랑
몰려서
못가서
못했던
무용
물려서
뭐다
뭐라는
박아
받던데
받기도
발휘
밟고
백원
변해서
보이나
보장이
볶아
봐주는
부심
부름
부엌
부어서
부리고
분장
불교
불판
붙잡
블라인
빈센
뿜뿜
사줌
사면서
사전에
사줘야지
사운드
사갈까
살쪘
살만한
새콤
색조
생머리
생방송
선글
선에서
섬에
속도도
손발
수분이
순하고
슈크림
신한
신종
신메뉴
심한가
싶으신
쌍용
쓰기도
아씨
아빤
아는거
안성
안읽
않다는
않으려나
약으로
양은
어리지
얻은
얻어서
없앤
영탁
오셨
옥상에
온다더라
옷으로
와사
외울
울산에
원플
원이나
유희
의욕이
이산
이겨서
인덕
인스턴
일손
입찰
있지는
있더만
자두
잠자
장땡
장보러
전향
전북
전주에
접때
정식으로
종점
종이야
좋으셨
죽어나
줄긴
줄거리
중엔
지연
지프
질렸어
집집
집가서
쪼끔
찾음
챙긴
청송
청결
추웠는데
충남
취한
치니까
친해서
친해지고
칼칼
쿄쿄
퀵보드
크대
크러쉬
타봐서
탈북
토이스
트롯
펌은
페미
편한거
품목
플스는
함씩
해경
허재
혼전
화나는
황사
회장
후훗
후에는
##인이야
##보를
##보이긴
##보인다
##사러
##아나
##했거든요
##구야
##구석
##이모
##라던가
##된데
##볼라고
##니꺼
##다지
##상이야
##크스
##크랩
##주더라고
##하랴
##민호
##랑가
##더지
##요원
##려요
##돼요
##스피
##으셨어요
##키가
##키고
##였어서
##였던거
##마리가
##영어
##빙수
##오냐
##빠이
##되길
##행사
##배움
##것은
##쳐나
##심도
##파이어
##계속
##계의
##린다는
##클로
##클라이
##저거
##봤었는데
##차림
##웠으면
##받으러
##쪽도
##담이
##불안
##헤어
##창이
##찾아
##ㅡㅠ
##팀은
##FC
그래놓고
사람이라고
##이라던가
좋은거지
좋은가봐
모르더라
모르겠지
괜찮으시
어디냐
여행팁
여행하면
여행지로
하나봐요
엄마네
아이패
아이들이랑
언니를
다른가봐
해야한다고
해야할지
운동회
운동장에서
##니깐요
회사까지
오래전
건강하자
여자야
비싸기도
별로면
별로래
별로네
사람이잖아
이상하긴
이상한거
느낌이네
느낌이긴
사람들한테는
동생아
알려줌
알려줬어
운전자가
가능해요
나와야지
일본이랑
아파트야
여름옷
사진이랑
저녁먹고
이렇게나
이렇게라도
보내도
궁금함
옛날보다
주말만
관리할
돌아와
돌아오면
한국영화
물어봄
생활관
유명하더라
나라마다
배달해
배달음
알고는
##이었겠다
기다림
기다리지
누구더라
사랑과
갔다왔는데
캠핑용품
출근했어
이용하는데
이용해요
위험하잖아
추워졌
키워요
보이더라구
기사만
취업하는
생기겠지
##같은건
##같은것도
않았나요
낚시터
가보고싶다
훈련하는
퇴근길
배워야겠다
수술할
수술하면
직장인들
사야할
인기래
청소하기
기본은
지원하는
계획이야
다녔네
##사람들도
##하시겠다
교통은
가져가는
어린아이
방법인
자연드림
유행이잖아
기차에서
바뀌어
바뀌어야
에어프라
일주일은
되어야지
도전을
해보게
핸드폰은
감사하지
올랐지
올랐어요
염색이
상황은
마시자
검사하고
자신은
시골로
맞았네
맞았던
잘생각
바꿔봐
대부분은
어땠어요
이모는
움직일
##할때가
활동하는
유럽도
며칠전에
경제는
나갈게
대구도
심심한데
쉬는날
가봤다
만큼만
상품도
아깝잖아
찍어야지
끝났네
축하한다고
문화도
남았지
가수들
애매하게
까먹지
제한도
디저트가
디저트도
안좋아해서
건물을
의미에서
사이트에
키웠지
강의도
부러움
포인트도
아이스크림도
사이즈도
사료는
위드코로나가
오른다
시킬게
어떠니
##것같아서
재미없어서
설치해
부부는
유기묘
지옥이야
날짜가
날짜를
햇빛을
비트코인을
코스모
케이팝
좋아하시더라
배웠던
시킨다고
만드는거
비밀로
바쁜가
시끄럽다고
서핑도
마이클
동기들
억울해
억울한
핑크색
이마트에서
정책을
명작이야
장비빨
일어났는데
21세
캐나다에서
신입사
##라우드
무겁게
기름값도
어르신들이
희망이
##하하하
스카이다이
미끄럼
평범하게
기절할
인증샷
수수료가
코시국에
다녀올까
국방부
사전예약
아동학
유통기한이
가치관이
SNS에
싱가포르는
무게가
졸귀탱
믹스커피
쓰리잡
공중파
민트초코
순식간
아쿠아
아기자기한
가위바위
손재주
한순간에
플라잉
전반적으로
자외선
취준생
미나리
삼각김밥
로그인
악세사리
이만저만이
베테랑
심석희
카리스마
파인애플
미우새
반신욕
이비인후과
간신히
병문안
어바웃
스카이다이빙
2명이
3000원
4강
6천원
rpg
가더라구
가나봐
가려서
강압
강사가
같으니
같으면서도
개랑
개콘
거면서
거밖에
건들
겠지
경향이
계기로
계급이
고시
고의
고럼
고졸
곳이니까
공평
굽고
굽는
귀한
글케
금강
기른
까마
까매
깎는
꺼가
꽃도
꾸몄
낑낑
나트
났어요
내만
내로
내신
너구
넘음
넘더라
넘었네
노린
노는게
노브랜드
녹아서
높잖아
다룬
단거
단련
달릴
닭이
닭도리탕
담달
담궈
담아서
당이
대대
대파
대견
대우가
댁에
더부
독채
돈인데
돈이지
동료가
돼가
되었다고
드나
드렸
든대
디카
라치
라쿤
래퍼
리버
마카오
마스카
망함
맞겠지
매도
멀잖아
멋지고
모던
목요일에
못보고
못갔어
못알아
무야
박찬
방수
변기
변명
별에
보더
보물
보였
보다니
보직이
볼때
봐둔
비바람
뻣뻣
뽐뿌
사두
사오면
사먹을
살려서
샀구나
상업
색을
섞인
선전
성당
세워서
셈이지
손실
손맛이
수똥
숨바
숯불
쉬어도
스쿨
슬라임
승급
시바
신화
실리
싶지도
써보
써먹을
쏘쏘
쏴서
쑥쑥
쓰세요
씨지
씨유
씻어서
아일
안통
안샀
안에서도
안정이
안간다
안갔어
안들고
안개가
않대
알걸
애랑
약혼
얼집
얼어서
얼만큼
없기는
연필
열광
열쇠
영유
예산이
오시면
온데
온다던데
올라도
와오
왜들
왜이래
왠만하면
욕하면서
울었음
워홀
원시
원인은
웨이트
유령
유흥
윤곽
음모
이르
이쪽으로
인디
인피
인프라
일산
있자
있기를
자택
자더라
작지
잘자
잡곡
잤더니
장어
장비를
재생
저보다
적적
정동
정경
정보는
존귀
주어
주선
주에는
주겠지
주거든
주4일
중도
지기
지쳤
징계
짖어
찍기
차들
차종
찾지
찾았는데
채우면
철분
청바
쳐봤는데
출첵
춥겠지
침대가
카고
커블
코치
콜센터
큐플레이
타봤어요
탔던
터뜨
터졌어
테슬
토크
틀어서
파주
파니까
팬더
편이었어
편이구나
포트
풀면
풍성
한줄
한식이
할려나
합병
해먹는
행방
행사가
헌팅
험하게
호화
혼밥
훈육
흐뭇
흰둥이
##개념
##개에
##관리도
##보까
##지다
##겠엉
##했엉
##했더라고
##구를
##고래
##고르
##타를
##게이션
##거랑
##거임
##거림
##거니까
##을것
##크러쉬
##치는데
##주셔서
##하거든요
##산성
##더기
##리야
##리안
##리닝
##일러
##요미
##병장
##꺼도
##대만
##소연
##였니
##마시고
##3년
##미안
##없다고
##중인
##중에서
##오를
##노는
##되던데
##왔대
##놀이도
##먹었다
##집니다
##모사
##차기
##차례
##발라
##님이랑
##그대로
##됐나
##호박
##새끼
##피자
##작은
##슈가
##궁금
##방울
##낳고
##랭이
##젤리나
##ㄷㄷ
##더라ㅠㅠ
있어여
그렇다니까
생각하기
생각하나
생각했다
하는군요
그래서인지
하고도
정말이지
재밌었음
재밌겠당
들어봐야겠다
친구분
영화보다
어디다가
보고는
보고싶네
나오냐
나오니깐
정도지
운동하다가
먹어봐야
하지않
##했어야
기억하는
그랬을까
키우겠어
건강해지는
비싸겠다
비싸지만
비싸다던데
날씨엔
대박임
##으니까요
나중에라도
찾아야지
싫어했는데
##00원이
챙겨줄
있었나봐
가을날씨
얘기지
병원비도
피부미용
시작된
안되지만
고민했는데
가자마자
좋을거야
알바해
서울이랑
보내줬어
좋아하죠
일이냐
관리만
조심조심
이름부터
난리였
어렵대
어렵진
맞다맞다
##이었죠
##이었던거
이거도
매일이
놀러도
누구냐
누구누구
##같아도
지나갔으면
##이래서
키워봤는데
축구에
등산이나
아까도
치킨에
멋있음
신경도
선수들은
기대도
좋았다고
넷플로
배워도
필수임
언니는요
청소가
기본만
지원해주
할인해서
있어야해
접종이
다닐만
올해가
맛집을
가져가면
웃겨요
1년이
짜증나는
신청을
100년
없으면서
##스럽긴
도움은
하시네요
차가워
나한테만
있긴해
말해줄
같긴해요
일반인이
빠르면
2년을
안전하지
자세도
걸리겠다
피부과도
똑같더라
##아니라
필요한가
##교육이
파는구나
강원도에서
답답하고
하늘의
그리울
잡아도
자고로
바꿔도
약속할게
모르겠더라고
심해질
불안하지
데이트도
40만
결제하면
발라야지
함께하는
오르니까
외모지
경제를
예뻐요
가보긴
용돈은
용돈으로
추운게
안그럼
10월인데
중독이
북한에서
반대하는
근육통이
가봤나
브랜드도
초딩이
뭐라나
진행이
상담을
돌아가셨어
반팔입고
어떨까요
안타깝더라
영국에
카톡도
회의는
유치원은
야외활동
가방도
가방을
이직을
벅수랑
외국인들은
원룸이
중학교때
앉아있는
기업들
유전이
만화책으로
긴장해서
지나가는데
19살
케이크는
모임도
편리하게
추워지니
비염은
1박에
멤버쉽
사교육은
코인으로
외로움
제대한
여수에
휴양림
촬영지
기다리면서
날짜는
모자라
일정을
알아보는데
시설은
아이디어가
대상자
차박도
팝콘은
가볍고
빠진다고
개그맨들
명작이지
색깔도
미루다가
정촌은
항공권
맛나게
쳐다보고
21살
고속도로에서
따듯하게
##레스테
투표는
참아야지
무궁화꽃이
노동자
경비원
신중해야
컴터로
겉옷을
챙겨먹어야
모공이
자존감
빵빵하게
신경써서
ㅋㅋㅋㅋ
현지인
쓸데없이
틀린그림
반영구
의경은
영원한
순수한
서해안
장인어른
주제에
배불러서
파라솔
프린세
단톡방
엠비씨
배낭여행
오로지
유부초밥
하얗게
지름길
박물관
이다영
삼성전자
이집트
변호사
흑역사
귀차니즘
박명수
무드등
올바른
치와와
조세호
김은희
후쿠오카
태극기
이곳저곳
군면제
프로그래밍
황희찬
빈센조
에어프라이어
숨바꼭
1주
1살
1달에
43
4시에
4천원
84
94
SM
XX
가졌
간섭
갑상
강조
갖게
같았
같으
개로
거부터
경구
고데
고치고
공장이
광자매
금토
김나
김유
김영
까봐
깨질
꽂히면
꾹꾹
끊기
끊은
끊이지
날아가
날벼락
남한테
납니다
냅둬
냅두고
노상
노릇
놀이도
느리
느리게
늙는
늦는
다했지
닫는
닭다리
대서
대하는
덕질
돈버
돈많이
동숲
동기가
됐겠다
됐다는
됐는지
들기
들이는
땅도
때릴
람보
러블리
루이비
리모
마중
마파
막힘
만하다
많구
말했지
멸치
몇천
모이지
몸싸움
못하는게
뭉클
뭐시
뭐먹을
미스
미쳐서
민박
바나
바꿈
반대가
발을
밤바다
밥이라도
백반
버려서
변할
변태
보트
보상이
보는거지
복장
복지도
본능
비즈니
뼈를
뽀글
뿐인
사려
사오는
산모
삶아
서럽
서방
설악
성동
소프트
숏패딩
순서가
술술
술게임
습도
시선
시까지
시장은
시상식
신조
심하잖아
싶냐
싶으니까
싸가지
써볼까
쓰일
쓰네
쓸모가
아쥬
아작
안볼
안놀
안젤리나
암보험
앞으론
액티비티
야옹
약물
얄미
양산
어따
언어를
얼릉
없냐고
여는
여학생
열은
열기구
염따
예배
오와
옷가게
왕이
외에도
요원
요리가
웃기는
원해서
웬일로
위치도
이고
이선
이시간에
익혀
인프
일했어
일했던
일하던
일하시는
잇는
있길
있자너
잊어
자급
잘팔
장모님이
저걸
적정
적엔
절벽
점장님
접었어
정반
정성이
제주는
주황
주기가
준거야
중동
중2
중립
중인가
중이긴
줘야겠다
증맬
증후군
지출이
직무
집돌
징병
짜게
짝이
찾다가
천장
청정
청바지
초월
출국
춥나
츄리닝
치아가
치워야
친다고
칫솔
커텐
케잌
콜레스테
쿠데
키트
킹크랩
탄력
테고
테이크
통장에
특강
파격
팔을
팔리는
펌을
펴고
편식
편입
펼쳐
평점이
폐기
폰으로도
품고
한도
한디
해드릴
했노
했었구나
헤어나
횟집
흰머리가
힘은
##수있는
##사용
##지에서
##지던데
##아직
##어플
##했었어요
##나는데
##나와서
##이면서
##있는거야
##거죠
##거네
##니더
##자주
##자체가
##시잖아
##시겠어요
##주셔
##주셨어
##산업
##유도
##었거든요
##강의
##티나
##할라
##할수록
##꺼지
##돈은
##소리를
##였던가
##레일
##연휴
##절이
##중이래
##버터
##버릴까
##0만원
##정부
##되는거야
##공이
##우니깐
##천국
##것을
##부림
##싶다고
##싶었는데
##학원도
##8년
##웠나
##웠을
##내용
##통장
##말려
##온이
##애들이
##품도
##명의
##선생
##백화점
##커스
##현도
##갔었어
##남은
##놨지
##놨더라
##PT
##괜찮
같아용
있어용
사람끼리
##으로써
##하는걸
그거까지는
같은거야
게임처럼
같이가
들어만
거기를
영화라
영화감독
여행가자
하나밖에
나오길
시간내서
결혼하게
어떻길래
정도까지
맛있었어요
해야겠네요
코로나라고
코로나인데
먹어봤지
먹고싶은
가고싶네
자주해
그랬겠다
남자들의
키우기는
가는것도
대박이더라
다녀보고
공부하러
별로인데
재미없는
문제죠
예전이랑
아빠의
걱정할
걱정하는
걱정인데
거의다
이상이면
집에가서
없는것
필요함
필요할까
신기한데
버스만
챙겨줘야
있었니
대단하고
중국산
##만원에
가야하는
최고네
들어가야지
음식만
돌아와서
인터파크
한국말
싶은가
싶은지
노래야
말이여
나라에서도
기분을
배달비가
다르대
다르던데
다르지만
놀러가는
보여주면
그만둘
모르겠어서
해주신
스타는
따라가서
산책하면
외국영화
하자는
멋있더라고
전세를
당근이지
##인지라
달라붙
이해하기
결혼식인데
직접적으로
안나는
잘못해서
거래하는
직장에
어쩌노
가지마
주택을
저렴하지
주문하는
내려간
내려오면
치료하는
구경은
웹툰에
방법이야
안좋다고
부담도
유행할
유행했던
친구들아
좋긴해
100개
큰일인데
기억나니
기차로
##해지긴
느껴보고
컴퓨터는
안타고
계절이야
나쁘지는
핸드폰에
라면에
생일이라
부족하면
걸리니까
피부과가
확인할
##거리면서
똑같나
했다구
시골이
업무의
맞았음
부동산에서
신고하면
햄스터를
키울까
비타민D
육아도
속상할
오르더라
슬프네요
엄청나다
오징어게임에
집중할
가보셨어요
수준으로
중독성이
전문가가
지방으로
하셨지
자식들이
방금도
시대야
뛰어난
떡볶이가
범죄와의
집안일을
체험하는
체력은
부탁할게
까먹은
한번씩은
소개팅을
##하신다
독립해서
똑똑하네
빠지나
등록해
유치원에서
##을때도
당첨이
빨래를
도망간
롯데마트
모아나
스펙은
예정인데
장면은
음악이
음악을
스터디카페
긴장감
지나가면서
교정은
맥주랑
사료가
위드코로나로
미친거
백화점은
24살
아이템이
취직하고
취직하면
가구는
들어봐요
로맨스는
형부랑
인사하고
잘하시는
애니메이션은
안맞아서
형제끼리
검은태
유튜버들
누워있는
탁구는
신혼여행으로
대표적으로
업체에서
번호를
지원금도
베이컨
시킨다
만드나
제목만
재방으로
논산은
바꿨는데
전지현은
출연진
재택근무가
리뷰도
손톱에
날아갈
빠진대
유투브에
개꿀잼
스크럽
프랑스어
달리기도
얼만지
신민아가
비트코인으로
서서히
죄송해요
장난아니게
##셔야죠
규칙적으로
무겁고
편안한
엉망진
화려하게
존경해
지겨워서
후후후
##크래프
미군이
간장게
룸메가
난방비
저러나
배부르
유연석
들어보긴
남이섬
필기시험
체형교정
멘탈이
반가운
조선시대
오냐오냐
프린트
맞췄어
희한한
저지른
틈틈히
가래떡
인건비가
올인원
구비해
번갈아
적절한
실버타운
킬링타임
공기청정기
아스트라제네
그른가
패밀리
인공지능
오스트리아
초음파
황리단길
절레절
프랜차이즈
집집마다
까마득
콜레스테롤
1만원
2키로
41
5인
6주
7시간
9일
EBS
ᄒᄒ
ㅠㅡㅠ
가리지
간헐
갑다
갔고
강경
개강
거하게
거였지
건디
고가
고향이
골골
곳곳에
공문
과자는
과장님이
괜츈
국위
굳은
귀뚜
귀요미
그랜드
근거
기약
길긴
깊어
깊이
깨어
꽃가루
나로
나눈
나지만
나홀로
나같아도
날린
남주가
났으면
낳았는데
내후
내리지
넘치고
네티
논술
놀려
놀기만
농업
놓아
놓칠
놔두
눈오는
다하는
달지
닭을
답례
당했대
대관
대왕
대변
대륙
데드
도주
도통
도시는
독재
돌보
동굴
되자나
되잖아요
되겠군
되었구나
될려나
뒤처
드심
드셨나요
듣다
디디
떨리
떼는
렌터
롤드
리유
만렙
만원이
말함
말았는데
말했잖아
맛만
매입
매생이
머신
멸종
몇개월
못봐
못맞
무는
무주
문법
뭐였는데
뮤비
밀어버
바지가
박을
밖에서도
반발
반죽
반발이
받더라고
발렌
방위
배만
배찌
버리기
베란
별따
보육
볼거야
봤네요
불금
불규칙
붓기
브레이
비안
비중
비축
빠듯
뿌린
사놓
살걸
살더라
삶에
샀으면
생성
섬유
세네
소닉
소환
송편
수많은
슈프
스모
스콜
승선
식자재
신도
신데
실려
실생활
심상
심오
심해요
싶넹
싶다가도
쌓는
쌓아서
썼다고
쏘면
쏠게
쓸까
쓸래
안했지
안아파
암암
압구
앞뒤
야쿠
언어는
엘리트
여덟
영끌
올레
와르르
왔던데
왠데
외숙
외워야
외동이
용량
용도로
원만
원활
위대한
유람
유형
육포
이해도
인중
인기도
인플루
일듯
있겠는데
있드라
자는게
잘가
잘챙겨
잠자리
장관
장병
장식
잼써
접할
존잘
주방에서
줄이면
줄었대
중입니다
지오
질도
집게
짧다
찐팬
차리는
차려서
찬다
찾기도
찾았다
쳐봐
초고
총도
최상
추격
충청
치팅
친하면
코타
크구나
큰아들
클마
탔었어
톡톡
통계
투수
퉁퉁
트랜
특성
파운데
패널
편하네
포터
폭식
풍족
피엑
하남
하겠죠
할말
합성
합치면
핫플
핫초코
해두
호구
홍대
흡수가
##수라
##수영
##개로
##만으로는
##사업
##사라고
##지구
##지겠네
##로워서
##아랑
##겠더라고요
##어치
##나절
##이질
##들인데
##안해서
##타로
##자루
##테러
##크고
##시는거
##주시는
##국수는
##드려서
##일어
##기억
##르보
##친절
##해볼게
##티스트
##네도
##네즈
##전문
##소독
##으려구
##증후군
##였나요
##레기
##료는
##디스크
##연습
##메이드
##영상이
##우지
##바바
##부다
##부작
##릴라
##회도
##회를
##먹었는데
##처넌
##계는
##날도
##동기
##토끼
##체어
##봤더니
##모아서
##글스
##차야
##급은
##통을
##받기
##츠는
##럴림픽
##살아
##련지
##렸거든
##명씩
##불로
##씩만
##약한
##땡이
##초가
##호선이
##방법
##론가
##위원
##잡기
##각이
##둬서
##셀로나
##털이
##맛집
##캐릭터
##촬영
좋아는
좋아지지
우리야
그러는거야
##이라잖아
게임하다가
재밌던
재밌엉
재밌더라고요
이제까지
들어옴
힘들더라구요
모르긴
영화들이
엄마만
얼마가
그건그래
시간인데
##는거가
하면은
싶어ㅠㅠ
정도인
맛있다던데
맛있는게
해야하는거
어떤가
운동이라
운동기구
먹어볼게
먹고살
##인가여
##해야하나
다음부터
오래가
가족이야
가족인데
가족이라고
날씨만
다니더라고
공부해야지
공부하다가
별로였는데
그럴땐
많아져
이상의
나가요
나가네
나가지도
필요없어
배우님
##이라고는
부모도
챙겨야겠다
있었네요
얘기하자
만나는게
시작함
드라마만
많은걸
추천해요
고민된다
학교에서도
최고인데
주말인데
일이람
너네랑
미국으로
미국이나
한국어로
물어봐야지
조심하는
조심하세요
노래로
올라가지
나라에서는
배달하는
##정도만
살아가
난리였어
스트레스다
재미있는거
교육비
불편함
애기랑
무서워하는
동네마다
와서는
힘든가봐
먹었거든
고생해
고생이네
점심도
없다더라
좋았네
좋았었어
좋았겠네
있다고는
낚시하는
근처도
시키더라
시키니까
내년이
미안한
보험비
안나고
비싼건
사회성
수술하는
예약한
어쩌구
된다는데
계획대로
다녔다
가기전에
교통편이
예쁘더라고
안좋다
일어나도
일어나기
감기약
못하겠더라고
12시에
검색해보고
느껴졌어
스포츠에
지역도
빠르더라
네이버로
안전장
주차장이
신랑한테
사라지고
감사해야
염색하면
마시게
15일
많았으면
많았거든
택배는
택배를
만족할
수학이
이모도
단풍놀이
움직이기
중간이
메뉴로
메뉴도
메뉴를
국가에
매력이지
매력적이
없었어서
전쟁이야
오토바이도
오르는데
사촌들
배구를
이슈는
부대마다
여유를
에어컨은
식당은
아이들과
10년이
대학교때
신발을
##했을걸
토끼도
해외여행을
나을듯
문화는
범죄도
집안에서
졸업하면
1시간은
피자랑
안먹는
좋겠구나
까먹는
##하셨는데
가족들하고
결과를
공포는
액션영화
회의도
꾸미면
전자제품
화이자로
유치원에
빨래가
롯데는
감동이
이직하고
건물에
외식도
더워도
발전해서
의미를
배드민턴은
하던디
실패했어
매운맛
다녀와야지
사주라
부러운데
대해서도
만화책도
슬퍼서
##해졌지
마켓에서
모으기
디자인은
가깝네
미친듯이
돼지갈비
재미없다
대세지
힘내라
잘하진
좋아졌다고
실화냐고
알아봐봐
다가와서
안맞을
이어지는
어머님도
임신은
구입할
대표가
좋아지더라
국밥이
유재석이랑
지원금으로
대상포
표현이
스트레칭을
시끄럽지
죽어라
로션도
전지현이
고통을
마니아
동기들이랑
피파는
나타났
계산해
잘나가는
의료진
ost도
##아빠가
짧아져서
앵무새가
노잼이야
이마가
이웃집
보낸다고
상관없는데
극장판도
입술이
천둥번
언니네는
1일부터
규칙이
수제비
얀센은
유용한
엉망이야
엉덩이가
부드러운
쓰러질
줄이려고
여태까지
극단적
테니스는
못생긴
절반은
무기징
승부욕이
댄서들
나누고
크루엘라
과정에서
교과목
이제부터라도
섭섭해
좋아보이더라
토욜에
뜬금없이
잔소리를
코카콜라
소고기는
인명피해는
구슬치기
외곽으로
어학연수
자부심
체인점
오죽하면
기여워
스쿠버다이빙
박지성
소상공인
##자격증
줄서서
씽씽이
도시어부
뜨개질
부들부들
비둘기
사모예
사관학교
##해장국
끝판왕
더부룩
검은태양
엉망진창
절레절레
롤드컵
파운데이션
1천
2일로
3시에
4마리
5세
7억
8일
가다니
가줄게
각박
감량
같죠
같았어요
개시
개껌
거침
거더라
곁에
고2
고참
고장이
곳들이
곳이네
공학
공존
권리
귀걸이
그쯤
금쪽
길잖아
김병
깨워
꺼에요
나주
나겠지
난거
난장판
날개
남원
남북
낫겠네
내무
내밀
네는
노벨
높더라
놨다
눈알
달려야
닭볶음
답은
도시에
동글
됐으니
될지는
들렀
들리는데
듯해요
따러
딱인
때린
뚝뚝
뚫어
뛰어야
띄어
라인이
럭키
리클라이
만세
많으셨
말하네
말한거
맘편
매워서
먹이면
먼치킨
메리트
명언
명장면
몇분
모인
모음
모태
모험
모기는
목욜
몸뚱
몸에서
못지
무화
무배
무렵
물들
물이랑
민물
믿겨
바비
바엔
박재
박카
밤은
번인가
번밖에
범위
범인이
법적
변기에
보름
볼수록
봤냐고
부가
부유
부장님이
분이야
비온다
비중이
빌리
빠삭
뿌려서
뿐만이
사리
사신
사들고
사왔는데
사준다고
산행
산더미
살겠지
살자고
상속
상무
생은
서먹
선한
성묘
손소독
쉽다
스물
스팟
시들
시흥
시기를
신으면
쌓을
쑤셔
씨름
씨리얼
아신
안줄
안땡
안보면
안주면
안시켜
앉는
알더라
알겠지만
암것도
압출
애정이
앱도
야식이
양호
얘긴데
없인
없넹
없앴
없으세요
역까지
연관이
연출이
오기로
오에스
왼손
요금도
용량이
우르르
울었
위아래
은하
응시
의향
의논
이면
이효
이니스
인어
인류
일당
일출
일제
입음
입김
입장도
자장면
작동
작아도
잘하는거
잡코리아
재산이
잼있어
저금
전현
전까지만
정할
정하자
정거장
제사가
조진
좋나요
주셔
줌바
줍줍
줬다고
즐겼
지림
지킨
지장이
지우는
직방
진드
집들
짝사랑
짱잼
쫄면
찍은거
처치
처리가
청국
촌에
추어
친해진
침침
코트는
쿨하게
킥보드는
킹스
타미
태평
턱이
털을
투입
튀긴
트는
티는
티를
팀장이
판정
팔은
퍽퍽
편견이
평온
폰만
푸라
푸짐
풀어서
피겨
피지컬
하더
하던거
하겠구나
할거같아
항아리
해는
해를
해놓은
행사도
향신
허세
험난
헬리
혼난
회장님
훌라
흐르는
##수막
##지진
##지기도
##로를
##로이드
##아메
##겠고만
##이용
##이며
##고양이
##도면
##잖앜
##있지만
##타도
##타서
##는뎈
##다님
##상조
##상주의
##렌토
##난거
##치노
##치니까
##무니
##시에서
##주실
##요ㅠ
##기분
##식이야
##꺼가
##전엔
##전까지
##키면
##였군
##마라
##마사지
##비안
##비싼
##디도
##미한
##오리
##정말
##정거장
##혼자
##공기
##음악
##94
##적이면
##역까지
##먹었
##린가
##란이
##긴하는데
##랬다
##모아
##추가
##추워
##내지
##내에서
##생숭
##알못
##몰에서
##운거
##그래도
##졌던
##좋네
##좋은데
##점으로
##웃겨
##간식
##세일
##권으로
##페이로
##째야
##앗어
##낸다
##빨래
##빵도
##필드
##혔는데
##숭생숭
##채널
##ou
##캠핑
##취업
##취향
##탱이
##웨어
##BC
##믹스
그래주면
맞아본
아니더라구
아니였는데
아니잖아요
아니겠냐
좋아여
우리에겐
그러신
그렇더라구요
생각보단
그거밖에
그거까진
그냥저
게임회사
좋은뎅
들어야겠다
힘들다더라
이번달에
영화표
영화잖아
여행만
하나둘
##는거래
싶어져
정도밖에
정도라니
맛있는지
맛있었음
해야한다
운동이지
##해야하는
그랬군요
남자인
키우자고
건강히
비싸니
비싸지는
가족이니까
대박이네요
공부하자
예전보다는
걱정되는
걱정되고
없는가
찾아볼께
우리나라를
느낌일
만들어도
만들었나
사고날
있었으니까
있었군요
백신에
얘기했는데
얘기하다가
시작해봐
시작했어요
안되어서
부모님들도
부모님께서
추천은
추천이야
추천하고
추천합니다
알바하고
중국을
서울이라
받아보려고
준비물
준비중
학원이나
최고였어
몰랐을
인터스
한국으로
조심하라고
유명해진
세상의
배달앱
관심병
##하긴해
떨어진다
쇼핑하고
주변도
만화에
사랑해요
남편의
보여줘야
지나니까
해주더라고
최근에도
말하는게
키워봐서
가까워야
인정한다
30도
고생하고
티비엔
치킨이나
기대하는
시키기
수영할
알았다고
배워볼래
사용한
예약할
이야기하면
추억이야
할인하는
저렴하긴
접종완료
##하시더라고
어머어머
있으니까요
11년
11세
마지막까지
작은거
방법이네
1년도
자연의
자연스러워
자연스레
추석인데
어울리더라
사건이야
신청하는
구매를
구매하려고
100세
월세를
하시죠
검색을
일반적으로
느껴지네
현실이야
자동차로
자동차도
안해봄
안해봤어요
해줘요
컴퓨터도
스포츠야
예능을
빠르잖아
데려갈
노력해서
있던데요
주차를
주차장에
심각하긴
헬스장도
스타일인데
마시기
미쳤지
생겨도
국내로
듣고보니
하늘은
감독도
어플에
어플을
마블이
넘어가서
불안할
유럽에
유럽이
유럽으로
결제해
눈물을
걸어갈
발라줘야
먹은거
오르긴
만났던
가봐요
시술이
##해주니까
국민들은
예뻐지
둘째랑
기념일을
주사위
제품도
숙소에
가입하고
안보는데
자식은
끝났다고
빠져들
시대는
놀아도
카카오가
이벤트는
해병대가
개봉하는
##시켜야
처음에만
체험도
가르쳐주는
사과도
금액을
상담도
충전하는
아팠겠다
주위에도
안정감이
모양이네
현금을
농구를
안된다는
치과가
안쓰럽다
다닌대
상대를
친척이
친척들이
모더나는
배울까
추울까
간지러워
사귀면
배그도
쌀쌀한
멀미는
참고해서
강의는
스터디도
휴대폰을
가까이에
생길까
해봐야겠어요
##다녀야
케이크가
모임이
정부는
60만원
어떠려나
발견했어
취직할
정상에서
재미없더라
새우도
여드름은
베트남은
볼링장
방탄이
바르지
사교육을
다음주에는
잘됐어
다가오는
한강에
불법으로
스페셜
공무원은
모른대
비트코인은
입맛도
주름도
당일로
3번이나
어마어마한
코스튬
요소수가
지원금을
강남에서
그립네
안마기
관계도
##아이피
동남아는
미세먼지도
때려치
든든해
든든한
얼음이
소화도
없애야
아메리카노가
선크림도
시댁에
감당할
어느정도는
야채도
위생에
비빔면
줄어들어서
잘생겼지
잘생겼더라
인강으로
신경쓰여
여러가지로
어째서
트렌드
마인드가
마인크래프트
뚜벅이로
친절한
코미디언
한정식
신중히
몰입이
나아지지
황정민이
일자리를
컨셉이
못생겼
크로스
풍경도
가실래요
예의가
ㅋㅋㅋㅋㅋ
맡겨야
쿠팡이츠
행정병
