{
  "version": "1.0",
  "truncation": null,
  "padding": null,
  "added_tokens": [
    {
      "id": 0,
      "content": "[PAD]",
      "single_word": false,
      "lstrip": false,
      "rstrip": false,
      "normalized": false,
      "special": true
    },
    {
      "id": 1,
      "content": "[UNK]",
      "single_word": false,
      "lstrip": false,
      "rstrip": false,
      "normalized": false,
      "special": true
    },
    {
      "id": 2,
      "content": "[CLS]",
      "single_word": false,
      "lstrip": false,
      "rstrip": false,
      "normalized": false,
      "special": true
    },
    {
      "id": 3,
      "content": "[SEP]",
      "single_word": false,
      "lstrip": false,
      "rstrip": false,
      "normalized": false,
      "special": true
    },
    {
      "id": 4,
      "content": "[MASK]",
      "single_word": false,
      "lstrip": false,
      "rstrip": false,
      "normalized": false,
      "special": true
    }
  ],
  "normalizer": {
    "type": "BertNormalizer",
    "clean_text": true,
    "handle_chinese_chars": true,
    "strip_accents": null,
    "lowercase": false
  },
  "pre_tokenizer": {
    "type": "BertPreTokenizer"
  },
  "post_processor": {
    "type": "TemplateProcessing",
    "single": [
      {
        "SpecialToken": {
          "id": "[CLS]",
          "type_id": 0
        }
      },
      {
        "Sequence": {
          "id": "A",
          "type_id": 0
        }
      },
      {
        "SpecialToken": {
          "id": "[SEP]",
          "type_id": 0
        }
      }
    ],
    "pair": [
      {
        "SpecialToken": {
          "id": "[CLS]",
          "type_id": 0
        }
      },
      {
        "Sequence": {
          "id": "A",
          "type_id": 0
        }
      },
      {
        "SpecialToken": {
          "id": "[SEP]",
          "type_id": 0
        }
      },
      {
        "Sequence": {
          "id": "B",
          "type_id": 1
        }
      },
      {
        "SpecialToken": {
          "id": "[SEP]",
          "type_id": 1
        }
      }
    ],
    "special_tokens": {
      "[CLS]": {
        "id": "[CLS]",
        "ids": [
          2
        ],
        "tokens": [
          "[CLS]"
        ]
      },
      "[SEP]": {
        "id": "[SEP]",
        "ids": [
          3
        ],
        "tokens": [
          "[SEP]"
        ]
      }
    }
  },
  "decoder": {
    "type": "WordPiece",
    "prefix": "##",
    "cleanup": true
  },
  "model": {
    "type": "WordPiece",
    "unk_token": "[UNK]",
    "continuing_subword_prefix": "##",
    "max_input_chars_per_word": 100,
    "vocab": {
      "[PAD]": 0,
      "[UNK]": 1,
      "[CLS]": 2,
      "[SEP]": 3,
      "[MASK]": 4,
      "!": 5,
      ",": 6,
      "0": 7,
      "1": 8,
      "2": 9,
      "3": 10,
      "4": 11,
      "5": 12,
      "6": 13,
      "7": 14,
      "8": 15,
      "9": 16,
      "?": 17,
      "A": 18,
      "B": 19,
      "C": 20,
      "D": 21,
      "E": 22,
      "F": 23,
      "G": 24,
      "H": 25,
      "I": 26,
      "J": 27,
      "K": 28,
      "L": 29,
      "M": 30,
      "N": 31,
      "O": 32,
      "P": 33,
      "Q": 34,
      "R": 35,
      "S": 36,
      "T": 37,
      "U": 38,
      "V": 39,
      "W": 40,
      "X": 41,
      "Y": 42,
      "Z": 43,
      "`": 44,
      "a": 45,
      "b": 46,
      "c": 47,
      "d": 48,
      "e": 49,
      "f": 50,
      "g": 51,
      "h": 52,
      "i": 53,
      "j": 54,
      "k": 55,
      "l": 56,
      "m": 57,
      "n": 58,
      "o": 59,
      "p": 60,
      "q": 61,
      "r": 62,
      "s": 63,
      "t": 64,
      "u": 65,
      "v": 66,
      "w": 67,
      "x": 68,
      "y": 69,
      "z": 70,
      "°": 71,
      "·": 72,
      "ˊ": 73,
      "ˋ": 74,
      "ˎ": 75,
      "ˏ": 76,
      "˗": 77,
      "̆": 78,
      "̈": 79,
      "̑": 80,
      "ට": 81,
      "ᄏ": 82,
      "ᄒ": 83,
      "ᅟ": 84,
      "‘": 85,
      "’": 86,
      "“": 87,
      "”": 88,
      "…": 89,
      "ㄱ": 90,
      "ㄲ": 91,
      "ㄴ": 92,
      "ㄵ": 93,
      "ㄶ": 94,
      "ㄷ": 95,
      "ㄸ": 96,
      "ㄹ": 97,
      "ㄺ": 98,
      "ㄻ": 99,
      "ㄼ": 100,
      "ㅀ": 101,
      "ㅁ": 102,
      "ㅂ": 103,
      "ㅃ": 104,
      "ㅄ": 105,
      "ㅅ": 106,
      "ㅆ": 107,
      "ㅇ": 108,
      "ㅈ": 109,
      "ㅉ": 110,
      "ㅊ": 111,
      "ㅋ": 112,
      "ㅌ": 113,
      "ㅍ": 114,
      "ㅎ": 115,
      "ㅏ": 116,
      "ㅐ": 117,
      "ㅑ": 118,
      "ㅒ": 119,
      "ㅓ": 120,
      "ㅔ": 121,
      "ㅕ": 122,
      "ㅖ": 123,
      "ㅗ": 124,
      "ㅘ": 125,
      "ㅙ": 126,
      "ㅚ": 127,
      "ㅛ": 128,
      "ㅜ": 129,
      "ㅝ": 130,
      "ㅞ": 131,
      "ㅟ": 132,
      "ㅠ": 133,
      "ㅡ": 134,
      "ㅢ": 135,
      "ㅣ": 136,
      "ㆍ": 137,
      "㎞": 138,
      "㎡": 139,
      "原": 140,
      "和": 141,
      "弘": 142,
      "石": 143,
      "秋": 144,
      "가": 145,
      "각": 146,
      "갂": 147,
      "간": 148,
      "갅": 149,
      "갆": 150,
      "갇": 151,
      "갈": 152,
      "갉": 153,
      "갊": 154,
      "감": 155,
      "갑": 156,
      "값": 157,
      "갓": 158,
      "갔": 159,
      "강": 160,
      "갖": 161,
      "갗": 162,
      "갘": 163,
      "같": 164,
      "갚": 165,
      "갛": 166,
      "개": 167,
      "객": 168,
      "갞": 169,
      "갠": 170,
      "갣": 171,
      "갤": 172,
      "갬": 173,
      "갭": 174,
      "갮": 175,
      "갯": 176,
      "갰": 177,
      "갱": 178,
      "갲": 179,
      "갳": 180,
      "갴": 181,
      "갵": 182,
      "갶": 183,
      "갷": 184,
      "갸": 185,
      "갹": 186,
      "갺": 187,
      "갼": 188,
      "갿": 189,
      "걀": 190,
      "걃": 191,
      "걈": 192,
      "걉": 193,
      "걊": 194,
      "걋": 195,
      "걌": 196,
      "걍": 197,
      "걎": 198,
      "걏": 199,
      "걐": 200,
      "걑": 201,
      "걒": 202,
      "걓": 203,
      "걔": 204,
      "걕": 205,
      "걘": 206,
      "걛": 207,
      "걜": 208,
      "걥": 209,
      "걧": 210,
      "걩": 211,
      "거": 212,
      "걱": 213,
      "걲": 214,
      "건": 215,
      "걵": 216,
      "걶": 217,
      "걷": 218,
      "걸": 219,
      "걹": 220,
      "걺": 221,
      "검": 222,
      "겁": 223,
      "겂": 224,
      "것": 225,
      "겄": 226,
      "겅": 227,
      "겆": 228,
      "겇": 229,
      "겈": 230,
      "겉": 231,
      "겊": 232,
      "겋": 233,
      "게": 234,
      "겍": 235,
      "겎": 236,
      "겐": 237,
      "겓": 238,
      "겔": 239,
      "겜": 240,
      "겝": 241,
      "겟": 242,
      "겠": 243,
      "겡": 244,
      "겢": 245,
      "겣": 246,
      "겤": 247,
      "겥": 248,
      "겦": 249,
      "겧": 250,
      "겨": 251,
      "격": 252,
      "겪": 253,
      "견": 254,
      "겯": 255,
      "결": 256,
      "겲": 257,
      "겸": 258,
      "겹": 259,
      "겺": 260,
      "겻": 261,
      "겼": 262,
      "경": 263,
      "겾": 264,
      "겿": 265,
      "곀": 266,
      "곁": 267,
      "곂": 268,
      "곃": 269,
      "계": 270,
      "곅": 271,
      "곆": 272,
      "곈": 273,
      "곋": 274,
      "곌": 275,
      "곔": 276,
      "곕": 277,
      "곗": 278,
      "곘": 279,
      "곙": 280,
      "곚": 281,
      "곛": 282,
      "곝": 283,
      "곞": 284,
      "곟": 285,
      "고": 286,
      "곡": 287,
      "곢": 288,
      "곤": 289,
      "곧": 290,
      "골": 291,
      "곩": 292,
      "곪": 293,
      "곯": 294,
      "곰": 295,
      "곱": 296,
      "곲": 297,
      "곳": 298,
      "곴": 299,
      "공": 300,
      "곶": 301,
      "곷": 302,
      "곸": 303,
      "곹": 304,
      "곺": 305,
      "곻": 306,
      "과": 307,
      "곽": 308,
      "관": 309,
      "괃": 310,
      "괄": 311,
      "괌": 312,
      "괍": 313,
      "괏": 314,
      "괐": 315,
      "광": 316,
      "괒": 317,
      "괓": 318,
      "괔": 319,
      "괕": 320,
      "괗": 321,
      "괘": 322,
      "괜": 323,
      "괞": 324,
      "괟": 325,
      "괠": 326,
      "괨": 327,
      "괫": 328,
      "괬": 329,
      "괭": 330,
      "괮": 331,
      "괯": 332,
      "괰": 333,
      "괱": 334,
      "괴": 335,
      "괵": 336,
      "괸": 337,
      "괻": 338,
      "괼": 339,
      "굄": 340,
      "굅": 341,
      "굇": 342,
      "굉": 343,
      "굊": 344,
      "굌": 345,
      "굍": 346,
      "굏": 347,
      "교": 348,
      "굑": 349,
      "굒": 350,
      "굔": 351,
      "굗": 352,
      "굘": 353,
      "굠": 354,
      "굡": 355,
      "굣": 356,
      "굤": 357,
      "굥": 358,
      "굦": 359,
      "굧": 360,
      "굨": 361,
      "굩": 362,
      "굪": 363,
      "굫": 364,
      "구": 365,
      "국": 366,
      "굮": 367,
      "군": 368,
      "굳": 369,
      "굴": 370,
      "굵": 371,
      "굶": 372,
      "굼": 373,
      "굽": 374,
      "굾": 375,
      "굿": 376,
      "궀": 377,
      "궁": 378,
      "궂": 379,
      "궃": 380,
      "궄": 381,
      "궅": 382,
      "궆": 383,
      "궇": 384,
      "궈": 385,
      "궉": 386,
      "권": 387,
      "궏": 388,
      "궐": 389,
      "궘": 390,
      "궙": 391,
      "궛": 392,
      "궜": 393,
      "궝": 394,
      "궞": 395,
      "궠": 396,
      "궡": 397,
      "궣": 398,
      "궤": 399,
      "궵": 400,
      "귀": 401,
      "귁": 402,
      "귄": 403,
      "귇": 404,
      "귈": 405,
      "귐": 406,
      "귑": 407,
      "귓": 408,
      "귕": 409,
      "귖": 410,
      "귗": 411,
      "귘": 412,
      "귙": 413,
      "귚": 414,
      "귛": 415,
      "규": 416,
      "귝": 417,
      "균": 418,
      "귣": 419,
      "귤": 420,
      "귥": 421,
      "귦": 422,
      "귬": 423,
      "귭": 424,
      "귯": 425,
      "귱": 426,
      "귲": 427,
      "귳": 428,
      "귴": 429,
      "귵": 430,
      "귶": 431,
      "귷": 432,
      "그": 433,
      "극": 434,
      "귺": 435,
      "근": 436,
      "귾": 437,
      "귿": 438,
      "글": 439,
      "긁": 440,
      "긂": 441,
      "긇": 442,
      "금": 443,
      "급": 444,
      "긊": 445,
      "긋": 446,
      "긌": 447,
      "긍": 448,
      "긎": 449,
      "긏": 450,
      "긐": 451,
      "긑": 452,
      "긒": 453,
      "긓": 454,
      "긔": 455,
      "긜": 456,
      "긪": 457,
      "기": 458,
      "긱": 459,
      "긲": 460,
      "긴": 461,
      "긵": 462,
      "긷": 463,
      "길": 464,
      "긹": 465,
      "긿": 466,
      "김": 467,
      "깁": 468,
      "깂": 469,
      "깃": 470,
      "깄": 471,
      "깅": 472,
      "깆": 473,
      "깇": 474,
      "깈": 475,
      "깉": 476,
      "깊": 477,
      "깋": 478,
      "까": 479,
      "깍": 480,
      "깎": 481,
      "깐": 482,
      "깒": 483,
      "깓": 484,
      "깔": 485,
      "깜": 486,
      "깝": 487,
      "깞": 488,
      "깟": 489,
      "깠": 490,
      "깡": 491,
      "깢": 492,
      "깣": 493,
      "깤": 494,
      "깥": 495,
      "깦": 496,
      "깧": 497,
      "깨": 498,
      "깩": 499,
      "깪": 500,
      "깬": 501,
      "깯": 502,
      "깰": 503,
      "깸": 504,
      "깹": 505,
      "깻": 506,
      "깼": 507,
      "깽": 508,
      "깾": 509,
      "꺀": 510,
      "꺁": 511,
      "꺄": 512,
      "꺅": 513,
      "꺈": 514,
      "꺌": 515,
      "꺔": 516,
      "꺕": 517,
      "꺘": 518,
      "꺙": 519,
      "꺚": 520,
      "꺛": 521,
      "꺝": 522,
      "꺠": 523,
      "꺡": 524,
      "꺳": 525,
      "꺵": 526,
      "꺶": 527,
      "꺼": 528,
      "꺽": 529,
      "꺾": 530,
      "껀": 531,
      "껂": 532,
      "껃": 533,
      "껄": 534,
      "껋": 535,
      "껌": 536,
      "껍": 537,
      "껏": 538,
      "껐": 539,
      "껑": 540,
      "껒": 541,
      "껓": 542,
      "껔": 543,
      "껕": 544,
      "껖": 545,
      "께": 546,
      "껙": 547,
      "껜": 548,
      "껠": 549,
      "껨": 550,
      "껩": 551,
      "껫": 552,
      "껬": 553,
      "껭": 554,
      "껮": 555,
      "껰": 556,
      "껲": 557,
      "껳": 558,
      "껴": 559,
      "껵": 560,
      "껶": 561,
      "껸": 562,
      "껻": 563,
      "껼": 564,
      "꼅": 565,
      "꼇": 566,
      "꼈": 567,
      "꼉": 568,
      "꼊": 569,
      "꼋": 570,
      "꼌": 571,
      "꼍": 572,
      "꼎": 573,
      "꼏": 574,
      "꼐": 575,
      "꼣": 576,
      "꼤": 577,
      "꼥": 578,
      "꼦": 579,
      "꼨": 580,
      "꼬": 581,
      "꼭": 582,
      "꼮": 583,
      "꼰": 584,
      "꼳": 585,
      "꼴": 586,
      "꼼": 587,
      "꼽": 588,
      "꼿": 589,
      "꽁": 590,
      "꽂": 591,
      "꽃": 592,
      "꽄": 593,
      "꽅": 594,
      "꽆": 595,
      "꽇": 596,
      "꽈": 597,
      "꽉": 598,
      "꽌": 599,
      "꽏": 600,
      "꽐": 601,
      "꽙": 602,
      "꽛": 603,
      "꽜": 604,
      "꽝": 605,
      "꽤": 606,
      "꽨": 607,
      "꽹": 608,
      "꽺": 609,
      "꽼": 610,
      "꾀": 611,
      "꾄": 612,
      "꾕": 613,
      "꾜": 614,
      "꾝": 615,
      "꾬": 616,
      "꾭": 617,
      "꾰": 618,
      "꾱": 619,
      "꾲": 620,
      "꾵": 621,
      "꾶": 622,
      "꾸": 623,
      "꾹": 624,
      "꾼": 625,
      "꾾": 626,
      "꾿": 627,
      "꿀": 628,
      "꿁": 629,
      "꿂": 630,
      "꿇": 631,
      "꿈": 632,
      "꿉": 633,
      "꿋": 634,
      "꿍": 635,
      "꿎": 636,
      "꿏": 637,
      "꿐": 638,
      "꿑": 639,
      "꿒": 640,
      "꿓": 641,
      "꿔": 642,
      "꿕": 643,
      "꿘": 644,
      "꿥": 645,
      "꿧": 646,
      "꿨": 647,
      "꿩": 648,
      "꿪": 649,
      "꿬": 650,
      "꿰": 651,
      "뀌": 652,
      "뀍": 653,
      "뀎": 654,
      "뀐": 655,
      "뀓": 656,
      "뀔": 657,
      "뀜": 658,
      "뀝": 659,
      "뀡": 660,
      "뀢": 661,
      "뀤": 662,
      "뀥": 663,
      "뀨": 664,
      "뀬": 665,
      "뀰": 666,
      "뀲": 667,
      "뀸": 668,
      "뀽": 669,
      "뀾": 670,
      "뀿": 671,
      "끀": 672,
      "끂": 673,
      "끄": 674,
      "끅": 675,
      "끆": 676,
      "끈": 677,
      "끊": 678,
      "끋": 679,
      "끌": 680,
      "끓": 681,
      "끔": 682,
      "끕": 683,
      "끗": 684,
      "끘": 685,
      "끙": 686,
      "끚": 687,
      "끛": 688,
      "끜": 689,
      "끝": 690,
      "끞": 691,
      "끟": 692,
      "끼": 693,
      "끽": 694,
      "끾": 695,
      "낀": 696,
      "낃": 697,
      "낄": 698,
      "낌": 699,
      "낍": 700,
      "낏": 701,
      "낐": 702,
      "낑": 703,
      "낒": 704,
      "낓": 705,
      "낔": 706,
      "낕": 707,
      "낗": 708,
      "나": 709,
      "낙": 710,
      "낚": 711,
      "난": 712,
      "낝": 713,
      "낞": 714,
      "낟": 715,
      "날": 716,
      "낡": 717,
      "낢": 718,
      "낣": 719,
      "낧": 720,
      "남": 721,
      "납": 722,
      "낫": 723,
      "났": 724,
      "낭": 725,
      "낮": 726,
      "낯": 727,
      "낰": 728,
      "낱": 729,
      "낲": 730,
      "낳": 731,
      "내": 732,
      "낵": 733,
      "낶": 734,
      "낸": 735,
      "낺": 736,
      "낻": 737,
      "낼": 738,
      "냄": 739,
      "냅": 740,
      "냇": 741,
      "냈": 742,
      "냉": 743,
      "냊": 744,
      "냋": 745,
      "냌": 746,
      "냍": 747,
      "냎": 748,
      "냏": 749,
      "냐": 750,
      "냑": 751,
      "냒": 752,
      "냔": 753,
      "냖": 754,
      "냗": 755,
      "냘": 756,
      "냛": 757,
      "냠": 758,
      "냡": 759,
      "냢": 760,
      "냣": 761,
      "냤": 762,
      "냥": 763,
      "냦": 764,
      "냧": 765,
      "냨": 766,
      "냩": 767,
      "냪": 768,
      "냫": 769,
      "냬": 770,
      "냭": 771,
      "냴": 772,
      "냼": 773,
      "냿": 774,
      "넀": 775,
      "넁": 776,
      "넂": 777,
      "넇": 778,
      "너": 779,
      "넉": 780,
      "넊": 781,
      "넋": 782,
      "넌": 783,
      "넎": 784,
      "넏": 785,
      "널": 786,
      "넑": 787,
      "넒": 788,
      "넓": 789,
      "넘": 790,
      "넙": 791,
      "넚": 792,
      "넛": 793,
      "넜": 794,
      "넝": 795,
      "넞": 796,
      "넟": 797,
      "넠": 798,
      "넡": 799,
      "넢": 800,
      "넣": 801,
      "네": 802,
      "넥": 803,
      "넦": 804,
      "넨": 805,
      "넫": 806,
      "넬": 807,
      "넴": 808,
      "넵": 809,
      "넷": 810,
      "넸": 811,
      "넹": 812,
      "넺": 813,
      "넻": 814,
      "넼": 815,
      "넽": 816,
      "넾": 817,
      "넿": 818,
      "녀": 819,
      "녁": 820,
      "녂": 821,
      "년": 822,
      "녇": 823,
      "녈": 824,
      "녋": 825,
      "념": 826,
      "녑": 827,
      "녒": 828,
      "녓": 829,
      "녔": 830,
      "녕": 831,
      "녖": 832,
      "녗": 833,
      "녘": 834,
      "녙": 835,
      "녚": 836,
      "녛": 837,
      "녜": 838,
      "녠": 839,
      "녣": 840,
      "녤": 841,
      "녭": 842,
      "녯": 843,
      "녱": 844,
      "녲": 845,
      "노": 846,
      "녹": 847,
      "녺": 848,
      "녻": 849,
      "논": 850,
      "녿": 851,
      "놀": 852,
      "놃": 853,
      "놈": 854,
      "놉": 855,
      "놊": 856,
      "놋": 857,
      "놌": 858,
      "농": 859,
      "놎": 860,
      "놏": 861,
      "놐": 862,
      "놑": 863,
      "높": 864,
      "놓": 865,
      "놔": 866,
      "놕": 867,
      "놘": 868,
      "놛": 869,
      "놜": 870,
      "놥": 871,
      "놧": 872,
      "놨": 873,
      "놩": 874,
      "놪": 875,
      "놬": 876,
      "놭": 877,
      "놯": 878,
      "놰": 879,
      "놴": 880,
      "뇃": 881,
      "뇄": 882,
      "뇌": 883,
      "뇍": 884,
      "뇐": 885,
      "뇓": 886,
      "뇔": 887,
      "뇜": 888,
      "뇟": 889,
      "뇡": 890,
      "뇢": 891,
      "뇣": 892,
      "뇤": 893,
      "뇥": 894,
      "뇦": 895,
      "뇨": 896,
      "뇩": 897,
      "뇬": 898,
      "뇯": 899,
      "뇰": 900,
      "뇸": 901,
      "뇹": 902,
      "뇻": 903,
      "뇼": 904,
      "뇽": 905,
      "뇾": 906,
      "눀": 907,
      "눂": 908,
      "눃": 909,
      "누": 910,
      "눅": 911,
      "눆": 912,
      "눈": 913,
      "눋": 914,
      "눌": 915,
      "눍": 916,
      "눎": 917,
      "눏": 918,
      "눔": 919,
      "눕": 920,
      "눗": 921,
      "눘": 922,
      "눙": 923,
      "눚": 924,
      "눛": 925,
      "눜": 926,
      "눝": 927,
      "눞": 928,
      "눟": 929,
      "눠": 930,
      "눡": 931,
      "눤": 932,
      "눧": 933,
      "눨": 934,
      "눰": 935,
      "눱": 936,
      "눳": 937,
      "눴": 938,
      "눵": 939,
      "눶": 940,
      "눷": 941,
      "눸": 942,
      "눹": 943,
      "눻": 944,
      "눼": 945,
      "뉀": 946,
      "뉃": 947,
      "뉄": 948,
      "뉘": 949,
      "뉙": 950,
      "뉜": 951,
      "뉩": 952,
      "뉭": 953,
      "뉮": 954,
      "뉳": 955,
      "뉴": 956,
      "뉵": 957,
      "뉸": 958,
      "뉻": 959,
      "뉼": 960,
      "늄": 961,
      "늅": 962,
      "늇": 963,
      "늈": 964,
      "늉": 965,
      "늊": 966,
      "늌": 967,
      "늍": 968,
      "늎": 969,
      "늏": 970,
      "느": 971,
      "늑": 972,
      "늒": 973,
      "는": 974,
      "늖": 975,
      "늗": 976,
      "늘": 977,
      "늙": 978,
      "늛": 979,
      "늠": 980,
      "늡": 981,
      "늢": 982,
      "늣": 983,
      "늤": 984,
      "능": 985,
      "늦": 986,
      "늧": 987,
      "늨": 988,
      "늩": 989,
      "늪": 990,
      "늫": 991,
      "늬": 992,
      "늭": 993,
      "닇": 994,
      "니": 995,
      "닉": 996,
      "닊": 997,
      "닌": 998,
      "닎": 999,
      "닏": 1000,
      "닐": 1001,
      "닑": 1002,
      "닗": 1003,
      "님": 1004,
      "닙": 1005,
      "닛": 1006,
      "닜": 1007,
      "닝": 1008,
      "닞": 1009,
      "닟": 1010,
      "닠": 1011,
      "닡": 1012,
      "닢": 1013,
      "닣": 1014,
      "다": 1015,
      "닥": 1016,
      "닦": 1017,
      "단": 1018,
      "닩": 1019,
      "닪": 1020,
      "닫": 1021,
      "달": 1022,
      "닭": 1023,
      "닮": 1024,
      "닳": 1025,
      "담": 1026,
      "답": 1027,
      "닶": 1028,
      "닷": 1029,
      "닸": 1030,
      "당": 1031,
      "닺": 1032,
      "닻": 1033,
      "닼": 1034,
      "닽": 1035,
      "닾": 1036,
      "닿": 1037,
      "대": 1038,
      "댁": 1039,
      "댂": 1040,
      "댄": 1041,
      "댆": 1042,
      "댇": 1043,
      "댈": 1044,
      "댊": 1045,
      "댐": 1046,
      "댑": 1047,
      "댓": 1048,
      "댔": 1049,
      "댕": 1050,
      "댖": 1051,
      "댗": 1052,
      "댘": 1053,
      "댙": 1054,
      "댚": 1055,
      "댛": 1056,
      "댜": 1057,
      "댝": 1058,
      "댞": 1059,
      "댠": 1060,
      "댣": 1061,
      "댤": 1062,
      "댥": 1063,
      "댬": 1064,
      "댭": 1065,
      "댮": 1066,
      "댯": 1067,
      "댰": 1068,
      "댱": 1069,
      "댲": 1070,
      "댳": 1071,
      "댴": 1072,
      "댵": 1073,
      "댶": 1074,
      "댷": 1075,
      "댸": 1076,
      "댹": 1077,
      "댿": 1078,
      "덀": 1079,
      "덉": 1080,
      "덍": 1081,
      "덏": 1082,
      "덑": 1083,
      "덓": 1084,
      "더": 1085,
      "덕": 1086,
      "덖": 1087,
      "던": 1088,
      "덚": 1089,
      "덛": 1090,
      "덜": 1091,
      "덝": 1092,
      "덞": 1093,
      "덟": 1094,
      "덤": 1095,
      "덥": 1096,
      "덦": 1097,
      "덧": 1098,
      "덨": 1099,
      "덩": 1100,
      "덪": 1101,
      "덫": 1102,
      "덬": 1103,
      "덭": 1104,
      "덮": 1105,
      "덯": 1106,
      "데": 1107,
      "덱": 1108,
      "덲": 1109,
      "덴": 1110,
      "덷": 1111,
      "델": 1112,
      "뎀": 1113,
      "뎁": 1114,
      "뎃": 1115,
      "뎄": 1116,
      "뎅": 1117,
      "뎆": 1118,
      "뎇": 1119,
      "뎈": 1120,
      "뎉": 1121,
      "뎊": 1122,
      "뎋": 1123,
      "뎌": 1124,
      "뎍": 1125,
      "뎎": 1126,
      "뎐": 1127,
      "뎓": 1128,
      "뎔": 1129,
      "뎜": 1130,
      "뎝": 1131,
      "뎟": 1132,
      "뎠": 1133,
      "뎡": 1134,
      "뎢": 1135,
      "뎣": 1136,
      "뎤": 1137,
      "뎥": 1138,
      "뎦": 1139,
      "뎧": 1140,
      "뎨": 1141,
      "뎩": 1142,
      "뎬": 1143,
      "뎰": 1144,
      "뎻": 1145,
      "뎼": 1146,
      "뎽": 1147,
      "뎾": 1148,
      "돃": 1149,
      "도": 1150,
      "독": 1151,
      "돆": 1152,
      "돈": 1153,
      "돋": 1154,
      "돌": 1155,
      "돎": 1156,
      "돓": 1157,
      "돔": 1158,
      "돕": 1159,
      "돖": 1160,
      "돗": 1161,
      "돘": 1162,
      "동": 1163,
      "돚": 1164,
      "돛": 1165,
      "돜": 1166,
      "돝": 1167,
      "돞": 1168,
      "돟": 1169,
      "돠": 1170,
      "돤": 1171,
      "돧": 1172,
      "돨": 1173,
      "돱": 1174,
      "돳": 1175,
      "돴": 1176,
      "돵": 1177,
      "돼": 1178,
      "돽": 1179,
      "됀": 1180,
      "됃": 1181,
      "됄": 1182,
      "됌": 1183,
      "됍": 1184,
      "됏": 1185,
      "됐": 1186,
      "됑": 1187,
      "됒": 1188,
      "됔": 1189,
      "됕": 1190,
      "되": 1191,
      "됙": 1192,
      "됚": 1193,
      "된": 1194,
      "됟": 1195,
      "될": 1196,
      "됨": 1197,
      "됩": 1198,
      "됫": 1199,
      "됬": 1200,
      "됭": 1201,
      "됮": 1202,
      "됯": 1203,
      "됰": 1204,
      "됱": 1205,
      "됲": 1206,
      "됳": 1207,
      "됴": 1208,
      "됵": 1209,
      "됶": 1210,
      "됸": 1211,
      "됻": 1212,
      "됼": 1213,
      "둄": 1214,
      "둇": 1215,
      "둈": 1216,
      "둉": 1217,
      "둊": 1218,
      "둋": 1219,
      "둍": 1220,
      "둎": 1221,
      "둏": 1222,
      "두": 1223,
      "둑": 1224,
      "둒": 1225,
      "둔": 1226,
      "둗": 1227,
      "둘": 1228,
      "둚": 1229,
      "둟": 1230,
      "둠": 1231,
      "둡": 1232,
      "둢": 1233,
      "둣": 1234,
      "둤": 1235,
      "둥": 1236,
      "둦": 1237,
      "둧": 1238,
      "둨": 1239,
      "둩": 1240,
      "둪": 1241,
      "둫": 1242,
      "둬": 1243,
      "둰": 1244,
      "둳": 1245,
      "둴": 1246,
      "둼": 1247,
      "둽": 1248,
      "둿": 1249,
      "뒀": 1250,
      "뒁": 1251,
      "뒂": 1252,
      "뒌": 1253,
      "뒝": 1254,
      "뒤": 1255,
      "뒥": 1256,
      "뒦": 1257,
      "뒨": 1258,
      "뒬": 1259,
      "뒴": 1260,
      "뒷": 1261,
      "뒹": 1262,
      "뒺": 1263,
      "뒻": 1264,
      "뒿": 1265,
      "듀": 1266,
      "듁": 1267,
      "듄": 1268,
      "듇": 1269,
      "듈": 1270,
      "듐": 1271,
      "듑": 1272,
      "듓": 1273,
      "듕": 1274,
      "듗": 1275,
      "듙": 1276,
      "듛": 1277,
      "드": 1278,
      "득": 1279,
      "듞": 1280,
      "든": 1281,
      "듢": 1282,
      "듣": 1283,
      "들": 1284,
      "듥": 1285,
      "듦": 1286,
      "듬": 1287,
      "듭": 1288,
      "듮": 1289,
      "듯": 1290,
      "듰": 1291,
      "등": 1292,
      "듲": 1293,
      "듳": 1294,
      "듴": 1295,
      "듵": 1296,
      "듶": 1297,
      "듷": 1298,
      "듸": 1299,
      "딐": 1300,
      "딓": 1301,
      "디": 1302,
      "딕": 1303,
      "딖": 1304,
      "딘": 1305,
      "딚": 1306,
      "딛": 1307,
      "딜": 1308,
      "딝": 1309,
      "딞": 1310,
      "딤": 1311,
      "딥": 1312,
      "딧": 1313,
      "딨": 1314,
      "딩": 1315,
      "딪": 1316,
      "딫": 1317,
      "딬": 1318,
      "딭": 1319,
      "딮": 1320,
      "딯": 1321,
      "따": 1322,
      "딱": 1323,
      "딲": 1324,
      "딴": 1325,
      "딷": 1326,
      "딸": 1327,
      "딹": 1328,
      "딺": 1329,
      "딿": 1330,
      "땀": 1331,
      "땁": 1332,
      "땃": 1333,
      "땄": 1334,
      "땅": 1335,
      "땆": 1336,
      "땇": 1337,
      "땈": 1338,
      "땉": 1339,
      "땊": 1340,
      "땋": 1341,
      "때": 1342,
      "땍": 1343,
      "땎": 1344,
      "땐": 1345,
      "땓": 1346,
      "땔": 1347,
      "땜": 1348,
      "땝": 1349,
      "땟": 1350,
      "땠": 1351,
      "땡": 1352,
      "땢": 1353,
      "땣": 1354,
      "땤": 1355,
      "땥": 1356,
      "땦": 1357,
      "땧": 1358,
      "땨": 1359,
      "땩": 1360,
      "땬": 1361,
      "땯": 1362,
      "땰": 1363,
      "땸": 1364,
      "땹": 1365,
      "땻": 1366,
      "땼": 1367,
      "땽": 1368,
      "떃": 1369,
      "떄": 1370,
      "떆": 1371,
      "떈": 1372,
      "떋": 1373,
      "떌": 1374,
      "떔": 1375,
      "떕": 1376,
      "떘": 1377,
      "떙": 1378,
      "떚": 1379,
      "떜": 1380,
      "떟": 1381,
      "떠": 1382,
      "떡": 1383,
      "떢": 1384,
      "떤": 1385,
      "떧": 1386,
      "떨": 1387,
      "떫": 1388,
      "떯": 1389,
      "떰": 1390,
      "떱": 1391,
      "떳": 1392,
      "떴": 1393,
      "떵": 1394,
      "떶": 1395,
      "떷": 1396,
      "떸": 1397,
      "떹": 1398,
      "떺": 1399,
      "떻": 1400,
      "떼": 1401,
      "떽": 1402,
      "뗀": 1403,
      "뗃": 1404,
      "뗄": 1405,
      "뗌": 1406,
      "뗏": 1407,
      "뗐": 1408,
      "뗑": 1409,
      "뗒": 1410,
      "뗓": 1411,
      "뗖": 1412,
      "뗘": 1413,
      "뗙": 1414,
      "뗜": 1415,
      "뗠": 1416,
      "뗫": 1417,
      "뗬": 1418,
      "뗭": 1419,
      "뗲": 1420,
      "뗳": 1421,
      "뗴": 1422,
      "또": 1423,
      "똑": 1424,
      "똒": 1425,
      "똔": 1426,
      "똗": 1427,
      "똘": 1428,
      "똟": 1429,
      "똠": 1430,
      "똡": 1431,
      "똣": 1432,
      "똤": 1433,
      "똥": 1434,
      "똧": 1435,
      "똨": 1436,
      "똩": 1437,
      "똫": 1438,
      "똬": 1439,
      "똭": 1440,
      "뙇": 1441,
      "뙈": 1442,
      "뙛": 1443,
      "뙜": 1444,
      "뙤": 1445,
      "뙥": 1446,
      "뙨": 1447,
      "뙫": 1448,
      "뙬": 1449,
      "뙴": 1450,
      "뙷": 1451,
      "뙹": 1452,
      "뙺": 1453,
      "뙻": 1454,
      "뚀": 1455,
      "뚁": 1456,
      "뚇": 1457,
      "뚈": 1458,
      "뚕": 1459,
      "뚜": 1460,
      "뚝": 1461,
      "뚞": 1462,
      "뚠": 1463,
      "뚣": 1464,
      "뚤": 1465,
      "뚫": 1466,
      "뚯": 1467,
      "뚱": 1468,
      "뚲": 1469,
      "뚵": 1470,
      "뚶": 1471,
      "뚷": 1472,
      "뛌": 1473,
      "뛰": 1474,
      "뛱": 1475,
      "뛲": 1476,
      "뛴": 1477,
      "뛷": 1478,
      "뛸": 1479,
      "뜀": 1480,
      "뜅": 1481,
      "뜆": 1482,
      "뜇": 1483,
      "뜉": 1484,
      "뜌": 1485,
      "뜍": 1486,
      "뜔": 1487,
      "뜡": 1488,
      "뜨": 1489,
      "뜩": 1490,
      "뜪": 1491,
      "뜬": 1492,
      "뜯": 1493,
      "뜰": 1494,
      "뜷": 1495,
      "뜸": 1496,
      "뜹": 1497,
      "뜻": 1498,
      "뜼": 1499,
      "뜽": 1500,
      "뜾": 1501,
      "뜿": 1502,
      "띀": 1503,
      "띁": 1504,
      "띂": 1505,
      "띃": 1506,
      "띄": 1507,
      "띅": 1508,
      "띈": 1509,
      "띌": 1510,
      "띙": 1511,
      "띠": 1512,
      "띡": 1513,
      "띤": 1514,
      "띧": 1515,
      "띨": 1516,
      "띰": 1517,
      "띳": 1518,
      "띴": 1519,
      "띵": 1520,
      "띺": 1521,
      "띻": 1522,
      "라": 1523,
      "락": 1524,
      "띾": 1525,
      "란": 1526,
      "랁": 1527,
      "랂": 1528,
      "랃": 1529,
      "랄": 1530,
      "랉": 1531,
      "람": 1532,
      "랍": 1533,
      "랎": 1534,
      "랏": 1535,
      "랐": 1536,
      "랑": 1537,
      "랒": 1538,
      "랓": 1539,
      "랔": 1540,
      "랕": 1541,
      "랖": 1542,
      "랗": 1543,
      "래": 1544,
      "랙": 1545,
      "랚": 1546,
      "랜": 1547,
      "랟": 1548,
      "랠": 1549,
      "랧": 1550,
      "램": 1551,
      "랩": 1552,
      "랫": 1553,
      "랬": 1554,
      "랭": 1555,
      "랮": 1556,
      "랯": 1557,
      "랰": 1558,
      "랱": 1559,
      "랲": 1560,
      "랳": 1561,
      "랴": 1562,
      "략": 1563,
      "랸": 1564,
      "랺": 1565,
      "랻": 1566,
      "랼": 1567,
      "랿": 1568,
      "럄": 1569,
      "럅": 1570,
      "럇": 1571,
      "럈": 1572,
      "량": 1573,
      "럊": 1574,
      "럋": 1575,
      "럌": 1576,
      "럍": 1577,
      "럏": 1578,
      "럐": 1579,
      "럔": 1580,
      "럗": 1581,
      "럣": 1582,
      "럤": 1583,
      "럥": 1584,
      "러": 1585,
      "럭": 1586,
      "럮": 1587,
      "런": 1588,
      "럱": 1589,
      "럲": 1590,
      "럳": 1591,
      "럴": 1592,
      "럻": 1593,
      "럼": 1594,
      "럽": 1595,
      "럾": 1596,
      "럿": 1597,
      "렀": 1598,
      "렁": 1599,
      "렂": 1600,
      "렃": 1601,
      "렄": 1602,
      "렅": 1603,
      "렆": 1604,
      "렇": 1605,
      "레": 1606,
      "렉": 1607,
      "렊": 1608,
      "렌": 1609,
      "렏": 1610,
      "렐": 1611,
      "렘": 1612,
      "렙": 1613,
      "렛": 1614,
      "렜": 1615,
      "렝": 1616,
      "렞": 1617,
      "렟": 1618,
      "렠": 1619,
      "렡": 1620,
      "렢": 1621,
      "렣": 1622,
      "려": 1623,
      "력": 1624,
      "렦": 1625,
      "련": 1626,
      "렫": 1627,
      "렬": 1628,
      "렴": 1629,
      "렵": 1630,
      "렶": 1631,
      "렷": 1632,
      "렸": 1633,
      "령": 1634,
      "렺": 1635,
      "렻": 1636,
      "렼": 1637,
      "렽": 1638,
      "렿": 1639,
      "례": 1640,
      "롁": 1641,
      "롄": 1642,
      "롇": 1643,
      "롈": 1644,
      "롑": 1645,
      "롓": 1646,
      "롔": 1647,
      "롕": 1648,
      "롖": 1649,
      "롛": 1650,
      "로": 1651,
      "록": 1652,
      "롞": 1653,
      "론": 1654,
      "롣": 1655,
      "롤": 1656,
      "롦": 1657,
      "롬": 1658,
      "롭": 1659,
      "롮": 1660,
      "롯": 1661,
      "롰": 1662,
      "롱": 1663,
      "롲": 1664,
      "롳": 1665,
      "롴": 1666,
      "롵": 1667,
      "롶": 1668,
      "롷": 1669,
      "롸": 1670,
      "롹": 1671,
      "롼": 1672,
      "롿": 1673,
      "뢀": 1674,
      "뢈": 1675,
      "뢋": 1676,
      "뢌": 1677,
      "뢍": 1678,
      "뢎": 1679,
      "뢒": 1680,
      "뢔": 1681,
      "뢘": 1682,
      "뢩": 1683,
      "뢭": 1684,
      "뢰": 1685,
      "뢱": 1686,
      "뢷": 1687,
      "뢸": 1688,
      "룀": 1689,
      "룃": 1690,
      "룅": 1691,
      "룇": 1692,
      "료": 1693,
      "룍": 1694,
      "룎": 1695,
      "룐": 1696,
      "룓": 1697,
      "룔": 1698,
      "룜": 1699,
      "룝": 1700,
      "룟": 1701,
      "룠": 1702,
      "룡": 1703,
      "룢": 1704,
      "룥": 1705,
      "룧": 1706,
      "루": 1707,
      "룩": 1708,
      "룬": 1709,
      "룯": 1710,
      "룰": 1711,
      "룸": 1712,
      "룹": 1713,
      "룺": 1714,
      "룻": 1715,
      "룼": 1716,
      "룽": 1717,
      "룾": 1718,
      "룿": 1719,
      "뤀": 1720,
      "뤁": 1721,
      "뤂": 1722,
      "뤃": 1723,
      "뤄": 1724,
      "뤈": 1725,
      "뤌": 1726,
      "뤕": 1727,
      "뤗": 1728,
      "뤘": 1729,
      "뤙": 1730,
      "뤚": 1731,
      "뤝": 1732,
      "뤟": 1733,
      "뤠": 1734,
      "뤱": 1735,
      "뤼": 1736,
      "뤽": 1737,
      "륀": 1738,
      "륃": 1739,
      "륍": 1740,
      "륏": 1741,
      "륑": 1742,
      "륒": 1743,
      "륓": 1744,
      "륕": 1745,
      "륗": 1746,
      "류": 1747,
      "륙": 1748,
      "륜": 1749,
      "륟": 1750,
      "률": 1751,
      "륨": 1752,
      "륩": 1753,
      "륫": 1754,
      "륬": 1755,
      "륭": 1756,
      "륮": 1757,
      "륯": 1758,
      "륳": 1759,
      "르": 1760,
      "륵": 1761,
      "륶": 1762,
      "른": 1763,
      "륺": 1764,
      "륻": 1765,
      "를": 1766,
      "륽": 1767,
      "름": 1768,
      "릅": 1769,
      "릆": 1770,
      "릇": 1771,
      "릈": 1772,
      "릉": 1773,
      "릊": 1774,
      "릋": 1775,
      "릌": 1776,
      "릍": 1777,
      "릎": 1778,
      "릏": 1779,
      "릐": 1780,
      "릔": 1781,
      "릥": 1782,
      "리": 1783,
      "릭": 1784,
      "릮": 1785,
      "린": 1786,
      "릳": 1787,
      "릴": 1788,
      "릻": 1789,
      "림": 1790,
      "립": 1791,
      "릿": 1792,
      "맀": 1793,
      "링": 1794,
      "맂": 1795,
      "맃": 1796,
      "맄": 1797,
      "맅": 1798,
      "맆": 1799,
      "맇": 1800,
      "마": 1801,
      "막": 1802,
      "맊": 1803,
      "만": 1804,
      "많": 1805,
      "맏": 1806,
      "말": 1807,
      "맑": 1808,
      "맓": 1809,
      "맘": 1810,
      "맙": 1811,
      "맛": 1812,
      "맜": 1813,
      "망": 1814,
      "맞": 1815,
      "맟": 1816,
      "맠": 1817,
      "맡": 1818,
      "맢": 1819,
      "맣": 1820,
      "매": 1821,
      "맥": 1822,
      "맦": 1823,
      "맨": 1824,
      "맪": 1825,
      "맫": 1826,
      "맬": 1827,
      "맭": 1828,
      "맴": 1829,
      "맵": 1830,
      "맷": 1831,
      "맸": 1832,
      "맹": 1833,
      "맺": 1834,
      "맻": 1835,
      "맼": 1836,
      "맽": 1837,
      "맾": 1838,
      "맿": 1839,
      "먀": 1840,
      "먁": 1841,
      "먄": 1842,
      "먆": 1843,
      "먇": 1844,
      "먈": 1845,
      "먐": 1846,
      "먑": 1847,
      "먓": 1848,
      "먕": 1849,
      "먖": 1850,
      "먗": 1851,
      "먘": 1852,
      "먛": 1853,
      "먜": 1854,
      "먝": 1855,
      "먠": 1856,
      "먱": 1857,
      "먳": 1858,
      "먶": 1859,
      "먷": 1860,
      "머": 1861,
      "먹": 1862,
      "먺": 1863,
      "먼": 1864,
      "먾": 1865,
      "먿": 1866,
      "멀": 1867,
      "멁": 1868,
      "멃": 1869,
      "멈": 1870,
      "멉": 1871,
      "멋": 1872,
      "멌": 1873,
      "멍": 1874,
      "멎": 1875,
      "멏": 1876,
      "멐": 1877,
      "멑": 1878,
      "멒": 1879,
      "멓": 1880,
      "메": 1881,
      "멕": 1882,
      "멖": 1883,
      "멘": 1884,
      "멛": 1885,
      "멜": 1886,
      "멤": 1887,
      "멥": 1888,
      "멧": 1889,
      "멨": 1890,
      "멩": 1891,
      "멪": 1892,
      "멫": 1893,
      "멬": 1894,
      "멭": 1895,
      "멮": 1896,
      "멯": 1897,
      "며": 1898,
      "멱": 1899,
      "멲": 1900,
      "면": 1901,
      "멶": 1902,
      "멷": 1903,
      "멸": 1904,
      "몀": 1905,
      "몁": 1906,
      "몃": 1907,
      "몄": 1908,
      "명": 1909,
      "몆": 1910,
      "몇": 1911,
      "몈": 1912,
      "몉": 1913,
      "몊": 1914,
      "몋": 1915,
      "몌": 1916,
      "몜": 1917,
      "모": 1918,
      "목": 1919,
      "몪": 1920,
      "몫": 1921,
      "몬": 1922,
      "몯": 1923,
      "몰": 1924,
      "몷": 1925,
      "몸": 1926,
      "몹": 1927,
      "못": 1928,
      "몼": 1929,
      "몽": 1930,
      "몾": 1931,
      "몿": 1932,
      "뫀": 1933,
      "뫁": 1934,
      "뫂": 1935,
      "뫃": 1936,
      "뫄": 1937,
      "뫋": 1938,
      "뫌": 1939,
      "뫕": 1940,
      "뫗": 1941,
      "뫘": 1942,
      "뫙": 1943,
      "뫚": 1944,
      "뫛": 1945,
      "뫞": 1946,
      "뫠": 1947,
      "뫼": 1948,
      "묍": 1949,
      "묑": 1950,
      "묘": 1951,
      "묙": 1952,
      "묜": 1953,
      "묟": 1954,
      "묠": 1955,
      "묫": 1956,
      "묭": 1957,
      "묮": 1958,
      "묯": 1959,
      "묲": 1960,
      "묳": 1961,
      "무": 1962,
      "묵": 1963,
      "묶": 1964,
      "문": 1965,
      "묻": 1966,
      "물": 1967,
      "묽": 1968,
      "묿": 1969,
      "뭄": 1970,
      "뭅": 1971,
      "뭇": 1972,
      "뭈": 1973,
      "뭉": 1974,
      "뭊": 1975,
      "뭋": 1976,
      "뭌": 1977,
      "뭍": 1978,
      "뭎": 1979,
      "뭏": 1980,
      "뭐": 1981,
      "뭑": 1982,
      "뭒": 1983,
      "뭔": 1984,
      "뭗": 1985,
      "뭘": 1986,
      "뭠": 1987,
      "뭡": 1988,
      "뭣": 1989,
      "뭤": 1990,
      "뭥": 1991,
      "뭦": 1992,
      "뭧": 1993,
      "뭨": 1994,
      "뭩": 1995,
      "뭪": 1996,
      "뭫": 1997,
      "뭬": 1998,
      "뮁": 1999,
      "뮈": 2000,
      "뮉": 2001,
      "뮌": 2002,
      "뮤": 2003,
      "뮥": 2004,
      "뮨": 2005,
      "뮫": 2006,
      "뮬": 2007,
      "뮵": 2008,
      "뮷": 2009,
      "뮹": 2010,
      "뮺": 2011,
      "뮻": 2012,
      "뮾": 2013,
      "뮿": 2014,
      "므": 2015,
      "믁": 2016,
      "믂": 2017,
      "믄": 2018,
      "믆": 2019,
      "믇": 2020,
      "믈": 2021,
      "믊": 2022,
      "믐": 2023,
      "믑": 2024,
      "믓": 2025,
      "믔": 2026,
      "믕": 2027,
      "믖": 2028,
      "믗": 2029,
      "믘": 2030,
      "믙": 2031,
      "믛": 2032,
      "미": 2033,
      "믹": 2034,
      "믺": 2035,
      "민": 2036,
      "믾": 2037,
      "믿": 2038,
      "밀": 2039,
      "밈": 2040,
      "밉": 2041,
      "밋": 2042,
      "밌": 2043,
      "밍": 2044,
      "밎": 2045,
      "및": 2046,
      "밐": 2047,
      "밑": 2048,
      "밒": 2049,
      "밓": 2050,
      "바": 2051,
      "박": 2052,
      "밖": 2053,
      "반": 2054,
      "밚": 2055,
      "받": 2056,
      "발": 2057,
      "밝": 2058,
      "밟": 2059,
      "밤": 2060,
      "밥": 2061,
      "밧": 2062,
      "밨": 2063,
      "방": 2064,
      "밪": 2065,
      "밫": 2066,
      "밬": 2067,
      "밭": 2068,
      "밮": 2069,
      "밯": 2070,
      "배": 2071,
      "백": 2072,
      "밲": 2073,
      "밴": 2074,
      "밶": 2075,
      "밷": 2076,
      "밸": 2077,
      "밹": 2078,
      "밻": 2079,
      "뱀": 2080,
      "뱁": 2081,
      "뱃": 2082,
      "뱄": 2083,
      "뱅": 2084,
      "뱆": 2085,
      "뱇": 2086,
      "뱈": 2087,
      "뱉": 2088,
      "뱊": 2089,
      "뱋": 2090,
      "뱌": 2091,
      "뱍": 2092,
      "뱎": 2093,
      "뱐": 2094,
      "뱒": 2095,
      "뱓": 2096,
      "뱔": 2097,
      "뱕": 2098,
      "뱗": 2099,
      "뱜": 2100,
      "뱝": 2101,
      "뱟": 2102,
      "뱡": 2103,
      "뱢": 2104,
      "뱣": 2105,
      "뱤": 2106,
      "뱥": 2107,
      "뱦": 2108,
      "뱧": 2109,
      "뱨": 2110,
      "뱩": 2111,
      "뱯": 2112,
      "뱰": 2113,
      "뱻": 2114,
      "뱽": 2115,
      "버": 2116,
      "벅": 2117,
      "벆": 2118,
      "번": 2119,
      "벊": 2120,
      "벋": 2121,
      "벌": 2122,
      "벍": 2123,
      "벎": 2124,
      "벏": 2125,
      "범": 2126,
      "법": 2127,
      "벗": 2128,
      "벘": 2129,
      "벙": 2130,
      "벚": 2131,
      "벛": 2132,
      "벜": 2133,
      "벝": 2134,
      "벞": 2135,
      "벟": 2136,
      "베": 2137,
      "벡": 2138,
      "벢": 2139,
      "벤": 2140,
      "벧": 2141,
      "벨": 2142,
      "벰": 2143,
      "벱": 2144,
      "벳": 2145,
      "벴": 2146,
      "벵": 2147,
      "벶": 2148,
      "벷": 2149,
      "벹": 2150,
      "벺": 2151,
      "벻": 2152,
      "벼": 2153,
      "벽": 2154,
      "벾": 2155,
      "변": 2156,
      "볃": 2157,
      "별": 2158,
      "볈": 2159,
      "볌": 2160,
      "볍": 2161,
      "볏": 2162,
      "볐": 2163,
      "병": 2164,
      "볒": 2165,
      "볓": 2166,
      "볔": 2167,
      "볕": 2168,
      "볖": 2169,
      "볗": 2170,
      "볘": 2171,
      "볚": 2172,
      "볜": 2173,
      "볭": 2174,
      "보": 2175,
      "복": 2176,
      "볶": 2177,
      "볷": 2178,
      "본": 2179,
      "볻": 2180,
      "볼": 2181,
      "봄": 2182,
      "봅": 2183,
      "봇": 2184,
      "봈": 2185,
      "봉": 2186,
      "봊": 2187,
      "봋": 2188,
      "봌": 2189,
      "봍": 2190,
      "봎": 2191,
      "봏": 2192,
      "봐": 2193,
      "봑": 2194,
      "봒": 2195,
      "봔": 2196,
      "봗": 2197,
      "봘": 2198,
      "봠": 2199,
      "봡": 2200,
      "봣": 2201,
      "봤": 2202,
      "봥": 2203,
      "봦": 2204,
      "봧": 2205,
      "봨": 2206,
      "봩": 2207,
      "봫": 2208,
      "봬": 2209,
      "뵀": 2210,
      "뵁": 2211,
      "뵈": 2212,
      "뵉": 2213,
      "뵌": 2214,
      "뵐": 2215,
      "뵙": 2216,
      "뵜": 2217,
      "뵝": 2218,
      "뵤": 2219,
      "뵥": 2220,
      "뵦": 2221,
      "뵨": 2222,
      "뵫": 2223,
      "뵬": 2224,
      "뵴": 2225,
      "뵵": 2226,
      "뵷": 2227,
      "뵹": 2228,
      "뵺": 2229,
      "뵿": 2230,
      "부": 2231,
      "북": 2232,
      "붂": 2233,
      "분": 2234,
      "붇": 2235,
      "불": 2236,
      "붉": 2237,
      "붐": 2238,
      "붑": 2239,
      "붓": 2240,
      "붔": 2241,
      "붕": 2242,
      "붖": 2243,
      "붗": 2244,
      "붘": 2245,
      "붙": 2246,
      "붚": 2247,
      "붛": 2248,
      "붜": 2249,
      "붝": 2250,
      "붠": 2251,
      "붣": 2252,
      "붤": 2253,
      "붬": 2254,
      "붯": 2255,
      "붰": 2256,
      "붱": 2257,
      "붲": 2258,
      "붴": 2259,
      "붵": 2260,
      "붷": 2261,
      "뷔": 2262,
      "뷮": 2263,
      "뷯": 2264,
      "뷰": 2265,
      "뷱": 2266,
      "뷲": 2267,
      "뷴": 2268,
      "뷷": 2269,
      "뷸": 2270,
      "븀": 2271,
      "븁": 2272,
      "븃": 2273,
      "븄": 2274,
      "븅": 2275,
      "븆": 2276,
      "븈": 2277,
      "븉": 2278,
      "븊": 2279,
      "븋": 2280,
      "브": 2281,
      "븍": 2282,
      "븎": 2283,
      "븐": 2284,
      "븒": 2285,
      "븓": 2286,
      "블": 2287,
      "븗": 2288,
      "븜": 2289,
      "븝": 2290,
      "븟": 2291,
      "븠": 2292,
      "븡": 2293,
      "븢": 2294,
      "븣": 2295,
      "븤": 2296,
      "븥": 2297,
      "븦": 2298,
      "븧": 2299,
      "비": 2300,
      "빅": 2301,
      "빆": 2302,
      "빈": 2303,
      "빊": 2304,
      "빋": 2305,
      "빌": 2306,
      "빏": 2307,
      "빔": 2308,
      "빕": 2309,
      "빗": 2310,
      "빘": 2311,
      "빙": 2312,
      "빚": 2313,
      "빛": 2314,
      "빜": 2315,
      "빝": 2316,
      "빞": 2317,
      "빟": 2318,
      "빠": 2319,
      "빡": 2320,
      "빢": 2321,
      "빤": 2322,
      "빧": 2323,
      "빨": 2324,
      "빫": 2325,
      "빰": 2326,
      "빱": 2327,
      "빳": 2328,
      "빴": 2329,
      "빵": 2330,
      "빶": 2331,
      "빷": 2332,
      "빸": 2333,
      "빺": 2334,
      "빻": 2335,
      "빼": 2336,
      "빽": 2337,
      "빾": 2338,
      "뺀": 2339,
      "뺃": 2340,
      "뺄": 2341,
      "뺌": 2342,
      "뺍": 2343,
      "뺏": 2344,
      "뺐": 2345,
      "뺑": 2346,
      "뺒": 2347,
      "뺔": 2348,
      "뺗": 2349,
      "뺘": 2350,
      "뺙": 2351,
      "뺜": 2352,
      "뺠": 2353,
      "뺨": 2354,
      "뺭": 2355,
      "뺮": 2356,
      "뺳": 2357,
      "뺴": 2358,
      "뺵": 2359,
      "뺸": 2360,
      "뺼": 2361,
      "뻇": 2362,
      "뻈": 2363,
      "뻉": 2364,
      "뻊": 2365,
      "뻌": 2366,
      "뻐": 2367,
      "뻑": 2368,
      "뻒": 2369,
      "뻔": 2370,
      "뻗": 2371,
      "뻘": 2372,
      "뻠": 2373,
      "뻡": 2374,
      "뻣": 2375,
      "뻤": 2376,
      "뻥": 2377,
      "뻦": 2378,
      "뻨": 2379,
      "뻩": 2380,
      "뻪": 2381,
      "뻫": 2382,
      "뻬": 2383,
      "뻰": 2384,
      "뼈": 2385,
      "뼉": 2386,
      "뼌": 2387,
      "뼏": 2388,
      "뼐": 2389,
      "뼘": 2390,
      "뼙": 2391,
      "뼛": 2392,
      "뼝": 2393,
      "뽀": 2394,
      "뽁": 2395,
      "뽂": 2396,
      "뽄": 2397,
      "뽇": 2398,
      "뽈": 2399,
      "뽐": 2400,
      "뽑": 2401,
      "뽓": 2402,
      "뽔": 2403,
      "뽕": 2404,
      "뽖": 2405,
      "뽗": 2406,
      "뽘": 2407,
      "뽙": 2408,
      "뽛": 2409,
      "뽜": 2410,
      "뽝": 2411,
      "뽭": 2412,
      "뽰": 2413,
      "뽱": 2414,
      "뽷": 2415,
      "뽸": 2416,
      "뾰": 2417,
      "뾱": 2418,
      "뾴": 2419,
      "뾸": 2420,
      "뿁": 2421,
      "뿃": 2422,
      "뿅": 2423,
      "뿌": 2424,
      "뿍": 2425,
      "뿐": 2426,
      "뿓": 2427,
      "뿔": 2428,
      "뿜": 2429,
      "뿝": 2430,
      "뿟": 2431,
      "뿠": 2432,
      "뿡": 2433,
      "뿢": 2434,
      "뿣": 2435,
      "뿤": 2436,
      "뿥": 2437,
      "뿧": 2438,
      "쀼": 2439,
      "쁀": 2440,
      "쁍": 2441,
      "쁑": 2442,
      "쁘": 2443,
      "쁙": 2444,
      "쁚": 2445,
      "쁜": 2446,
      "쁟": 2447,
      "쁠": 2448,
      "쁨": 2449,
      "쁩": 2450,
      "쁫": 2451,
      "쁭": 2452,
      "쁮": 2453,
      "쁯": 2454,
      "쁰": 2455,
      "쁱": 2456,
      "쁳": 2457,
      "삐": 2458,
      "삑": 2459,
      "삒": 2460,
      "삔": 2461,
      "삗": 2462,
      "삘": 2463,
      "삡": 2464,
      "삣": 2465,
      "삤": 2466,
      "삥": 2467,
      "삦": 2468,
      "삫": 2469,
      "사": 2470,
      "삭": 2471,
      "삮": 2472,
      "삯": 2473,
      "산": 2474,
      "삳": 2475,
      "살": 2476,
      "삵": 2477,
      "삶": 2478,
      "삹": 2479,
      "삻": 2480,
      "삼": 2481,
      "삽": 2482,
      "삾": 2483,
      "삿": 2484,
      "샀": 2485,
      "상": 2486,
      "샂": 2487,
      "샃": 2488,
      "샄": 2489,
      "샅": 2490,
      "샆": 2491,
      "샇": 2492,
      "새": 2493,
      "색": 2494,
      "샊": 2495,
      "샌": 2496,
      "샏": 2497,
      "샐": 2498,
      "샗": 2499,
      "샘": 2500,
      "샙": 2501,
      "샛": 2502,
      "샜": 2503,
      "생": 2504,
      "샞": 2505,
      "샟": 2506,
      "샠": 2507,
      "샡": 2508,
      "샢": 2509,
      "샣": 2510,
      "샤": 2511,
      "샥": 2512,
      "샦": 2513,
      "샨": 2514,
      "샫": 2515,
      "샬": 2516,
      "샮": 2517,
      "샴": 2518,
      "샵": 2519,
      "샷": 2520,
      "샸": 2521,
      "샹": 2522,
      "샺": 2523,
      "샻": 2524,
      "샼": 2525,
      "샽": 2526,
      "샾": 2527,
      "샿": 2528,
      "섀": 2529,
      "섁": 2530,
      "섄": 2531,
      "섈": 2532,
      "섑": 2533,
      "섔": 2534,
      "섕": 2535,
      "섖": 2536,
      "섗": 2537,
      "서": 2538,
      "석": 2539,
      "섞": 2540,
      "선": 2541,
      "섣": 2542,
      "설": 2543,
      "섦": 2544,
      "섬": 2545,
      "섭": 2546,
      "섮": 2547,
      "섯": 2548,
      "섰": 2549,
      "성": 2550,
      "섲": 2551,
      "섳": 2552,
      "섴": 2553,
      "섵": 2554,
      "섶": 2555,
      "섷": 2556,
      "세": 2557,
      "섹": 2558,
      "섺": 2559,
      "센": 2560,
      "섿": 2561,
      "셀": 2562,
      "셇": 2563,
      "셈": 2564,
      "셉": 2565,
      "셋": 2566,
      "셌": 2567,
      "셍": 2568,
      "셎": 2569,
      "셏": 2570,
      "셐": 2571,
      "셑": 2572,
      "셒": 2573,
      "셓": 2574,
      "셔": 2575,
      "셕": 2576,
      "셖": 2577,
      "션": 2578,
      "셛": 2579,
      "셜": 2580,
      "셤": 2581,
      "셥": 2582,
      "셧": 2583,
      "셨": 2584,
      "셩": 2585,
      "셪": 2586,
      "셫": 2587,
      "셬": 2588,
      "셭": 2589,
      "셯": 2590,
      "셰": 2591,
      "셱": 2592,
      "셴": 2593,
      "셷": 2594,
      "셸": 2595,
      "솀": 2596,
      "솃": 2597,
      "솄": 2598,
      "솅": 2599,
      "솉": 2600,
      "솊": 2601,
      "소": 2602,
      "속": 2603,
      "솎": 2604,
      "손": 2605,
      "솓": 2606,
      "솔": 2607,
      "솜": 2608,
      "솝": 2609,
      "솟": 2610,
      "솠": 2611,
      "송": 2612,
      "솢": 2613,
      "솣": 2614,
      "솤": 2615,
      "솥": 2616,
      "솦": 2617,
      "솧": 2618,
      "솨": 2619,
      "솩": 2620,
      "솪": 2621,
      "솬": 2622,
      "솯": 2623,
      "솰": 2624,
      "솼": 2625,
      "솽": 2626,
      "솾": 2627,
      "쇀": 2628,
      "쇁": 2629,
      "쇄": 2630,
      "쇈": 2631,
      "쇋": 2632,
      "쇙": 2633,
      "쇠": 2634,
      "쇧": 2635,
      "쇨": 2636,
      "쇳": 2637,
      "쇶": 2638,
      "쇼": 2639,
      "쇽": 2640,
      "숀": 2641,
      "숃": 2642,
      "숄": 2643,
      "숍": 2644,
      "숏": 2645,
      "숐": 2646,
      "숑": 2647,
      "숒": 2648,
      "숓": 2649,
      "숔": 2650,
      "숕": 2651,
      "숖": 2652,
      "숗": 2653,
      "수": 2654,
      "숙": 2655,
      "숚": 2656,
      "순": 2657,
      "숟": 2658,
      "술": 2659,
      "숢": 2660,
      "숨": 2661,
      "숩": 2662,
      "숫": 2663,
      "숬": 2664,
      "숭": 2665,
      "숮": 2666,
      "숯": 2667,
      "숰": 2668,
      "숱": 2669,
      "숲": 2670,
      "숳": 2671,
      "숴": 2672,
      "숸": 2673,
      "숻": 2674,
      "숼": 2675,
      "쉅": 2676,
      "쉇": 2677,
      "쉈": 2678,
      "쉉": 2679,
      "쉐": 2680,
      "쉑": 2681,
      "쉘": 2682,
      "쉣": 2683,
      "쉥": 2684,
      "쉪": 2685,
      "쉬": 2686,
      "쉭": 2687,
      "쉮": 2688,
      "쉰": 2689,
      "쉳": 2690,
      "쉴": 2691,
      "쉼": 2692,
      "쉽": 2693,
      "쉿": 2694,
      "슁": 2695,
      "슂": 2696,
      "슃": 2697,
      "슄": 2698,
      "슅": 2699,
      "슇": 2700,
      "슈": 2701,
      "슉": 2702,
      "슊": 2703,
      "슌": 2704,
      "슏": 2705,
      "슐": 2706,
      "슘": 2707,
      "슙": 2708,
      "슛": 2709,
      "슝": 2710,
      "슞": 2711,
      "슟": 2712,
      "슠": 2713,
      "슡": 2714,
      "슢": 2715,
      "슣": 2716,
      "스": 2717,
      "슥": 2718,
      "슦": 2719,
      "슨": 2720,
      "슫": 2721,
      "슬": 2722,
      "슴": 2723,
      "습": 2724,
      "슶": 2725,
      "슷": 2726,
      "슸": 2727,
      "승": 2728,
      "슺": 2729,
      "슻": 2730,
      "슼": 2731,
      "슽": 2732,
      "슾": 2733,
      "슿": 2734,
      "싀": 2735,
      "시": 2736,
      "식": 2737,
      "싞": 2738,
      "신": 2739,
      "싡": 2740,
      "싣": 2741,
      "실": 2742,
      "싦": 2743,
      "싫": 2744,
      "심": 2745,
      "십": 2746,
      "싯": 2747,
      "싰": 2748,
      "싱": 2749,
      "싲": 2750,
      "싳": 2751,
      "싴": 2752,
      "싵": 2753,
      "싶": 2754,
      "싷": 2755,
      "싸": 2756,
      "싹": 2757,
      "싺": 2758,
      "싼": 2759,
      "싿": 2760,
      "쌀": 2761,
      "쌈": 2762,
      "쌉": 2763,
      "쌋": 2764,
      "쌌": 2765,
      "쌍": 2766,
      "쌎": 2767,
      "쌏": 2768,
      "쌐": 2769,
      "쌑": 2770,
      "쌒": 2771,
      "쌓": 2772,
      "쌔": 2773,
      "쌕": 2774,
      "쌘": 2775,
      "쌛": 2776,
      "쌜": 2777,
      "쌤": 2778,
      "쌥": 2779,
      "쌧": 2780,
      "쌨": 2781,
      "쌩": 2782,
      "쌪": 2783,
      "쌬": 2784,
      "쌭": 2785,
      "쌯": 2786,
      "쌰": 2787,
      "쌱": 2788,
      "쌴": 2789,
      "쌸": 2790,
      "썃": 2791,
      "썄": 2792,
      "썅": 2793,
      "썇": 2794,
      "썉": 2795,
      "썋": 2796,
      "썌": 2797,
      "썜": 2798,
      "썡": 2799,
      "써": 2800,
      "썩": 2801,
      "썪": 2802,
      "썬": 2803,
      "썯": 2804,
      "썰": 2805,
      "썸": 2806,
      "썹": 2807,
      "썻": 2808,
      "썼": 2809,
      "썽": 2810,
      "썾": 2811,
      "썿": 2812,
      "쎀": 2813,
      "쎃": 2814,
      "쎄": 2815,
      "쎅": 2816,
      "쎈": 2817,
      "쎋": 2818,
      "쎌": 2819,
      "쎓": 2820,
      "쎔": 2821,
      "쎗": 2822,
      "쎘": 2823,
      "쎙": 2824,
      "쎞": 2825,
      "쎟": 2826,
      "쎠": 2827,
      "쎤": 2828,
      "쎧": 2829,
      "쎨": 2830,
      "쎱": 2831,
      "쎳": 2832,
      "쎴": 2833,
      "쎵": 2834,
      "쎹": 2835,
      "쎼": 2836,
      "쏑": 2837,
      "쏖": 2838,
      "쏘": 2839,
      "쏙": 2840,
      "쏚": 2841,
      "쏜": 2842,
      "쏟": 2843,
      "쏠": 2844,
      "쏨": 2845,
      "쏩": 2846,
      "쏫": 2847,
      "쏬": 2848,
      "쏭": 2849,
      "쏮": 2850,
      "쏰": 2851,
      "쏳": 2852,
      "쏴": 2853,
      "쏼": 2854,
      "쐇": 2855,
      "쐈": 2856,
      "쐉": 2857,
      "쐐": 2858,
      "쐑": 2859,
      "쐬": 2860,
      "쐭": 2861,
      "쐴": 2862,
      "쐿": 2863,
      "쑁": 2864,
      "쑂": 2865,
      "쑈": 2866,
      "쑐": 2867,
      "쑝": 2868,
      "쑤": 2869,
      "쑥": 2870,
      "쑨": 2871,
      "쑫": 2872,
      "쑬": 2873,
      "쑴": 2874,
      "쑵": 2875,
      "쑷": 2876,
      "쑹": 2877,
      "쑺": 2878,
      "쑻": 2879,
      "쑿": 2880,
      "쒓": 2881,
      "쒸": 2882,
      "쒹": 2883,
      "쓉": 2884,
      "쓍": 2885,
      "쓔": 2886,
      "쓩": 2887,
      "쓰": 2888,
      "쓱": 2889,
      "쓲": 2890,
      "쓴": 2891,
      "쓷": 2892,
      "쓸": 2893,
      "씀": 2894,
      "씁": 2895,
      "씃": 2896,
      "씄": 2897,
      "씅": 2898,
      "씆": 2899,
      "씇": 2900,
      "씈": 2901,
      "씉": 2902,
      "씊": 2903,
      "씋": 2904,
      "씌": 2905,
      "씨": 2906,
      "씩": 2907,
      "씪": 2908,
      "씬": 2909,
      "씯": 2910,
      "씰": 2911,
      "씷": 2912,
      "씸": 2913,
      "씹": 2914,
      "씻": 2915,
      "씼": 2916,
      "씽": 2917,
      "씾": 2918,
      "씿": 2919,
      "앀": 2920,
      "앁": 2921,
      "앂": 2922,
      "앃": 2923,
      "아": 2924,
      "악": 2925,
      "앆": 2926,
      "안": 2927,
      "앉": 2928,
      "않": 2929,
      "앋": 2930,
      "알": 2931,
      "앍": 2932,
      "앎": 2933,
      "앏": 2934,
      "앓": 2935,
      "암": 2936,
      "압": 2937,
      "앖": 2938,
      "앗": 2939,
      "았": 2940,
      "앙": 2941,
      "앚": 2942,
      "앛": 2943,
      "앜": 2944,
      "앝": 2945,
      "앞": 2946,
      "앟": 2947,
      "애": 2948,
      "액": 2949,
      "앢": 2950,
      "앤": 2951,
      "앥": 2952,
      "앦": 2953,
      "앧": 2954,
      "앨": 2955,
      "앩": 2956,
      "앯": 2957,
      "앰": 2958,
      "앱": 2959,
      "앳": 2960,
      "앴": 2961,
      "앵": 2962,
      "앶": 2963,
      "앷": 2964,
      "앸": 2965,
      "앹": 2966,
      "앺": 2967,
      "앻": 2968,
      "야": 2969,
      "약": 2970,
      "앾": 2971,
      "얀": 2972,
      "얁": 2973,
      "얂": 2974,
      "얃": 2975,
      "얄": 2976,
      "얆": 2977,
      "얇": 2978,
      "얌": 2979,
      "얍": 2980,
      "얎": 2981,
      "얏": 2982,
      "얐": 2983,
      "양": 2984,
      "얒": 2985,
      "얓": 2986,
      "얔": 2987,
      "얕": 2988,
      "얖": 2989,
      "얗": 2990,
      "얘": 2991,
      "얙": 2992,
      "얚": 2993,
      "얜": 2994,
      "얟": 2995,
      "얠": 2996,
      "얫": 2997,
      "얬": 2998,
      "얭": 2999,
      "얮": 3000,
      "어": 3001,
      "억": 3002,
      "얶": 3003,
      "언": 3004,
      "얹": 3005,
      "얺": 3006,
      "얻": 3007,
      "얼": 3008,
      "얽": 3009,
      "얾": 3010,
      "얿": 3011,
      "엃": 3012,
      "엄": 3013,
      "업": 3014,
      "없": 3015,
      "엇": 3016,
      "었": 3017,
      "엉": 3018,
      "엊": 3019,
      "엋": 3020,
      "엌": 3021,
      "엍": 3022,
      "엎": 3023,
      "엏": 3024,
      "에": 3025,
      "엑": 3026,
      "엒": 3027,
      "엔": 3028,
      "엗": 3029,
      "엘": 3030,
      "엙": 3031,
      "엟": 3032,
      "엠": 3033,
      "엡": 3034,
      "엣": 3035,
      "엤": 3036,
      "엥": 3037,
      "엦": 3038,
      "엧": 3039,
      "엨": 3040,
      "엩": 3041,
      "엪": 3042,
      "엫": 3043,
      "여": 3044,
      "역": 3045,
      "엮": 3046,
      "연": 3047,
      "엱": 3048,
      "엳": 3049,
      "열": 3050,
      "엶": 3051,
      "엷": 3052,
      "염": 3053,
      "엽": 3054,
      "엾": 3055,
      "엿": 3056,
      "였": 3057,
      "영": 3058,
      "옂": 3059,
      "옃": 3060,
      "옄": 3061,
      "옅": 3062,
      "옆": 3063,
      "옇": 3064,
      "예": 3065,
      "옉": 3066,
      "옌": 3067,
      "옏": 3068,
      "옐": 3069,
      "옘": 3070,
      "옙": 3071,
      "옛": 3072,
      "옜": 3073,
      "옝": 3074,
      "옞": 3075,
      "옟": 3076,
      "옡": 3077,
      "옣": 3078,
      "오": 3079,
      "옥": 3080,
      "옦": 3081,
      "온": 3082,
      "옫": 3083,
      "올": 3084,
      "옮": 3085,
      "옯": 3086,
      "옳": 3087,
      "옴": 3088,
      "옵": 3089,
      "옶": 3090,
      "옷": 3091,
      "옸": 3092,
      "옹": 3093,
      "옺": 3094,
      "옻": 3095,
      "옼": 3096,
      "옽": 3097,
      "옾": 3098,
      "옿": 3099,
      "와": 3100,
      "왁": 3101,
      "완": 3102,
      "왅": 3103,
      "왇": 3104,
      "왈": 3105,
      "왐": 3106,
      "왑": 3107,
      "왓": 3108,
      "왔": 3109,
      "왕": 3110,
      "왖": 3111,
      "왗": 3112,
      "왘": 3113,
      "왙": 3114,
      "왚": 3115,
      "왛": 3116,
      "왜": 3117,
      "왝": 3118,
      "왠": 3119,
      "왣": 3120,
      "왤": 3121,
      "왬": 3122,
      "왭": 3123,
      "왯": 3124,
      "왰": 3125,
      "왱": 3126,
      "왲": 3127,
      "왳": 3128,
      "왴": 3129,
      "왷": 3130,
      "외": 3131,
      "왹": 3132,
      "왺": 3133,
      "왼": 3134,
      "왿": 3135,
      "욀": 3136,
      "욈": 3137,
      "욉": 3138,
      "욋": 3139,
      "욌": 3140,
      "욍": 3141,
      "욎": 3142,
      "욏": 3143,
      "욑": 3144,
      "욒": 3145,
      "욓": 3146,
      "요": 3147,
      "욕": 3148,
      "욖": 3149,
      "욘": 3150,
      "욛": 3151,
      "욜": 3152,
      "욤": 3153,
      "욥": 3154,
      "욧": 3155,
      "욨": 3156,
      "용": 3157,
      "욪": 3158,
      "욫": 3159,
      "욬": 3160,
      "욭": 3161,
      "욮": 3162,
      "욯": 3163,
      "우": 3164,
      "욱": 3165,
      "욲": 3166,
      "운": 3167,
      "욷": 3168,
      "울": 3169,
      "욺": 3170,
      "움": 3171,
      "웁": 3172,
      "웂": 3173,
      "웃": 3174,
      "웄": 3175,
      "웅": 3176,
      "웆": 3177,
      "웇": 3178,
      "웈": 3179,
      "웉": 3180,
      "웊": 3181,
      "웋": 3182,
      "워": 3183,
      "웍": 3184,
      "원": 3185,
      "웓": 3186,
      "월": 3187,
      "웜": 3188,
      "웝": 3189,
      "웟": 3190,
      "웠": 3191,
      "웡": 3192,
      "웢": 3193,
      "웣": 3194,
      "웤": 3195,
      "웥": 3196,
      "웦": 3197,
      "웧": 3198,
      "웨": 3199,
      "웩": 3200,
      "웬": 3201,
      "웯": 3202,
      "웰": 3203,
      "웸": 3204,
      "웹": 3205,
      "웻": 3206,
      "웽": 3207,
      "웾": 3208,
      "윁": 3209,
      "위": 3210,
      "윅": 3211,
      "윆": 3212,
      "윈": 3213,
      "윋": 3214,
      "윌": 3215,
      "윔": 3216,
      "윕": 3217,
      "윗": 3218,
      "윙": 3219,
      "윚": 3220,
      "윛": 3221,
      "윜": 3222,
      "윝": 3223,
      "윞": 3224,
      "윟": 3225,
      "유": 3226,
      "육": 3227,
      "윢": 3228,
      "윤": 3229,
      "윧": 3230,
      "율": 3231,
      "윪": 3232,
      "윰": 3233,
      "윱": 3234,
      "윳": 3235,
      "융": 3236,
      "윶": 3237,
      "윷": 3238,
      "윸": 3239,
      "윹": 3240,
      "윺": 3241,
      "윻": 3242,
      "으": 3243,
      "윽": 3244,
      "윾": 3245,
      "은": 3246,
      "읁": 3247,
      "읂": 3248,
      "읃": 3249,
      "을": 3250,
      "읅": 3251,
      "읇": 3252,
      "읊": 3253,
      "음": 3254,
      "읍": 3255,
      "읎": 3256,
      "읏": 3257,
      "읐": 3258,
      "응": 3259,
      "읒": 3260,
      "읓": 3261,
      "읔": 3262,
      "읕": 3263,
      "읖": 3264,
      "읗": 3265,
      "의": 3266,
      "읙": 3267,
      "읜": 3268,
      "읟": 3269,
      "읠": 3270,
      "읨": 3271,
      "읩": 3272,
      "읫": 3273,
      "읭": 3274,
      "읮": 3275,
      "읯": 3276,
      "읰": 3277,
      "읲": 3278,
      "읳": 3279,
      "이": 3280,
      "익": 3281,
      "읶": 3282,
      "인": 3283,
      "읹": 3284,
      "읺": 3285,
      "읻": 3286,
      "일": 3287,
      "읽": 3288,
      "읾": 3289,
      "잃": 3290,
      "임": 3291,
      "입": 3292,
      "잇": 3293,
      "있": 3294,
      "잉": 3295,
      "잊": 3296,
      "잋": 3297,
      "잌": 3298,
      "잍": 3299,
      "잎": 3300,
      "잏": 3301,
      "자": 3302,
      "작": 3303,
      "잒": 3304,
      "잔": 3305,
      "잖": 3306,
      "잗": 3307,
      "잘": 3308,
      "잙": 3309,
      "잚": 3310,
      "잛": 3311,
      "잠": 3312,
      "잡": 3313,
      "잣": 3314,
      "잤": 3315,
      "장": 3316,
      "잦": 3317,
      "잧": 3318,
      "잨": 3319,
      "잩": 3320,
      "잪": 3321,
      "잫": 3322,
      "재": 3323,
      "잭": 3324,
      "잮": 3325,
      "잰": 3326,
      "잲": 3327,
      "잳": 3328,
      "잴": 3329,
      "잵": 3330,
      "잼": 3331,
      "잽": 3332,
      "잿": 3333,
      "쟀": 3334,
      "쟁": 3335,
      "쟂": 3336,
      "쟃": 3337,
      "쟄": 3338,
      "쟅": 3339,
      "쟆": 3340,
      "쟇": 3341,
      "쟈": 3342,
      "쟉": 3343,
      "쟊": 3344,
      "쟌": 3345,
      "쟎": 3346,
      "쟏": 3347,
      "쟐": 3348,
      "쟘": 3349,
      "쟙": 3350,
      "쟛": 3351,
      "쟜": 3352,
      "쟝": 3353,
      "쟞": 3354,
      "쟟": 3355,
      "쟠": 3356,
      "쟡": 3357,
      "쟢": 3358,
      "쟣": 3359,
      "쟤": 3360,
      "쟨": 3361,
      "쟴": 3362,
      "쟵": 3363,
      "쟹": 3364,
      "쟼": 3365,
      "쟿": 3366,
      "저": 3367,
      "적": 3368,
      "젂": 3369,
      "전": 3370,
      "젆": 3371,
      "젇": 3372,
      "절": 3373,
      "젊": 3374,
      "젋": 3375,
      "젏": 3376,
      "점": 3377,
      "접": 3378,
      "젓": 3379,
      "젔": 3380,
      "정": 3381,
      "젖": 3382,
      "젗": 3383,
      "젘": 3384,
      "젙": 3385,
      "젚": 3386,
      "젛": 3387,
      "제": 3388,
      "젝": 3389,
      "젞": 3390,
      "젠": 3391,
      "젣": 3392,
      "젤": 3393,
      "젬": 3394,
      "젭": 3395,
      "젯": 3396,
      "젰": 3397,
      "젱": 3398,
      "젲": 3399,
      "젳": 3400,
      "젴": 3401,
      "젵": 3402,
      "젶": 3403,
      "젷": 3404,
      "져": 3405,
      "젹": 3406,
      "젺": 3407,
      "젼": 3408,
      "젿": 3409,
      "졀": 3410,
      "졈": 3411,
      "졉": 3412,
      "졋": 3413,
      "졌": 3414,
      "졍": 3415,
      "졎": 3416,
      "졏": 3417,
      "졐": 3418,
      "졑": 3419,
      "졒": 3420,
      "졓": 3421,
      "졔": 3422,
      "졕": 3423,
      "졘": 3424,
      "졛": 3425,
      "졜": 3426,
      "졤": 3427,
      "졩": 3428,
      "졪": 3429,
      "졫": 3430,
      "졬": 3431,
      "졭": 3432,
      "조": 3433,
      "족": 3434,
      "졲": 3435,
      "졳": 3436,
      "존": 3437,
      "졷": 3438,
      "졸": 3439,
      "좀": 3440,
      "좁": 3441,
      "좃": 3442,
      "좄": 3443,
      "종": 3444,
      "좆": 3445,
      "좇": 3446,
      "좈": 3447,
      "좉": 3448,
      "좊": 3449,
      "좋": 3450,
      "좌": 3451,
      "좔": 3452,
      "좝": 3453,
      "좟": 3454,
      "좠": 3455,
      "좡": 3456,
      "좢": 3457,
      "좣": 3458,
      "좨": 3459,
      "좻": 3460,
      "좼": 3461,
      "좽": 3462,
      "좾": 3463,
      "죄": 3464,
      "죅": 3465,
      "죆": 3466,
      "죈": 3467,
      "죋": 3468,
      "죌": 3469,
      "죔": 3470,
      "죕": 3471,
      "죗": 3472,
      "죙": 3473,
      "죚": 3474,
      "죛": 3475,
      "죟": 3476,
      "죠": 3477,
      "죡": 3478,
      "죢": 3479,
      "죤": 3480,
      "죧": 3481,
      "죨": 3482,
      "죰": 3483,
      "죱": 3484,
      "죳": 3485,
      "죴": 3486,
      "죵": 3487,
      "죷": 3488,
      "죸": 3489,
      "죹": 3490,
      "죺": 3491,
      "죻": 3492,
      "주": 3493,
      "죽": 3494,
      "죾": 3495,
      "준": 3496,
      "줃": 3497,
      "줄": 3498,
      "줌": 3499,
      "줍": 3500,
      "줏": 3501,
      "줐": 3502,
      "중": 3503,
      "줒": 3504,
      "줓": 3505,
      "줔": 3506,
      "줕": 3507,
      "줖": 3508,
      "줗": 3509,
      "줘": 3510,
      "줙": 3511,
      "줚": 3512,
      "줜": 3513,
      "줟": 3514,
      "줠": 3515,
      "줨": 3516,
      "줩": 3517,
      "줫": 3518,
      "줬": 3519,
      "줭": 3520,
      "줮": 3521,
      "줯": 3522,
      "줰": 3523,
      "줱": 3524,
      "줳": 3525,
      "줴": 3526,
      "쥐": 3527,
      "쥑": 3528,
      "쥔": 3529,
      "쥗": 3530,
      "쥘": 3531,
      "쥠": 3532,
      "쥡": 3533,
      "쥣": 3534,
      "쥥": 3535,
      "쥬": 3536,
      "쥭": 3537,
      "쥮": 3538,
      "쥰": 3539,
      "쥳": 3540,
      "쥴": 3541,
      "쥼": 3542,
      "쥿": 3543,
      "즁": 3544,
      "즂": 3545,
      "즃": 3546,
      "즄": 3547,
      "즅": 3548,
      "즆": 3549,
      "즇": 3550,
      "즈": 3551,
      "즉": 3552,
      "즊": 3553,
      "즌": 3554,
      "즎": 3555,
      "즏": 3556,
      "즐": 3557,
      "즑": 3558,
      "즒": 3559,
      "즘": 3560,
      "즙": 3561,
      "즛": 3562,
      "즜": 3563,
      "증": 3564,
      "즞": 3565,
      "즟": 3566,
      "즠": 3567,
      "즡": 3568,
      "즢": 3569,
      "즣": 3570,
      "즤": 3571,
      "지": 3572,
      "직": 3573,
      "짂": 3574,
      "진": 3575,
      "짆": 3576,
      "짇": 3577,
      "질": 3578,
      "짊": 3579,
      "짐": 3580,
      "집": 3581,
      "짒": 3582,
      "짓": 3583,
      "짔": 3584,
      "징": 3585,
      "짖": 3586,
      "짗": 3587,
      "짘": 3588,
      "짙": 3589,
      "짚": 3590,
      "짛": 3591,
      "짜": 3592,
      "짝": 3593,
      "짞": 3594,
      "짠": 3595,
      "짢": 3596,
      "짣": 3597,
      "짤": 3598,
      "짦": 3599,
      "짧": 3600,
      "짬": 3601,
      "짭": 3602,
      "짯": 3603,
      "짰": 3604,
      "짱": 3605,
      "짲": 3606,
      "짳": 3607,
      "짴": 3608,
      "짵": 3609,
      "짶": 3610,
      "짷": 3611,
      "째": 3612,
      "짹": 3613,
      "짺": 3614,
      "짼": 3615,
      "짿": 3616,
      "쨀": 3617,
      "쨃": 3618,
      "쨈": 3619,
      "쨉": 3620,
      "쨋": 3621,
      "쨌": 3622,
      "쨍": 3623,
      "쨎": 3624,
      "쨐": 3625,
      "쨑": 3626,
      "쨓": 3627,
      "쨔": 3628,
      "쨕": 3629,
      "쨘": 3630,
      "쨚": 3631,
      "쨜": 3632,
      "쨟": 3633,
      "쨤": 3634,
      "쨩": 3635,
      "쨫": 3636,
      "쨰": 3637,
      "쨴": 3638,
      "쩃": 3639,
      "쩄": 3640,
      "쩅": 3641,
      "쩌": 3642,
      "쩍": 3643,
      "쩐": 3644,
      "쩒": 3645,
      "쩓": 3646,
      "쩔": 3647,
      "쩖": 3648,
      "쩗": 3649,
      "쩜": 3650,
      "쩝": 3651,
      "쩟": 3652,
      "쩠": 3653,
      "쩡": 3654,
      "쩢": 3655,
      "쩣": 3656,
      "쩤": 3657,
      "쩥": 3658,
      "쩦": 3659,
      "쩧": 3660,
      "쩨": 3661,
      "쩩": 3662,
      "쩬": 3663,
      "쩯": 3664,
      "쩰": 3665,
      "쩹": 3666,
      "쩽": 3667,
      "쩾": 3668,
      "쪂": 3669,
      "쪄": 3670,
      "쪅": 3671,
      "쪈": 3672,
      "쪋": 3673,
      "쪌": 3674,
      "쪕": 3675,
      "쪗": 3676,
      "쪘": 3677,
      "쪙": 3678,
      "쪟": 3679,
      "쪼": 3680,
      "쪽": 3681,
      "쪾": 3682,
      "쫀": 3683,
      "쫃": 3684,
      "쫄": 3685,
      "쫌": 3686,
      "쫍": 3687,
      "쫏": 3688,
      "쫑": 3689,
      "쫒": 3690,
      "쫓": 3691,
      "쫔": 3692,
      "쫕": 3693,
      "쫖": 3694,
      "쫗": 3695,
      "쫘": 3696,
      "쫙": 3697,
      "쫜": 3698,
      "쫲": 3699,
      "쬐": 3700,
      "쬔": 3701,
      "쬘": 3702,
      "쬠": 3703,
      "쬦": 3704,
      "쬬": 3705,
      "쬴": 3706,
      "쭀": 3707,
      "쭇": 3708,
      "쭈": 3709,
      "쭉": 3710,
      "쭌": 3711,
      "쭐": 3712,
      "쭘": 3713,
      "쭙": 3714,
      "쭛": 3715,
      "쭝": 3716,
      "쭞": 3717,
      "쭡": 3718,
      "쭢": 3719,
      "쭣": 3720,
      "쭤": 3721,
      "쭬": 3722,
      "쭵": 3723,
      "쭸": 3724,
      "쭹": 3725,
      "쮜": 3726,
      "쮸": 3727,
      "쮹": 3728,
      "쮼": 3729,
      "쯀": 3730,
      "쯓": 3731,
      "쯔": 3732,
      "쯕": 3733,
      "쯘": 3734,
      "쯚": 3735,
      "쯜": 3736,
      "쯟": 3737,
      "쯤": 3738,
      "쯧": 3739,
      "쯩": 3740,
      "쯪": 3741,
      "쯬": 3742,
      "쯯": 3743,
      "찌": 3744,
      "찍": 3745,
      "찎": 3746,
      "찐": 3747,
      "찓": 3748,
      "찔": 3749,
      "찗": 3750,
      "찜": 3751,
      "찝": 3752,
      "찟": 3753,
      "찠": 3754,
      "찡": 3755,
      "찢": 3756,
      "찣": 3757,
      "찤": 3758,
      "찥": 3759,
      "찦": 3760,
      "찧": 3761,
      "차": 3762,
      "착": 3763,
      "찪": 3764,
      "찬": 3765,
      "찭": 3766,
      "찮": 3767,
      "찯": 3768,
      "찰": 3769,
      "참": 3770,
      "찹": 3771,
      "찺": 3772,
      "찻": 3773,
      "찼": 3774,
      "창": 3775,
      "찾": 3776,
      "찿": 3777,
      "챀": 3778,
      "챁": 3779,
      "챂": 3780,
      "챃": 3781,
      "채": 3782,
      "책": 3783,
      "챆": 3784,
      "챈": 3785,
      "챊": 3786,
      "챋": 3787,
      "챌": 3788,
      "챔": 3789,
      "챕": 3790,
      "챗": 3791,
      "챘": 3792,
      "챙": 3793,
      "챚": 3794,
      "챛": 3795,
      "챜": 3796,
      "챝": 3797,
      "챟": 3798,
      "챠": 3799,
      "챡": 3800,
      "챢": 3801,
      "챤": 3802,
      "챦": 3803,
      "챧": 3804,
      "챨": 3805,
      "챰": 3806,
      "챱": 3807,
      "챲": 3808,
      "챴": 3809,
      "챵": 3810,
      "챶": 3811,
      "챷": 3812,
      "챻": 3813,
      "챼": 3814,
      "챽": 3815,
      "챾": 3816,
      "첃": 3817,
      "첄": 3818,
      "첑": 3819,
      "첓": 3820,
      "처": 3821,
      "척": 3822,
      "첚": 3823,
      "천": 3824,
      "첞": 3825,
      "첟": 3826,
      "철": 3827,
      "첨": 3828,
      "첩": 3829,
      "첪": 3830,
      "첫": 3831,
      "첬": 3832,
      "청": 3833,
      "첮": 3834,
      "첯": 3835,
      "첰": 3836,
      "첱": 3837,
      "첲": 3838,
      "첳": 3839,
      "체": 3840,
      "첵": 3841,
      "첸": 3842,
      "첻": 3843,
      "첼": 3844,
      "첽": 3845,
      "쳄": 3846,
      "쳅": 3847,
      "쳇": 3848,
      "쳈": 3849,
      "쳉": 3850,
      "쳊": 3851,
      "쳋": 3852,
      "쳌": 3853,
      "쳍": 3854,
      "쳎": 3855,
      "쳏": 3856,
      "쳐": 3857,
      "쳑": 3858,
      "쳔": 3859,
      "쳗": 3860,
      "쳘": 3861,
      "쳠": 3862,
      "쳡": 3863,
      "쳣": 3864,
      "쳤": 3865,
      "쳥": 3866,
      "쳦": 3867,
      "쳨": 3868,
      "쳩": 3869,
      "쳪": 3870,
      "쳫": 3871,
      "쳬": 3872,
      "쳭": 3873,
      "쳰": 3874,
      "쳽": 3875,
      "쳿": 3876,
      "촁": 3877,
      "촄": 3878,
      "초": 3879,
      "촉": 3880,
      "촌": 3881,
      "촏": 3882,
      "촐": 3883,
      "촒": 3884,
      "촘": 3885,
      "촙": 3886,
      "촚": 3887,
      "촛": 3888,
      "촜": 3889,
      "총": 3890,
      "촞": 3891,
      "촟": 3892,
      "촠": 3893,
      "촡": 3894,
      "촣": 3895,
      "촤": 3896,
      "촥": 3897,
      "촨": 3898,
      "촬": 3899,
      "촵": 3900,
      "촷": 3901,
      "촸": 3902,
      "촹": 3903,
      "촺": 3904,
      "촻": 3905,
      "촼": 3906,
      "촽": 3907,
      "쵀": 3908,
      "쵄": 3909,
      "최": 3910,
      "쵝": 3911,
      "쵞": 3912,
      "쵠": 3913,
      "쵣": 3914,
      "쵤": 3915,
      "쵬": 3916,
      "쵭": 3917,
      "쵯": 3918,
      "쵱": 3919,
      "쵲": 3920,
      "쵳": 3921,
      "쵷": 3922,
      "쵸": 3923,
      "쵹": 3924,
      "쵼": 3925,
      "쵿": 3926,
      "춀": 3927,
      "춋": 3928,
      "춌": 3929,
      "춍": 3930,
      "춎": 3931,
      "춐": 3932,
      "춑": 3933,
      "춓": 3934,
      "추": 3935,
      "축": 3936,
      "춖": 3937,
      "춘": 3938,
      "춛": 3939,
      "출": 3940,
      "춤": 3941,
      "춥": 3942,
      "춧": 3943,
      "춨": 3944,
      "충": 3945,
      "춪": 3946,
      "춫": 3947,
      "춬": 3948,
      "춭": 3949,
      "춮": 3950,
      "춯": 3951,
      "춰": 3952,
      "춴": 3953,
      "춷": 3954,
      "춸": 3955,
      "췀": 3956,
      "췁": 3957,
      "췃": 3958,
      "췄": 3959,
      "췅": 3960,
      "췆": 3961,
      "췇": 3962,
      "췉": 3963,
      "췌": 3964,
      "췝": 3965,
      "췟": 3966,
      "취": 3967,
      "췩": 3968,
      "췬": 3969,
      "췯": 3970,
      "췰": 3971,
      "췸": 3972,
      "췹": 3973,
      "췻": 3974,
      "췽": 3975,
      "췾": 3976,
      "츀": 3977,
      "츂": 3978,
      "츃": 3979,
      "츄": 3980,
      "츅": 3981,
      "츆": 3982,
      "츈": 3983,
      "츋": 3984,
      "츌": 3985,
      "츔": 3986,
      "츕": 3987,
      "츗": 3988,
      "츙": 3989,
      "츚": 3990,
      "츝": 3991,
      "츞": 3992,
      "츟": 3993,
      "츠": 3994,
      "측": 3995,
      "츢": 3996,
      "츤": 3997,
      "츦": 3998,
      "츧": 3999,
      "츨": 4000,
      "츰": 4001,
      "츱": 4002,
      "츲": 4003,
      "츳": 4004,
      "츴": 4005,
      "층": 4006,
      "츶": 4007,
      "츷": 4008,
      "츹": 4009,
      "츺": 4010,
      "츻": 4011,
      "츼": 4012,
      "칌": 4013,
      "칑": 4014,
      "칒": 4015,
      "칗": 4016,
      "치": 4017,
      "칙": 4018,
      "칚": 4019,
      "친": 4020,
      "칞": 4021,
      "칟": 4022,
      "칠": 4023,
      "칡": 4024,
      "칧": 4025,
      "침": 4026,
      "칩": 4027,
      "칫": 4028,
      "칬": 4029,
      "칭": 4030,
      "칮": 4031,
      "칯": 4032,
      "칰": 4033,
      "칱": 4034,
      "칲": 4035,
      "칳": 4036,
      "카": 4037,
      "칵": 4038,
      "칶": 4039,
      "칸": 4040,
      "칺": 4041,
      "칻": 4042,
      "칼": 4043,
      "칽": 4044,
      "캄": 4045,
      "캅": 4046,
      "캇": 4047,
      "캈": 4048,
      "캉": 4049,
      "캊": 4050,
      "캋": 4051,
      "캌": 4052,
      "캍": 4053,
      "캎": 4054,
      "캏": 4055,
      "캐": 4056,
      "캑": 4057,
      "캒": 4058,
      "캔": 4059,
      "캖": 4060,
      "캗": 4061,
      "캘": 4062,
      "캠": 4063,
      "캡": 4064,
      "캣": 4065,
      "캤": 4066,
      "캥": 4067,
      "캦": 4068,
      "캧": 4069,
      "캨": 4070,
      "캩": 4071,
      "캪": 4072,
      "캫": 4073,
      "캬": 4074,
      "캭": 4075,
      "캮": 4076,
      "캰": 4077,
      "캲": 4078,
      "캳": 4079,
      "캴": 4080,
      "캼": 4081,
      "캽": 4082,
      "캿": 4083,
      "컀": 4084,
      "컁": 4085,
      "컂": 4086,
      "컄": 4087,
      "컅": 4088,
      "컆": 4089,
      "컈": 4090,
      "컌": 4091,
      "컐": 4092,
      "커": 4093,
      "컥": 4094,
      "컦": 4095,
      "컨": 4096,
      "컪": 4097,
      "컫": 4098,
      "컬": 4099,
      "컯": 4100,
      "컴": 4101,
      "컵": 4102,
      "컷": 4103,
      "컸": 4104,
      "컹": 4105,
      "컺": 4106,
      "컻": 4107,
      "컼": 4108,
      "컽": 4109,
      "컾": 4110,
      "컿": 4111,
      "케": 4112,
      "켁": 4113,
      "켂": 4114,
      "켄": 4115,
      "켇": 4116,
      "켈": 4117,
      "켐": 4118,
      "켑": 4119,
      "켓": 4120,
      "켔": 4121,
      "켕": 4122,
      "켖": 4123,
      "켗": 4124,
      "켘": 4125,
      "켙": 4126,
      "켚": 4127,
      "켛": 4128,
      "켜": 4129,
      "켝": 4130,
      "켞": 4131,
      "켠": 4132,
      "켣": 4133,
      "켤": 4134,
      "켬": 4135,
      "켭": 4136,
      "켯": 4137,
      "켰": 4138,
      "켱": 4139,
      "켲": 4140,
      "켳": 4141,
      "켴": 4142,
      "켵": 4143,
      "켶": 4144,
      "켷": 4145,
      "켸": 4146,
      "켹": 4147,
      "켼": 4148,
      "콋": 4149,
      "코": 4150,
      "콕": 4151,
      "콖": 4152,
      "콗": 4153,
      "콘": 4154,
      "콛": 4155,
      "콜": 4156,
      "콤": 4157,
      "콥": 4158,
      "콧": 4159,
      "콨": 4160,
      "콩": 4161,
      "콪": 4162,
      "콫": 4163,
      "콬": 4164,
      "콭": 4165,
      "콮": 4166,
      "콯": 4167,
      "콰": 4168,
      "콱": 4169,
      "콸": 4170,
      "쾃": 4171,
      "쾄": 4172,
      "쾅": 4173,
      "쾌": 4174,
      "쾍": 4175,
      "쾝": 4176,
      "쾡": 4177,
      "쾢": 4178,
      "쾧": 4179,
      "쾨": 4180,
      "쾩": 4181,
      "쿃": 4182,
      "쿄": 4183,
      "쿈": 4184,
      "쿌": 4185,
      "쿔": 4186,
      "쿕": 4187,
      "쿗": 4188,
      "쿘": 4189,
      "쿙": 4190,
      "쿚": 4191,
      "쿜": 4192,
      "쿝": 4193,
      "쿞": 4194,
      "쿟": 4195,
      "쿠": 4196,
      "쿡": 4197,
      "쿢": 4198,
      "쿤": 4199,
      "쿧": 4200,
      "쿨": 4201,
      "쿰": 4202,
      "쿱": 4203,
      "쿳": 4204,
      "쿴": 4205,
      "쿵": 4206,
      "쿶": 4207,
      "쿷": 4208,
      "쿸": 4209,
      "쿹": 4210,
      "쿺": 4211,
      "쿻": 4212,
      "쿼": 4213,
      "쿽": 4214,
      "퀀": 4215,
      "퀃": 4216,
      "퀄": 4217,
      "퀍": 4218,
      "퀏": 4219,
      "퀑": 4220,
      "퀓": 4221,
      "퀔": 4222,
      "퀕": 4223,
      "퀖": 4224,
      "퀗": 4225,
      "퀘": 4226,
      "퀠": 4227,
      "퀭": 4228,
      "퀴": 4229,
      "퀵": 4230,
      "퀸": 4231,
      "퀼": 4232,
      "큄": 4233,
      "큅": 4234,
      "큉": 4235,
      "큊": 4236,
      "큐": 4237,
      "큑": 4238,
      "큔": 4239,
      "큗": 4240,
      "큘": 4241,
      "큠": 4242,
      "큡": 4243,
      "큣": 4244,
      "큥": 4245,
      "큦": 4246,
      "큨": 4247,
      "큩": 4248,
      "큪": 4249,
      "큫": 4250,
      "크": 4251,
      "큭": 4252,
      "큮": 4253,
      "큰": 4254,
      "큲": 4255,
      "큳": 4256,
      "클": 4257,
      "큵": 4258,
      "큼": 4259,
      "큽": 4260,
      "큿": 4261,
      "킀": 4262,
      "킁": 4263,
      "킂": 4264,
      "킃": 4265,
      "킄": 4266,
      "킅": 4267,
      "킆": 4268,
      "킇": 4269,
      "킛": 4270,
      "키": 4271,
      "킥": 4272,
      "킦": 4273,
      "킨": 4274,
      "킪": 4275,
      "킫": 4276,
      "킬": 4277,
      "킴": 4278,
      "킵": 4279,
      "킷": 4280,
      "킸": 4281,
      "킹": 4282,
      "킺": 4283,
      "킻": 4284,
      "킼": 4285,
      "킽": 4286,
      "킾": 4287,
      "킿": 4288,
      "타": 4289,
      "탁": 4290,
      "탂": 4291,
      "탄": 4292,
      "탅": 4293,
      "탆": 4294,
      "탇": 4295,
      "탈": 4296,
      "탉": 4297,
      "탐": 4298,
      "탑": 4299,
      "탓": 4300,
      "탔": 4301,
      "탕": 4302,
      "탖": 4303,
      "탗": 4304,
      "탘": 4305,
      "탙": 4306,
      "탚": 4307,
      "탛": 4308,
      "태": 4309,
      "택": 4310,
      "탞": 4311,
      "탠": 4312,
      "탡": 4313,
      "탢": 4314,
      "탣": 4315,
      "탤": 4316,
      "탬": 4317,
      "탭": 4318,
      "탯": 4319,
      "탰": 4320,
      "탱": 4321,
      "탲": 4322,
      "탳": 4323,
      "탴": 4324,
      "탵": 4325,
      "탶": 4326,
      "탷": 4327,
      "탸": 4328,
      "탹": 4329,
      "탺": 4330,
      "탼": 4331,
      "탾": 4332,
      "탿": 4333,
      "턀": 4334,
      "턃": 4335,
      "턈": 4336,
      "턉": 4337,
      "턊": 4338,
      "턋": 4339,
      "턌": 4340,
      "턍": 4341,
      "턎": 4342,
      "턏": 4343,
      "턑": 4344,
      "턒": 4345,
      "턓": 4346,
      "턔": 4347,
      "턕": 4348,
      "턧": 4349,
      "턩": 4350,
      "턮": 4351,
      "터": 4352,
      "턱": 4353,
      "턲": 4354,
      "턴": 4355,
      "턶": 4356,
      "턷": 4357,
      "털": 4358,
      "턻": 4359,
      "텀": 4360,
      "텁": 4361,
      "텂": 4362,
      "텃": 4363,
      "텄": 4364,
      "텅": 4365,
      "텆": 4366,
      "텇": 4367,
      "텈": 4368,
      "텉": 4369,
      "텊": 4370,
      "텋": 4371,
      "테": 4372,
      "텍": 4373,
      "텎": 4374,
      "텐": 4375,
      "텓": 4376,
      "텔": 4377,
      "템": 4378,
      "텝": 4379,
      "텟": 4380,
      "텠": 4381,
      "텡": 4382,
      "텢": 4383,
      "텣": 4384,
      "텤": 4385,
      "텥": 4386,
      "텦": 4387,
      "텧": 4388,
      "텨": 4389,
      "텩": 4390,
      "텬": 4391,
      "텯": 4392,
      "텰": 4393,
      "텸": 4394,
      "텹": 4395,
      "텺": 4396,
      "텻": 4397,
      "텼": 4398,
      "텽": 4399,
      "텾": 4400,
      "텿": 4401,
      "톂": 4402,
      "톃": 4403,
      "톄": 4404,
      "톈": 4405,
      "톌": 4406,
      "톔": 4407,
      "톕": 4408,
      "톗": 4409,
      "톙": 4410,
      "토": 4411,
      "톡": 4412,
      "톢": 4413,
      "톤": 4414,
      "톧": 4415,
      "톨": 4416,
      "톪": 4417,
      "톰": 4418,
      "톱": 4419,
      "톲": 4420,
      "톳": 4421,
      "톴": 4422,
      "통": 4423,
      "톶": 4424,
      "톷": 4425,
      "톸": 4426,
      "톹": 4427,
      "톺": 4428,
      "톻": 4429,
      "톼": 4430,
      "퇀": 4431,
      "퇄": 4432,
      "퇌": 4433,
      "퇏": 4434,
      "퇐": 4435,
      "퇑": 4436,
      "퇒": 4437,
      "퇘": 4438,
      "퇴": 4439,
      "퇵": 4440,
      "퇶": 4441,
      "퇻": 4442,
      "퇼": 4443,
      "툄": 4444,
      "툅": 4445,
      "툇": 4446,
      "툉": 4447,
      "툊": 4448,
      "툋": 4449,
      "툏": 4450,
      "툐": 4451,
      "툑": 4452,
      "툔": 4453,
      "툘": 4454,
      "툥": 4455,
      "툩": 4456,
      "툫": 4457,
      "투": 4458,
      "툭": 4459,
      "툮": 4460,
      "툰": 4461,
      "툳": 4462,
      "툴": 4463,
      "툼": 4464,
      "툽": 4465,
      "툿": 4466,
      "퉀": 4467,
      "퉁": 4468,
      "퉂": 4469,
      "퉃": 4470,
      "퉄": 4471,
      "퉅": 4472,
      "퉆": 4473,
      "퉇": 4474,
      "퉈": 4475,
      "퉌": 4476,
      "퉐": 4477,
      "퉙": 4478,
      "퉛": 4479,
      "퉜": 4480,
      "퉝": 4481,
      "퉤": 4482,
      "퉨": 4483,
      "퉵": 4484,
      "퉽": 4485,
      "튀": 4486,
      "튁": 4487,
      "튂": 4488,
      "튄": 4489,
      "튇": 4490,
      "튈": 4491,
      "튓": 4492,
      "튕": 4493,
      "튛": 4494,
      "튜": 4495,
      "튝": 4496,
      "튠": 4497,
      "튤": 4498,
      "튬": 4499,
      "튭": 4500,
      "튯": 4501,
      "튱": 4502,
      "튲": 4503,
      "튳": 4504,
      "튷": 4505,
      "트": 4506,
      "특": 4507,
      "튺": 4508,
      "튼": 4509,
      "튾": 4510,
      "튿": 4511,
      "틀": 4512,
      "틁": 4513,
      "틈": 4514,
      "틉": 4515,
      "틊": 4516,
      "틋": 4517,
      "틌": 4518,
      "틍": 4519,
      "틎": 4520,
      "틏": 4521,
      "틐": 4522,
      "틑": 4523,
      "틒": 4524,
      "틓": 4525,
      "틔": 4526,
      "틤": 4527,
      "틪": 4528,
      "티": 4529,
      "틱": 4530,
      "틲": 4531,
      "틴": 4532,
      "틷": 4533,
      "틸": 4534,
      "틹": 4535,
      "틿": 4536,
      "팀": 4537,
      "팁": 4538,
      "팃": 4539,
      "팄": 4540,
      "팅": 4541,
      "팆": 4542,
      "팇": 4543,
      "팈": 4544,
      "팉": 4545,
      "팊": 4546,
      "팋": 4547,
      "파": 4548,
      "팍": 4549,
      "팎": 4550,
      "판": 4551,
      "팒": 4552,
      "팓": 4553,
      "팔": 4554,
      "팜": 4555,
      "팝": 4556,
      "팟": 4557,
      "팠": 4558,
      "팡": 4559,
      "팢": 4560,
      "팣": 4561,
      "팤": 4562,
      "팥": 4563,
      "팦": 4564,
      "팧": 4565,
      "패": 4566,
      "팩": 4567,
      "팬": 4568,
      "팯": 4569,
      "팰": 4570,
      "팸": 4571,
      "팹": 4572,
      "팻": 4573,
      "팼": 4574,
      "팽": 4575,
      "팾": 4576,
      "팿": 4577,
      "퍀": 4578,
      "퍁": 4579,
      "퍂": 4580,
      "퍃": 4581,
      "퍄": 4582,
      "퍅": 4583,
      "퍈": 4584,
      "퍋": 4585,
      "퍌": 4586,
      "퍕": 4587,
      "퍗": 4588,
      "퍘": 4589,
      "퍙": 4590,
      "퍝": 4591,
      "퍞": 4592,
      "퍟": 4593,
      "퍠": 4594,
      "퍳": 4595,
      "퍴": 4596,
      "퍸": 4597,
      "퍼": 4598,
      "퍽": 4599,
      "퍾": 4600,
      "펀": 4601,
      "펃": 4602,
      "펄": 4603,
      "펌": 4604,
      "펍": 4605,
      "펏": 4606,
      "펐": 4607,
      "펑": 4608,
      "펒": 4609,
      "펓": 4610,
      "펔": 4611,
      "펕": 4612,
      "펖": 4613,
      "펗": 4614,
      "페": 4615,
      "펙": 4616,
      "펚": 4617,
      "펜": 4618,
      "펟": 4619,
      "펠": 4620,
      "펩": 4621,
      "펫": 4622,
      "펬": 4623,
      "펭": 4624,
      "펮": 4625,
      "펯": 4626,
      "펰": 4627,
      "펱": 4628,
      "펲": 4629,
      "펳": 4630,
      "펴": 4631,
      "펵": 4632,
      "편": 4633,
      "펺": 4634,
      "펻": 4635,
      "펼": 4636,
      "폄": 4637,
      "폅": 4638,
      "폇": 4639,
      "폈": 4640,
      "평": 4641,
      "폊": 4642,
      "폋": 4643,
      "폌": 4644,
      "폍": 4645,
      "폏": 4646,
      "폐": 4647,
      "폑": 4648,
      "폗": 4649,
      "폘": 4650,
      "폣": 4651,
      "폥": 4652,
      "폦": 4653,
      "폪": 4654,
      "포": 4655,
      "폭": 4656,
      "폮": 4657,
      "폰": 4658,
      "폳": 4659,
      "폴": 4660,
      "폼": 4661,
      "폽": 4662,
      "폿": 4663,
      "퐀": 4664,
      "퐁": 4665,
      "퐂": 4666,
      "퐃": 4667,
      "퐄": 4668,
      "퐅": 4669,
      "퐆": 4670,
      "퐇": 4671,
      "퐈": 4672,
      "퐉": 4673,
      "퐌": 4674,
      "퐏": 4675,
      "퐐": 4676,
      "퐛": 4677,
      "퐝": 4678,
      "퐠": 4679,
      "푀": 4680,
      "푁": 4681,
      "푄": 4682,
      "푇": 4683,
      "푓": 4684,
      "푕": 4685,
      "표": 4686,
      "푝": 4687,
      "푞": 4688,
      "푠": 4689,
      "푣": 4690,
      "푤": 4691,
      "푬": 4692,
      "푯": 4693,
      "푱": 4694,
      "푲": 4695,
      "푳": 4696,
      "푷": 4697,
      "푸": 4698,
      "푹": 4699,
      "푼": 4700,
      "푿": 4701,
      "풀": 4702,
      "품": 4703,
      "풉": 4704,
      "풋": 4705,
      "풌": 4706,
      "풍": 4707,
      "풎": 4708,
      "풏": 4709,
      "풐": 4710,
      "풒": 4711,
      "풓": 4712,
      "풔": 4713,
      "풘": 4714,
      "풜": 4715,
      "풧": 4716,
      "풩": 4717,
      "풰": 4718,
      "퓌": 4719,
      "퓍": 4720,
      "퓟": 4721,
      "퓤": 4722,
      "퓨": 4723,
      "퓩": 4724,
      "퓬": 4725,
      "퓰": 4726,
      "퓸": 4727,
      "퓻": 4728,
      "퓽": 4729,
      "퓾": 4730,
      "픀": 4731,
      "픁": 4732,
      "프": 4733,
      "픅": 4734,
      "픆": 4735,
      "픈": 4736,
      "픊": 4737,
      "픋": 4738,
      "플": 4739,
      "픔": 4740,
      "픕": 4741,
      "픗": 4742,
      "픘": 4743,
      "픙": 4744,
      "픚": 4745,
      "픛": 4746,
      "픜": 4747,
      "픝": 4748,
      "픞": 4749,
      "픟": 4750,
      "픠": 4751,
      "피": 4752,
      "픽": 4753,
      "핀": 4754,
      "핃": 4755,
      "필": 4756,
      "핌": 4757,
      "핍": 4758,
      "핏": 4759,
      "핐": 4760,
      "핑": 4761,
      "핒": 4762,
      "핓": 4763,
      "핔": 4764,
      "핕": 4765,
      "핖": 4766,
      "핗": 4767,
      "하": 4768,
      "학": 4769,
      "핚": 4770,
      "한": 4771,
      "핝": 4772,
      "핞": 4773,
      "핟": 4774,
      "할": 4775,
      "핥": 4776,
      "함": 4777,
      "합": 4778,
      "핫": 4779,
      "핬": 4780,
      "항": 4781,
      "핮": 4782,
      "핯": 4783,
      "핰": 4784,
      "핱": 4785,
      "핲": 4786,
      "핳": 4787,
      "해": 4788,
      "핵": 4789,
      "핶": 4790,
      "핸": 4791,
      "핻": 4792,
      "핼": 4793,
      "햄": 4794,
      "햅": 4795,
      "햇": 4796,
      "했": 4797,
      "행": 4798,
      "햊": 4799,
      "햋": 4800,
      "햌": 4801,
      "햍": 4802,
      "햎": 4803,
      "햏": 4804,
      "햐": 4805,
      "햑": 4806,
      "햔": 4807,
      "햗": 4808,
      "햘": 4809,
      "햠": 4810,
      "햡": 4811,
      "햣": 4812,
      "햤": 4813,
      "향": 4814,
      "햦": 4815,
      "햧": 4816,
      "햨": 4817,
      "햩": 4818,
      "햫": 4819,
      "햬": 4820,
      "햭": 4821,
      "햰": 4822,
      "햳": 4823,
      "햽": 4824,
      "햿": 4825,
      "헀": 4826,
      "헁": 4827,
      "헂": 4828,
      "헃": 4829,
      "허": 4830,
      "헉": 4831,
      "헊": 4832,
      "헌": 4833,
      "헏": 4834,
      "헐": 4835,
      "험": 4836,
      "헙": 4837,
      "헛": 4838,
      "헜": 4839,
      "헝": 4840,
      "헞": 4841,
      "헟": 4842,
      "헠": 4843,
      "헡": 4844,
      "헢": 4845,
      "헣": 4846,
      "헤": 4847,
      "헥": 4848,
      "헦": 4849,
      "헨": 4850,
      "헫": 4851,
      "헬": 4852,
      "헭": 4853,
      "헴": 4854,
      "헵": 4855,
      "헷": 4856,
      "헸": 4857,
      "헹": 4858,
      "헺": 4859,
      "헻": 4860,
      "헼": 4861,
      "헽": 4862,
      "헾": 4863,
      "헿": 4864,
      "혀": 4865,
      "혁": 4866,
      "현": 4867,
      "혇": 4868,
      "혈": 4869,
      "혐": 4870,
      "협": 4871,
      "혓": 4872,
      "혔": 4873,
      "형": 4874,
      "혖": 4875,
      "혗": 4876,
      "혘": 4877,
      "혙": 4878,
      "혚": 4879,
      "혜": 4880,
      "혝": 4881,
      "혤": 4882,
      "혯": 4883,
      "혱": 4884,
      "혲": 4885,
      "혵": 4886,
      "호": 4887,
      "혹": 4888,
      "혺": 4889,
      "혼": 4890,
      "혿": 4891,
      "홀": 4892,
      "홅": 4893,
      "홈": 4894,
      "홉": 4895,
      "홋": 4896,
      "홌": 4897,
      "홍": 4898,
      "홎": 4899,
      "홏": 4900,
      "홐": 4901,
      "홑": 4902,
      "홒": 4903,
      "홓": 4904,
      "화": 4905,
      "확": 4906,
      "홖": 4907,
      "환": 4908,
      "홛": 4909,
      "활": 4910,
      "홤": 4911,
      "홥": 4912,
      "홧": 4913,
      "황": 4914,
      "홪": 4915,
      "홫": 4916,
      "홬": 4917,
      "홭": 4918,
      "홮": 4919,
      "홯": 4920,
      "회": 4921,
      "획": 4922,
      "횐": 4923,
      "횓": 4924,
      "횔": 4925,
      "횝": 4926,
      "횟": 4927,
      "횠": 4928,
      "횡": 4929,
      "횢": 4930,
      "횣": 4931,
      "횤": 4932,
      "횧": 4933,
      "효": 4934,
      "횩": 4935,
      "횪": 4936,
      "횬": 4937,
      "횯": 4938,
      "횰": 4939,
      "횸": 4940,
      "횹": 4941,
      "횻": 4942,
      "횼": 4943,
      "횽": 4944,
      "횾": 4945,
      "횿": 4946,
      "훀": 4947,
      "훁": 4948,
      "훂": 4949,
      "후": 4950,
      "훅": 4951,
      "훈": 4952,
      "훋": 4953,
      "훌": 4954,
      "훑": 4955,
      "훔": 4956,
      "훕": 4957,
      "훗": 4958,
      "훙": 4959,
      "훚": 4960,
      "훛": 4961,
      "훜": 4962,
      "훝": 4963,
      "훟": 4964,
      "훠": 4965,
      "훡": 4966,
      "훤": 4967,
      "훨": 4968,
      "훳": 4969,
      "훵": 4970,
      "훷": 4971,
      "훹": 4972,
      "훺": 4973,
      "훻": 4974,
      "훼": 4975,
      "휄": 4976,
      "휏": 4977,
      "휑": 4978,
      "휘": 4979,
      "휙": 4980,
      "휜": 4981,
      "휟": 4982,
      "휠": 4983,
      "휩": 4984,
      "휭": 4985,
      "휮": 4986,
      "휯": 4987,
      "휳": 4988,
      "휴": 4989,
      "휵": 4990,
      "휸": 4991,
      "휻": 4992,
      "휼": 4993,
      "흄": 4994,
      "흇": 4995,
      "흉": 4996,
      "흊": 4997,
      "흌": 4998,
      "흍": 4999,
      "흎": 5000,
      "흏": 5001,
      "흐": 5002,
      "흑": 5003,
      "흔": 5004,
      "흗": 5005,
      "흘": 5006,
      "흙": 5007,
      "흝": 5008,
      "흠": 5009,
      "흡": 5010,
      "흣": 5011,
      "흤": 5012,
      "흥": 5013,
      "흦": 5014,
      "흧": 5015,
      "흨": 5016,
      "흩": 5017,
      "흪": 5018,
      "흫": 5019,
      "희": 5020,
      "흭": 5021,
      "흰": 5022,
      "흳": 5023,
      "흴": 5024,
      "흼": 5025,
      "흽": 5026,
      "흿": 5027,
      "힁": 5028,
      "힂": 5029,
      "힄": 5030,
      "힅": 5031,
      "힇": 5032,
      "히": 5033,
      "힉": 5034,
      "힊": 5035,
      "힌": 5036,
      "힏": 5037,
      "힐": 5038,
      "힗": 5039,
      "힘": 5040,
      "힙": 5041,
      "힛": 5042,
      "힜": 5043,
      "힝": 5044,
      "힞": 5045,
      "힟": 5046,
      "힠": 5047,
      "힡": 5048,
      "힢": 5049,
      "힣": 5050,
      "？": 5051,
      "##날": 5052,
      "##항": 5053,
      "##딱": 5054,
      "##개": 5055,
      "##만": 5056,
      "##월": 5057,
      "##에": 5058,
      "##어": 5059,
      "##봐": 5060,
      "##야": 5061,
      "##료": 5062,
      "##잘": 5063,
      "##고": 5064,
      "##울": 5065,
      "##옷": 5066,
      "##들": 5067,
      "##을": 5068,
      "##니": 5069,
      "##신": 5070,
      "##습": 5071,
      "##내": 5072,
      "##자": 5073,
      "##게": 5074,
      "##전": 5075,
      "##하": 5076,
      "##지": 5077,
      "##도": 5078,
      "##두": 5079,
      "##껄": 5080,
      "##더": 5081,
      "##리": 5082,
      "##뤘": 5083,
      "##잖": 5084,
      "##아": 5085,
      "##서": 5086,
      "##간": 5087,
      "##거": 5088,
      "##우": 5089,
      "##체": 5090,
      "##라": 5091,
      "##는": 5092,
      "##깐": 5093,
      "##프": 5094,
      "##레": 5095,
      "##드": 5096,
      "##를": 5097,
      "##담": 5098,
      "##이": 5099,
      "##은": 5100,
      "##늘": 5101,
      "##피": 5102,
      "##기": 5103,
      "##심": 5104,
      "##때": 5105,
      "##문": 5106,
      "##치": 5107,
      "##크": 5108,
      "##열": 5109,
      "##랑": 5110,
      "##양": 5111,
      "##한": 5112,
      "##었": 5113,
      "##ㅈ": 5114,
      "##망": 5115,
      "##해": 5116,
      "##떼": 5117,
      "##겠": 5118,
      "##저": 5119,
      "##시": 5120,
      "##급": 5121,
      "##져": 5122,
      "##둬": 5123,
      "##스": 5124,
      "##켓": 5125,
      "##엌": 5126,
      "##까": 5127,
      "##말": 5128,
      "##식": 5129,
      "##천": 5130,
      "##재": 5131,
      "##폰": 5132,
      "##오": 5133,
      "##인": 5134,
      "##있": 5135,
      "##락": 5136,
      "##느": 5137,
      "##짓": 5138,
      "##ㅋ": 5139,
      "##셨": 5140,
      "##다": 5141,
      "##덜": 5142,
      "##마": 5143,
      "##겼": 5144,
      "##디": 5145,
      "##로": 5146,
      "##든": 5147,
      "##닐": 5148,
      "##면": 5149,
      "##으": 5150,
      "##족": 5151,
      "##테": 5152,
      "##ㄹ": 5153,
      "##듯": 5154,
      "##보": 5155,
      "##물": 5156,
      "##가": 5157,
      "##사": 5158,
      "##병": 5159,
      "##러": 5160,
      "##며": 5161,
      "##구": 5162,
      "##ㅣ": 5163,
      "##긴": 5164,
      "##ㅎ": 5165,
      "##엉": 5166,
      "##키": 5167,
      "##나": 5168,
      "##설": 5169,
      "##랍": 5170,
      "##국": 5171,
      "##매": 5172,
      "##닝": 5173,
      "##끄": 5174,
      "##럽": 5175,
      "##수": 5176,
      "##첟": 5177,
      "##ㅅ": 5178,
      "##ㅍ": 5179,
      "##혈": 5180,
      "##압": 5181,
      "##과": 5182,
      "##경": 5183,
      "##렐": 5184,
      "##ㄱ": 5185,
      "##쿠": 5186,
      "##퓽": 5187,
      "##ㄷ": 5188,
      "##4": 5189,
      "##진": 5190,
      "##영": 5191,
      "##할": 5192,
      "##긷": 5193,
      "##향": 5194,
      "##팀": 5195,
      "##험": 5196,
      "##딩": 5197,
      "##촬": 5198,
      "##같": 5199,
      "##슬": 5200,
      "##베": 5201,
      "##ㅔ": 5202,
      "##버": 5203,
      "##잠": 5204,
      "##연": 5205,
      "##ㅇ": 5206,
      "##ㅛ": 5207,
      "##찌": 5208,
      "##미": 5209,
      "##늩": 5210,
      "##ㄸ": 5211,
      "##차": 5212,
      "##읃": 5213,
      "##꺼": 5214,
      "##코": 5215,
      "##민": 5216,
      "##호": 5217,
      "##악": 5218,
      "##티": 5219,
      "##득": 5220,
      "##억": 5221,
      "##용": 5222,
      "##객": 5223,
      "##녁": 5224,
      "##약": 5225,
      "##속": 5226,
      "##햐": 5227,
      "##얏": 5228,
      "##햇": 5229,
      "##ㄴ": 5230,
      "##원": 5231,
      "##8": 5232,
      "##0": 5233,
      "##래": 5234,
      "##렇": 5235,
      "##ㅓ": 5236,
      "##근": 5237,
      "##났": 5238,
      "##플": 5239,
      "##넝": 5240,
      "##졌": 5241,
      "##퓨": 5242,
      "##좀": 5243,
      "##생": 5244,
      "##음": 5245,
      "##붕": 5246,
      "##운": 5247,
      "##예": 5248,
      "##요": 5249,
      "##대": 5250,
      "##잡": 5251,
      "##숍": 5252,
      "##활": 5253,
      "##불": 5254,
      "##안": 5255,
      "##머": 5256,
      "##냐": 5257,
      "##데": 5258,
      "##글": 5259,
      "##복": 5260,
      "##람": 5261,
      "##르": 5262,
      "##닌": 5263,
      "##길": 5264,
      "##노": 5265,
      "##세": 5266,
      "##권": 5267,
      "##여": 5268,
      "##준": 5269,
      "##였": 5270,
      "##율": 5271,
      "##겨": 5272,
      "##익": 5273,
      "##졉": 5274,
      "##루": 5275,
      "##단": 5276,
      "##즈": 5277,
      "##퀸": 5278,
      "##공": 5279,
      "##던": 5280,
      "##꾸": 5281,
      "##땡": 5282,
      "##의": 5283,
      "##돌": 5284,
      "##처": 5285,
      "##럼": 5286,
      "##릇": 5287,
      "##씈": 5288,
      "##려": 5289,
      "##네": 5290,
      "##갂": 5291,
      "##핮": 5292,
      "##배": 5293,
      "##겁": 5294,
      "##릴": 5295,
      "##륙": 5296,
      "##몄": 5297,
      "##닪": 5298,
      "##밖": 5299,
      "##멍": 5300,
      "##투": 5301,
      "##목": 5302,
      "##중": 5303,
      "##엔": 5304,
      "##텐": 5305,
      "##ㅠ": 5306,
      "##랐": 5307,
      "##걸": 5308,
      "##ㅉ": 5309,
      "##결": 5310,
      "##주": 5311,
      "##놓": 5312,
      "##편": 5313,
      "##감": 5314,
      "##교": 5315,
      "##바": 5316,
      "##젝": 5317,
      "##댜": 5318,
      "##킺": 5319,
      "##발": 5320,
      "##회": 5321,
      "##깍": 5322,
      "##했": 5323,
      "##ㅆ": 5324,
      "##럭": 5325,
      "##본": 5326,
      "##먹": 5327,
      "##쿨": 5328,
      "##링": 5329,
      "##독": 5330,
      "##츠": 5331,
      "##정": 5332,
      "##ㅏ": 5333,
      "##잍": 5334,
      "##동": 5335,
      "##률": 5336,
      "##엤": 5337,
      "##싶": 5338,
      "##P": 5339,
      "##앻": 5340,
      "##줬": 5341,
      "##3": 5342,
      "##절": 5343,
      "##받": 5344,
      "##각": 5345,
      "##장": 5346,
      "##부": 5347,
      "##학": 5348,
      "##카": 5349,
      "##ㅜ": 5350,
      "##골": 5351,
      "##타": 5352,
      "##비": 5353,
      "##터": 5354,
      "##째": 5355,
      "##관": 5356,
      "##산": 5357,
      "##ㅊ": 5358,
      "##술": 5359,
      "##ㅐ": 5360,
      "##명": 5361,
      "##ㅗ": 5362,
      "##일": 5363,
      "##반": 5364,
      "##건": 5365,
      "##강": 5366,
      "##닛": 5367,
      "##적": 5368,
      "##싸": 5369,
      "##2": 5370,
      "##년": 5371,
      "##맛": 5372,
      "##혼": 5373,
      "##봤": 5374,
      "##상": 5375,
      "##았": 5376,
      "##눈": 5377,
      "##군": 5378,
      "##판": 5379,
      "##초": 5380,
      "##맘": 5381,
      "##쁜": 5382,
      "##긐": 5383,
      "##뜻": 5384,
      "##련": 5385,
      "##선": 5386,
      "##파": 5387,
      "##업": 5388,
      "##뜨": 5389,
      "##렸": 5390,
      "##금": 5391,
      "##위": 5392,
      "##덧": 5393,
      "##너": 5394,
      "##깨": 5395,
      "##긱": 5396,
      "##삭": 5397,
      "##넜": 5398,
      "##친": 5399,
      "##클": 5400,
      "##밥": 5401,
      "##입": 5402,
      "##칬": 5403,
      "##작": 5404,
      "##된": 5405,
      "##뎅": 5406,
      "##탕": 5407,
      "##셔": 5408,
      "##른": 5409,
      "##켜": 5410,
      "##ㅘ": 5411,
      "##팅": 5412,
      "##포": 5413,
      "##황": 5414,
      "##맣": 5415,
      "##페": 5416,
      "##앗": 5417,
      "##소": 5418,
      "##낙": 5419,
      "##잔": 5420,
      "##론": 5421,
      "##뇽": 5422,
      "##성": 5423,
      "##ㅁ": 5424,
      "##핟": 5425,
      "##무": 5426,
      "##찹": 5427,
      "##랴": 5428,
      "##A": 5429,
      "##T": 5430,
      "##O": 5431,
      "##임": 5432,
      "##끈": 5433,
      "##셩": 5434,
      "##힜": 5435,
      "##끔": 5436,
      "##태": 5437,
      "##껏": 5438,
      "##혔": 5439,
      "##팩": 5440,
      "##출": 5441,
      "##됐": 5442,
      "##렛": 5443,
      "##샤": 5444,
      "##붛": 5445,
      "##청": 5446,
      "##릭": 5447,
      "##톤": 5448,
      "##좈": 5449,
      "##룽": 5450,
      "##알": 5451,
      "##못": 5452,
      "##웅": 5453,
      "##씨": 5454,
      "##옌": 5455,
      "##책": 5456,
      "##넌": 5457,
      "##곻": 5458,
      "##송": 5459,
      "##염": 5460,
      "##뎌": 5461,
      "##둘": 5462,
      "##힌": 5463,
      "##등": 5464,
      "##픔": 5465,
      "##좃": 5466,
      "##냈": 5467,
      "##홈": 5468,
      "##냠": 5469,
      "##화": 5470,
      "##돈": 5471,
      "##셎": 5472,
      "##혀": 5473,
      "##셌": 5474,
      "##샡": 5475,
      "##덕": 5476,
      "##핼": 5477,
      "##록": 5478,
      "##쁘": 5479,
      "##되": 5480,
      "##헌": 5481,
      "##분": 5482,
      "##읒": 5483,
      "##7": 5484,
      "##릳": 5485,
      "##핯": 5486,
      "##앙": 5487,
      "##례": 5488,
      "##허": 5489,
      "##덯": 5490,
      "##쓰": 5491,
      "##줄": 5492,
      "##집": 5493,
      "##윋": 5494,
      "##트": 5495,
      "##곤": 5496,
      "##견": 5497,
      "##순": 5498,
      "##덩": 5499,
      "##쪽": 5500,
      "##격": 5501,
      "##쵸": 5502,
      "##방": 5503,
      "##창": 5504,
      "##낭": 5505,
      "##센": 5506,
      "##력": 5507,
      "##1": 5508,
      "##폐": 5509,
      "##렁": 5510,
      "##번": 5511,
      "##령": 5512,
      "##픽": 5513,
      "##줘": 5514,
      "##힐": 5515,
      "##것": 5516,
      "##남": 5517,
      "##뽁": 5518,
      "##욕": 5519,
      "##조": 5520,
      "##뤄": 5521,
      "##당": 5522,
      "##랏": 5523,
      "##렺": 5524,
      "##딸": 5525,
      "##랗": 5526,
      "##삼": 5527,
      "##쪼": 5528,
      "##형": 5529,
      "##희": 5530,
      "##끼": 5531,
      "##검": 5532,
      "##육": 5533,
      "##ㄲ": 5534,
      "##겟": 5535,
      "##덫": 5536,
      "##k": 5537,
      "##m": 5538,
      "##짐": 5539,
      "##밤": 5540,
      "##그": 5541,
      "##럿": 5542,
      "##댕": 5543,
      "##컬": 5544,
      "##점": 5545,
      "##질": 5546,
      "##맂": 5547,
      "##런": 5548,
      "##계": 5549,
      "##워": 5550,
      "##석": 5551,
      "##증": 5552,
      "##택": 5553,
      "##올": 5554,
      "##떙": 5555,
      "##평": 5556,
      "##쟁": 5557,
      "##썻": 5558,
      "##제": 5559,
      "##꽆": 5560,
      "##죠": 5561,
      "##숨": 5562,
      "##린": 5563,
      "##함": 5564,
      "##승": 5565,
      "##몬": 5566,
      "##볼": 5567,
      "##찮": 5568,
      "##읏": 5569,
      "##낸": 5570,
      "##녀": 5571,
      "##즐": 5572,
      "##6": 5573,
      "##살": 5574,
      "##빴": 5575,
      "##히": 5576,
      "##핫": 5577,
      "##누": 5578,
      "##랬": 5579,
      "##벽": 5580,
      "##법": 5581,
      "##뭐": 5582,
      "##철": 5583,
      "##싲": 5584,
      "##녹": 5585,
      "##행": 5586,
      "##림": 5587,
      "##실": 5588,
      "##쟈": 5589,
      "##외": 5590,
      "##토": 5591,
      "##킹": 5592,
      "##먼": 5593,
      "##징": 5594,
      "##f": 5595,
      "##9": 5596,
      "##햏": 5597,
      "##란": 5598,
      "##종": 5599,
      "##낫": 5600,
      "##킸": 5601,
      "##곡": 5602,
      "##왔": 5603,
      "##통": 5604,
      "##죽": 5605,
      "##름": 5606,
      "##줌": 5607,
      "##룐": 5608,
      "##앖": 5609,
      "##움": 5610,
      "##킷": 5611,
      "##없": 5612,
      "##달": 5613,
      "##언": 5614,
      "##즌": 5615,
      "##줩": 5616,
      "##묵": 5617,
      "##털": 5618,
      "##뽑": 5619,
      "##칠": 5620,
      "##랙": 5621,
      "##봊": 5622,
      "##샅": 5623,
      "##특": 5624,
      "##곅": 5625,
      "##와": 5626,
      "##섯": 5627,
      "##셍": 5628,
      "##눔": 5629,
      "##팟": 5630,
      "##밌": 5631,
      "##렜": 5632,
      "##므": 5633,
      "##숭": 5634,
      "##쳐": 5635,
      "##ㅌ": 5636,
      "##룩": 5637,
      "##겅": 5638,
      "##응": 5639,
      "##쯔": 5640,
      "##잉": 5641,
      "##껒": 5642,
      "##멩": 5643,
      "##봉": 5644,
      "##쨋": 5645,
      "##벤": 5646,
      "##줭": 5647,
      "##짜": 5648,
      "##핑": 5649,
      "##갸": 5650,
      "##흥": 5651,
      "##엄": 5652,
      "##걱": 5653,
      "##애": 5654,
      "##깊": 5655,
      "##따": 5656,
      "##넼": 5657,
      "##슷": 5658,
      "##틴": 5659,
      "##됩": 5660,
      "##귀": 5661,
      "##윤": 5662,
      "##램": 5663,
      "##ㅃ": 5664,
      "##굽": 5665,
      "##온": 5666,
      "##김": 5667,
      "##킬": 5668,
      "##박": 5669,
      "##5": 5670,
      "##옝": 5671,
      "##써": 5672,
      "##섭": 5673,
      "##궁": 5674,
      "##브": 5675,
      "##모": 5676,
      "##컨": 5677,
      "##팡": 5678,
      "##휴": 5679,
      "##샛": 5680,
      "##값": 5681,
      "##퍼": 5682,
      "##햍": 5683,
      "##직": 5684,
      "##블": 5685,
      "##퀴": 5686,
      "##깅": 5687,
      "##갹": 5688,
      "##ㅂ": 5689,
      "##촌": 5690,
      "##헞": 5691,
      "##럳": 5692,
      "##커": 5693,
      "##ㅕ": 5694,
      "##볶": 5695,
      "##첩": 5696,
      "##잊": 5697,
      "##맜": 5698,
      "##백": 5699,
      "##케": 5700,
      "##량": 5701,
      "##갔": 5702,
      "##님": 5703,
      "##께": 5704,
      "##닷": 5705,
      "##쉬": 5706,
      "##웠": 5707,
      "##뇨": 5708,
      "##묘": 5709,
      "##옥": 5710,
      "##탈": 5711,
      "##긎": 5712,
      "##훟": 5713,
      "##류": 5714,
      "##롱": 5715,
      "##쟄": 5716,
      "##슈": 5717,
      "##답": 5718,
      "##넬": 5719,
      "##콩": 5720,
      "##켄": 5721,
      "##층": 5722,
      "##얒": 5723,
      "##ㅑ": 5724,
      "##븐": 5725,
      "##품": 5726,
      "##뽜": 5727,
      "##암": 5728,
      "##릉": 5729,
      "##빛": 5730,
      "##널": 5731,
      "##퐈": 5732,
      "##짖": 5733,
      "##짔": 5734,
      "##뎄": 5735,
      "##팔": 5736,
      "##슨": 5737,
      "##쁙": 5738,
      "##갱": 5739,
      "##얃": 5740,
      "##많": 5741,
      "##륵": 5742,
      "##쩝": 5743,
      "##곧": 5744,
      "##G": 5745,
      "##V": 5746,
      "##믹": 5747,
      "##캑": 5748,
      "##척": 5749,
      "##뚝": 5750,
      "##씩": 5751,
      "##욷": 5752,
      "##꼉": 5753,
      "##녘": 5754,
      "##춤": 5755,
      "##ㄶ": 5756,
      "##넹": 5757,
      "##럊": 5758,
      "##유": 5759,
      "##극": 5760,
      "##걋": 5761,
      "##큐": 5762,
      "##옴": 5763,
      "##곘": 5764,
      "##곰": 5765,
      "##표": 5766,
      "##곳": 5767,
      "##ㅡ": 5768,
      "##벙": 5769,
      "##혓": 5770,
      "##슴": 5771,
      "##패": 5772,
      "##빙": 5773,
      "##좌": 5774,
      "##능": 5775,
      "##둔": 5776,
      "##겍": 5777,
      "##읶": 5778,
      "##X": 5779,
      "##탄": 5780,
      "##엥": 5781,
      "##착": 5782,
      "##범": 5783,
      "##젓": 5784,
      "##뜯": 5785,
      "##C": 5786,
      "##깄": 5787,
      "##몽": 5788,
      "##찡": 5789,
      "##읍": 5790,
      "##쳥": 5791,
      "##뚜": 5792,
      "##깡": 5793,
      "##밴": 5794,
      "##랼": 5795,
      "##웃": 5796,
      "##궈": 5797,
      "##앝": 5798,
      "##될": 5799,
      "##I": 5800,
      "##펐": 5801,
      "##꿔": 5802,
      "##맞": 5803,
      "##꽃": 5804,
      "##엍": 5805,
      "##놔": 5806,
      "##쏜": 5807,
      "##궅": 5808,
      "##색": 5809,
      "##둣": 5810,
      "##션": 5811,
      "##U": 5812,
      "##흫": 5813,
      "##템": 5814,
      "##끙": 5815,
      "##현": 5816,
      "##갗": 5817,
      "##겡": 5818,
      "##합": 5819,
      "##환": 5820,
      "##멸": 5821,
      "##삥": 5822,
      "##눴": 5823,
      "##쓸": 5824,
      "##읻": 5825,
      "##변": 5826,
      "##혜": 5827,
      "##룰": 5828,
      "##낞": 5829,
      "##짬": 5830,
      "##뽕": 5831,
      "##맨": 5832,
      "##닊": 5833,
      "##역": 5834,
      "##N": 5835,
      "##S": 5836,
      "##샘": 5837,
      "##갓": 5838,
      "##놨": 5839,
      "##빘": 5840,
      "##풏": 5841,
      "##꼐": 5842,
      "##ㅚ": 5843,
      "##홉": 5844,
      "##앵": 5845,
      "##틀": 5846,
      "##앳": 5847,
      "##렂": 5848,
      "##뎡": 5849,
      "##헤": 5850,
      "##삐": 5851,
      "##렉": 5852,
      "##싣": 5853,
      "##튜": 5854,
      "##폌": 5855,
      "##젖": 5856,
      "##막": 5857,
      "##돟": 5858,
      "##죄": 5859,
      "##밨": 5860,
      "##첬": 5861,
      "##켠": 5862,
      "##꼬": 5863,
      "##뻐": 5864,
      "##짘": 5865,
      "##싱": 5866,
      "##킨": 5867,
      "##컺": 5868,
      "##롭": 5869,
      "##p": 5870,
      "##푸": 5871,
      "##욤": 5872,
      "##잋": 5873,
      "##빗": 5874,
      "##딕": 5875,
      "##밚": 5876,
      "##납": 5877,
      "##닥": 5878,
      "##침": 5879,
      "##댖": 5880,
      "##엽": 5881,
      "##딘": 5882,
      "##츄": 5883,
      "##콘": 5884,
      "##메": 5885,
      "##곱": 5886,
      "##엇": 5887,
      "##광": 5888,
      "##쭝": 5889,
      "##웈": 5890,
      "##킁": 5891,
      "##풎": 5892,
      "##델": 5893,
      "##찬": 5894,
      "##갈": 5895,
      "##젆": 5896,
      "##볍": 5897,
      "##추": 5898,
      "##넘": 5899,
      "##빅": 5900,
      "##싴": 5901,
      "##춴": 5902,
      "##끝": 5903,
      "##난": 5904,
      "##랩": 5905,
      "##새": 5906,
      "##또": 5907,
      "##읽": 5908,
      "##냥": 5909,
      "##쑤": 5910,
      "##웟": 5911,
      "##탆": 5912,
      "##썬": 5913,
      "##럴": 5914,
      "##듷": 5915,
      "##몰": 5916,
      "##굴": 5917,
      "##필": 5918,
      "##섬": 5919,
      "##댄": 5920,
      "##픈": 5921,
      "##먄": 5922,
      "##젭": 5923,
      "##쭉": 5924,
      "##칸": 5925,
      "##쌀": 5926,
      "##잇": 5927,
      "##별": 5928,
      "##낌": 5929,
      "##균": 5930,
      "##빠": 5931,
      "##쩔": 5932,
      "##낍": 5933,
      "##랖": 5934,
      "##o": 5935,
      "##s": 5936,
      "##앨": 5937,
      "##샀": 5938,
      "##맵": 5939,
      "##북": 5940,
      "##멀": 5941,
      "##몇": 5942,
      "##c": 5943,
      "##않": 5944,
      "##뙈": 5945,
      "##콤": 5946,
      "##쾌": 5947,
      "##졷": 5948,
      "##끗": 5949,
      "##짱": 5950,
      "##팎": 5951,
      "##츨": 5952,
      "##잣": 5953,
      "##칼": 5954,
      "##읳": 5955,
      "##젇": 5956,
      "##뽀": 5957,
      "##빵": 5958,
      "##쨌": 5959,
      "##덥": 5960,
      "##렴": 5961,
      "##d": 5962,
      "##a": 5963,
      "##y": 5964,
      "##t": 5965,
      "##끊": 5966,
      "##읙": 5967,
      "##흦": 5968,
      "##얐": 5969,
      "##늗": 5970,
      "##깜": 5971,
      "##벌": 5972,
      "##r": 5973,
      "##뮬": 5974,
      "##뿔": 5975,
      "##솥": 5976,
      "##햌": 5977,
      "##헙": 5978,
      "##닏": 5979,
      "##탸": 5980,
      "##흔": 5981,
      "##액": 5982,
      "##틱": 5983,
      "##롴": 5984,
      "##립": 5985,
      "##컴": 5986,
      "##뺴": 5987,
      "##깆": 5988,
      "##캉": 5989,
      "##샹": 5990,
      "##햊": 5991,
      "##냦": 5992,
      "##짝": 5993,
      "##핐": 5994,
      "##랜": 5995,
      "##띠": 5996,
      "##뿓": 5997,
      "##캐": 5998,
      "##옸": 5999,
      "##둠": 6000,
      "##삘": 6001,
      "##넛": 6002,
      "##앧": 6003,
      "##껴": 6004,
      "##쯤": 6005,
      "##귄": 6006,
      "##쟀": 6007,
      "##렵": 6008,
      "##뀌": 6009,
      "##엠": 6010,
      "##낰": 6011,
      "##룸": 6012,
      "##셈": 6013,
      "##꼈": 6014,
      "##빔": 6015,
      "##낱": 6016,
      "##햬": 6017,
      "##뿐": 6018,
      "##앚": 6019,
      "##효": 6020,
      "##뎃": 6021,
      "##끜": 6022,
      "##앁": 6023,
      "##궜": 6024,
      "##궝": 6025,
      "##괄": 6026,
      "##땐": 6027,
      "##빽": 6028,
      "##축": 6029,
      "##륜": 6030,
      "##팃": 6031,
      "##삿": 6032,
      "##쿳": 6033,
      "##둥": 6034,
      "##채": 6035,
      "##돤": 6036,
      "##웂": 6037,
      "##렷": 6038,
      "##랄": 6039,
      "##찍": 6040,
      "##붙": 6041,
      "##뎆": 6042,
      "##혁": 6043,
      "##덤": 6044,
      "##룡": 6045,
      "##팠": 6046,
      "##갑": 6047,
      "##닼": 6048,
      "##앟": 6049,
      "##갇": 6050,
      "##햅": 6051,
      "##탑": 6052,
      "##후": 6053,
      "##얔": 6054,
      "##쥬": 6055,
      "##풍": 6056,
      "##놏": 6057,
      "##횤": 6058,
      "##옹": 6059,
      "##농": 6060,
      "##랟": 6061,
      "##닉": 6062,
      "##돼": 6063,
      "##옇": 6064,
      "##갛": 6065,
      "##톡": 6066,
      "##잎": 6067,
      "##닫": 6068,
      "##쇼": 6069,
      "##헏": 6070,
      "##엣": 6071,
      "##쨍": 6072,
      "##왕": 6073,
      "##훈": 6074,
      "##얼": 6075,
      "##ㅢ": 6076,
      "##참": 6077,
      "##됭": 6078,
      "##둪": 6079,
      "##딪": 6080,
      "##눌": 6081,
      "##M": 6082,
      "##뻔": 6083,
      "##흐": 6084,
      "##듬": 6085,
      "##떡": 6086,
      "##핰": 6087,
      "##갖": 6088,
      "##팈": 6089,
      "##빟": 6090,
      "##닾": 6091,
      "##벅": 6092,
      "##겄": 6093,
      "##떨": 6094,
      "##릅": 6095,
      "##됫": 6096,
      "##념": 6097,
      "##욱": 6098,
      "##릿": 6099,
      "##윳": 6100,
      "##룠": 6101,
      "##낼": 6102,
      "##틍": 6103,
      "##뻡": 6104,
      "##i": 6105,
      "##숙": 6106,
      "##뎐": 6107,
      "##쳘": 6108,
      "##짇": 6109,
      "##켰": 6110,
      "##밭": 6111,
      "##쥳": 6112,
      "##삳": 6113,
      "##쌤": 6114,
      "##쓴": 6115,
      "##벼": 6116,
      "##늤": 6117,
      "##규": 6118,
      "##츤": 6119,
      "##뙴": 6120,
      "##딨": 6121,
      "##뻣": 6122,
      "##늨": 6123,
      "##촐": 6124,
      "##쳣": 6125,
      "##몈": 6126,
      "##겸": 6127,
      "##텬": 6128,
      "##탔": 6129,
      "##얗": 6130,
      "##욨": 6131,
      "##쨩": 6132,
      "##긋": 6133,
      "##찰": 6134,
      "##냑": 6135,
      "##셜": 6136,
      "##덛": 6137,
      "##갘": 6138,
      "##듭": 6139,
      "##얘": 6140,
      "##눵": 6141,
      "##숳": 6142,
      "##쏠": 6143,
      "##좋": 6144,
      "##깝": 6145,
      "##꿧": 6146,
      "##맇": 6147,
      "##픅": 6148,
      "##릋": 6149,
      "##쳤": 6150,
      "##잳": 6151,
      "##빨": 6152,
      "##젠": 6153,
      "##됮": 6154,
      "##믄": 6155,
      "##젬": 6156,
      "##꼇": 6157,
      "##샏": 6158,
      "##캬": 6159,
      "##젼": 6160,
      "##똥": 6161,
      "##앾": 6162,
      "##렫": 6163,
      "##넨": 6164,
      "##듀": 6165,
      "##e": 6166,
      "##l": 6167,
      "##x": 6168,
      "##엊": 6169,
      "##앞": 6170,
      "##끓": 6171,
      "##충": 6172,
      "##쿤": 6173,
      "##덷": 6174,
      "##냡": 6175,
      "##낻": 6176,
      "##닞": 6177,
      "##딛": 6178,
      "##샜": 6179,
      "##껃": 6180,
      "##컾": 6181,
      "##논": 6182,
      "##캦": 6183,
      "##잤": 6184,
      "##햋": 6185,
      "##슝": 6186,
      "##늬": 6187,
      "##펌": 6188,
      "##톱": 6189,
      "##땝": 6190,
      "##걷": 6191,
      "##벋": 6192,
      "##휘": 6193,
      "##튼": 6194,
      "##줃": 6195,
      "##똑": 6196,
      "##엏": 6197,
      "##햗": 6198,
      "##퇴": 6199,
      "##콜": 6200,
      "##샵": 6201,
      "##옵": 6202,
      "##댐": 6203,
      "##ㄻ": 6204,
      "##춧": 6205,
      "##총": 6206,
      "##듶": 6207,
      "##흡": 6208,
      "##칫": 6209,
      "##땅": 6210,
      "##확": 6211,
      "##랃": 6212,
      "##슫": 6213,
      "##칙": 6214,
      "##랫": 6215,
      "##곂": 6216,
      "##둉": 6217,
      "##휼": 6218,
      "##뻑": 6219,
      "##뷔": 6220,
      "##냅": 6221,
      "##펜": 6222,
      "##씯": 6223,
      "##낄": 6224,
      "##멘": 6225,
      "##낚": 6226,
      "##냔": 6227,
      "##앱": 6228,
      "##듣": 6229,
      "##찐": 6230,
      "##녕": 6231,
      "##롣": 6232,
      "##됴": 6233,
      "##꿉": 6234,
      "##탁": 6235,
      "##갰": 6236,
      "##춘": 6237,
      "##겧": 6238,
      "##펔": 6239,
      "##줔": 6240,
      "##뻥": 6241,
      "##탓": 6242,
      "##룾": 6243,
      "##켈": 6244,
      "##괘": 6245,
      "##숲": 6246,
      "##뉴": 6247,
      "##엑": 6248,
      "##렌": 6249,
      "##ㅝ": 6250,
      "##욍": 6251,
      "##얀": 6252,
      "##접": 6253,
      "##욜": 6254,
      "##뀔": 6255,
      "##딧": 6256,
      "##챦": 6257,
      "##n": 6258,
      "##u": 6259,
      "##댓": 6260,
      "##젱": 6261,
      "##뱄": 6262,
      "##툰": 6263,
      "##헁": 6264,
      "##밍": 6265,
      "##왓": 6266,
      "##봩": 6267,
      "##닸": 6268,
      "##듳": 6269,
      "##줏": 6270,
      "##톨": 6271,
      "##탬": 6272,
      "##잩": 6273,
      "##쌍": 6274,
      "##밑": 6275,
      "##취": 6276,
      "##쟇": 6277,
      "##짴": 6278,
      "##껑": 6279,
      "##봌": 6280,
      "##붐": 6281,
      "##굼": 6282,
      "##딜": 6283,
      "##섿": 6284,
      "##벚": 6285,
      "##꼴": 6286,
      "##깃": 6287,
      "##읗": 6288,
      "##꾼": 6289,
      "##잼": 6290,
      "##킥": 6291,
      "##떠": 6292,
      "##톶": 6293,
      "##셧": 6294,
      "##틈": 6295,
      "##덦": 6296,
      "##겐": 6297,
      "##긲": 6298,
      "##괒": 6299,
      "##퇐": 6300,
      "##핱": 6301,
      "##폭": 6302,
      "##튀": 6303,
      "##솟": 6304,
      "##눜": 6305,
      "##촸": 6306,
      "##셀": 6307,
      "##팄": 6308,
      "##힘": 6309,
      "##괴": 6310,
      "##왹": 6311,
      "##텔": 6312,
      "##딬": 6313,
      "##흙": 6314,
      "##얄": 6315,
      "##랭": 6316,
      "##큥": 6317,
      "##띧": 6318,
      "##콯": 6319,
      "##즉": 6320,
      "##텄": 6321,
      "##눙": 6322,
      "##뱀": 6323,
      "##랒": 6324,
      "##뚱": 6325,
      "##깢": 6326,
      "##렅": 6327,
      "##눅": 6328,
      "##섶": 6329,
      "##퐁": 6330,
      "##랂": 6331,
      "##폴": 6332,
      "##밀": 6333,
      "##쎙": 6334,
      "##낒": 6335,
      "##칭": 6336,
      "##앤": 6337,
      "##큼": 6338,
      "##멜": 6339,
      "##팝": 6340,
      "##셋": 6341,
      "##웨": 6342,
      "##뱅": 6343,
      "##끌": 6344,
      "##윽": 6345,
      "##좉": 6346,
      "##렀": 6347,
      "##룟": 6348,
      "##턀": 6349,
      "##겎": 6350,
      "##뫄": 6351,
      "##쏘": 6352,
      "##췄": 6353,
      "##녿": 6354,
      "##뿌": 6355,
      "##손": 6356,
      "##펴": 6357,
      "##섳": 6358,
      "##깔": 6359,
      "##핀": 6360,
      "##찻": 6361,
      "##툼": 6362,
      "##놈": 6363,
      "##ㅙ": 6364,
      "##죴": 6365,
      "##톢": 6366,
      "##볻": 6367,
      "##듲": 6368,
      "##솔": 6369,
      "##엋": 6370,
      "##숫": 6371,
      "##깉": 6372,
      "##튁": 6373,
      "##졀": 6374,
      "##꼰": 6375,
      "##흘": 6376,
      "##깥": 6377,
      "##뵥": 6378,
      "##찝": 6379,
      "##쌏": 6380,
      "##셐": 6381,
      "##닠": 6382,
      "##쇽": 6383,
      "##됬": 6384,
      "##얙": 6385,
      "##돚": 6386,
      "##ㅟ": 6387,
      "##핬": 6388,
      "##잌": 6389,
      "##컥": 6390,
      "##돠": 6391,
      "##넥": 6392,
      "##귙": 6393,
      "##십": 6394,
      "##벨": 6395,
      "##춯": 6396,
      "##봄": 6397,
      "##닽": 6398,
      "##겢": 6399,
      "##뎀": 6400,
      "##옂": 6401,
      "##웜": 6402,
      "##샥": 6403,
      "##앋": 6404,
      "##웄": 6405,
      "##팉": 6406,
      "##쁠": 6407,
      "##챃": 6408,
      "##굳": 6409,
      "##갵": 6410,
      "##껀": 6411,
      "##획": 6412,
      "##봥": 6413,
      "##v": 6414,
      "##챠": 6415,
      "##팬": 6416,
      "##넉": 6417,
      "##밫": 6418,
      "##낳": 6419,
      "##덴": 6420,
      "##룔": 6421,
      "##턱": 6422,
      "##뜰": 6423,
      "##읔": 6424,
      "##팽": 6425,
      "##슾": 6426,
      "##뒀": 6427,
      "##뼈": 6428,
      "##첼": 6429,
      "##넟": 6430,
      "##앉": 6431,
      "##햑": 6432,
      "##헠": 6433,
      "##큰": 6434,
      "##뎠": 6435,
      "##햧": 6436,
      "##끽": 6437,
      "##뭇": 6438,
      "##엿": 6439,
      "##챙": 6440,
      "##턴": 6441,
      "##뢍": 6442,
      "##뭉": 6443,
      "##겔": 6444,
      "##힉": 6445,
      "##큣": 6446,
      "##믂": 6447,
      "##빧": 6448,
      "##뱌": 6449,
      "##륨": 6450,
      "##g": 6451,
      "##텋": 6452,
      "##쩩": 6453,
      "##뎜": 6454,
      "##줴": 6455,
      "##궂": 6456,
      "##뮤": 6457,
      "##춰": 6458,
      "##츱": 6459,
      "##쩡": 6460,
      "##샷": 6461,
      "##뀾": 6462,
      "##녔": 6463,
      "##펙": 6464,
      "##긓": 6465,
      "##닮": 6466,
      "##곽": 6467,
      "##겆": 6468,
      "##씬": 6469,
      "##칟": 6470,
      "##펠": 6471,
      "##겇": 6472,
      "##K": 6473,
      "##섣": 6474,
      "##뉘": 6475,
      "##헥": 6476,
      "##릌": 6477,
      "##톻": 6478,
      "##껬": 6479,
      "##쪕": 6480,
      "##픙": 6481,
      "##잧": 6482,
      "##깈": 6483,
      "##렿": 6484,
      "##웆": 6485,
      "##귑": 6486,
      "##룬": 6487,
      "##랸": 6488,
      "##빡": 6489,
      "##뭏": 6490,
      "##궄": 6491,
      "##앴": 6492,
      "##략": 6493,
      "##떧": 6494,
      "##땁": 6495,
      "##튤": 6496,
      "##귴": 6497,
      "##졍": 6498,
      "##팁": 6499,
      "##빼": 6500,
      "##낑": 6501,
      "##뭔": 6502,
      "##춍": 6503,
      "##댇": 6504,
      "##붖": 6505,
      "##겹": 6506,
      "##닺": 6507,
      "##h": 6508,
      "##냉": 6509,
      "##돋": 6510,
      "##읐": 6511,
      "##꿬": 6512,
      "##얍": 6513,
      "##륭": 6514,
      "##쟝": 6515,
      "##됙": 6516,
      "##팒": 6517,
      "##냊": 6518,
      "##긁": 6519,
      "##샌": 6520,
      "##봘": 6521,
      "##뤀": 6522,
      "##겜": 6523,
      "##썼": 6524,
      "##멋": 6525,
      "##땜": 6526,
      "##깋": 6527,
      "##늦": 6528,
      "##솄": 6529,
      "##땀": 6530,
      "##뵤": 6531,
      "##녱": 6532,
      "##웋": 6533,
      "##롯": 6534,
      "##뷰": 6535,
      "##텅": 6536,
      "##읕": 6537,
      "##젤": 6538,
      "##찾": 6539,
      "##쎔": 6540,
      "##듵": 6541,
      "##옫": 6542,
      "##둑": 6543,
      "##봎": 6544,
      "##졸": 6545,
      "##쁩": 6546,
      "##존": 6547,
      "##귱": 6548,
      "##슐": 6549,
      "##쩌": 6550,
      "##귤": 6551,
      "##샂": 6552,
      "##쉽": 6553,
      "##넙": 6554,
      "##걎": 6555,
      "##겯": 6556,
      "##쟛": 6557,
      "##젹": 6558,
      "##좁": 6559,
      "##쎄": 6560,
      "##덮": 6561,
      "##짢": 6562,
      "##덚": 6563,
      "##젿": 6564,
      "##햄": 6565,
      "##텟": 6566,
      "##넷": 6567,
      "##귈": 6568,
      "##삾": 6569,
      "##곸": 6570,
      "##짆": 6571,
      "##잭": 6572,
      "##젗": 6573,
      "##쏟": 6574,
      "##샙": 6575,
      "##슥": 6576,
      "##펑": 6577,
      "##굑": 6578,
      "##D": 6579,
      "##챵": 6580,
      "##첫": 6581,
      "##줙": 6582,
      "##돛": 6583,
      "##쿺": 6584,
      "##쩨": 6585,
      "##맹": 6586,
      "##팍": 6587,
      "##늑": 6588,
      "##흪": 6589,
      "##딴": 6590,
      "##츰": 6591,
      "##턍": 6592,
      "##떤": 6593,
      "##텝": 6594,
      "##걉": 6595,
      "##켱": 6596,
      "##샐": 6597,
      "##즢": 6598,
      "##괜": 6599,
      "##눚": 6600,
      "##덪": 6601,
      "##틋": 6602,
      "##볈": 6603,
      "##첞": 6604,
      "##벊": 6605,
      "##곺": 6606,
      "##싫": 6607,
      "##쪄": 6608,
      "##됨": 6609,
      "##뢰": 6610,
      "##홀": 6611,
      "##웓": 6612,
      "##빌": 6613,
      "##j": 6614,
      "##쿼": 6615,
      "##렘": 6616,
      "##뮨": 6617,
      "##홛": 6618,
      "##볓": 6619,
      "##즙": 6620,
      "##엡": 6621,
      "##믿": 6622,
      "##퉙": 6623,
      "##늣": 6624,
      "##뀐": 6625,
      "##펭": 6626,
      "##굮": 6627,
      "##닻": 6628,
      "##쥭": 6629,
      "##캄": 6630,
      "##b": 6631,
      "##풐": 6632,
      "##찔": 6633,
      "##겓": 6634,
      "##벳": 6635,
      "##붇": 6636,
      "##밉": 6637,
      "##걌": 6638,
      "##릊": 6639,
      "##괃": 6640,
      "##롤": 6641,
      "##곹": 6642,
      "##쇠": 6643,
      "##닙": 6644,
      "##헜": 6645,
      "##낀": 6646,
      "##톄": 6647,
      "##J": 6648,
      "##E": 6649,
      "##챕": 6650,
      "##뢌": 6651,
      "##늠": 6652,
      "##댝": 6653,
      "##끅": 6654,
      "##댔": 6655,
      "##좠": 6656,
      "##컷": 6657,
      "##L": 6658,
      "##숕": 6659,
      "##쾅": 6660,
      "##썩": 6661,
      "##섷": 6662,
      "##뇄": 6663,
      "##쟌": 6664,
      "##댛": 6665,
      "##깁": 6666,
      "##릈": 6667,
      "##뀢": 6668,
      "##젘": 6669,
      "##샇": 6670,
      "##땔": 6671,
      "##빈": 6672,
      "##꿀": 6673,
      "##핏": 6674,
      "##윙": 6675,
      "##럅": 6676,
      "##졲": 6677,
      "##닜": 6678,
      "##뱍": 6679,
      "##엘": 6680,
      "##겾": 6681,
      "##겋": 6682,
      "##눗": 6683,
      "##뽄": 6684,
      "##흑": 6685,
      "##렼": 6686,
      "##캍": 6687,
      "##냋": 6688,
      "##튿": 6689,
      "##쳈": 6690,
      "##뤼": 6691,
      "##닭": 6692,
      "##떻": 6693,
      "##죅": 6694,
      "##뎍": 6695,
      "##띾": 6696,
      "##괸": 6697,
      "##씸": 6698,
      "##럔": 6699,
      "##봏": 6700,
      "##탣": 6701,
      "##팜": 6702,
      "##킫": 6703,
      "##썹": 6704,
      "##욮": 6705,
      "##댁": 6706,
      "##졋": 6707,
      "##빚": 6708,
      "##긍": 6709,
      "##샠": 6710,
      "##핚": 6711,
      "##틉": 6712,
      "##눋": 6713,
      "##즎": 6714,
      "##탹": 6715,
      "##훌": 6716,
      "##풀": 6717,
      "##흠": 6718,
      "##댈": 6719,
      "##첨": 6720,
      "##랔": 6721,
      "##겉": 6722,
      "##쏙": 6723,
      "##톙": 6724,
      "##텨": 6725,
      "##롷": 6726,
      "##곷": 6727,
      "##뭋": 6728,
      "##캔": 6729,
      "##싼": 6730,
      "##툭": 6731,
      "##칱": 6732,
      "##뙻": 6733,
      "##넞": 6734,
      "##옛": 6735,
      "##넠": 6736,
      "##놀": 6737,
      "##뵌": 6738,
      "##쩰": 6739,
      "##앶": 6740,
      "##홧": 6741,
      "##뒤": 6742,
      "##흩": 6743,
      "##폍": 6744,
      "##콛": 6745,
      "##뤗": 6746,
      "##귝": 6747,
      "##녑": 6748,
      "##줫": 6749,
      "##틐": 6750,
      "##탐": 6751,
      "##씰": 6752,
      "##딷": 6753,
      "##엗": 6754,
      "##완": 6755,
      "##혐": 6756,
      "##봣": 6757,
      "##뎨": 6758,
      "##숯": 6759,
      "##셓": 6760,
      "##멤": 6761,
      "##협": 6762,
      "##쟎": 6763,
      "##욛": 6764,
      "##싵": 6765,
      "##즘": 6766,
      "##쇄": 6767,
      "##릎": 6768,
      "##밧": 6769,
      "##씻": 6770,
      "##짂": 6771,
      "##듦": 6772,
      "##펀": 6773,
      "##웡": 6774,
      "##냇": 6775,
      "##칵": 6776,
      "##봡": 6777,
      "##갯": 6778,
      "##맥": 6779,
      "##엳": 6780,
      "##숑": 6781,
      "##쁟": 6782,
      "##꿩": 6783,
      "##슽": 6784,
      "##렙": 6785,
      "##콕": 6786,
      "##쫑": 6787,
      "##욬": 6788,
      "##풋": 6789,
      "##룹": 6790,
      "##뱋": 6791,
      "##뇌": 6792,
      "##믆": 6793,
      "##B": 6794,
      "##먺": 6795,
      "##샾": 6796,
      "##뎝": 6797,
      "##꼽": 6798,
      "##쌑": 6799,
      "##낮": 6800,
      "##왜": 6801,
      "##솜": 6802,
      "##꾿": 6803,
      "##폋": 6804,
      "##덨": 6805,
      "##턓": 6806,
      "##뚷": 6807,
      "##뷷": 6808,
      "##셒": 6809,
      "##헛": 6810,
      "##찢": 6811,
      "##뤃": 6812,
      "##셉": 6813,
      "##섹": 6814,
      "##삯": 6815,
      "##챘": 6816,
      "##퉌": 6817,
      "##엫": 6818,
      "##돗": 6819,
      "##짠": 6820,
      "##맫": 6821,
      "##넣": 6822,
      "##믕": 6823,
      "##팾": 6824,
      "##핻": 6825,
      "##픋": 6826,
      "##멬": 6827,
      "##탘": 6828,
      "##핸": 6829,
      "##믓": 6830,
      "##롞": 6831,
      "##틸": 6832,
      "##릏": 6833,
      "##쫌": 6834,
      "##렞": 6835,
      "##끚": 6836,
      "##짧": 6837,
      "##폼": 6838,
      "##잰": 6839,
      "##녇": 6840,
      "##샟": 6841,
      "##곈": 6842,
      "##옅": 6843,
      "##꼼": 6844,
      "##롰": 6845,
      "##옿": 6846,
      "##썰": 6847,
      "##찜": 6848,
      "##쿧": 6849,
      "##촉": 6850,
      "##캠": 6851,
      "##짤": 6852,
      "##엧": 6853,
      "##뚯": 6854,
      "##펄": 6855,
      "##괭": 6856,
      "##듁": 6857,
      "##밎": 6858,
      "##뎔": 6859,
      "##융": 6860,
      "##걑": 6861,
      "##쟐": 6862,
      "##닿": 6863,
      "##굥": 6864,
      "##콰": 6865,
      "##눤": 6866,
      "##갣": 6867,
      "##듕": 6868,
      "##넻": 6869,
      "##맺": 6870,
      "##큘": 6871,
      "##욘": 6872,
      "##잏": 6873,
      "##륽": 6874,
      "##뛰": 6875,
      "##뚲": 6876,
      "##폇": 6877,
      "##펃": 6878,
      "##힞": 6879,
      "##륮": 6880,
      "##맄": 6881,
      "##낃": 6882,
      "##몉": 6883,
      "##갠": 6884,
      "##헷": 6885,
      "##꿨": 6886,
      "##킦": 6887,
      "##땠": 6888,
      "##ㅄ": 6889,
      "##짙": 6890,
      "##밷": 6891,
      "##핳": 6892,
      "##팥": 6893,
      "##헀": 6894,
      "##봇": 6895,
      "##뺒": 6896,
      "##졔": 6897,
      "##짛": 6898,
      "##쫀": 6899,
      "##잫": 6900,
      "##냬": 6901,
      "##섰": 6902,
      "##쟂": 6903,
      "##삽": 6904,
      "##힣": 6905,
      "##닦": 6906,
      "##앍": 6907,
      "##푠": 6908,
      "##걀": 6909,
      "##똘": 6910,
      "##햡": 6911,
      "##칩": 6912,
      "##퍙": 6913,
      "##웰": 6914,
      "##좆": 6915,
      "##봅": 6916,
      "##ˋ": 6917,
      "##ˏ": 6918,
      "##곙": 6919,
      "##햣": 6920,
      "##퉁": 6921,
      "##욎": 6922,
      "##맅": 6923,
      "##큦": 6924,
      "##꿈": 6925,
      "##퍄": 6926,
      "##뚤": 6927,
      "##켝": 6928,
      "##콮": 6929,
      "##찧": 6930,
      "##눠": 6931,
      "##꽁": 6932,
      "##햔": 6933,
      "##횐": 6934,
      "##돆": 6935,
      "##륻": 6936,
      "##헸": 6937,
      "##젣": 6938,
      "##녓": 6939,
      "##앜": 6940,
      "##꼊": 6941,
      "##슘": 6942,
      "##꺄": 6943,
      "##뮹": 6944,
      "##벧": 6945,
      "##쌩": 6946,
      "##핗": 6947,
      "##뾰": 6948,
      "##멯": 6949,
      "##깤": 6950,
      "##댤": 6951,
      "##쥐": 6952,
      "##쪘": 6953,
      "##옮": 6954,
      "##밋": 6955,
      "##횬": 6956,
      "##녜": 6957,
      "##촞": 6958,
      "##퍽": 6959,
      "##씀": 6960,
      "##웢": 6961,
      "##쿄": 6962,
      "##웤": 6963,
      "##얭": 6964,
      "##켐": 6965,
      "##혙": 6966,
      "##밪": 6967,
      "##췅": 6968,
      "##측": 6969,
      "##딯": 6970,
      "##덬": 6971,
      "##댠": 6972,
      "##댑": 6973,
      "##톷": 6974,
      "##뇜": 6975,
      "##쏴": 6976,
      "##슁": 6977,
      "##큳": 6978,
      "##잙": 6979,
      "##겻": 6980,
      "##쌰": 6981,
      "##렦": 6982,
      "##펗": 6983,
      "##챂": 6984,
      "##쥴": 6985,
      "##걈": 6986,
      "##쭐": 6987,
      "##왰": 6988,
      "##쳡": 6989,
      "##횡": 6990,
      "##씽": 6991,
      "##듄": 6992,
      "##돜": 6993,
      "##몃": 6994,
      "##뵨": 6995,
      "##첲": 6996,
      "##켣": 6997,
      "##숴": 6998,
      "##칳": 6999,
      "##멱": 7000,
      "##븓": 7001,
      "##즁": 7002,
      "##둰": 7003,
      "##딤": 7004,
      "##쫄": 7005,
      "##삮": 7006,
      "##줟": 7007,
      "##댸": 7008,
      "##썽": 7009,
      "##쓱": 7010,
      "##옆": 7011,
      "##최": 7012,
      "##읖": 7013,
      "##뚵": 7014,
      "##롬": 7015,
      "##텁": 7016,
      "##멪": 7017,
      "##촜": 7018,
      "##푼": 7019,
      "##롓": 7020,
      "##솧": 7021,
      "##쓉": 7022,
      "##싯": 7023,
      "##왈": 7024,
      "##홐": 7025,
      "##낵": 7026,
      "##샨": 7027,
      "##밸": 7028,
      "##뭄": 7029,
      "##텽": 7030,
      "##뫠": 7031,
      "##랮": 7032,
      "##콧": 7033,
      "##랠": 7034,
      "##잨": 7035,
      "##윛": 7036,
      "##젙": 7037,
      "##숱": 7038,
      "##멧": 7039,
      "##멒": 7040,
      "##빜": 7041,
      "##푹": 7042,
      "##꽂": 7043,
      "##홍": 7044,
      "##켲": 7045,
      "##쎌": 7046,
      "##륬": 7047,
      "##몸": 7048,
      "##쎅": 7049,
      "##쿵": 7050,
      "##갿": 7051,
      "##벗": 7052,
      "##앰": 7053,
      "##쩍": 7054,
      "##헐": 7055,
      "##묙": 7056,
      "##솓": 7057,
      "##븍": 7058,
      "##챋": 7059,
      "##몫": 7060,
      "##츼": 7061,
      "##쪙": 7062,
      "##읫": 7063,
      "##핵": 7064,
      "##캣": 7065,
      "##곋": 7066,
      "##낟": 7067,
      "##쑥": 7068,
      "##먀": 7069,
      "##헨": 7070,
      "##뎦": 7071,
      "##떄": 7072,
      "##Z": 7073,
      "##먕": 7074,
      "##곗": 7075,
      "##숟": 7076,
      "##줗": 7077,
      "##햠": 7078,
      "##웁": 7079,
      "##셕": 7080,
      "##젛": 7081,
      "##F": 7082,
      "##슻": 7083,
      "##욯": 7084,
      "##넴": 7085,
      "##갭": 7086,
      "##쌈": 7087,
      "##텆": 7088,
      "##텼": 7089,
      "##툴": 7090,
      "##젶": 7091,
      "##갚": 7092,
      "##댴": 7093,
      "##웉": 7094,
      "##됏": 7095,
      "##귿": 7096,
      "##돔": 7097,
      "##죈": 7098,
      "##럏": 7099,
      "##찼": 7100,
      "##훋": 7101,
      "##튭": 7102,
      "##떵": 7103,
      "##덭": 7104,
      "##ㅀ": 7105,
      "##벵": 7106,
      "##콗": 7107,
      "##넦": 7108,
      "##삻": 7109,
      "##턷": 7110,
      "##헉": 7111,
      "##뒷": 7112,
      "##슺": 7113,
      "##캇": 7114,
      "##챡": 7115,
      "##뎈": 7116,
      "##춪": 7117,
      "##튠": 7118,
      "##쯧": 7119,
      "##캈": 7120,
      "##냄": 7121,
      "##퍟": 7122,
      "##먈": 7123,
      "##맡": 7124,
      "##펱": 7125,
      "##텍": 7126,
      "##찟": 7127,
      "##칰": 7128,
      "##뜩": 7129,
      "##꺈": 7130,
      "##젵": 7131,
      "##챻": 7132,
      "##춛": 7133,
      "##덱": 7134,
      "##롔": 7135,
      "##캋": 7136,
      "##팼": 7137,
      "##맊": 7138,
      "##팢": 7139,
      "##먁": 7140,
      "##쁭": 7141,
      "##갅": 7142,
      "##첻": 7143,
      "##옺": 7144,
      "##굿": 7145,
      "##꿎": 7146,
      "##쟹": 7147,
      "##릐": 7148,
      "##흰": 7149,
      "##췌": 7150,
      "##몯": 7151,
      "##툥": 7152,
      "##믈": 7153,
      "##픚": 7154,
      "##숰": 7155,
      "##샃": 7156,
      "##꾜": 7157,
      "##욫": 7158,
      "##쟣": 7159,
      "##맿": 7160,
      "##괗": 7161,
      "##힢": 7162,
      "##롸": 7163,
      "##잲": 7164,
      "##줓": 7165,
      "##낗": 7166,
      "##헬": 7167,
      "##껨": 7168,
      "##싷": 7169,
      "##꼿": 7170,
      "##빶": 7171,
      "##w": 7172,
      "##윈": 7173,
      "##얌": 7174,
      "##뭌": 7175,
      "##샞": 7176,
      "##얎": 7177,
      "##붗": 7178,
      "##ㅖ": 7179,
      "##켴": 7180,
      "##즡": 7181,
      "##얻": 7182,
      "##넽": 7183,
      "##킆": 7184,
      "##싿": 7185,
      "##놭": 7186,
      "##섁": 7187,
      "##킄": 7188,
      "##씌": 7189,
      "##먿": 7190,
      "##탤": 7191,
      "##쑺": 7192,
      "##꽝": 7193,
      "##칮": 7194,
      "##멈": 7195,
      "##튬": 7196,
      "##늉": 7197,
      "##럈": 7198,
      "##뉵": 7199,
      "##줒": 7200,
      "##잗": 7201,
      "##맙": 7202,
      "##뷸": 7203,
      "##텡": 7204,
      "##렬": 7205,
      "##R": 7206,
      "##읓": 7207,
      "##홖": 7208,
      "##땍": 7209,
      "##묻": 7210,
      "##씆": 7211,
      "##흗": 7212,
      "##풉": 7213,
      "##붓": 7214,
      "##깠": 7215,
      "##띤": 7216,
      "##낏": 7217,
      "##쌔": 7218,
      "##읠": 7219,
      "##웝": 7220,
      "##줕": 7221,
      "##냖": 7222,
      "##뱃": 7223,
      "##펻": 7224,
      "##꺠": 7225,
      "##힏": 7226,
      "##땢": 7227,
      "##굘": 7228,
      "##쨚": 7229,
      "##숩": 7230,
      "##걐": 7231,
      "##잒": 7232,
      "##팆": 7233,
      "##퉈": 7234,
      "##Q": 7235,
      "##맏": 7236,
      "##렻": 7237,
      "##핕": 7238,
      "##룢": 7239,
      "##혿": 7240,
      "##덟": 7241,
      "##얜": 7242,
      "##섴": 7243,
      "##죻": 7244,
      "##늧": 7245,
      "##챀": 7246,
      "##냌": 7247,
      "##곃": 7248,
      "##볏": 7249,
      "##칺": 7250,
      "##댘": 7251,
      "##굔": 7252,
      "##픗": 7253,
      "##궇": 7254,
      "##맀": 7255,
      "##옼": 7256,
      "##헣": 7257,
      "##젯": 7258,
      "##듑": 7259,
      "##놩": 7260,
      "##쌕": 7261,
      "##맟": 7262,
      "##첯": 7263,
      "##겈": 7264,
      "##뱡": 7265,
      "##깯": 7266,
      "##녗": 7267,
      "##롼": 7268,
      "##쭈": 7269,
      "##똫": 7270,
      "##춨": 7271,
      "##슼": 7272,
      "##탱": 7273,
      "##땧": 7274,
      "##겪": 7275,
      "##둫": 7276,
      "##셥": 7277,
      "##윅": 7278,
      "##춥": 7279,
      "##잴": 7280,
      "##댰": 7281,
      "##탖": 7282,
      "##돕": 7283,
      "##팣": 7284,
      "##둡": 7285,
      "##펖": 7286,
      "##냤": 7287,
      "##롹": 7288,
      "##썸": 7289,
      "##줐": 7290,
      "##럄": 7291,
      "##캰": 7292,
      "##휙": 7293,
      "##맬": 7294,
      "##릥": 7295,
      "##쨈": 7296,
      "##룓": 7297,
      "##햘": 7298,
      "##봈": 7299,
      "##툉": 7300,
      "##듞": 7301,
      "##홪": 7302,
      "##켳": 7303,
      "##쑨": 7304,
      "##뚠": 7305,
      "##쳄": 7306,
      "##텩": 7307,
      "##갼": 7308,
      "##쩜": 7309,
      "##첱": 7310,
      "##켕": 7311,
      "##햤": 7312,
      "##롲": 7313,
      "##췁": 7314,
      "##횓": 7315,
      "##꼭": 7316,
      "##큩": 7317,
      "##깟": 7318,
      "##쳔": 7319,
      "##빕": 7320,
      "##큡": 7321,
      "##앛": 7322,
      "##ᄒ": 7323,
      "##뵺": 7324,
      "##옽": 7325,
      "##옄": 7326,
      "##끕": 7327,
      "##눶": 7328,
      "##슿": 7329,
      "##엮": 7330,
      "##핔": 7331,
      "##녖": 7332,
      "##쭙": 7333,
      "##욧": 7334,
      "##낶": 7335,
      "##쳇": 7336,
      "##쎴": 7337,
      "##깽": 7338,
      "##쩅": 7339,
      "##콥": 7340,
      "##킇": 7341,
      "##엨": 7342,
      "##챽": 7343,
      "##숃": 7344,
      "##끛": 7345,
      "##밮": 7346,
      "##줍": 7347,
      "##츈": 7348,
      "##렊": 7349,
      "##헃": 7350,
      "##렽": 7351,
      "##틔": 7352,
      "##컹": 7353,
      "##츦": 7354,
      "##땉": 7355,
      "##껜": 7356,
      "##혹": 7357,
      "##갷": 7358,
      "##꺁": 7359,
      "##탞": 7360,
      "##슦": 7361,
      "##쿕": 7362,
      "##켔": 7363,
      "##슢": 7364,
      "##볖": 7365,
      "##냨": 7366,
      "##틷": 7367,
      "##묜": 7368,
      "##햦": 7369,
      "##꽉": 7370,
      "##굗": 7371,
      "##꿐": 7372,
      "##녈": 7373,
      "##붑": 7374,
      "##씉": 7375,
      "##킼": 7376,
      "##뵹": 7377,
      "##윌": 7378,
      "##똣": 7379,
      "##눳": 7380,
      "##콋": 7381,
      "##콖": 7382,
      "##쌘": 7383,
      "##켤": 7384,
      "##겝": 7385,
      "##팻": 7386,
      "##럾": 7387,
      "##샆": 7388,
      "##셛": 7389,
      "##릮": 7390,
      "##븜": 7391,
      "##랕": 7392,
      "##횩": 7393,
      "##렄": 7394,
      "##팓": 7395,
      "##봍": 7396,
      "##쭤": 7397,
      "##맃": 7398,
      "##뺑": 7399,
      "##퉅": 7400,
      "##볐": 7401,
      "##냗": 7402,
      "##윻": 7403,
      "##딖": 7404,
      "##웹": 7405,
      "##깧": 7406,
      "##넚": 7407,
      "##갬": 7408,
      "##늙": 7409,
      "##긑": 7410,
      "##죵": 7411,
      "##윾": 7412,
      "##샢": 7413,
      "##홤": 7414,
      "##졓": 7415,
      "##틒": 7416,
      "##컀": 7417,
      "##벜": 7418,
      "##댱": 7419,
      "##픁": 7420,
      "##횢": 7421,
      "##퉀": 7422,
      "##긌": 7423,
      "##텥": 7424,
      "##듴": 7425,
      "##롁": 7426,
      "##띵": 7427,
      "##컵": 7428,
      "##벆": 7429,
      "##붜": 7430,
      "##폮": 7431,
      "##럐": 7432,
      "##즛": 7433,
      "##삑": 7434,
      "##텓": 7435,
      "##눧": 7436,
      "##흉": 7437,
      "##싹": 7438,
      "##곚": 7439,
      "##엎": 7440,
      "##렝": 7441,
      "##뻘": 7442,
      "##솝": 7443,
      "##둦": 7444,
      "##껍": 7445,
      "##짣": 7446,
      "##섲": 7447,
      "##엦": 7448,
      "##팰": 7449,
      "##둩": 7450,
      "##퐅": 7451,
      "##둨": 7452,
      "##챱": 7453,
      "##땎": 7454,
      "##훔": 7455,
      "##듈": 7456,
      "##홫": 7457,
      "##젷": 7458,
      "##텰": 7459,
      "##쾧": 7460,
      "##뺀": 7461,
      "##룝": 7462,
      "##틎": 7463,
      "##탠": 7464,
      "##탗": 7465,
      "##윗": 7466,
      "##뱔": 7467,
      "##쒹": 7468,
      "##캅": 7469,
      "##췯": 7470,
      "##늄": 7471,
      "##톹": 7472,
      "##돵": 7473,
      "##슠": 7474,
      "##굫": 7475,
      "##곴": 7476,
      "##팸": 7477,
      "##낲": 7478,
      "##즏": 7479,
      "##챧": 7480,
      "##쁨": 7481,
      "##핃": 7482,
      "##젴": 7483,
      "##횔": 7484,
      "##캗": 7485,
      "##넫": 7486,
      "##횝": 7487,
      "##ᄏ": 7488,
      "##냣": 7489,
      "##높": 7490,
      "##쯬": 7491,
      "##깬": 7492,
      "##벴": 7493,
      "##콭": 7494,
      "##샄": 7495,
      "##봋": 7496,
      "##쩣": 7497,
      "##븡": 7498,
      "##됶": 7499,
      "##뙺": 7500,
      "##븝": 7501,
      "##쟅": 7502,
      "##긔": 7503,
      "##텯": 7504,
      "##킅": 7505,
      "##륩": 7506,
      "##럌": 7507,
      "##죡": 7508,
      "##뺌": 7509,
      "##펏": 7510,
      "##퐉": 7511,
      "##넏": 7512,
      "##걍": 7513,
      "##뜽": 7514,
      "##쿱": 7515,
      "##뎉": 7516,
      "##봦": 7517,
      "##껌": 7518,
      "##혇": 7519,
      "##뵈": 7520,
      "##쁳": 7521,
      "##싳": 7522,
      "##텀": 7523,
      "##샺": 7524,
      "##컸": 7525,
      "##홥": 7526,
      "##겂": 7527,
      "##떽": 7528,
      "##꾵": 7529,
      "##죔": 7530,
      "##훚": 7531,
      "##폅": 7532,
      "##캊": 7533,
      "##즄": 7534,
      "##쳑": 7535,
      "##픞": 7536,
      "##굣": 7537,
      "##훼": 7538,
      "##캎": 7539,
      "##츧": 7540,
      "##쌌": 7541,
      "##궏": 7542,
      "##잦": 7543,
      "##퀘": 7544,
      "##칽": 7545,
      "##팋": 7546,
      "##푤": 7547,
      "##윱": 7548,
      "##믐": 7549,
      "##껭": 7550,
      "##뭡": 7551,
      "##밯": 7552,
      "##핒": 7553,
      "##샸": 7554,
      "##앆": 7555,
      "##뎋": 7556,
      "##쟉": 7557,
      "##씹": 7558,
      "##q": 7559,
      "##꿋": 7560,
      "##챚": 7561,
      "##쳿": 7562,
      "##횧": 7563,
      "##볜": 7564,
      "##툽": 7565,
      "##껼": 7566,
      "##츙": 7567,
      "##뿍": 7568,
      "##깇": 7569,
      "##칑": 7570,
      "##솽": 7571,
      "##쟙": 7572,
      "##힝": 7573,
      "##쐬": 7574,
      "##퉛": 7575,
      "##욀": 7576,
      "##챶": 7577,
      "##숮": 7578,
      "##꾹": 7579,
      "##챌": 7580,
      "##볕": 7581,
      "##쩟": 7582,
      "##혘": 7583,
      "##홌": 7584,
      "##굶": 7585,
      "##탯": 7586,
      "##넸": 7587,
      "##쇧": 7588,
      "##촙": 7589,
      "##젲": 7590,
      "##홎": 7591,
      "##룻": 7592,
      "##럮": 7593,
      "##뿥": 7594,
      "##뱁": 7595,
      "##옞": 7596,
      "##딫": 7597,
      "##좇": 7598,
      "##봑": 7599,
      "##퓬": 7600,
      "##넵": 7601,
      "##뭍": 7602,
      "##흳": 7603,
      "##칲": 7604,
      "##붱": 7605,
      "##싞": 7606,
      "##겤": 7607,
      "##쳏": 7608,
      "##킂": 7609,
      "##헹": 7610,
      "##힙": 7611,
      "##꺽": 7612,
      "##밒": 7613,
      "##쪗": 7614,
      "##먗": 7615,
      "##땄": 7616,
      "##숐": 7617,
      "##갤": 7618,
      "##렢": 7619,
      "##톧": 7620,
      "##챢": 7621,
      "##맸": 7622,
      "##멨": 7623,
      "##챊": 7624,
      "##럻": 7625,
      "##랓": 7626,
      "##쟤": 7627,
      "##슛": 7628,
      "##눕": 7629,
      "##찯": 7630,
      "##뗘": 7631,
      "##푀": 7632,
      "##뱟": 7633,
      "##넺": 7634,
      "##껵": 7635,
      "##넡": 7636,
      "##뙨": 7637,
      "##짗": 7638,
      "##츃": 7639,
      "##벡": 7640,
      "##묶": 7641,
      "##빋": 7642,
      "##컈": 7643,
      "##뙤": 7644,
      "##냏": 7645,
      "##쌱": 7646,
      "##잿": 7647,
      "##핍": 7648,
      "##깓": 7649,
      "##냫": 7650,
      "##휠": 7651,
      "##툏": 7652,
      "##멉": 7653,
      "##듸": 7654,
      "##댣": 7655,
      "##뽈": 7656,
      "##씅": 7657,
      "##놋": 7658,
      "##챔": 7659,
      "##Y": 7660,
      "##첮": 7661,
      "##좄": 7662,
      "##껕": 7663,
      "##럤": 7664,
      "##솬": 7665,
      "##틓": 7666,
      "##껻": 7667,
      "##챨": 7668,
      "##쭘": 7669,
      "##텢": 7670,
      "##톰": 7671,
      "##붘": 7672,
      "##큿": 7673,
      "##껙": 7674,
      "##둗": 7675,
      "##뫗": 7676,
      "##셭": 7677,
      "##뻤": 7678,
      "##떶": 7679,
      "##쟞": 7680,
      "##툳": 7681,
      "##횟": 7682,
      "##훙": 7683,
      "##욓": 7684,
      "##ㅒ": 7685,
      "##쑈": 7686,
      "##칞": 7687,
      "##뜬": 7688,
      "##첸": 7689,
      "##퇵": 7690,
      "##댷": 7691,
      "##늡": 7692,
      "##됰": 7693,
      "##헟": 7694,
      "##솨": 7695,
      "##뒬": 7696,
      "##멎": 7697,
      "##쯕": 7698,
      "##뉸": 7699,
      "##눡": 7700,
      "##봬": 7701,
      "##궤": 7702,
      "##푝": 7703,
      "##꽈": 7704,
      "##큽": 7705,
      "##뺘": 7706,
      "##눝": 7707,
      "##댂": 7708,
      "##쨕": 7709,
      "##뎓": 7710,
      "##렆": 7711,
      "##륟": 7712,
      "##짹": 7713,
      "##솯": 7714,
      "##켙": 7715,
      "##땤": 7716,
      "##솢": 7717,
      "##웥": 7718,
      "##곶": 7719,
      "##턏": 7720,
      "##뙜": 7721,
      "##탳": 7722,
      "##퉜": 7723,
      "##덲": 7724,
      "##샼": 7725,
      "##룧": 7726,
      "##컼": 7727,
      "##츶": 7728,
      "##샬": 7729,
      "##쉐": 7730,
      "##톼": 7731,
      "##훨": 7732,
      "##됑": 7733,
      "##떢": 7734,
      "##젂": 7735,
      "##픆": 7736,
      "##딥": 7737,
      "##귺": 7738,
      "##렠": 7739,
      "##갲": 7740,
      "##봒": 7741,
      "##웦": 7742,
      "##촤": 7743,
      "##핲": 7744,
      "##쌓": 7745,
      "##솣": 7746,
      "##밐": 7747,
      "##켗": 7748,
      "##땈": 7749,
      "##킵": 7750,
      "##귷": 7751,
      "##홋": 7752,
      "##첰": 7753,
      "##뫘": 7754,
      "##봨": 7755,
      "##쉘": 7756,
      "##궃": 7757,
      "##윟": 7758,
      "##뎧": 7759,
      "##벶": 7760,
      "##ㄺ": 7761,
      "##킴": 7762,
      "##홓": 7763,
      "##롄": 7764,
      "##렃": 7765,
      "##왁": 7766,
      "##쳉": 7767,
      "##쌉": 7768,
      "##푱": 7769,
      "##틲": 7770,
      "##룍": 7771,
      "##랻": 7772,
      "##솎": 7773,
      "##왼": 7774,
      "##븃": 7775,
      "##씁": 7776,
      "##쳠": 7777,
      "##줠": 7778,
      "##짼": 7779,
      "##첚": 7780,
      "##픕": 7781,
      "##춬": 7782,
      "##몀": 7783,
      "##닢": 7784,
      "##좔": 7785,
      "##웊": 7786,
      "##뇔": 7787,
      "##뱢": 7788,
      "##똗": 7789,
      "##젞": 7790,
      "##힠": 7791,
      "##춸": 7792,
      "##딮": 7793,
      "##뷴": 7794,
      "##댲": 7795,
      "##쟏": 7796,
      "##쭌": 7797,
      "##킽": 7798,
      "##쿜": 7799,
      "##뭤": 7800,
      "##슸": 7801,
      "##쌋": 7802,
      "##냎": 7803,
      "##둒": 7804,
      "##뺏": 7805,
      "##뱉": 7806,
      "##뵙": 7807,
      "##쌎": 7808,
      "##퀄": 7809,
      "##볒": 7810,
      "##빱": 7811,
      "##륀": 7812,
      "##챈": 7813,
      "##쿶": 7814,
      "##벟": 7815,
      "##섮": 7816,
      "##퐄": 7817,
      "##셰": 7818,
      "##릍": 7819,
      "##곀": 7820,
      "##췰": 7821,
      "##렣": 7822,
      "##욉": 7823,
      "##퇼": 7824,
      "##뜾": 7825,
      "##뿢": 7826,
      "##돝": 7827,
      "##캭": 7828,
      "##쌜": 7829,
      "##뭊": 7830,
      "##뗠": 7831,
      "##떹": 7832,
      "##껓": 7833,
      "##즟": 7834,
      "##괓": 7835,
      "##켚": 7836,
      "##흣": 7837,
      "##욲": 7838,
      "##틏": 7839,
      "##큊": 7840,
      "##쨔": 7841,
      "##믾": 7842,
      "##힛": 7843,
      "##댹": 7844,
      "##웽": 7845,
      "##쥰": 7846,
      "##톈": 7847,
      "##낯": 7848,
      "##뀓": 7849,
      "##뼏": 7850,
      "##쉰": 7851,
      "##츷": 7852,
      "##쩐": 7853,
      "##홯": 7854,
      "##궛": 7855,
      "##뤕": 7856,
      "##놉": 7857,
      "##똔": 7858,
      "##늍": 7859,
      "##캡": 7860,
      "##멓": 7861,
      "##닟": 7862,
      "##옉": 7863,
      "##긒": 7864,
      "##펵": 7865,
      "##럣": 7866,
      "##셏": 7867,
      "##뎢": 7868,
      "##쿡": 7869,
      "##떴": 7870,
      "##퍃": 7871,
      "##톃": 7872,
      "##뻠": 7873,
      "##믺": 7874,
      "##읮": 7875,
      "##뼛": 7876,
      "##닣": 7877,
      "##쩦": 7878,
      "##㎞": 7879,
      "##쎵": 7880,
      "##첳": 7881,
      "##늫": 7882,
      "##룎": 7883,
      "##햫": 7884,
      "##뵬": 7885,
      "##띄": 7886,
      "##뿜": 7887,
      "##갮": 7888,
      "##롵": 7889,
      "##뮫": 7890,
      "##뫙": 7891,
      "##탂": 7892,
      "##켯": 7893,
      "##읟": 7894,
      "##돘": 7895,
      "##됟": 7896,
      "##땓": 7897,
      "##퓌": 7898,
      "##춀": 7899,
      "##꿇": 7900,
      "##얹": 7901,
      "##큑": 7902,
      "##웇": 7903,
      "##섞": 7904,
      "##ㄼ": 7905,
      "##땃": 7906,
      "##솊": 7907,
      "##떺": 7908,
      "##곟": 7909,
      "##쨰": 7910,
      "##읎": 7911,
      "##옦": 7912,
      "##툐": 7913,
      "##잚": 7914,
      "##겣": 7915,
      "##컁": 7916,
      "##뤈": 7917,
      "##촘": 7918,
      "##뽸": 7919,
      "##웧": 7920,
      "##놰": 7921,
      "##혯": 7922,
      "##슏": 7923,
      "##큄": 7924,
      "##픟": 7925,
      "##뻗": 7926,
      "##곆": 7927,
      "##넓": 7928,
      "##쭸": 7929,
      "##꺵": 7930,
      "##쫓": 7931,
      "##썡": 7932,
      "##촨": 7933,
      "##깎": 7934,
      "##졎": 7935,
      "##펮": 7936,
      "##왙": 7937,
      "##윺": 7938,
      "##졐": 7939,
      "##킾": 7940,
      "##켇": 7941,
      "##훛": 7942,
      "##륫": 7943,
      "##뼘": 7944,
      "##뉜": 7945,
      "##뚫": 7946,
      "##첵": 7947,
      "##좼": 7948,
      "##윰": 7949,
      "##븆": 7950,
      "##됵": 7951,
      "##탚": 7952,
      "##졛": 7953,
      "##얖": 7954,
      "##볔": 7955,
      "##턲": 7956,
      "##챤": 7957,
      "##탿": 7958,
      "##쉳": 7959,
      "##솩": 7960,
      "##쩢": 7961,
      "##윧": 7962,
      "##쁮": 7963,
      "##펒": 7964,
      "##욥": 7965,
      "##죢": 7966,
      "##긏": 7967,
      "##꿍": 7968,
      "##튯": 7969,
      "##쑬": 7970,
      "##냭": 7971,
      "##혖": 7972,
      "##맆": 7973,
      "##섀": 7974,
      "##왘": 7975,
      "##잽": 7976,
      "##낔": 7977,
      "##윝": 7978,
      "##뽰": 7979,
      "##앢": 7980,
      "##죙": 7981,
      "##깣": 7982,
      "##큔": 7983,
      "##춐": 7984,
      "##춌": 7985,
      "##턋": 7986,
      "##쿻": 7987,
      "##뻫": 7988,
      "##믖": 7989,
      "##옻": 7990,
      "##댗": 7991,
      "##픝": 7992,
      "##뤁": 7993,
      "##즣": 7994,
      "##엾": 7995,
      "##챗": 7996,
      "##맷": 7997,
      "##껸": 7998,
      "##쏭": 7999,
      "##솅": 8000,
      "##걓": 8001,
      "##푣": 8002,
      "##뼝": 8003,
      "##댚": 8004,
      "##룇": 8005,
      "##붚": 8006,
      "##푞": 8007,
      "##탙": 8008,
      "##튷": 8009,
      "##렡": 8010,
      "##릔": 8011,
      "##븥": 8012,
      "##톔": 8013,
      "##챁": 8014,
      "##깦": 8015,
      "##퀠": 8016,
      "##퉄": 8017,
      "##탭": 8018,
      "##곁": 8019,
      "##홬": 8020,
      "##죸": 8021,
      "##폈": 8022,
      "##몆": 8023,
      "##뗲": 8024,
      "##봗": 8025,
      "##H": 8026,
      "##헊": 8027,
      "##킛": 8028,
      "##떃": 8029,
      "##햰": 8030,
      "##얶": 8031,
      "##틑": 8032,
      "##힊": 8033,
      "##텸": 8034,
      "##끆": 8035,
      "##퐂": 8036,
      "##멷": 8037,
      "##쳦": 8038,
      "##껔": 8039,
      "##쎀": 8040,
      "##괼": 8041,
      "##췃": 8042,
      "##퐃": 8043,
      "##뀝": 8044,
      "##벾": 8045,
      "##싰": 8046,
      "##헝": 8047,
      "##탾": 8048,
      "##얇": 8049,
      "##둿": 8050,
      "##슉": 8051,
      "##덑": 8052,
      "##뷱": 8053,
      "##뱆": 8054,
      "##풓": 8055,
      "##짲": 8056,
      "##톳": 8057,
      "##떳": 8058,
      "##얮": 8059,
      "##핶": 8060,
      "##짞": 8061,
      "##겿": 8062,
      "##밈": 8063,
      "##쉴": 8064,
      "##맴": 8065,
      "##얕": 8066,
      "##솠": 8067,
      "##맠": 8068,
      "##깹": 8069,
      "##뭣": 8070,
      "##쁍": 8071,
      "##놌": 8072,
      "##쳗": 8073,
      "##쎧": 8074,
      "##먠": 8075,
      "##탰": 8076,
      "##숏": 8077,
      "##뗴": 8078,
      "##휸": 8079,
      "##럇": 8080,
      "##뗐": 8081,
      "##녙": 8082,
      "##탛": 8083,
      "##퍗": 8084,
      "##푿": 8085,
      "##힇": 8086,
      "##붰": 8087,
      "##툮": 8088,
      "##쨜": 8089,
      "##솦": 8090,
      "##뿁": 8091,
      "##칻": 8092,
      "##떷": 8093,
      "##찪": 8094,
      "##핌": 8095,
      "##랰": 8096,
      "##롛": 8097,
      "##엒": 8098,
      "##굤": 8099,
      "##W": 8100,
      "##쏬": 8101,
      "##푲": 8102,
      "##튄": 8103,
      "##뼐": 8104,
      "##샴": 8105,
      "##띰": 8106,
      "##줖": 8107,
      "##튂": 8108,
      "##펬": 8109,
      "##쟜": 8110,
      "##쓷": 8111,
      "##쓔": 8112,
      "##찎": 8113,
      "##췹": 8114,
      "##읜": 8115,
      "##눟": 8116,
      "##죟": 8117,
      "##쳬": 8118,
      "##럗": 8119,
      "##뭈": 8120,
      "##뺄": 8121,
      "##쾄": 8122,
      "##빤": 8123,
      "##텃": 8124,
      "##퍠": 8125,
      "##캤": 8126,
      "##듐": 8127,
      "##빆": 8128,
      "##왖": 8129,
      "##굩": 8130,
      "##룜": 8131,
      "##셴": 8132,
      "##뼌": 8133,
      "##몿": 8134,
      "##넂": 8135,
      "##뽇": 8136,
      "##옡": 8137,
      "##몪": 8138,
      "##튺": 8139,
      "##폊": 8140,
      "##즞": 8141,
      "##햭": 8142,
      "##혤": 8143,
      "##턕": 8144,
      "##쌥": 8145,
      "##욏": 8146,
      "##쁫": 8147,
      "##썄": 8148,
      "##뒹": 8149,
      "##붂": 8150,
      "##맑": 8151,
      "##졑": 8152,
      "##픛": 8153,
      "##콪": 8154,
      "##밟": 8155,
      "##빞": 8156,
      "##픜": 8157,
      "##즠": 8158,
      "##읭": 8159,
      "##젔": 8160,
      "##쭹": 8161,
      "##셤": 8162,
      "##뱊": 8163,
      "##껐": 8164,
      "##앃": 8165,
      "##볌": 8166,
      "##턎": 8167,
      "##꺕": 8168,
      "##폳": 8169,
      "##슌": 8170,
      "##좊": 8171,
      "##뢒": 8172,
      "##뇰": 8173,
      "##봔": 8174,
      "##웍": 8175,
      "##떈": 8176,
      "##꼤": 8177,
      "##뎁": 8178,
      "##퍋": 8179,
      "##쥘": 8180,
      "##꽌": 8181,
      "##큮": 8182,
      "##쭛": 8183,
      "##귕": 8184,
      "##믁": 8185,
      "##뜸": 8186,
      "##짚": 8187,
      "##갞": 8188,
      "##헫": 8189,
      "##랱": 8190,
      "##늅": 8191,
      "##옣": 8192,
      "##죤": 8193,
      "##뱓": 8194,
      "##먾": 8195,
      "##껫": 8196,
      "##펕": 8197,
      "##컫": 8198,
      "##죾": 8199,
      "##펺": 8200,
      "##궣": 8201,
      "##퍌": 8202,
      "##왇": 8203,
      "##깰": 8204,
      "##걲": 8205,
      "##욖": 8206,
      "##퉤": 8207,
      "##졕": 8208,
      "##좡": 8209,
      "##쉇": 8210,
      "##펚": 8211,
      "##윚": 8212,
      "##쑫": 8213,
      "##뀥": 8214,
      "##쉼": 8215,
      "##걔": 8216,
      "##묭": 8217,
      "##쌴": 8218,
      "##땰": 8219,
      "##꺅": 8220,
      "##펫": 8221,
      "##뽐": 8222,
      "##갳": 8223,
      "##둏": 8224,
      "##뿤": 8225,
      "##퐛": 8226,
      "##궀": 8227,
      "##퇒": 8228,
      "##꾰": 8229,
      "##뱐": 8230,
      "##돴": 8231,
      "##츌": 8232,
      "##캴": 8233,
      "##쉉": 8234,
      "##튱": 8235,
      "##짰": 8236,
      "##㎡": 8237,
      "##햩": 8238,
      "##킿": 8239,
      "##밬": 8240,
      "##ㄵ": 8241,
      "##퍈": 8242,
      "##뷮": 8243,
      "##켬": 8244,
      "##쨀": 8245,
      "##핓": 8246,
      "##췩": 8247,
      "##쩹": 8248,
      "##윷": 8249,
      "##찿": 8250,
      "##겦": 8251,
      "##뒁": 8252,
      "##훅": 8253,
      "##쯪": 8254,
      "##뙥": 8255,
      "##뉙": 8256,
      "##궞": 8257,
      "##늒": 8258,
      "##얓": 8259,
      "##왛": 8260,
      "##옃": 8261,
      "##뚣": 8262,
      "##욪": 8263,
      "##펍": 8264,
      "##쎘": 8265,
      "##텉": 8266,
      "##퓸": 8267,
      "##욭": 8268,
      "##괬": 8269,
      "##셪": 8270,
      "##샊": 8271,
      "##룼": 8272,
      "##뱇": 8273,
      "##뎼": 8274,
      "##셸": 8275,
      "##둴": 8276,
      "##뭎": 8277,
      "##뫃": 8278,
      "##롿": 8279,
      "##뉼": 8280,
      "##훕": 8281,
      "##짭": 8282,
      "##탷": 8283,
      "##쳊": 8284,
      "##숬": 8285,
      "##뜌": 8286,
      "##앀": 8287,
      "##캫": 8288,
      "##힡": 8289,
      "##빸": 8290,
      "##텻": 8291,
      "##놎": 8292,
      "##땬": 8293,
      "##챼": 8294,
      "##퍅": 8295,
      "##썇": 8296,
      "##짯": 8297,
      "##뱤": 8298,
      "##쁱": 8299,
      "##쵷": 8300,
      "##뎊": 8301,
      "##켂": 8302,
      "##쳨": 8303,
      "##늎": 8304,
      "##탇": 8305,
      "##렏": 8306,
      "##뢀": 8307,
      "##볃": 8308,
      "##땆": 8309,
      "##빢": 8310,
      "##퍕": 8311,
      "##댥": 8312,
      "##뀡": 8313,
      "##폄": 8314,
      "##핞": 8315,
      "##옐": 8316,
      "##퍘": 8317,
      "##숄": 8318,
      "##쎈": 8319,
      "##몌": 8320,
      "##먆": 8321,
      "##왑": 8322,
      "##썃": 8323,
      "##궐": 8324,
      "##츻": 8325,
      "##옜": 8326,
      "##굦": 8327,
      "##쓩": 8328,
      "##텤": 8329,
      "##턔": 8330,
      "##괌": 8331,
      "##눰": 8332,
      "##큗": 8333,
      "##썯": 8334,
      "##삔": 8335,
      "##뎟": 8336,
      "##땋": 8337,
      "##멮": 8338,
      "##귬": 8339,
      "##봫": 8340,
      "##캥": 8341,
      "##귇": 8342,
      "##쑹": 8343,
      "##졩": 8344,
      "##츅": 8345,
      "##멑": 8346,
      "##끞": 8347,
      "##곞": 8348,
      "##푷": 8349,
      "##뀤": 8350,
      "##늏": 8351,
      "##곯": 8352,
      "##ᅟ": 8353,
      "##댞": 8354,
      "##콸": 8355,
      "##띂": 8356,
      "##꿘": 8357,
      "##갴": 8358,
      "##젚": 8359,
      "##곌": 8360,
      "##쥗": 8361,
      "##큭": 8362,
      "##냘": 8363,
      "##쿘": 8364,
      "##껰": 8365,
      "##씊": 8366,
      "##텹": 8367,
      "##왯": 8368,
      "##뀨": 8369,
      "##뗀": 8370,
      "##쥿": 8371,
      "##벻": 8372,
      "##섺": 8373,
      "##뀰": 8374,
      "##쁑": 8375,
      "##쵼": 8376,
      "##섵": 8377,
      "##궡": 8378,
      "##퉃": 8379,
      "##뱎": 8380,
      "##떟": 8381,
      "##셑": 8382,
      "##섕": 8383,
      "##껠": 8384,
      "##혺": 8385,
      "##싀": 8386,
      "##팹": 8387,
      "##븧": 8388,
      "##걧": 8389,
      "##헡": 8390,
      "##텂": 8391,
      "##뱈": 8392,
      "##띡": 8393,
      "##륍": 8394,
      "##췇": 8395,
      "##퐝": 8396,
      "##닡": 8397,
      "##뺐": 8398,
      "##됔": 8399,
      "##뭘": 8400,
      "##즤": 8401,
      "##팯": 8402,
      "##윸": 8403,
      "##뙬": 8404,
      "##쟠": 8405,
      "##럥": 8406,
      "##넾": 8407,
      "##삶": 8408,
      "##뜿": 8409,
      "##줰": 8410,
      "##깞": 8411,
      "##앓": 8412,
      "##븟": 8413,
      "##퉝": 8414,
      "##켁": 8415,
      "##롇": 8416,
      "##칚": 8417,
      "##펰": 8418,
      "##겊": 8419,
      "##렟": 8420,
      "##젳": 8421,
      "##잪": 8422,
      "##캘": 8423,
      "##컌": 8424,
      "##셫": 8425,
      "##뫂": 8426,
      "##뺭": 8427,
      "##꿪": 8428,
      "##뗳": 8429,
      "##쫙": 8430,
      "##펟": 8431,
      "##읲": 8432,
      "##꼅": 8433,
      "##̆": 8434,
      "##̈": 8435,
      "##귁": 8436,
      "##옙": 8437,
      "##쿰": 8438,
      "##꿕": 8439,
      "##눱": 8440,
      "##녤": 8441,
      "##헴": 8442,
      "##쭬": 8443,
      "##븣": 8444,
      "##둤": 8445,
      "##놯": 8446,
      "##쇈": 8447,
      "##쏫": 8448,
      "##퐌": 8449,
      "##푳": 8450,
      "##뇸": 8451,
      "##룿": 8452,
      "##좟": 8453,
      "##륳": 8454,
      "##췆": 8455,
      "##븄": 8456,
      "##뿡": 8457,
      "##룯": 8458,
      "##뚀": 8459,
      "##윶": 8460,
      "##덍": 8461,
      "##땟": 8462,
      "##랳": 8463,
      "##뽔": 8464,
      "##믙": 8465,
      "##샫": 8466,
      "##뇩": 8467,
      "##촏": 8468,
      "##슣": 8469,
      "##륑": 8470,
      "##z": 8471,
      "##뫁": 8472,
      "##숀": 8473,
      "##뇍": 8474,
      "##늪": 8475,
      "##믘": 8476,
      "##뤚": 8477,
      "##홮": 8478,
      "##팇": 8479,
      "##댬": 8480,
      "##퐐": 8481,
      "##죷": 8482,
      "##퉇": 8483,
      "##륶": 8484,
      "##맼": 8485,
      "##뮾": 8486,
      "##귲": 8487,
      "##둳": 8488,
      "##뭅": 8489,
      "##쇙": 8490,
      "##씪": 8491,
      "##윢": 8492,
      "##폿": 8493,
      "##챆": 8494,
      "##븋": 8495,
      "##햨": 8496,
      "##헢": 8497,
      "##듰": 8498,
      "##밲": 8499,
      "##뗌": 8500,
      "##뿣": 8501,
      "##좻": 8502,
      "##뢱": 8503,
      "##촁": 8504,
      "##졈": 8505,
      "##킃": 8506,
      "##랯": 8507,
      "##듥": 8508,
      "##됕": 8509,
      "##켷": 8510,
      "##돳": 8511,
      "##훠": 8512,
      "##쪅": 8513,
      "##괐": 8514,
      "##칯": 8515,
      "##랲": 8516,
      "##떜": 8517,
      "##샿": 8518,
      "##냩": 8519,
      "##씾": 8520,
      "##븅": 8521,
      "##틪": 8522,
      "##춫": 8523,
      "##녂": 8524,
      "##볘": 8525,
      "##톌": 8526,
      "##낓": 8527,
      "##흴": 8528,
      "##띳": 8529,
      "##츴": 8530,
      "##퀏": 8531,
      "##앸": 8532,
      "##깩": 8533,
      "##몼": 8534,
      "##떰": 8535,
      "##롳": 8536,
      "##쭣": 8537,
      "##텦": 8538,
      "##깾": 8539,
      "##뤠": 8540,
      "##뀍": 8541,
      "##뵐": 8542,
      "##팤": 8543,
      "##쟆": 8544,
      "##벹": 8545,
      "##볗": 8546,
      "##껩": 8547,
      "##슂": 8548,
      "##몹": 8549,
      "##닇": 8550,
      "##큅": 8551,
      "##벝": 8552,
      "##쩓": 8553,
      "##꿓": 8554,
      "##탼": 8555,
      "##뽂": 8556,
      "##됼": 8557,
      "##깼": 8558,
      "##뇟": 8559,
      "##맦": 8560,
      "##쯜": 8561,
      "##쇁": 8562,
      "##욋": 8563,
      "##큠": 8564,
      "##븉": 8565,
      "##끋": 8566,
      "##켖": 8567,
      "##윁": 8568,
      "##뙛": 8569,
      "##뚶": 8570,
      "##귘": 8571,
      "##놧": 8572,
      "##벱": 8573,
      "##챴": 8574,
      "##°": 8575,
      "##긪": 8576,
      "##퍾": 8577,
      "##췀": 8578,
      "##뚕": 8579,
      "##괔": 8580,
      "##핖": 8581,
      "##졪": 8582,
      "##귶": 8583,
      "##엩": 8584,
      "##챝": 8585,
      "##빳": 8586,
      "##꼨": 8587,
      "##폥": 8588,
      "##쑷": 8589,
      "##쌐": 8590,
      "##쨉": 8591,
      "##봧": 8592,
      "##켭": 8593,
      "##댙": 8594,
      "##덓": 8595,
      "##쌪": 8596,
      "##텾": 8597,
      "##찓": 8598,
      "##냍": 8599,
      "##쬬": 8600,
      "##띃": 8601,
      "##텇": 8602,
      "##뿅": 8603,
      "##쨐": 8604,
      "##귯": 8605,
      "##홑": 8606,
      "##둧": 8607,
      "##윹": 8608,
      "##놕": 8609,
      "##랚": 8610,
      "##줯": 8611,
      "##겥": 8612,
      "##ㅞ": 8613,
      "##먐": 8614,
      "##롶": 8615,
      "##쥥": 8616,
      "##깸": 8617,
      "##쀼": 8618,
      "##캪": 8619,
      "##귛": 8620,
      "##넊": 8621,
      "##앂": 8622,
      "##갶": 8623,
      "##뫼": 8624,
      "##냒": 8625,
      "##벞": 8626,
      "##괵": 8627,
      "##퍝": 8628,
      "##죚": 8629,
      "##턌": 8630,
      "##륕": 8631,
      "##덀": 8632,
      "##뇬": 8633,
      "##괏": 8634,
      "##흤": 8635,
      "##뎽": 8636,
      "##꺘": 8637,
      "##쉈": 8638,
      "##톴": 8639,
      "##흧": 8640,
      "##쟘": 8641,
      "##옶": 8642,
      "##춓": 8643,
      "##빰": 8644,
      "##뎰": 8645,
      "##쎠": 8646,
      "##쯘": 8647,
      "##딐": 8648,
      "##땣": 8649,
      "##폣": 8650,
      "##됸": 8651,
      "##뀬": 8652,
      "##맽": 8653,
      "##틌": 8654,
      "##캌": 8655,
      "##딲": 8656,
      "##뗑": 8657,
      "##쩾": 8658,
      "##횼": 8659,
      "##땨": 8660,
      "##씃": 8661,
      "##흿": 8662,
      "##뗄": 8663,
      "##멖": 8664,
      "##졘": 8665,
      "##굧": 8666,
      "##톸": 8667,
      "##녣": 8668,
      "##묠": 8669,
      "##걜": 8670,
      "##풩": 8671,
      "##꾲": 8672,
      "##뤂": 8673,
      "##왚": 8674,
      "##쌸": 8675,
      "##폪": 8676,
      "##쏩": 8677,
      "##뭗": 8678,
      "##쌒": 8679,
      "##휩": 8680,
      "##럲": 8681,
      "##뎇": 8682,
      "##쏑": 8683,
      "##쏨": 8684,
      "##윕": 8685,
      "##벛": 8686,
      "##흏": 8687,
      "##쉮": 8688,
      "##뿟": 8689,
      "##졭": 8690,
      "##큫": 8691,
      "##쩤": 8692,
      "##혗": 8693,
      "##즇": 8694,
      "##눨": 8695,
      "##굨": 8696,
      "##슇": 8697,
      "##뿠": 8698,
      "##긿": 8699,
      "##켘": 8700,
      "##몾": 8701,
      "##즂": 8702,
      "##슞": 8703,
      "##읹": 8704,
      "##죋": 8705,
      "##샣": 8706,
      "##읩": 8707,
      "##괕": 8708,
      "##뱨": 8709,
      "##띴": 8710,
      "##웯": 8711,
      "##룅": 8712,
      "##툔": 8713,
      "##멫": 8714,
      "##쮸": 8715,
      "##뉭": 8716,
      "##앹": 8717,
      "##캽": 8718,
      "##쿸": 8719,
      "##핥": 8720,
      "##챟": 8721,
      "##옏": 8722,
      "##쳩": 8723,
      "##낝": 8724,
      "##잃": 8725,
      "##앷": 8726,
      "##썿": 8727,
      "##꺙": 8728,
      "##숚": 8729,
      "##뀜": 8730,
      "##긜": 8731,
      "##벘": 8732,
      "##뇥": 8733,
      "##왿": 8734,
      "##팊": 8735,
      "##먇": 8736,
      "##떘": 8737,
      "##헽": 8738,
      "##츺": 8739,
      "##쒸": 8740,
      "##춑": 8741,
      "##퀼": 8742,
      "##갆": 8743,
      "##퓰": 8744,
      "##쿹": 8745,
      "##돞": 8746,
      "##똡": 8747,
      "##셷": 8748,
      "##럍": 8749,
      "##죳": 8750,
      "##헿": 8751,
      "##텣": 8752,
      "##튝": 8753,
      "##탲": 8754,
      "##꽤": 8755,
      "##듇": 8756,
      "##홭": 8757,
      "##쥑": 8758,
      "##쭞": 8759,
      "##탉": 8760,
      "##꼌": 8761,
      "##풔": 8762,
      "##첑": 8763,
      "##뜍": 8764,
      "##츕": 8765,
      "##읰": 8766,
      "##켸": 8767,
      "##쉿": 8768,
      "##왱": 8769,
      "##퀀": 8770,
      "##펩": 8771,
      "##퉂": 8772,
      "##눀": 8773,
      "##뇼": 8774,
      "##놜": 8775,
      "##뵦": 8776,
      "##츢": 8777,
      "##솰": 8778,
      "##넿": 8779,
      "##맾": 8780,
      "##꿰": 8781,
      "##뺮": 8782,
      "##횹": 8783,
      "##콬": 8784,
      "##숔": 8785,
      "##먷": 8786,
      "##펓": 8787,
      "##굏": 8788,
      "##훂": 8789,
      "##뢋": 8790,
      "##딭": 8791,
      "##뫀": 8792,
      "##횸": 8793,
      "##댭": 8794,
      "##푇": 8795,
      "##쐐": 8796,
      "##쉑": 8797,
      "##섖": 8798,
      "##퓾": 8799,
      "##밓": 8800,
      "##쟃": 8801,
      "##쿚": 8802,
      "##즊": 8803,
      "##폽": 8804,
      "##뷲": 8805,
      "##덝": 8806,
      "##뜔": 8807,
      "##뱧": 8808,
      "##꼏": 8809,
      "##됳": 8810,
      "##닎": 8811,
      "##괍": 8812,
      "##킻": 8813,
      "##둽": 8814,
      "##둈": 8815,
      "##칒": 8816,
      "##헂": 8817,
      "##팧": 8818,
      "##뺙": 8819,
      "##젰": 8820,
      "##뒝": 8821,
      "##슶": 8822,
      "##뇐": 8823,
      "##픘": 8824,
      "##죹": 8825,
      "##껳": 8826,
      "##멕": 8827,
      "##촡": 8828,
      "##뼉": 8829,
      "##뢸": 8830,
      "##굪": 8831,
      "##퐆": 8832,
      "##캏": 8833,
      "##먓": 8834,
      "##좨": 8835,
      "##눹": 8836,
      "##숖": 8837,
      "##췉": 8838,
      "##셱": 8839,
      "##꺌": 8840,
      "##뤌": 8841,
      "##쭵": 8842,
      "##찤": 8843,
      "##똠": 8844,
      "##냴": 8845,
      "##쇳": 8846,
      "##굵": 8847,
      "##놴": 8848,
      "##쎤": 8849,
      "##죧": 8850,
      "##꺚": 8851,
      "##혲": 8852,
      "##쿷": 8853,
      "##툿": 8854,
      "##쏚": 8855,
      "##펯": 8856,
      "##뎾": 8857,
      "##푄": 8858,
      "##횠": 8859,
      "##쎼": 8860,
      "##듙": 8861,
      "##곝": 8862,
      "##껮": 8863,
      "##폘": 8864,
      "##됱": 8865,
      "##펼": 8866,
      "##옾": 8867,
      "##빻": 8868,
      "##뱝": 8869,
      "##눃": 8870,
      "##뒨": 8871,
      "##꿥": 8872,
      "##곛": 8873,
      "##쩄": 8874,
      "##톕": 8875,
      "##깻": 8876,
      "##뽖": 8877,
      "##뻦": 8878,
      "##쯩": 8879,
      "##썜": 8880,
      "##멥": 8881,
      "##멛": 8882,
      "##ˊ": 8883,
      "##˗": 8884,
      "##훗": 8885,
      "##땯": 8886,
      "##휻": 8887,
      "##읯": 8888,
      "##첪": 8889,
      "##퉆": 8890,
      "##쨓": 8891,
      "##뢈": 8892,
      "##귖": 8893,
      "##쎱": 8894,
      "##촹": 8895,
      "##륯": 8896,
      "##쿙": 8897,
      "##썾": 8898,
      "##ට": 8899,
      "##뽓": 8900,
      "##픊": 8901,
      "##슃": 8902,
      "##넀": 8903,
      "##눘": 8904,
      "##앥": 8905,
      "##굉": 8906,
      "##븀": 8907,
      "##얬": 8908,
      "##햽": 8909,
      "##얟": 8910,
      "##밝": 8911,
      "##슊": 8912,
      "##씋": 8913,
      "##쵝": 8914,
      "##꿏": 8915,
      "##긊": 8916,
      "##솼": 8917,
      "##컅": 8918,
      "##뽗": 8919,
      "##띁": 8920,
      "##휳": 8921,
      "##풧": 8922,
      "##곲": 8923,
      "##뵉": 8924,
      "##뇻": 8925,
      "##낡": 8926,
      "##뤙": 8927,
      "##깪": 8928,
      "##빝": 8929,
      "##뮥": 8930,
      "##둄": 8931,
      "##됒": 8932,
      "##샻": 8933,
      "##뱩": 8934,
      "##껖": 8935,
      "##턈": 8936,
      "##냪": 8937,
      "##굡": 8938,
      "##뵫": 8939,
      "##뷯": 8940,
      "##궙": 8941,
      "##캼": 8942,
      "##켼": 8943,
      "##읂": 8944,
      "##웣": 8945,
      "##촛": 8946,
      "##쟴": 8947,
      "##귣": 8948,
      "##깂": 8949,
      "##빊": 8950,
      "##됯": 8951,
      "##헺": 8952,
      "##춖": 8953,
      "##텧": 8954,
      "##쥔": 8955,
      "##웬": 8956,
      "##왺": 8957,
      "##쑝": 8958,
      "##놬": 8959,
      "##턩": 8960,
      "##쩧": 8961,
      "##쁰": 8962,
      "##엪": 8963,
      "##둼": 8964,
      "##뉻": 8965,
      "##퍂": 8966,
      "##쳭": 8967,
      "##댿": 8968,
      "##̑": 8969,
      "##죌": 8970,
      "##롕": 8971,
      "##쏖": 8972,
      "##맢": 8973,
      "##및": 8974,
      "##뽙": 8975,
      "##쯚": 8976,
      "##듓": 8977,
      "##씿": 8978,
      "##눆": 8979,
      "##큪": 8980,
      "##츳": 8981,
      "##퓩": 8982,
      "##붔": 8983,
      "##뗜": 8984,
      "##닶": 8985,
      "##횽": 8986,
      "##쨘": 8987,
      "##텊": 8988,
      "##켑": 8989,
      "##돧": 8990,
      "##뀎": 8991,
      "##쳌": 8992,
      "##늭": 8993,
      "##떸": 8994,
      "##폗": 8995,
      "##쁚": 8996,
      "##텎": 8997,
      "##푬": 8998,
      "##쳎": 8999,
      "##툫": 9000,
      "##뵿": 9001,
      "##뱒": 9002,
      "##뮷": 9003,
      "##믇": 9004,
      "##쑿": 9005,
      "##셖": 9006,
      "##뭥": 9007,
      "##녻": 9008,
      "##쏼": 9009,
      "##녭": 9010,
      "##뫞": 9011,
      "##켛": 9012,
      "##꽇": 9013,
      "##쵹": 9014,
      "##곢": 9015,
      "##텿": 9016,
      "##뇓": 9017,
      "##걛": 9018,
      "##솤": 9019,
      "##셬": 9020,
      "##턒": 9021,
      "##붤": 9022,
      "##읺": 9023,
      "##썅": 9024,
      "##몁": 9025,
      "##훜": 9026,
      "##픀": 9027,
      "##뒂": 9028,
      "##쾃": 9029,
      "##틊": 9030,
      "##귐": 9031,
      "##ㆍ": 9032,
      "##놐": 9033,
      "##숗": 9034,
      "##뎣": 9035,
      "##뱜": 9036,
      "##쩒": 9037,
      "##숓": 9038,
      "##꺔": 9039,
      "##뎩": 9040,
      "##퍁": 9041,
      "##븤": 9042,
      "##쳍": 9043,
      "##컿": 9044,
      "##갉": 9045,
      "##춎": 9046,
      "##쳋": 9047,
      "##뇯": 9048,
      "##쫒": 9049,
      "##춷": 9050,
      "##쌛": 9051,
      "##뗙": 9052,
      "##쉅": 9053,
      "##헵": 9054,
      "##홒": 9055,
      "##삫": 9056,
      "##눛": 9057,
      "##녠": 9058,
      "##늖": 9059,
      "##슟": 9060,
      "##븢": 9061,
      "##뾱": 9062,
      "##춮": 9063,
      "##켵": 9064,
      "##떱": 9065,
      "##땻": 9066,
      "##뺼": 9067,
      "##웩": 9068,
      "##큨": 9069,
      "##쿝": 9070,
      "##쳰": 9071,
      "##턉": 9072,
      "##퐇": 9073,
      "##롈": 9074,
      "키키": 9075,
      "##는데": 9076,
      "그래": 9077,
      "진짜": 9078,
      "##에서": 9079,
      "너무": 9080,
      "나도": 9081,
      "나는": 9082,
      "많이": 9083,
      "맞아": 9084,
      "##니까": 9085,
      "그런": 9086,
      "우리": 9087,
      "##으로": 9088,
      "사람": 9089,
      "요즘": 9090,
      "아니": 9091,
      "근데": 9092,
      "그러": 9093,
      "그렇": 9094,
      "##으면": 9095,
      "##하는": 9096,
      "##다고": 9097,
      "그거": 9098,
      "##하고": 9099,
      "엄청": 9100,
      "그냥": 9101,
      "그럼": 9102,
      "##해서": 9103,
      "생각": 9104,
      "좋아": 9105,
      "##들이": 9106,
      "##이라": 9107,
      "지금": 9108,
      "##어서": 9109,
      "그래도": 9110,
      "그래서": 9111,
      "내가": 9112,
      "하는": 9113,
      "한번": 9114,
      "정말": 9115,
      "좋은": 9116,
      "##하면": 9117,
      "게임": 9118,
      "오늘": 9119,
      "이제": 9120,
      "같이": 9121,
      "이번": 9122,
      "##라고": 9123,
      "아직": 9124,
      "하고": 9125,
      "##아서": 9126,
      "##이랑": 9127,
      "있는": 9128,
      "##까지": 9129,
      "##하게": 9130,
      "친구": 9131,
      "여행": 9132,
      "그렇게": 9133,
      "같은": 9134,
      "##보다": 9135,
      "##에는": 9136,
      "##다가": 9137,
      "엄마": 9138,
      "영화": 9139,
      "거기": 9140,
      "시간": 9141,
      "아이": 9142,
      "##더라": 9143,
      "들어": 9144,
      "##지만": 9145,
      "재밌": 9146,
      "완전": 9147,
      "##부터": 9148,
      "하하": 9149,
      "##들은": 9150,
      "##보고": 9151,
      "##인데": 9152,
      "##리고": 9153,
      "##한테": 9154,
      "하면": 9155,
      "보고": 9156,
      "결혼": 9157,
      "##아지": 9158,
      "##로나": 9159,
      "그건": 9160,
      "하나": 9161,
      "다른": 9162,
      "군대": 9163,
      "나오": 9164,
      "가서": 9165,
      "코로나": 9166,
      "그게": 9167,
      "ㅠㅠ": 9168,
      "##기도": 9169,
      "강아지": 9170,
      "정도": 9171,
      "회사": 9172,
      "얼마": 9173,
      "운동": 9174,
      "##구나": 9175,
      "다들": 9176,
      "모르": 9177,
      "아무": 9178,
      "##기가": 9179,
      "괜찮": 9180,
      "##문에": 9181,
      "그러게": 9182,
      "##겠다": 9183,
      "이번에": 9184,
      "언니": 9185,
      "보면": 9186,
      "무슨": 9187,
      "제일": 9188,
      "이런": 9189,
      "다시": 9190,
      "다음": 9191,
      "해야": 9192,
      "어디": 9193,
      "힘들": 9194,
      "##려고": 9195,
      "응응": 9196,
      "##는거": 9197,
      "먹고": 9198,
      "##기는": 9199,
      "겨울": 9200,
      "##던데": 9201,
      "##이야": 9202,
      "##것도": 9203,
      "##이나": 9204,
      "어떻": 9205,
      "가족": 9206,
      "것도": 9207,
      "##었는데": 9208,
      "##하지": 9209,
      "있어": 9210,
      "계속": 9211,
      "건강": 9212,
      "조금": 9213,
      "##들도": 9214,
      "##잖아": 9215,
      "맛있": 9216,
      "##지는": 9217,
      "##니깐": 9218,
      "키우": 9219,
      "그러면": 9220,
      "날씨": 9221,
      "##다는": 9222,
      "남자": 9223,
      "##해야": 9224,
      "때문에": 9225,
      "자주": 9226,
      "10": 9227,
      "요새": 9228,
      "빨리": 9229,
      "##에도": 9230,
      "어떻게": 9231,
      "머리": 9232,
      "오래": 9233,
      "##중에": 9234,
      "여자": 9235,
      "처음": 9236,
      "공부": 9237,
      "오빠": 9238,
      "그리고": 9239,
      "그때": 9240,
      "아빠": 9241,
      "예전": 9242,
      "기억": 9243,
      "가고": 9244,
      "그럴": 9245,
      "어떤": 9246,
      "##리는": 9247,
      "거의": 9248,
      "가면": 9249,
      "가는": 9250,
      "집에": 9251,
      "다니": 9252,
      "##나라": 9253,
      "##심히": 9254,
      "##워서": 9255,
      "전에": 9256,
      "같ㅇ": 9257,
      "사람이": 9258,
      "해서": 9259,
      "##이면": 9260,
      "뭔가": 9261,
      "##은데": 9262,
      "내일": 9263,
      "그니까": 9264,
      "별로": 9265,
      "나중에": 9266,
      "아파": 9267,
      "##면서": 9268,
      "##양이": 9269,
      "혼자": 9270,
      "##라서": 9271,
      "열심히": 9272,
      "##어야": 9273,
      "저는": 9274,
      "어제": 9275,
      "요즘은": 9276,
      "맨날": 9277,
      "재미": 9278,
      "가을": 9279,
      "이상": 9280,
      "사람들": 9281,
      "같아": 9282,
      "우리나라": 9283,
      "언제": 9284,
      "##적으로": 9285,
      "나이": 9286,
      "버스": 9287,
      "##자기": 9288,
      "있으면": 9289,
      "없는": 9290,
      "바로": 9291,
      "##지고": 9292,
      "배우": 9293,
      "하는데": 9294,
      "부모": 9295,
      "일단": 9296,
      "##라도": 9297,
      "##으니까": 9298,
      "저도": 9299,
      "ㅜㅜ": 9300,
      "아닌": 9301,
      "##는게": 9302,
      "갑자기": 9303,
      "고양이": 9304,
      "##래도": 9305,
      "##친구": 9306,
      "피부": 9307,
      "그치": 9308,
      "드라": 9309,
      "##리가": 9310,
      "##대로": 9311,
      "마음": 9312,
      "아침": 9313,
      "알아": 9314,
      "그러니까": 9315,
      "##지도": 9316,
      "##하는데": 9317,
      "##시간": 9318,
      "있어서": 9319,
      "동생": 9320,
      "백신": 9321,
      "##겠어": 9322,
      "문제": 9323,
      "##렇게": 9324,
      "없어": 9325,
      "##00": 9326,
      "말고": 9327,
      "원래": 9328,
      "운전": 9329,
      "나가": 9330,
      "병원": 9331,
      "있는데": 9332,
      "있을": 9333,
      "집에서": 9334,
      "되게": 9335,
      "그랬": 9336,
      "##처럼": 9337,
      "필요": 9338,
      "##이트": 9339,
      "##마다": 9340,
      "사고": 9341,
      "##하다": 9342,
      "항상": 9343,
      "보는": 9344,
      "사람들이": 9345,
      "##이라고": 9346,
      "하루": 9347,
      "무서": 9348,
      "다녀": 9349,
      "타고": 9350,
      "여름": 9351,
      "역시": 9352,
      "자기": 9353,
      "많은": 9354,
      "당연": 9355,
      "아파트": 9356,
      "그런데": 9357,
      "##인가": 9358,
      "얼마나": 9359,
      "애들": 9360,
      "##하기": 9361,
      "##스크": 9362,
      "##어도": 9363,
      "만들": 9364,
      "일본": 9365,
      "너는": 9366,
      "부모님": 9367,
      "대박": 9368,
      "사진": 9369,
      "가격": 9370,
      "주말": 9371,
      "해도": 9372,
      "먹는": 9373,
      "만나": 9374,
      "학교": 9375,
      "저번": 9376,
      "##으니": 9377,
      "그것도": 9378,
      "##야지": 9379,
      "저녁": 9380,
      "제주": 9381,
      "드라마": 9382,
      "비싸": 9383,
      "좋을": 9384,
      "스트": 9385,
      "관리": 9386,
      "없어서": 9387,
      "얘기": 9388,
      "##이지": 9389,
      "그렇구나": 9390,
      "누나": 9391,
      "찾아": 9392,
      "다행": 9393,
      "했는데": 9394,
      "서울": 9395,
      "챙겨": 9396,
      "이렇게": 9397,
      "알바": 9398,
      "시작": 9399,
      "중국": 9400,
      "있ㅇ": 9401,
      "그렇지": 9402,
      "##머니": 9403,
      "되는": 9404,
      "사실": 9405,
      "수도": 9406,
      "너도": 9407,
      "학원": 9408,
      "##만에": 9409,
      "중요": 9410,
      "##더니": 9411,
      "다이": 9412,
      "가끔": 9413,
      "##만원": 9414,
      "사는": 9415,
      "하긴": 9416,
      "##적인": 9417,
      "먹을": 9418,
      "##했는데": 9419,
      "##이다": 9420,
      "걱정": 9421,
      "##라는": 9422,
      "##었어": 9423,
      "한국": 9424,
      "준비": 9425,
      "##주는": 9426,
      "좋아하는": 9427,
      "음식": 9428,
      "##네요": 9429,
      "##한데": 9430,
      "벌써": 9431,
      "##가서": 9432,
      "나온": 9433,
      "미국": 9434,
      "어려": 9435,
      "##려면": 9436,
      "옛날": 9437,
      "하지": 9438,
      "좋ㅇ": 9439,
      "어릴": 9440,
      "봤는데": 9441,
      "제주도": 9442,
      "새로": 9443,
      "노래": 9444,
      "대단": 9445,
      "지금은": 9446,
      "##가는": 9447,
      "때는": 9448,
      "화장": 9449,
      "##이가": 9450,
      "아주": 9451,
      "맞아요": 9452,
      "지하": 9453,
      "나오는": 9454,
      "아프": 9455,
      "##와서": 9456,
      "##정도": 9457,
      "이미": 9458,
      "나왔": 9459,
      "되면": 9460,
      "##해도": 9461,
      "##학교": 9462,
      "한데": 9463,
      "인터": 9464,
      "##지가": 9465,
      "있고": 9466,
      "##져서": 9467,
      "##봤는데": 9468,
      "나라": 9469,
      "##이는": 9470,
      "매일": 9471,
      "스트레": 9472,
      "관심": 9473,
      "일이": 9474,
      "오랜": 9475,
      "예전에": 9476,
      "가야": 9477,
      "주변": 9478,
      "연애": 9479,
      "##인이": 9480,
      "세상": 9481,
      "안되": 9482,
      "얼굴": 9483,
      "##다니": 9484,
      "교육": 9485,
      "아마": 9486,
      "있었": 9487,
      "##더라고": 9488,
      "끝나": 9489,
      "지하철": 9490,
      "보니까": 9491,
      "이름": 9492,
      "생활": 9493,
      "먹어": 9494,
      "##이고": 9495,
      "얼른": 9496,
      "##보면": 9497,
      "느낌": 9498,
      "보내": 9499,
      "많아서": 9500,
      "아무래도": 9501,
      "##았는데": 9502,
      "그런가": 9503,
      "좋지": 9504,
      "신기": 9505,
      "시간이": 9506,
      "동물": 9507,
      "먹으면": 9508,
      "아니고": 9509,
      "싶은": 9510,
      "##봐야": 9511,
      "아니면": 9512,
      "##기로": 9513,
      "##하긴": 9514,
      "인터넷": 9515,
      "무조": 9516,
      "그걸": 9517,
      "##하니까": 9518,
      "유튜": 9519,
      "만화": 9520,
      "다이어": 9521,
      "나랑": 9522,
      "배달": 9523,
      "약간": 9524,
      "저번에": 9525,
      "##겠네": 9526,
      "돌아": 9527,
      "해외": 9528,
      "##어나": 9529,
      "이야": 9530,
      "##려서": 9531,
      "프로": 9532,
      "영어": 9533,
      "##다면": 9534,
      "무조건": 9535,
      "##들이랑": 9536,
      "다음에": 9537,
      "중에": 9538,
      "받아": 9539,
      "여기": 9540,
      "추천": 9541,
      "우리는": 9542,
      "##게임": 9543,
      "카페": 9544,
      "다이어트": 9545,
      "장난": 9546,
      "스트레스": 9547,
      "고민": 9548,
      "자꾸": 9549,
      "마스크": 9550,
      "말이": 9551,
      "유명": 9552,
      "오랜만에": 9553,
      "지나": 9554,
      "##이라도": 9555,
      "커피": 9556,
      "기분": 9557,
      "시켜": 9558,
      "##시는": 9559,
      "##기를": 9560,
      "아직도": 9561,
      "너네": 9562,
      "비슷": 9563,
      "남편": 9564,
      "귀여": 9565,
      "이거": 9566,
      "20": 9567,
      "누가": 9568,
      "가능": 9569,
      "축구": 9570,
      "생각보다": 9571,
      "미용": 9572,
      "엄마가": 9573,
      "시험": 9574,
      "올라": 9575,
      "같은데": 9576,
      "##이네": 9577,
      "캠핑": 9578,
      "따라": 9579,
      "알려": 9580,
      "뉴스": 9581,
      "동네": 9582,
      "##에서도": 9583,
      "너가": 9584,
      "가까": 9585,
      "맞는": 9586,
      "싫어": 9587,
      "##력이": 9588,
      "혹시": 9589,
      "확실": 9590,
      "##지면": 9591,
      "봐야": 9592,
      "아니라": 9593,
      "외국": 9594,
      "놀러": 9595,
      "아는": 9596,
      "##징어": 9597,
      "##하면서": 9598,
      "돈이": 9599,
      "##요일": 9600,
      "선수": 9601,
      "여러": 9602,
      "보통": 9603,
      "유튜브": 9604,
      "##같은": 9605,
      "전기": 9606,
      "출근": 9607,
      "##있는": 9608,
      "쇼핑": 9609,
      "어쩔": 9610,
      "선생": 9611,
      "##에서는": 9612,
      "그만": 9613,
      "기다": 9614,
      "##전에": 9615,
      "산책": 9616,
      "아니야": 9617,
      "떨어": 9618,
      "최고": 9619,
      "가장": 9620,
      "그런거": 9621,
      "스타": 9622,
      "##에게": 9623,
      "##님이": 9624,
      "사랑": 9625,
      "티비": 9626,
      "##거나": 9627,
      "거야": 9628,
      "살아": 9629,
      "귀찮": 9630,
      "거기서": 9631,
      "##가면": 9632,
      "다르": 9633,
      "서로": 9634,
      "싶어": 9635,
      "은근": 9636,
      "전화": 9637,
      "반려": 9638,
      "##았어": 9639,
      "비행": 9640,
      "오징어": 9641,
      "오면": 9642,
      "최근": 9643,
      "연락": 9644,
      "자격": 9645,
      "##겠지": 9646,
      "##리면": 9647,
      "이사": 9648,
      "##스트": 9649,
      "##이라서": 9650,
      "싶은데": 9651,
      "조심": 9652,
      "귀엽": 9653,
      "##여행": 9654,
      "날씨가": 9655,
      "사라": 9656,
      "##자가": 9657,
      "갔다": 9658,
      "##니다": 9659,
      "알고": 9660,
      "##여서": 9661,
      "30": 9662,
      "맛있는": 9663,
      "와서": 9664,
      "신경": 9665,
      "치킨": 9666,
      "##보는": 9667,
      "생각해": 9668,
      "따로": 9669,
      "많ㅇ": 9670,
      "효과": 9671,
      "뭐야": 9672,
      "추워": 9673,
      "근처": 9674,
      "해보고": 9675,
      "주말에": 9676,
      "##장이": 9677,
      "바람": 9678,
      "맞어": 9679,
      "##리도": 9680,
      "사이": 9681,
      "선물": 9682,
      "점심": 9683,
      "기사": 9684,
      "군인": 9685,
      "이용": 9686,
      "먼저": 9687,
      "##스터": 9688,
      "여자친구": 9689,
      "전세": 9690,
      "물어": 9691,
      "##주고": 9692,
      "괜찮은": 9693,
      "##었던": 9694,
      "확실히": 9695,
      "당근": 9696,
      "힘든": 9697,
      "맞다": 9698,
      "애기": 9699,
      "##한다고": 9700,
      "뭐가": 9701,
      "남자친구": 9702,
      "우리도": 9703,
      "자격증": 9704,
      "너희": 9705,
      "특히": 9706,
      "내년": 9707,
      "우리집": 9708,
      "좋아하": 9709,
      "오늘은": 9710,
      "취업": 9711,
      "##는ㄷ": 9712,
      "당연히": 9713,
      "모르겠": 9714,
      "사람은": 9715,
      "아까": 9716,
      "수영": 9717,
      "##같이": 9718,
      "부산": 9719,
      "없이": 9720,
      "둘이": 9721,
      "밖에": 9722,
      "##하니": 9723,
      "키우는": 9724,
      "소리": 9725,
      "미리": 9726,
      "아침에": 9727,
      "퇴근": 9728,
      "오는": 9729,
      "##한거": 9730,
      "##보니": 9731,
      "이해": 9732,
      "세계": 9733,
      "##사람": 9734,
      "사용": 9735,
      "훈련": 9736,
      "직접": 9737,
      "낚시": 9738,
      "이게": 9739,
      "싶ㅇ": 9740,
      "##했어": 9741,
      "궁금": 9742,
      "보러": 9743,
      "##일이": 9744,
      "등산": 9745,
      "우와": 9746,
      "많아": 9747,
      "우리가": 9748,
      "사회": 9749,
      "한번도": 9750,
      "사람들은": 9751,
      "##기만": 9752,
      "##인지": 9753,
      "가지고": 9754,
      "애들이": 9755,
      "교통": 9756,
      "봤어": 9757,
      "어느": 9758,
      "청소": 9759,
      "하지만": 9760,
      "##보다는": 9761,
      "제대로": 9762,
      "싶다": 9763,
      "기억이": 9764,
      "넷플": 9765,
      "하기": 9766,
      "##전거": 9767,
      "좋은데": 9768,
      "보니": 9769,
      "일찍": 9770,
      "절대": 9771,
      "아르": 9772,
      "정신": 9773,
      "##길래": 9774,
      "좋겠": 9775,
      "이러": 9776,
      "몰라": 9777,
      "바다": 9778,
      "우린": 9779,
      "가보고": 9780,
      "연예": 9781,
      "금방": 9782,
      "생기": 9783,
      "진ㅉ": 9784,
      "위험": 9785,
      "##하네": 9786,
      "아하": 9787,
      "하니까": 9788,
      "점점": 9789,
      "따뜻": 9790,
      "##동물": 9791,
      "쓰는": 9792,
      "##으러": 9793,
      "친구가": 9794,
      "않을": 9795,
      "영상": 9796,
      "추억": 9797,
      "다양": 9798,
      "어렵": 9799,
      "몰랐": 9800,
      "캐릭": 9801,
      "##수가": 9802,
      "소개": 9803,
      "자전거": 9804,
      "##라인": 9805,
      "기본": 9806,
      "보이": 9807,
      "##렸을": 9808,
      "저희": 9809,
      "##스타": 9810,
      "사람도": 9811,
      "대학": 9812,
      "사서": 9813,
      "작은": 9814,
      "##주면": 9815,
      "나서": 9816,
      "##끼리": 9817,
      "있지": 9818,
      "좋다": 9819,
      "차가": 9820,
      "##식이": 9821,
      "나름": 9822,
      "재미있": 9823,
      "골프": 9824,
      "##성이": 9825,
      "##되면": 9826,
      "하느": 9827,
      "비싼": 9828,
      "가기": 9829,
      "맞고": 9830,
      "쓰고": 9831,
      "가자": 9832,
      "인기": 9833,
      "할머니": 9834,
      "없으면": 9835,
      "##잖ㅇ": 9836,
      "##거든": 9837,
      "주는": 9838,
      "잘못": 9839,
      "##드는": 9840,
      "영화관": 9841,
      "아르바": 9842,
      "##줘야": 9843,
      "기대": 9844,
      "대신": 9845,
      "스포": 9846,
      "##이라는": 9847,
      "시키": 9848,
      "있으": 9849,
      "그렇긴": 9850,
      "생각이": 9851,
      "치료": 9852,
      "입고": 9853,
      "불편": 9854,
      "##비가": 9855,
      "11": 9856,
      "예약": 9857,
      "없ㅇ": 9858,
      "주택": 9859,
      "고생": 9860,
      "##밖에": 9861,
      "아예": 9862,
      "지원": 9863,
      "##스가": 9864,
      "받고": 9865,
      "아닌데": 9866,
      "##라이": 9867,
      "내용": 9868,
      "방송": 9869,
      "무섭": 9870,
      "##보니까": 9871,
      "야구": 9872,
      "웅웅": 9873,
      "##사가": 9874,
      "보험": 9875,
      "그런지": 9876,
      "아르바이트": 9877,
      "구경": 9878,
      "재밌게": 9879,
      "감기": 9880,
      "월급": 9881,
      "어디서": 9882,
      "##시고": 9883,
      "키워": 9884,
      "행복": 9885,
      "##고기": 9886,
      "이야기": 9887,
      "걸로": 9888,
      "웹툰": 9889,
      "휴가": 9890,
      "##르고": 9891,
      "이유": 9892,
      "핸드": 9893,
      "캐릭터": 9894,
      "결혼식": 9895,
      "관련": 9896,
      "최근에": 9897,
      "할인": 9898,
      "##운데": 9899,
      "어렸을": 9900,
      "반려동물": 9901,
      "12": 9902,
      "올해": 9903,
      "##차가": 9904,
      "니가": 9905,
      "앞으로": 9906,
      "##는지": 9907,
      "자동": 9908,
      "수술": 9909,
      "어린": 9910,
      "접종": 9911,
      "배워": 9912,
      "##등학교": 9913,
      "##르는": 9914,
      "누구": 9915,
      "아버": 9916,
      "직장": 9917,
      "##레이": 9918,
      "쿠팡": 9919,
      "있어야": 9920,
      "수업": 9921,
      "##수록": 9922,
      "종류": 9923,
      "한다고": 9924,
      "##이었": 9925,
      "##수도": 9926,
      "##보단": 9927,
      "요즘에": 9928,
      "비행기": 9929,
      "##가고": 9930,
      "좋아해": 9931,
      "선생님": 9932,
      "저렴": 9933,
      "##개월": 9934,
      "##생활": 9935,
      "##리를": 9936,
      "##한다": 9937,
      "먹어야": 9938,
      "##오면": 9939,
      "##원도": 9940,
      "비가": 9941,
      "괜히": 9942,
      "있ㄴ": 9943,
      "키우고": 9944,
      "모든": 9945,
      "있다": 9946,
      "학생": 9947,
      "##이긴": 9948,
      "광고": 9949,
      "집은": 9950,
      "제가": 9951,
      "주고": 9952,
      "먹었": 9953,
      "##주에": 9954,
      "엄마는": 9955,
      "에어": 9956,
      "친구들": 9957,
      "나면": 9958,
      "보다": 9959,
      "난리": 9960,
      "##라면": 9961,
      "연예인": 9962,
      "크게": 9963,
      "그래야": 9964,
      "##겠ㄷ": 9965,
      "##주일": 9966,
      "이쁘": 9967,
      "맛집": 9968,
      "하더라": 9969,
      "##먹고": 9970,
      "들고": 9971,
      "부럽": 9972,
      "##하다고": 9973,
      "게임이": 9974,
      "나와서": 9975,
      "사야": 9976,
      "##봤어": 9977,
      "##ㅠㅠ": 9978,
      "아아": 9979,
      "고마": 9980,
      "때도": 9981,
      "##가지": 9982,
      "없을": 9983,
      "다닐": 9984,
      "되고": 9985,
      "주인": 9986,
      "주식": 9987,
      "재밌는": 9988,
      "그나": 9989,
      "주로": 9990,
      "자연": 9991,
      "중고": 9992,
      "##때문에": 9993,
      "지금도": 9994,
      "늦게": 9995,
      "주변에": 9996,
      "않아": 9997,
      "해보": 9998,
      "냄새": 9999,
      "##기에": 10000,
      "솔직": 10001,
      "좋아서": 10002,
      "보여": 10003,
      "##제로": 10004,
      "안좋": 10005,
      "없고": 10006,
      "위드": 10007,
      "마지": 10008,
      "##이니까": 10009,
      "##되는": 10010,
      "아빠가": 10011,
      "눈이": 10012,
      "남친": 10013,
      "방법": 10014,
      "핸드폰": 10015,
      "결국": 10016,
      "집이": 10017,
      "##리스": 10018,
      "##이크": 10019,
      "편의": 10020,
      "분위": 10021,
      "살고": 10022,
      "부분": 10023,
      "돈을": 10024,
      "시원": 10025,
      "적당": 10026,
      "##시에": 10027,
      "예쁘": 10028,
      "나한테": 10029,
      "##놓고": 10030,
      "나와": 10031,
      "잘하는": 10032,
      "1년": 10033,
      "대한": 10034,
      "물건": 10035,
      "신랑": 10036,
      "알겠어": 10037,
      "100": 10038,
      "안나": 10039,
      "##이버": 10040,
      "멋있": 10041,
      "봐도": 10042,
      "일어나": 10043,
      "##냐고": 10044,
      "택시": 10045,
      "새로운": 10046,
      "딱히": 10047,
      "생ㄱ": 10048,
      "피해": 10049,
      "하더": 10050,
      "##어가": 10051,
      "컴퓨": 10052,
      "한다": 10053,
      "##하나": 10054,
      "겁나": 10055,
      "계획": 10056,
      "자세": 10057,
      "##했던": 10058,
      "2차": 10059,
      "고기": 10060,
      "자유": 10061,
      "맛이": 10062,
      "보드": 10063,
      "유명한": 10064,
      "없는데": 10065,
      "컴퓨터": 10066,
      "마지막": 10067,
      "부작": 10068,
      "에이": 10069,
      "##오는": 10070,
      "좋았": 10071,
      "하면서": 10072,
      "나올": 10073,
      "꾸준": 10074,
      "내려": 10075,
      "말이야": 10076,
      "좋고": 10077,
      "도움": 10078,
      "만들어": 10079,
      "일주일": 10080,
      "겨울에": 10081,
      "당연하지": 10082,
      "기회": 10083,
      "받는": 10084,
      "인생": 10085,
      "작년": 10086,
      "##라리": 10087,
      "##동안": 10088,
      "거지": 10089,
      "애들은": 10090,
      "추석": 10091,
      "중요한": 10092,
      "솔직히": 10093,
      "군대에서": 10094,
      "어쩌": 10095,
      "오히": 10096,
      "##그램": 10097,
      "몸이": 10098,
      "##도가": 10099,
      "어머니": 10100,
      "여친": 10101,
      "해본": 10102,
      "##적이": 10103,
      "기차": 10104,
      "##원이": 10105,
      "문제가": 10106,
      "했어": 10107,
      "간식": 10108,
      "##봐서": 10109,
      "##정이": 10110,
      "어머": 10111,
      "##대가": 10112,
      "유행": 10113,
      "##랜드": 10114,
      "요즘엔": 10115,
      "잠깐": 10116,
      "하다": 10117,
      "##부분": 10118,
      "훨씬": 10119,
      "##상이": 10120,
      "오히려": 10121,
      "아들": 10122,
      "않은": 10123,
      "다니는": 10124,
      "배송": 10125,
      "오호": 10126,
      "가지": 10127,
      "자체": 10128,
      "##셔서": 10129,
      "##하는거": 10130,
      "행님": 10131,
      "해주": 10132,
      "##치는": 10133,
      "번도": 10134,
      "보기": 10135,
      "안전": 10136,
      "차라리": 10137,
      "관심이": 10138,
      "##림픽": 10139,
      "정도면": 10140,
      "말도": 10141,
      "사면": 10142,
      "아픈": 10143,
      "앞에": 10144,
      "스포츠": 10145,
      "생일": 10146,
      "했던": 10147,
      "회식": 10148,
      "##까지는": 10149,
      "##화가": 10150,
      "##점이": 10151,
      "화장실": 10152,
      "ㅛㅏ": 10153,
      "나쁘": 10154,
      "싸우": 10155,
      "일반": 10156,
      "어울": 10157,
      "##스는": 10158,
      "##사는": 10159,
      "그니깐": 10160,
      "라면": 10161,
      "있다고": 10162,
      "주문": 10163,
      "들어가": 10164,
      "부작용": 10165,
      "개인": 10166,
      "옛날에": 10167,
      "성격": 10168,
      "이후": 10169,
      "있음": 10170,
      "대중": 10171,
      "##아야": 10172,
      "모르는": 10173,
      "네이버": 10174,
      "마자": 10175,
      "생긴": 10176,
      "안에": 10177,
      "좋긴": 10178,
      "받을": 10179,
      "월세": 10180,
      "##만한": 10181,
      "##리어": 10182,
      "검색": 10183,
      "바뀌": 10184,
      "##동생": 10185,
      "나오면": 10186,
      "예능": 10187,
      "곳이": 10188,
      "그것": 10189,
      "수가": 10190,
      "인정": 10191,
      "부담": 10192,
      "있나": 10193,
      "##할때": 10194,
      "필수": 10195,
      "경우": 10196,
      "대출": 10197,
      "##제가": 10198,
      "고마워": 10199,
      "미용실": 10200,
      "미안": 10201,
      "선택": 10202,
      "새벽": 10203,
      "##하다가": 10204,
      "직업": 10205,
      "##하느": 10206,
      "자동차": 10207,
      "가르": 10208,
      "영양": 10209,
      "카드": 10210,
      "##하러": 10211,
      "그거는": 10212,
      "신청": 10213,
      "전혀": 10214,
      "피곤": 10215,
      "요새는": 10216,
      "쉽지": 10217,
      "좋겠다": 10218,
      "##학생": 10219,
      "그나마": 10220,
      "데리고": 10221,
      "건데": 10222,
      "현실": 10223,
      "그렇고": 10224,
      "게임은": 10225,
      "재밌어": 10226,
      "가격이": 10227,
      "확진": 10228,
      "ㅗㅏ": 10229,
      "구매": 10230,
      "좋으": 10231,
      "마음이": 10232,
      "인테": 10233,
      "가져": 10234,
      "연기": 10235,
      "느끼": 10236,
      "어어": 10237,
      "##시면": 10238,
      "##미가": 10239,
      "##하는게": 10240,
      "게임을": 10241,
      "꾸준히": 10242,
      "경기": 10243,
      "지난": 10244,
      "마트": 10245,
      "주차": 10246,
      "##소리": 10247,
      "하나도": 10248,
      "기념": 10249,
      "##자고": 10250,
      "##감이": 10251,
      "건조": 10252,
      "계절": 10253,
      "단풍": 10254,
      "어른": 10255,
      "이는": 10256,
      "헬스": 10257,
      "##없이": 10258,
      "##디어": 10259,
      "하는거": 10260,
      "패딩": 10261,
      "##나는": 10262,
      "밤에": 10263,
      "##나서": 10264,
      "##들을": 10265,
      "나이가": 10266,
      "생겼": 10267,
      "시골": 10268,
      "아냐": 10269,
      "호텔": 10270,
      "##가가": 10271,
      "조카": 10272,
      "회사에서": 10273,
      "기름": 10274,
      "싶ㄷ": 10275,
      "자취": 10276,
      "애니": 10277,
      "하늘": 10278,
      "환경": 10279,
      "가을이": 10280,
      "이상한": 10281,
      "보는데": 10282,
      "헤어": 10283,
      "##장님": 10284,
      "정도는": 10285,
      "필요한": 10286,
      "이것": 10287,
      "##치가": 10288,
      "날이": 10289,
      "지역": 10290,
      "##교육": 10291,
      "타는": 10292,
      "거래": 10293,
      "도전": 10294,
      "명절": 10295,
      "올림픽": 10296,
      "그러고": 10297,
      "ㅠㅏ": 10298,
      "그리": 10299,
      "##자는": 10300,
      "가게": 10301,
      "때가": 10302,
      "이젠": 10303,
      "언니는": 10304,
      "보면서": 10305,
      "있긴": 10306,
      "##동산": 10307,
      "전기차": 10308,
      "경험": 10309,
      "택배": 10310,
      "갔는데": 10311,
      "15": 10312,
      "##아버": 10313,
      "최대": 10314,
      "되어": 10315,
      "모두": 10316,
      "아닐": 10317,
      "##로는": 10318,
      "##텐데": 10319,
      "넷플릭": 10320,
      "대부분": 10321,
      "##교통": 10322,
      "않고": 10323,
      "짜증": 10324,
      "맞춰": 10325,
      "상황": 10326,
      "##줘서": 10327,
      "쇼핑몰": 10328,
      "말을": 10329,
      "상상": 10330,
      "그러니깐": 10331,
      "염색": 10332,
      "##걸로": 10333,
      "편의점": 10334,
      "듣고": 10335,
      "적이": 10336,
      "이제는": 10337,
      "괜찮아": 10338,
      "와이": 10339,
      "##을때": 10340,
      "##명이": 10341,
      "무서워서": 10342,
      "저녁에": 10343,
      "동안": 10344,
      "알지": 10345,
      "온라인": 10346,
      "있ㄷ": 10347,
      "요리": 10348,
      "##거리": 10349,
      "뭐든": 10350,
      "오오": 10351,
      "만든": 10352,
      "언니가": 10353,
      "머리가": 10354,
      "알았": 10355,
      "2년": 10356,
      "없었": 10357,
      "있으니까": 10358,
      "##저씨": 10359,
      "##마트": 10360,
      "##장에서": 10361,
      "##장에": 10362,
      "대중교통": 10363,
      "달라": 10364,
      "##건데": 10365,
      "시즌": 10366,
      "태풍": 10367,
      "때마다": 10368,
      "성공": 10369,
      "##였는데": 10370,
      "##겨서": 10371,
      "이건": 10372,
      "출퇴": 10373,
      "화장품": 10374,
      "오빠는": 10375,
      "엄마도": 10376,
      "프로그램": 10377,
      "배우고": 10378,
      "봐서": 10379,
      "비용": 10380,
      "피부과": 10381,
      "당장": 10382,
      "수학": 10383,
      "오토": 10384,
      "평생": 10385,
      "한달": 10386,
      "정보": 10387,
      "##타민": 10388,
      "생각하면": 10389,
      "부동산": 10390,
      "아기": 10391,
      "##이도": 10392,
      "강아지가": 10393,
      "겨울이": 10394,
      "끝나고": 10395,
      "아님": 10396,
      "좋아해서": 10397,
      "같아서": 10398,
      "##어요": 10399,
      "##간이": 10400,
      "##크림": 10401,
      "가도": 10402,
      "연습": 10403,
      "하던데": 10404,
      "부대": 10405,
      "부족": 10406,
      "위해": 10407,
      "여름에": 10408,
      "감독": 10409,
      "오늘도": 10410,
      "웃기": 10411,
      "##간에": 10412,
      "##거야": 10413,
      "##스로": 10414,
      "맞으면": 10415,
      "거리": 10416,
      "파는": 10417,
      "##구가": 10418,
      "스키": 10419,
      "운동을": 10420,
      "거는": 10421,
      "많고": 10422,
      "##우면": 10423,
      "사건": 10424,
      "자신": 10425,
      "지내": 10426,
      "##때는": 10427,
      "도시": 10428,
      "말해": 10429,
      "잘해": 10430,
      "##세요": 10431,
      "어려운": 10432,
      "비슷한": 10433,
      "위해서": 10434,
      "일을": 10435,
      "가보": 10436,
      "좋다고": 10437,
      "주에": 10438,
      "했ㅇ": 10439,
      "영향": 10440,
      "##마자": 10441,
      "인테리어": 10442,
      "출퇴근": 10443,
      "느낌이": 10444,
      "업무": 10445,
      "이쁜": 10446,
      "검사": 10447,
      "공군": 10448,
      "좋게": 10449,
      "바꾸": 10450,
      "안그": 10451,
      "하다가": 10452,
      "동생이": 10453,
      "가본": 10454,
      "되는데": 10455,
      "있느": 10456,
      "재택": 10457,
      "유치": 10458,
      "사람들도": 10459,
      "이따": 10460,
      "편하게": 10461,
      "빼고": 10462,
      "아저씨": 10463,
      "알아서": 10464,
      "어차": 10465,
      "자리": 10466,
      "확인": 10467,
      "##리아": 10468,
      "50": 10469,
      "강원도": 10470,
      "김치": 10471,
      "노력": 10472,
      "들었": 10473,
      "집값": 10474,
      "##구만": 10475,
      "좋아하는데": 10476,
      "걸리": 10477,
      "유럽": 10478,
      "##볼까": 10479,
      "아무튼": 10480,
      "오토바": 10481,
      "굳이": 10482,
      "하니": 10483,
      "오빠가": 10484,
      "안해": 10485,
      "어차피": 10486,
      "움직": 10487,
      "사기": 10488,
      "비타민": 10489,
      "해봤": 10490,
      "##은거": 10491,
      "좋ㄱ": 10492,
      "햄스터": 10493,
      "##더라구": 10494,
      "국가": 10495,
      "알았어": 10496,
      "저런": 10497,
      "하게": 10498,
      "자고": 10499,
      "힘들어": 10500,
      "실제로": 10501,
      "조용": 10502,
      "아이들": 10503,
      "대단한": 10504,
      "넷플릭스": 10505,
      "평소": 10506,
      "하루에": 10507,
      "함께": 10508,
      "데려": 10509,
      "있으니": 10510,
      "집중": 10511,
      "하던": 10512,
      "무서워": 10513,
      "잘생": 10514,
      "##만큼": 10515,
      "엄마랑": 10516,
      "예쁜": 10517,
      "##들어": 10518,
      "##말고": 10519,
      "무서운": 10520,
      "돼서": 10521,
      "갖고": 10522,
      "빠르": 10523,
      "##하려고": 10524,
      "##스럽": 10525,
      "##타고": 10526,
      "근처에": 10527,
      "에어컨": 10528,
      "때부터": 10529,
      "없지": 10530,
      "그림": 10531,
      "마블": 10532,
      "타면": 10533,
      "##해지": 10534,
      "##비도": 10535,
      "국내": 10536,
      "도와": 10537,
      "사촌": 10538,
      "이래": 10539,
      "해결": 10540,
      "##000": 10541,
      "식당": 10542,
      "##라니": 10543,
      "##기고": 10544,
      "똑같": 10545,
      "##했다": 10546,
      "대체": 10547,
      "##습니다": 10548,
      "괜찮을": 10549,
      "스타일": 10550,
      "그정도": 10551,
      "슬슬": 10552,
      "어ㄸ": 10553,
      "차이": 10554,
      "##군요": 10555,
      "오르": 10556,
      "잘하": 10557,
      "추천해": 10558,
      "기술": 10559,
      "신고": 10560,
      "힘드": 10561,
      "##지를": 10562,
      "나만": 10563,
      "받으면": 10564,
      "않았": 10565,
      "##자마자": 10566,
      "##ㅈㅈ": 10567,
      "##물이": 10568,
      "돈도": 10569,
      "살이": 10570,
      "이가": 10571,
      "##장도": 10572,
      "거기에": 10573,
      "글쎄": 10574,
      "해봐": 10575,
      "조금만": 10576,
      "워낙": 10577,
      "활동": 10578,
      "피부가": 10579,
      "쉽게": 10580,
      "안돼": 10581,
      "없다": 10582,
      "포기": 10583,
      "##스러": 10584,
      "코로나가": 10585,
      "이름이": 10586,
      "있었는데": 10587,
      "추워서": 10588,
      "가까운": 10589,
      "맞지": 10590,
      "할아버": 10591,
      "정리": 10592,
      "##영화": 10593,
      "드디어": 10594,
      "##스도": 10595,
      "친구들이랑": 10596,
      "재밌을": 10597,
      "받았": 10598,
      "받아서": 10599,
      "자기가": 10600,
      "모바": 10601,
      "싸게": 10602,
      "인스타": 10603,
      "후기": 10604,
      "##하기도": 10605,
      "데이트": 10606,
      "신혼": 10607,
      "그렇다고": 10608,
      "다같이": 10609,
      "되지": 10610,
      "충분": 10611,
      "아이고": 10612,
      "간단": 10613,
      "많은데": 10614,
      "살면": 10615,
      "안하고": 10616,
      "##려나": 10617,
      "마음에": 10618,
      "효과가": 10619,
      "심각": 10620,
      "다니고": 10621,
      "놀이": 10622,
      "메뉴": 10623,
      "면허": 10624,
      "모습": 10625,
      "생가": 10626,
      "시리": 10627,
      "##아도": 10628,
      "상관": 10629,
      "##치고": 10630,
      "##되고": 10631,
      "##벤트": 10632,
      "아직은": 10633,
      "그때는": 10634,
      "달에": 10635,
      "집안": 10636,
      "거면": 10637,
      "근육": 10638,
      "바빠": 10639,
      "타이": 10640,
      "나가서": 10641,
      "귀여운": 10642,
      "젊은": 10643,
      "둘째": 10644,
      "이번엔": 10645,
      "이런거": 10646,
      "곳은": 10647,
      "먹으": 10648,
      "옆에": 10649,
      "추운": 10650,
      "키울": 10651,
      "##려야": 10652,
      "아무것도": 10653,
      "나쁘지": 10654,
      "맞네": 10655,
      "만나서": 10656,
      "경제": 10657,
      "그걸로": 10658,
      "어플": 10659,
      "여유": 10660,
      "##가락": 10661,
      "아쉽": 10662,
      "큰일": 10663,
      "대충": 10664,
      "나갈": 10665,
      "##겠지만": 10666,
      "와이프": 10667,
      "안가": 10668,
      "우선": 10669,
      "##도로": 10670,
      "지방": 10671,
      "##었지": 10672,
      "해야지": 10673,
      "건강에": 10674,
      "다녔": 10675,
      "들ㅇ": 10676,
      "며칠": 10677,
      "취향": 10678,
      "다행히": 10679,
      "무료": 10680,
      "편한": 10681,
      "##학년": 10682,
      "친구는": 10683,
      "방금": 10684,
      "화이": 10685,
      "오고": 10686,
      "카카": 10687,
      "않을까": 10688,
      "제발": 10689,
      "##겠ㄴ": 10690,
      "##분에": 10691,
      "것이": 10692,
      "배구": 10693,
      "살짝": 10694,
      "외모": 10695,
      "주사": 10696,
      "##계가": 10697,
      "주인공": 10698,
      "먹으러": 10699,
      "모바일": 10700,
      "것만": 10701,
      "상품": 10702,
      "일부": 10703,
      "있ㅈ": 10704,
      "##인거": 10705,
      "##보드": 10706,
      "오징어게임": 10707,
      "결제": 10708,
      "샀는데": 10709,
      "##었ㅇ": 10710,
      "대기": 10711,
      "중독": 10712,
      "##에요": 10713,
      "##더락": 10714,
      "##이라니": 10715,
      "부럽다": 10716,
      "수능": 10717,
      "이벤트": 10718,
      "전쟁": 10719,
      "##프로": 10720,
      "영화는": 10721,
      "멀리": 10722,
      "바꿔": 10723,
      "부러": 10724,
      "##겠ㅇ": 10725,
      "이것저": 10726,
      "투자": 10727,
      "아무리": 10728,
      "##던ㄷ": 10729,
      "성형": 10730,
      "용돈": 10731,
      "한번씩": 10732,
      "아이돌": 10733,
      "그러게요": 10734,
      "40": 10735,
      "눈썹": 10736,
      "받은": 10737,
      "숙소": 10738,
      "하자": 10739,
      "놓고": 10740,
      "취미": 10741,
      "##마켓": 10742,
      "##그래": 10743,
      "눈치": 10744,
      "쿠폰": 10745,
      "##일에": 10746,
      "하는게": 10747,
      "정도로": 10748,
      "##지로": 10749,
      "이것저것": 10750,
      "2ㅗ": 10751,
      "깨끗": 10752,
      "않는": 10753,
      "음료": 10754,
      "카트": 10755,
      "커서": 10756,
      "계약": 10757,
      "고등학교": 10758,
      "시간에": 10759,
      "남편이": 10760,
      "영양제": 10761,
      "계란": 10762,
      "싶어서": 10763,
      "알았는데": 10764,
      "모르겠어": 10765,
      "걸어": 10766,
      "경찰": 10767,
      "네가": 10768,
      "매번": 10769,
      "완젼": 10770,
      "웃겨": 10771,
      "##머리": 10772,
      "친구랑": 10773,
      "3ㅗ": 10774,
      "가는데": 10775,
      "때문": 10776,
      "이불": 10777,
      "여행은": 10778,
      "알아보고": 10779,
      "그만큼": 10780,
      "근무": 10781,
      "##하지만": 10782,
      "##지어": 10783,
      "아빠는": 10784,
      "쉬는": 10785,
      "적은": 10786,
      "하려고": 10787,
      "##까봐": 10788,
      "##가지고": 10789,
      "10년": 10790,
      "몸에": 10791,
      "없ㄴ": 10792,
      "있ㄱ": 10793,
      "전문": 10794,
      "조심해야": 10795,
      "11월": 10796,
      "가입": 10797,
      "매력": 10798,
      "##이브": 10799,
      "거라": 10800,
      "안타": 10801,
      "세상에": 10802,
      "카카오": 10803,
      "탈모": 10804,
      "나갔": 10805,
      "말하는": 10806,
      "바르": 10807,
      "북한": 10808,
      "졸업": 10809,
      "게임도": 10810,
      "거긴": 10811,
      "깔끔": 10812,
      "느껴": 10813,
      "일하는": 10814,
      "해군": 10815,
      "10월": 10816,
      "우산": 10817,
      "집도": 10818,
      "후회": 10819,
      "##수는": 10820,
      "기분이": 10821,
      "토끼": 10822,
      "끝나면": 10823,
      "정확": 10824,
      "제품": 10825,
      "##들한테": 10826,
      "만큼": 10827,
      "만드는": 10828,
      "스토": 10829,
      "않ㅇ": 10830,
      "##아니": 10831,
      "사람을": 10832,
      "쓰레": 10833,
      "봤ㅇ": 10834,
      "##두고": 10835,
      "30분": 10836,
      "넘어": 10837,
      "먹은": 10838,
      "먹어서": 10839,
      "어떠": 10840,
      "##도록": 10841,
      "##거같": 10842,
      "##사를": 10843,
      "이번에는": 10844,
      "최대한": 10845,
      "좋ㄷ": 10846,
      "주위": 10847,
      "하시": 10848,
      "##등학생": 10849,
      "갔다가": 10850,
      "반팔": 10851,
      "##인은": 10852,
      "##로도": 10853,
      "조금씩": 10854,
      "우리나라는": 10855,
      "하러": 10856,
      "생각도": 10857,
      "여행을": 10858,
      "막상": 10859,
      "쉬운": 10860,
      "육군": 10861,
      "##하시": 10862,
      "건가": 10863,
      "국민": 10864,
      "다양한": 10865,
      "대화": 10866,
      "물고기": 10867,
      "생기면": 10868,
      "안그래도": 10869,
      "시대": 10870,
      "적당히": 10871,
      "대구": 10872,
      "대학교": 10873,
      "뭔지": 10874,
      "안먹": 10875,
      "특별": 10876,
      "거기는": 10877,
      "##더라도": 10878,
      "대해": 10879,
      "오락": 10880,
      "정해": 10881,
      "주면": 10882,
      "들어서": 10883,
      "왠지": 10884,
      "이모": 10885,
      "차를": 10886,
      "초딩": 10887,
      "있어도": 10888,
      "쓰면": 10889,
      "책임": 10890,
      "##이션": 10891,
      "나오고": 10892,
      "해외여행": 10893,
      "꺼내": 10894,
      "다리": 10895,
      "심지어": 10896,
      "##었다": 10897,
      "##히는": 10898,
      "##으면서": 10899,
      "강의": 10900,
      "많을": 10901,
      "힐링": 10902,
      "##사도": 10903,
      "거북": 10904,
      "약속": 10905,
      "##스를": 10906,
      "소개팅": 10907,
      "이슈": 10908,
      "전부": 10909,
      "한ㄷ": 10910,
      "##해보": 10911,
      "요즘에는": 10912,
      "시간도": 10913,
      "재난": 10914,
      "초등학교": 10915,
      "##사고": 10916,
      "##줄게": 10917,
      "모르겠는데": 10918,
      "자식": 10919,
      "##들의": 10920,
      "##랑은": 10921,
      "##마리": 10922,
      "##주로": 10923,
      "##달라고": 10924,
      "같긴": 10925,
      "이동": 10926,
      "잡아": 10927,
      "해봤는데": 10928,
      "##요일에": 10929,
      "니는": 10930,
      "집을": 10931,
      "은근히": 10932,
      "못하": 10933,
      "파마": 10934,
      "##목이": 10935,
      "생각만": 10936,
      "생각을": 10937,
      "관광": 10938,
      "답답": 10939,
      "둘다": 10940,
      "피자": 10941,
      "내년에": 10942,
      "사과": 10943,
      "##으로도": 10944,
      "농구": 10945,
      "##까진": 10946,
      "회사는": 10947,
      "가족들": 10948,
      "같으": 10949,
      "심심": 10950,
      "##에선": 10951,
      "식단": 10952,
      "유지": 10953,
      "유산": 10954,
[...]
