[PAD]
[UNK]
[CLS]
[SEP]
[MASK]
!
,
0
1
2
3
4
5
6
7
8
9
?
A
B
C
D
E
F
G
H
I
J
K
L
M
N
O
P
Q
R
S
T
U
V
W
X
Y
Z
`
a
b
c
d
e
f
g
h
i
j
k
l
m
n
o
p
q
r
s
t
u
v
w
x
y
z
°
·
ˊ
ˋ
ˎ
ˏ
˗
̆
̈
̑
ට
ᄏ
ᄒ
ᅟ
‘
’
“
”
…
ㄱ
ㄲ
ㄴ
ㄵ
ㄶ
ㄷ
ㄸ
ㄹ
ㄺ
ㄻ
ㄼ
ㅀ
ㅁ
ㅂ
ㅃ
ㅄ
ㅅ
ㅆ
ㅇ
ㅈ
ㅉ
ㅊ
ㅋ
ㅌ
ㅍ
ㅎ
ㅏ
ㅐ
ㅑ
ㅒ
ㅓ
ㅔ
ㅕ
ㅖ
ㅗ
ㅘ
ㅙ
ㅚ
ㅛ
ㅜ
ㅝ
ㅞ
ㅟ
ㅠ
ㅡ
ㅢ
ㅣ
ㆍ
㎞
㎡
原
和
弘
石
秋
가
각
갂
간
갅
갆
갇
갈
갉
갊
감
갑
값
갓
갔
강
갖
갗
갘
같
갚
갛
개
객
갞
갠
갣
갤
갬
갭
갮
갯
갰
갱
갲
갳
갴
갵
갶
갷
갸
갹
갺
갼
갿
걀
걃
걈
걉
걊
걋
걌
걍
걎
걏
걐
걑
걒
걓
걔
걕
걘
걛
걜
걥
걧
걩
거
걱
걲
건
걵
걶
걷
걸
걹
걺
검
겁
겂
것
겄
겅
겆
겇
겈
겉
겊
겋
게
겍
겎
겐
겓
겔
겜
겝
겟
겠
겡
겢
겣
겤
겥
겦
겧
겨
격
겪
견
겯
결
겲
겸
겹
겺
겻
겼
경
겾
겿
곀
곁
곂
곃
계
곅
곆
곈
곋
곌
곔
곕
곗
곘
곙
곚
곛
곝
곞
곟
고
곡
곢
곤
곧
골
곩
곪
곯
곰
곱
곲
곳
곴
공
곶
곷
곸
곹
곺
곻
과
곽
관
괃
괄
괌
괍
괏
괐
광
괒
괓
괔
괕
괗
괘
괜
괞
괟
괠
괨
괫
괬
괭
괮
괯
괰
괱
괴
괵
괸
괻
괼
굄
굅
굇
굉
굊
굌
굍
굏
교
굑
굒
굔
굗
굘
굠
굡
굣
굤
굥
굦
굧
굨
굩
굪
굫
구
국
굮
군
굳
굴
굵
굶
굼
굽
굾
굿
궀
궁
궂
궃
궄
궅
궆
궇
궈
궉
권
궏
궐
궘
궙
궛
궜
궝
궞
궠
궡
궣
궤
궵
귀
귁
귄
귇
귈
귐
귑
귓
귕
귖
귗
귘
귙
귚
귛
규
귝
균
귣
귤
귥
귦
귬
귭
귯
귱
귲
귳
귴
귵
귶
귷
그
극
귺
근
귾
귿
글
긁
긂
긇
금
급
긊
긋
긌
긍
긎
긏
긐
긑
긒
긓
긔
긜
긪
기
긱
긲
긴
긵
긷
길
긹
긿
김
깁
깂
깃
깄
깅
깆
깇
깈
깉
깊
깋
까
깍
깎
깐
깒
깓
깔
깜
깝
깞
깟
깠
깡
깢
깣
깤
깥
깦
깧
깨
깩
깪
깬
깯
깰
깸
깹
깻
깼
깽
깾
꺀
꺁
꺄
꺅
꺈
꺌
꺔
꺕
꺘
꺙
꺚
꺛
꺝
꺠
꺡
꺳
꺵
꺶
꺼
꺽
꺾
껀
껂
껃
껄
껋
껌
껍
껏
껐
껑
껒
껓
껔
껕
껖
께
껙
껜
껠
껨
껩
껫
껬
껭
껮
껰
껲
껳
껴
껵
껶
껸
껻
껼
꼅
꼇
꼈
꼉
꼊
꼋
꼌
꼍
꼎
꼏
꼐
꼣
꼤
꼥
꼦
꼨
꼬
꼭
꼮
꼰
꼳
꼴
꼼
꼽
꼿
꽁
꽂
꽃
꽄
꽅
꽆
꽇
꽈
꽉
꽌
꽏
꽐
꽙
꽛
꽜
꽝
꽤
꽨
꽹
꽺
꽼
꾀
꾄
꾕
꾜
꾝
꾬
꾭
꾰
꾱
꾲
꾵
꾶
꾸
꾹
꾼
꾾
꾿
꿀
꿁
꿂
꿇
꿈
꿉
꿋
꿍
꿎
꿏
꿐
꿑
꿒
꿓
꿔
꿕
꿘
꿥
꿧
꿨
꿩
꿪
꿬
꿰
뀌
뀍
뀎
뀐
뀓
뀔
뀜
뀝
뀡
뀢
뀤
뀥
뀨
뀬
뀰
뀲
뀸
뀽
뀾
뀿
끀
끂
끄
끅
끆
끈
끊
끋
끌
끓
끔
끕
끗
끘
끙
끚
끛
끜
끝
끞
끟
끼
끽
끾
낀
낃
낄
낌
낍
낏
낐
낑
낒
낓
낔
낕
낗
나
낙
낚
난
낝
낞
낟
날
낡
낢
낣
낧
남
납
낫
났
낭
낮
낯
낰
낱
낲
낳
내
낵
낶
낸
낺
낻
낼
냄
냅
냇
냈
냉
냊
냋
냌
냍
냎
냏
냐
냑
냒
냔
냖
냗
냘
냛
냠
냡
냢
냣
냤
냥
냦
냧
냨
냩
냪
냫
냬
냭
냴
냼
냿
넀
넁
넂
넇
너
넉
넊
넋
넌
넎
넏
널
넑
넒
넓
넘
넙
넚
넛
넜
넝
넞
넟
넠
넡
넢
넣
네
넥
넦
넨
넫
넬
넴
넵
넷
넸
넹
넺
넻
넼
넽
넾
넿
녀
녁
녂
년
녇
녈
녋
념
녑
녒
녓
녔
녕
녖
녗
녘
녙
녚
녛
녜
녠
녣
녤
녭
녯
녱
녲
노
녹
녺
녻
논
녿
놀
놃
놈
놉
놊
놋
놌
농
놎
놏
놐
놑
높
놓
놔
놕
놘
놛
놜
놥
놧
놨
놩
놪
놬
놭
놯
놰
놴
뇃
뇄
뇌
뇍
뇐
뇓
뇔
뇜
뇟
뇡
뇢
뇣
뇤
뇥
뇦
뇨
뇩
뇬
뇯
뇰
뇸
뇹
뇻
뇼
뇽
뇾
눀
눂
눃
누
눅
눆
눈
눋
눌
눍
눎
눏
눔
눕
눗
눘
눙
눚
눛
눜
눝
눞
눟
눠
눡
눤
눧
눨
눰
눱
눳
눴
눵
눶
눷
눸
눹
눻
눼
뉀
뉃
뉄
뉘
뉙
뉜
뉩
뉭
뉮
뉳
뉴
뉵
뉸
뉻
뉼
늄
늅
늇
늈
늉
늊
늌
늍
늎
늏
느
늑
늒
는
늖
늗
늘
늙
늛
늠
늡
늢
늣
늤
능
늦
늧
늨
늩
늪
늫
늬
늭
닇
니
닉
닊
닌
닎
닏
닐
닑
닗
님
닙
닛
닜
닝
닞
닟
닠
닡
닢
닣
다
닥
닦
단
닩
닪
닫
달
닭
닮
닳
담
답
닶
닷
닸
당
닺
닻
닼
닽
닾
닿
대
댁
댂
댄
댆
댇
댈
댊
댐
댑
댓
댔
댕
댖
댗
댘
댙
댚
댛
댜
댝
댞
댠
댣
댤
댥
댬
댭
댮
댯
댰
댱
댲
댳
댴
댵
댶
댷
댸
댹
댿
덀
덉
덍
덏
덑
덓
더
덕
덖
던
덚
덛
덜
덝
덞
덟
덤
덥
덦
덧
덨
덩
덪
덫
덬
덭
덮
덯
데
덱
덲
덴
덷
델
뎀
뎁
뎃
뎄
뎅
뎆
뎇
뎈
뎉
뎊
뎋
뎌
뎍
뎎
뎐
뎓
뎔
뎜
뎝
뎟
뎠
뎡
뎢
뎣
뎤
뎥
뎦
뎧
뎨
뎩
뎬
뎰
뎻
뎼
뎽
뎾
돃
도
독
돆
돈
돋
돌
돎
돓
돔
돕
돖
돗
돘
동
돚
돛
돜
돝
돞
돟
돠
돤
돧
돨
돱
돳
돴
돵
돼
돽
됀
됃
됄
됌
됍
됏
됐
됑
됒
됔
됕
되
됙
됚
된
됟
될
됨
됩
됫
됬
됭
됮
됯
됰
됱
됲
됳
됴
됵
됶
됸
됻
됼
둄
둇
둈
둉
둊
둋
둍
둎
둏
두
둑
둒
둔
둗
둘
둚
둟
둠
둡
둢
둣
둤
둥
둦
둧
둨
둩
둪
둫
둬
둰
둳
둴
둼
둽
둿
뒀
뒁
뒂
뒌
뒝
뒤
뒥
뒦
뒨
뒬
뒴
뒷
뒹
뒺
뒻
뒿
듀
듁
듄
듇
듈
듐
듑
듓
듕
듗
듙
듛
드
득
듞
든
듢
듣
들
듥
듦
듬
듭
듮
듯
듰
등
듲
듳
듴
듵
듶
듷
듸
딐
딓
디
딕
딖
딘
딚
딛
딜
딝
딞
딤
딥
딧
딨
딩
딪
딫
딬
딭
딮
딯
따
딱
딲
딴
딷
딸
딹
딺
딿
땀
땁
땃
땄
땅
땆
땇
땈
땉
땊
땋
때
땍
땎
땐
땓
땔
땜
땝
땟
땠
땡
땢
땣
땤
땥
땦
땧
땨
땩
땬
땯
땰
땸
땹
땻
땼
땽
떃
떄
떆
떈
떋
떌
떔
떕
떘
떙
떚
떜
떟
떠
떡
떢
떤
떧
떨
떫
떯
떰
떱
떳
떴
떵
떶
떷
떸
떹
떺
떻
떼
떽
뗀
뗃
뗄
뗌
뗏
뗐
뗑
뗒
뗓
뗖
뗘
뗙
뗜
뗠
뗫
뗬
뗭
뗲
뗳
뗴
또
똑
똒
똔
똗
똘
똟
똠
똡
똣
똤
똥
똧
똨
똩
똫
똬
똭
뙇
뙈
뙛
뙜
뙤
뙥
뙨
뙫
뙬
뙴
뙷
뙹
뙺
뙻
뚀
뚁
뚇
뚈
뚕
뚜
뚝
뚞
뚠
뚣
뚤
뚫
뚯
뚱
뚲
뚵
뚶
뚷
뛌
뛰
뛱
뛲
뛴
뛷
뛸
뜀
뜅
뜆
뜇
뜉
뜌
뜍
뜔
뜡
뜨
뜩
뜪
뜬
뜯
뜰
뜷
뜸
뜹
뜻
뜼
뜽
뜾
뜿
띀
띁
띂
띃
띄
띅
띈
띌
띙
띠
띡
띤
띧
띨
띰
띳
띴
띵
띺
띻
라
락
띾
란
랁
랂
랃
랄
랉
람
랍
랎
랏
랐
랑
랒
랓
랔
랕
랖
랗
래
랙
랚
랜
랟
랠
랧
램
랩
랫
랬
랭
랮
랯
랰
랱
랲
랳
랴
략
랸
랺
랻
랼
랿
럄
럅
럇
럈
량
럊
럋
럌
럍
럏
럐
럔
럗
럣
럤
럥
러
럭
럮
런
럱
럲
럳
럴
럻
럼
럽
럾
럿
렀
렁
렂
렃
렄
렅
렆
렇
레
렉
렊
렌
렏
렐
렘
렙
렛
렜
렝
렞
렟
렠
렡
렢
렣
려
력
렦
련
렫
렬
렴
렵
렶
렷
렸
령
렺
렻
렼
렽
렿
례
롁
롄
롇
롈
롑
롓
롔
롕
롖
롛
로
록
롞
론
롣
롤
롦
롬
롭
롮
롯
롰
롱
롲
롳
롴
롵
롶
롷
롸
롹
롼
롿
뢀
뢈
뢋
뢌
뢍
뢎
뢒
뢔
뢘
뢩
뢭
뢰
뢱
뢷
뢸
룀
룃
룅
룇
료
룍
룎
룐
룓
룔
룜
룝
룟
룠
룡
룢
룥
룧
루
룩
룬
룯
룰
룸
룹
룺
룻
룼
룽
룾
룿
뤀
뤁
뤂
뤃
뤄
뤈
뤌
뤕
뤗
뤘
뤙
뤚
뤝
뤟
뤠
뤱
뤼
뤽
륀
륃
륍
륏
륑
륒
륓
륕
륗
류
륙
륜
륟
률
륨
륩
륫
륬
륭
륮
륯
륳
르
륵
륶
른
륺
륻
를
륽
름
릅
릆
릇
릈
릉
릊
릋
릌
릍
릎
릏
릐
릔
릥
리
릭
릮
린
릳
릴
릻
림
립
릿
맀
링
맂
맃
맄
맅
맆
맇
마
막
맊
만
많
맏
말
맑
맓
맘
맙
맛
맜
망
맞
맟
맠
맡
맢
맣
매
맥
맦
맨
맪
맫
맬
맭
맴
맵
맷
맸
맹
맺
맻
맼
맽
맾
맿
먀
먁
먄
먆
먇
먈
먐
먑
먓
먕
먖
먗
먘
먛
먜
먝
먠
먱
먳
먶
먷
머
먹
먺
먼
먾
먿
멀
멁
멃
멈
멉
멋
멌
멍
멎
멏
멐
멑
멒
멓
메
멕
멖
멘
멛
멜
멤
멥
멧
멨
멩
멪
멫
멬
멭
멮
멯
며
멱
멲
면
멶
멷
멸
몀
몁
몃
몄
명
몆
몇
몈
몉
몊
몋
몌
몜
모
목
몪
몫
몬
몯
몰
몷
몸
몹
못
몼
몽
몾
몿
뫀
뫁
뫂
뫃
뫄
뫋
뫌
뫕
뫗
뫘
뫙
뫚
뫛
뫞
뫠
뫼
묍
묑
묘
묙
묜
묟
묠
묫
묭
묮
묯
묲
묳
무
묵
묶
문
묻
물
묽
묿
뭄
뭅
뭇
뭈
뭉
뭊
뭋
뭌
뭍
뭎
뭏
뭐
뭑
뭒
뭔
뭗
뭘
뭠
뭡
뭣
뭤
뭥
뭦
뭧
뭨
뭩
뭪
뭫
뭬
뮁
뮈
뮉
뮌
뮤
뮥
뮨
뮫
뮬
뮵
뮷
뮹
뮺
뮻
뮾
뮿
므
믁
믂
믄
믆
믇
믈
믊
믐
믑
믓
믔
믕
믖
믗
믘
믙
믛
미
믹
믺
민
믾
믿
밀
밈
밉
밋
밌
밍
밎
및
밐
밑
밒
밓
바
박
밖
반
밚
받
발
밝
밟
밤
밥
밧
밨
방
밪
밫
밬
밭
밮
밯
배
백
밲
밴
밶
밷
밸
밹
밻
뱀
뱁
뱃
뱄
뱅
뱆
뱇
뱈
뱉
뱊
뱋
뱌
뱍
뱎
뱐
뱒
뱓
뱔
뱕
뱗
뱜
뱝
뱟
뱡
뱢
뱣
뱤
뱥
뱦
뱧
뱨
뱩
뱯
뱰
뱻
뱽
버
벅
벆
번
벊
벋
벌
벍
벎
벏
범
법
벗
벘
벙
벚
벛
벜
벝
벞
벟
베
벡
벢
벤
벧
벨
벰
벱
벳
벴
벵
벶
벷
벹
벺
벻
벼
벽
벾
변
볃
별
볈
볌
볍
볏
볐
병
볒
볓
볔
볕
볖
볗
볘
볚
볜
볭
보
복
볶
볷
본
볻
볼
봄
봅
봇
봈
봉
봊
봋
봌
봍
봎
봏
봐
봑
봒
봔
봗
봘
봠
봡
봣
봤
봥
봦
봧
봨
봩
봫
봬
뵀
뵁
뵈
뵉
뵌
뵐
뵙
뵜
뵝
뵤
뵥
뵦
뵨
뵫
뵬
뵴
뵵
뵷
뵹
뵺
뵿
부
북
붂
분
붇
불
붉
붐
붑
붓
붔
붕
붖
붗
붘
붙
붚
붛
붜
붝
붠
붣
붤
붬
붯
붰
붱
붲
붴
붵
붷
뷔
뷮
뷯
뷰
뷱
뷲
뷴
뷷
뷸
븀
븁
븃
븄
븅
븆
븈
븉
븊
븋
브
븍
븎
븐
븒
븓
블
븗
븜
븝
븟
븠
븡
븢
븣
븤
븥
븦
븧
비
빅
빆
빈
빊
빋
빌
빏
빔
빕
빗
빘
빙
빚
빛
빜
빝
빞
빟
빠
빡
빢
빤
빧
빨
빫
빰
빱
빳
빴
빵
빶
빷
빸
빺
빻
빼
빽
빾
뺀
뺃
뺄
뺌
뺍
뺏
뺐
뺑
뺒
뺔
뺗
뺘
뺙
뺜
뺠
뺨
뺭
뺮
뺳
뺴
뺵
뺸
뺼
뻇
뻈
뻉
뻊
뻌
뻐
뻑
뻒
뻔
뻗
뻘
뻠
뻡
뻣
뻤
뻥
뻦
뻨
뻩
뻪
뻫
뻬
뻰
뼈
뼉
뼌
뼏
뼐
뼘
뼙
뼛
뼝
뽀
뽁
뽂
뽄
뽇
뽈
뽐
뽑
뽓
뽔
뽕
뽖
뽗
뽘
뽙
뽛
뽜
뽝
뽭
뽰
뽱
뽷
뽸
뾰
뾱
뾴
뾸
뿁
뿃
뿅
뿌
뿍
뿐
뿓
뿔
뿜
뿝
뿟
뿠
뿡
뿢
뿣
뿤
뿥
뿧
쀼
쁀
쁍
쁑
쁘
쁙
쁚
쁜
쁟
쁠
쁨
쁩
쁫
쁭
쁮
쁯
쁰
쁱
쁳
삐
삑
삒
삔
삗
삘
삡
삣
삤
삥
삦
삫
사
삭
삮
삯
산
삳
살
삵
삶
삹
삻
삼
삽
삾
삿
샀
상
샂
샃
샄
샅
샆
샇
새
색
샊
샌
샏
샐
샗
샘
샙
샛
샜
생
샞
샟
샠
샡
샢
샣
샤
샥
샦
샨
샫
샬
샮
샴
샵
샷
샸
샹
샺
샻
샼
샽
샾
샿
섀
섁
섄
섈
섑
섔
섕
섖
섗
서
석
섞
선
섣
설
섦
섬
섭
섮
섯
섰
성
섲
섳
섴
섵
섶
섷
세
섹
섺
센
섿
셀
셇
셈
셉
셋
셌
셍
셎
셏
셐
셑
셒
셓
셔
셕
셖
션
셛
셜
셤
셥
셧
셨
셩
셪
셫
셬
셭
셯
셰
셱
셴
셷
셸
솀
솃
솄
솅
솉
솊
소
속
솎
손
솓
솔
솜
솝
솟
솠
송
솢
솣
솤
솥
솦
솧
솨
솩
솪
솬
솯
솰
솼
솽
솾
쇀
쇁
쇄
쇈
쇋
쇙
쇠
쇧
쇨
쇳
쇶
쇼
쇽
숀
숃
숄
숍
숏
숐
숑
숒
숓
숔
숕
숖
숗
수
숙
숚
순
숟
술
숢
숨
숩
숫
숬
숭
숮
숯
숰
숱
숲
숳
숴
숸
숻
숼
쉅
쉇
쉈
쉉
쉐
쉑
쉘
쉣
쉥
쉪
쉬
쉭
쉮
쉰
쉳
쉴
쉼
쉽
쉿
슁
슂
슃
슄
슅
슇
슈
슉
슊
슌
슏
슐
슘
슙
슛
슝
슞
슟
슠
슡
슢
슣
스
슥
슦
슨
슫
슬
슴
습
슶
슷
슸
승
슺
슻
슼
슽
슾
슿
싀
시
식
싞
신
싡
싣
실
싦
싫
심
십
싯
싰
싱
싲
싳
싴
싵
싶
싷
싸
싹
싺
싼
싿
쌀
쌈
쌉
쌋
쌌
쌍
쌎
쌏
쌐
쌑
쌒
쌓
쌔
쌕
쌘
쌛
쌜
쌤
쌥
쌧
쌨
쌩
쌪
쌬
쌭
쌯
쌰
쌱
쌴
쌸
썃
썄
썅
썇
썉
썋
썌
썜
썡
써
썩
썪
썬
썯
썰
썸
썹
썻
썼
썽
썾
썿
쎀
쎃
쎄
쎅
쎈
쎋
쎌
쎓
쎔
쎗
쎘
쎙
쎞
쎟
쎠
쎤
쎧
쎨
쎱
쎳
쎴
쎵
쎹
쎼
쏑
쏖
쏘
쏙
쏚
쏜
쏟
쏠
쏨
쏩
쏫
쏬
쏭
쏮
쏰
쏳
쏴
쏼
쐇
쐈
쐉
쐐
쐑
쐬
쐭
쐴
쐿
쑁
쑂
쑈
쑐
쑝
쑤
쑥
쑨
쑫
쑬
쑴
쑵
쑷
쑹
쑺
쑻
쑿
쒓
쒸
쒹
쓉
쓍
쓔
쓩
쓰
쓱
쓲
쓴
쓷
쓸
씀
씁
씃
씄
씅
씆
씇
씈
씉
씊
씋
씌
씨
씩
씪
씬
씯
씰
씷
씸
씹
씻
씼
씽
씾
씿
앀
앁
앂
앃
아
악
앆
안
앉
않
앋
알
앍
앎
앏
앓
암
압
앖
앗
았
앙
앚
앛
앜
앝
앞
앟
애
액
앢
앤
앥
앦
앧
앨
앩
앯
앰
앱
앳
앴
앵
앶
앷
앸
앹
앺
앻
야
약
앾
얀
얁
얂
얃
얄
얆
얇
얌
얍
얎
얏
얐
양
얒
얓
얔
얕
얖
얗
얘
얙
얚
얜
얟
얠
얫
얬
얭
얮
어
억
얶
언
얹
얺
얻
얼
얽
얾
얿
엃
엄
업
없
엇
었
엉
엊
엋
엌
엍
엎
엏
에
엑
엒
엔
엗
엘
엙
엟
엠
엡
엣
엤
엥
엦
엧
엨
엩
엪
엫
여
역
엮
연
엱
엳
열
엶
엷
염
엽
엾
엿
였
영
옂
옃
옄
옅
옆
옇
예
옉
옌
옏
옐
옘
옙
옛
옜
옝
옞
옟
옡
옣
오
옥
옦
온
옫
올
옮
옯
옳
옴
옵
옶
옷
옸
옹
옺
옻
옼
옽
옾
옿
와
왁
완
왅
왇
왈
왐
왑
왓
왔
왕
왖
왗
왘
왙
왚
왛
왜
왝
왠
왣
왤
왬
왭
왯
왰
왱
왲
왳
왴
왷
외
왹
왺
왼
왿
욀
욈
욉
욋
욌
욍
욎
욏
욑
욒
욓
요
욕
욖
욘
욛
욜
욤
욥
욧
욨
용
욪
욫
욬
욭
욮
욯
우
욱
욲
운
욷
울
욺
움
웁
웂
웃
웄
웅
웆
웇
웈
웉
웊
웋
워
웍
원
웓
월
웜
웝
웟
웠
웡
웢
웣
웤
웥
웦
웧
웨
웩
웬
웯
웰
웸
웹
웻
웽
웾
윁
위
윅
윆
윈
윋
윌
윔
윕
윗
윙
윚
윛
윜
윝
윞
윟
유
육
윢
윤
윧
율
윪
윰
윱
윳
융
윶
윷
윸
윹
윺
윻
으
윽
윾
은
읁
읂
읃
을
읅
읇
읊
음
읍
읎
읏
읐
응
읒
읓
읔
읕
읖
읗
의
읙
읜
읟
읠
읨
읩
읫
읭
읮
읯
읰
읲
읳
이
익
읶
인
읹
읺
읻
일
읽
읾
잃
임
입
잇
있
잉
잊
잋
잌
잍
잎
잏
자
작
잒
잔
잖
잗
잘
잙
잚
잛
잠
잡
잣
잤
장
잦
잧
잨
잩
잪
잫
재
잭
잮
잰
잲
잳
잴
잵
잼
잽
잿
쟀
쟁
쟂
쟃
쟄
쟅
쟆
쟇
쟈
쟉
쟊
쟌
쟎
쟏
쟐
쟘
쟙
쟛
쟜
쟝
쟞
쟟
쟠
쟡
쟢
쟣
쟤
쟨
쟴
쟵
쟹
쟼
쟿
저
적
젂
전
젆
젇
절
젊
젋
젏
점
접
젓
젔
정
젖
젗
젘
젙
젚
젛
제
젝
젞
젠
젣
젤
젬
젭
젯
젰
젱
젲
젳
젴
젵
젶
젷
져
젹
젺
젼
젿
졀
졈
졉
졋
졌
졍
졎
졏
졐
졑
졒
졓
졔
졕
졘
졛
졜
졤
졩
졪
졫
졬
졭
조
족
졲
졳
존
졷
졸
좀
좁
좃
좄
종
좆
좇
좈
좉
좊
좋
좌
좔
좝
좟
좠
좡
좢
좣
좨
좻
좼
좽
좾
죄
죅
죆
죈
죋
죌
죔
죕
죗
죙
죚
죛
죟
죠
죡
죢
죤
죧
죨
죰
죱
죳
죴
죵
죷
죸
죹
죺
죻
주
죽
죾
준
줃
줄
줌
줍
줏
줐
중
줒
줓
줔
줕
줖
줗
줘
줙
줚
줜
줟
줠
줨
줩
줫
줬
줭
줮
줯
줰
줱
줳
줴
쥐
쥑
쥔
쥗
쥘
쥠
쥡
쥣
쥥
쥬
쥭
쥮
쥰
쥳
쥴
쥼
쥿
즁
즂
즃
즄
즅
즆
즇
즈
즉
즊
즌
즎
즏
즐
즑
즒
즘
즙
즛
즜
증
즞
즟
즠
즡
즢
즣
즤
지
직
짂
진
짆
짇
질
짊
짐
집
짒
짓
짔
징
짖
짗
짘
짙
짚
짛
짜
짝
짞
짠
짢
짣
짤
짦
짧
짬
짭
짯
짰
짱
짲
짳
짴
짵
짶
짷
째
짹
짺
짼
짿
쨀
쨃
쨈
쨉
쨋
쨌
쨍
쨎
쨐
쨑
쨓
쨔
쨕
쨘
쨚
쨜
쨟
쨤
쨩
쨫
쨰
쨴
쩃
쩄
쩅
쩌
쩍
쩐
쩒
쩓
쩔
쩖
쩗
쩜
쩝
쩟
쩠
쩡
쩢
쩣
쩤
쩥
쩦
쩧
쩨
쩩
쩬
쩯
쩰
쩹
쩽
쩾
쪂
쪄
쪅
쪈
쪋
쪌
쪕
쪗
쪘
쪙
쪟
쪼
쪽
쪾
쫀
쫃
쫄
쫌
쫍
쫏
쫑
쫒
쫓
쫔
쫕
쫖
쫗
쫘
쫙
쫜
쫲
쬐
쬔
쬘
쬠
쬦
쬬
쬴
쭀
쭇
쭈
쭉
쭌
쭐
쭘
쭙
쭛
쭝
쭞
쭡
쭢
쭣
쭤
쭬
쭵
쭸
쭹
쮜
쮸
쮹
쮼
쯀
쯓
쯔
쯕
쯘
쯚
쯜
쯟
쯤
쯧
쯩
쯪
쯬
쯯
찌
찍
찎
찐
찓
찔
찗
찜
찝
찟
찠
찡
찢
찣
찤
찥
찦
찧
차
착
찪
찬
찭
찮
찯
찰
참
찹
찺
찻
찼
창
찾
찿
챀
챁
챂
챃
채
책
챆
챈
챊
챋
챌
챔
챕
챗
챘
챙
챚
챛
챜
챝
챟
챠
챡
챢
챤
챦
챧
챨
챰
챱
챲
챴
챵
챶
챷
챻
챼
챽
챾
첃
첄
첑
첓
처
척
첚
천
첞
첟
철
첨
첩
첪
첫
첬
청
첮
첯
첰
첱
첲
첳
체
첵
첸
첻
첼
첽
쳄
쳅
쳇
쳈
쳉
쳊
쳋
쳌
쳍
쳎
쳏
쳐
쳑
쳔
쳗
쳘
쳠
쳡
쳣
쳤
쳥
쳦
쳨
쳩
쳪
쳫
쳬
쳭
쳰
쳽
쳿
촁
촄
초
촉
촌
촏
촐
촒
촘
촙
촚
촛
촜
총
촞
촟
촠
촡
촣
촤
촥
촨
촬
촵
촷
촸
촹
촺
촻
촼
촽
쵀
쵄
최
쵝
쵞
쵠
쵣
쵤
쵬
쵭
쵯
쵱
쵲
쵳
쵷
쵸
쵹
쵼
쵿
춀
춋
춌
춍
춎
춐
춑
춓
추
축
춖
춘
춛
출
춤
춥
춧
춨
충
춪
춫
춬
춭
춮
춯
춰
춴
춷
춸
췀
췁
췃
췄
췅
췆
췇
췉
췌
췝
췟
취
췩
췬
췯
췰
췸
췹
췻
췽
췾
츀
츂
츃
츄
츅
츆
츈
츋
츌
츔
츕
츗
츙
츚
츝
츞
츟
츠
측
츢
츤
츦
츧
츨
츰
츱
츲
츳
츴
층
츶
츷
츹
츺
츻
츼
칌
칑
칒
칗
치
칙
칚
친
칞
칟
칠
칡
칧
침
칩
칫
칬
칭
칮
칯
칰
칱
칲
칳
카
칵
칶
칸
칺
칻
칼
칽
캄
캅
캇
캈
캉
캊
캋
캌
캍
캎
캏
캐
캑
캒
캔
캖
캗
캘
캠
캡
캣
캤
캥
캦
캧
캨
캩
캪
캫
캬
캭
캮
캰
캲
캳
캴
캼
캽
캿
컀
컁
컂
컄
컅
컆
컈
컌
컐
커
컥
컦
컨
컪
컫
컬
컯
컴
컵
컷
컸
컹
컺
컻
컼
컽
컾
컿
케
켁
켂
켄
켇
켈
켐
켑
켓
켔
켕
켖
켗
켘
켙
켚
켛
켜
켝
켞
켠
켣
켤
켬
켭
켯
켰
켱
켲
켳
켴
켵
켶
켷
켸
켹
켼
콋
코
콕
콖
콗
콘
콛
콜
콤
콥
콧
콨
콩
콪
콫
콬
콭
콮
콯
콰
콱
콸
쾃
쾄
쾅
쾌
쾍
쾝
쾡
쾢
쾧
쾨
쾩
쿃
쿄
쿈
쿌
쿔
쿕
쿗
쿘
쿙
쿚
쿜
쿝
쿞
쿟
쿠
쿡
쿢
쿤
쿧
쿨
쿰
쿱
쿳
쿴
쿵
쿶
쿷
쿸
쿹
쿺
쿻
쿼
쿽
퀀
퀃
퀄
퀍
퀏
퀑
퀓
퀔
퀕
퀖
퀗
퀘
퀠
퀭
퀴
퀵
퀸
퀼
큄
큅
큉
큊
큐
큑
큔
큗
큘
큠
큡
큣
큥
큦
큨
큩
큪
큫
크
큭
큮
큰
큲
큳
클
큵
큼
큽
큿
킀
킁
킂
킃
킄
킅
킆
킇
킛
키
킥
킦
킨
킪
킫
킬
킴
킵
킷
킸
킹
킺
킻
킼
킽
킾
킿
타
탁
탂
탄
탅
탆
탇
탈
탉
탐
탑
탓
탔
탕
탖
탗
탘
탙
탚
탛
태
택
탞
탠
탡
탢
탣
탤
탬
탭
탯
탰
탱
탲
탳
탴
탵
탶
탷
탸
탹
탺
탼
탾
탿
턀
턃
턈
턉
턊
턋
턌
턍
턎
턏
턑
턒
턓
턔
턕
턧
턩
턮
터
턱
턲
턴
턶
턷
털
턻
텀
텁
텂
텃
텄
텅
텆
텇
텈
텉
텊
텋
테
텍
텎
텐
텓
텔
템
텝
텟
텠
텡
텢
텣
텤
텥
텦
텧
텨
텩
텬
텯
텰
텸
텹
텺
텻
텼
텽
텾
텿
톂
톃
톄
톈
톌
톔
톕
톗
톙
토
톡
톢
톤
톧
톨
톪
톰
톱
톲
톳
톴
통
톶
톷
톸
톹
톺
톻
톼
퇀
퇄
퇌
퇏
퇐
퇑
퇒
퇘
퇴
퇵
퇶
퇻
퇼
툄
툅
툇
툉
툊
툋
툏
툐
툑
툔
툘
툥
툩
툫
투
툭
툮
툰
툳
툴
툼
툽
툿
퉀
퉁
퉂
퉃
퉄
퉅
퉆
퉇
퉈
퉌
퉐
퉙
퉛
퉜
퉝
퉤
퉨
퉵
퉽
튀
튁
튂
튄
튇
튈
튓
튕
튛
튜
튝
튠
튤
튬
튭
튯
튱
튲
튳
튷
트
특
튺
튼
튾
튿
틀
틁
틈
틉
틊
틋
틌
틍
틎
틏
틐
틑
틒
틓
틔
틤
틪
티
틱
틲
틴
틷
틸
틹
틿
팀
팁
팃
팄
팅
팆
팇
팈
팉
팊
팋
파
팍
팎
판
팒
팓
팔
팜
팝
팟
팠
팡
팢
팣
팤
팥
팦
팧
패
팩
팬
팯
팰
팸
팹
팻
팼
팽
팾
팿
퍀
퍁
퍂
퍃
퍄
퍅
퍈
퍋
퍌
퍕
퍗
퍘
퍙
퍝
퍞
퍟
퍠
퍳
퍴
퍸
퍼
퍽
퍾
펀
펃
펄
펌
펍
펏
펐
펑
펒
펓
펔
펕
펖
펗
페
펙
펚
펜
펟
펠
펩
펫
펬
펭
펮
펯
펰
펱
펲
펳
펴
펵
편
펺
펻
펼
폄
폅
폇
폈
평
폊
폋
폌
폍
폏
폐
폑
폗
폘
폣
폥
폦
폪
포
폭
폮
폰
폳
폴
폼
폽
폿
퐀
퐁
퐂
퐃
퐄
퐅
퐆
퐇
퐈
퐉
퐌
퐏
퐐
퐛
퐝
퐠
푀
푁
푄
푇
푓
푕
표
푝
푞
푠
푣
푤
푬
푯
푱
푲
푳
푷
푸
푹
푼
푿
풀
품
풉
풋
풌
풍
풎
풏
풐
풒
풓
풔
풘
풜
풧
풩
풰
퓌
퓍
퓟
퓤
퓨
퓩
퓬
퓰
퓸
퓻
퓽
퓾
픀
픁
프
픅
픆
픈
픊
픋
플
픔
픕
픗
픘
픙
픚
픛
픜
픝
픞
픟
픠
피
픽
핀
핃
필
핌
핍
핏
핐
핑
핒
핓
핔
핕
핖
핗
하
학
핚
한
핝
핞
핟
할
핥
함
합
핫
핬
항
핮
핯
핰
핱
핲
핳
해
핵
핶
핸
핻
핼
햄
햅
햇
했
행
햊
햋
햌
햍
햎
햏
햐
햑
햔
햗
햘
햠
햡
햣
햤
향
햦
햧
햨
햩
햫
햬
햭
햰
햳
햽
햿
헀
헁
헂
헃
허
헉
헊
헌
헏
헐
험
헙
헛
헜
헝
헞
헟
헠
헡
헢
헣
헤
헥
헦
헨
헫
헬
헭
헴
헵
헷
헸
헹
헺
헻
헼
헽
헾
헿
혀
혁
현
혇
혈
혐
협
혓
혔
형
혖
혗
혘
혙
혚
혜
혝
혤
혯
혱
혲
혵
호
혹
혺
혼
혿
홀
홅
홈
홉
홋
홌
홍
홎
홏
홐
홑
홒
홓
화
확
홖
환
홛
활
홤
홥
홧
황
홪
홫
홬
홭
홮
홯
회
획
횐
횓
횔
횝
횟
횠
횡
횢
횣
횤
횧
효
횩
횪
횬
횯
횰
횸
횹
횻
횼
횽
횾
횿
훀
훁
훂
후
훅
훈
훋
훌
훑
훔
훕
훗
훙
훚
훛
훜
훝
훟
훠
훡
훤
훨
훳
훵
훷
훹
훺
훻
훼
휄
휏
휑
휘
휙
휜
휟
휠
휩
휭
휮
휯
휳
휴
휵
휸
휻
휼
흄
흇
흉
흊
흌
흍
흎
흏
흐
흑
흔
흗
흘
흙
흝
흠
흡
흣
흤
흥
흦
흧
흨
흩
흪
흫
희
흭
흰
흳
흴
흼
흽
흿
힁
힂
힄
힅
힇
히
힉
힊
힌
힏
힐
힗
힘
힙
힛
힜
힝
힞
힟
힠
힡
힢
힣
？
##날
##항
##딱
##개
##만
##월
##에
##어
##봐
##야
##료
##잘
##고
##울
##옷
##들
##을
##니
##신
##습
##내
##자
##게
##전
##하
##지
##도
##두
##껄
##더
##리
##뤘
##잖
##아
##서
##간
##거
##우
##체
##라
##는
##깐
##프
##레
##드
##를
##담
##이
##은
##늘
##피
##기
##심
##때
##문
##치
##크
##열
##랑
##양
##한
##었
##ㅈ
##망
##해
##떼
##겠
##저
##시
##급
##져
##둬
##스
##켓
##엌
##까
##말
##식
##천
##재
##폰
##오
##인
##있
##락
##느
##짓
##ㅋ
##셨
##다
##덜
##마
##겼
##디
##로
##든
##닐
##면
##으
##족
##테
##ㄹ
##듯
##보
##물
##가
##사
##병
##러
##며
##구
##ㅣ
##긴
##ㅎ
##엉
##키
##나
##설
##랍
##국
##매
##닝
##끄
##럽
##수
##첟
##ㅅ
##ㅍ
##혈
##압
##과
##경
##렐
##ㄱ
##쿠
##퓽
##ㄷ
##4
##진
##영
##할
##긷
##향
##팀
##험
##딩
##촬
##같
##슬
##베
##ㅔ
##버
##잠
##연
##ㅇ
##ㅛ
##찌
##미
##늩
##ㄸ
##차
##읃
##꺼
##코
##민
##호
##악
##티
##득
##억
##용
##객
##녁
##약
##속
##햐
##얏
##햇
##ㄴ
##원
##8
##0
##래
##렇
##ㅓ
##근
##났
##플
##넝
##졌
##퓨
##좀
##생
##음
##붕
##운
##예
##요
##대
##잡
##숍
##활
##불
##안
##머
##냐
##데
##글
##복
##람
##르
##닌
##길
##노
##세
##권
##여
##준
##였
##율
##겨
##익
##졉
##루
##단
##즈
##퀸
##공
##던
##꾸
##땡
##의
##돌
##처
##럼
##릇
##씈
##려
##네
##갂
##핮
##배
##겁
##릴
##륙
##몄
##닪
##밖
##멍
##투
##목
##중
##엔
##텐
##ㅠ
##랐
##걸
##ㅉ
##결
##주
##놓
##편
##감
##교
##바
##젝
##댜
##킺
##발
##회
##깍
##했
##ㅆ
##럭
##본
##먹
##쿨
##링
##독
##츠
##정
##ㅏ
##잍
##동
##률
##엤
##싶
##P
##앻
##줬
##3
##절
##받
##각
##장
##부
##학
##카
##ㅜ
##골
##타
##비
##터
##째
##관
##산
##ㅊ
##술
##ㅐ
##명
##ㅗ
##일
##반
##건
##강
##닛
##적
##싸
##2
##년
##맛
##혼
##봤
##상
##았
##눈
##군
##판
##초
##맘
##쁜
##긐
##뜻
##련
##선
##파
##업
##뜨
##렸
##금
##위
##덧
##너
##깨
##긱
##삭
##넜
##친
##클
##밥
##입
##칬
##작
##된
##뎅
##탕
##셔
##른
##켜
##ㅘ
##팅
##포
##황
##맣
##페
##앗
##소
##낙
##잔
##론
##뇽
##성
##ㅁ
##핟
##무
##찹
##랴
##A
##T
##O
##임
##끈
##셩
##힜
##끔
##태
##껏
##혔
##팩
##출
##됐
##렛
##샤
##붛
##청
##릭
##톤
##좈
##룽
##알
##못
##웅
##씨
##옌
##책
##넌
##곻
##송
##염
##뎌
##둘
##힌
##등
##픔
##좃
##냈
##홈
##냠
##화
##돈
##셎
##혀
##셌
##샡
##덕
##핼
##록
##쁘
##되
##헌
##분
##읒
##7
##릳
##핯
##앙
##례
##허
##덯
##쓰
##줄
##집
##윋
##트
##곤
##견
##순
##덩
##쪽
##격
##쵸
##방
##창
##낭
##센
##력
##1
##폐
##렁
##번
##령
##픽
##줘
##힐
##것
##남
##뽁
##욕
##조
##뤄
##당
##랏
##렺
##딸
##랗
##삼
##쪼
##형
##희
##끼
##검
##육
##ㄲ
##겟
##덫
##k
##m
##짐
##밤
##그
##럿
##댕
##컬
##점
##질
##맂
##런
##계
##워
##석
##증
##택
##올
##떙
##평
##쟁
##썻
##제
##꽆
##죠
##숨
##린
##함
##승
##몬
##볼
##찮
##읏
##낸
##녀
##즐
##6
##살
##빴
##히
##핫
##누
##랬
##벽
##법
##뭐
##철
##싲
##녹
##행
##림
##실
##쟈
##외
##토
##킹
##먼
##징
##f
##9
##햏
##란
##종
##낫
##킸
##곡
##왔
##통
##죽
##름
##줌
##룐
##앖
##움
##킷
##없
##달
##언
##즌
##줩
##묵
##털
##뽑
##칠
##랙
##봊
##샅
##특
##곅
##와
##섯
##셍
##눔
##팟
##밌
##렜
##므
##숭
##쳐
##ㅌ
##룩
##겅
##응
##쯔
##잉
##껒
##멩
##봉
##쨋
##벤
##줭
##짜
##핑
##갸
##흥
##엄
##걱
##애
##깊
##따
##넼
##슷
##틴
##됩
##귀
##윤
##램
##ㅃ
##굽
##온
##김
##킬
##박
##5
##옝
##써
##섭
##궁
##브
##모
##컨
##팡
##휴
##샛
##값
##퍼
##햍
##직
##블
##퀴
##깅
##갹
##ㅂ
##촌
##헞
##럳
##커
##ㅕ
##볶
##첩
##잊
##맜
##백
##케
##량
##갔
##님
##께
##닷
##쉬
##웠
##뇨
##묘
##옥
##탈
##긎
##훟
##류
##롱
##쟄
##슈
##답
##넬
##콩
##켄
##층
##얒
##ㅑ
##븐
##품
##뽜
##암
##릉
##빛
##널
##퐈
##짖
##짔
##뎄
##팔
##슨
##쁙
##갱
##얃
##많
##륵
##쩝
##곧
##G
##V
##믹
##캑
##척
##뚝
##씩
##욷
##꼉
##녘
##춤
##ㄶ
##넹
##럊
##유
##극
##걋
##큐
##옴
##곘
##곰
##표
##곳
##ㅡ
##벙
##혓
##슴
##패
##빙
##좌
##능
##둔
##겍
##읶
##X
##탄
##엥
##착
##범
##젓
##뜯
##C
##깄
##몽
##찡
##읍
##쳥
##뚜
##깡
##밴
##랼
##웃
##궈
##앝
##될
##I
##펐
##꿔
##맞
##꽃
##엍
##놔
##쏜
##궅
##색
##둣
##션
##U
##흫
##템
##끙
##현
##갗
##겡
##합
##환
##멸
##삥
##눴
##쓸
##읻
##변
##혜
##룰
##낞
##짬
##뽕
##맨
##닊
##역
##N
##S
##샘
##갓
##놨
##빘
##풏
##꼐
##ㅚ
##홉
##앵
##틀
##앳
##렂
##뎡
##헤
##삐
##렉
##싣
##튜
##폌
##젖
##막
##돟
##죄
##밨
##첬
##켠
##꼬
##뻐
##짘
##싱
##킨
##컺
##롭
##p
##푸
##욤
##잋
##빗
##딕
##밚
##납
##닥
##침
##댖
##엽
##딘
##츄
##콘
##메
##곱
##엇
##광
##쭝
##웈
##킁
##풎
##델
##찬
##갈
##젆
##볍
##추
##넘
##빅
##싴
##춴
##끝
##난
##랩
##새
##또
##읽
##냥
##쑤
##웟
##탆
##썬
##럴
##듷
##몰
##굴
##필
##섬
##댄
##픈
##먄
##젭
##쭉
##칸
##쌀
##잇
##별
##낌
##균
##빠
##쩔
##낍
##랖
##o
##s
##앨
##샀
##맵
##북
##멀
##몇
##c
##않
##뙈
##콤
##쾌
##졷
##끗
##짱
##팎
##츨
##잣
##칼
##읳
##젇
##뽀
##빵
##쨌
##덥
##렴
##d
##a
##y
##t
##끊
##읙
##흦
##얐
##늗
##깜
##벌
##r
##뮬
##뿔
##솥
##햌
##헙
##닏
##탸
##흔
##액
##틱
##롴
##립
##컴
##뺴
##깆
##캉
##샹
##햊
##냦
##짝
##핐
##랜
##띠
##뿓
##캐
##옸
##둠
##삘
##넛
##앧
##껴
##쯤
##귄
##쟀
##렵
##뀌
##엠
##낰
##룸
##셈
##꼈
##빔
##낱
##햬
##뿐
##앚
##효
##뎃
##끜
##앁
##궜
##궝
##괄
##땐
##빽
##축
##륜
##팃
##삿
##쿳
##둥
##채
##돤
##웂
##렷
##랄
##찍
##붙
##뎆
##혁
##덤
##룡
##팠
##갑
##닼
##앟
##갇
##햅
##탑
##후
##얔
##쥬
##풍
##놏
##횤
##옹
##농
##랟
##닉
##돼
##옇
##갛
##톡
##잎
##닫
##쇼
##헏
##엣
##쨍
##왕
##훈
##얼
##ㅢ
##참
##됭
##둪
##딪
##눌
##M
##뻔
##흐
##듬
##떡
##핰
##갖
##팈
##빟
##닾
##벅
##겄
##떨
##릅
##됫
##념
##욱
##릿
##윳
##룠
##낼
##틍
##뻡
##i
##숙
##뎐
##쳘
##짇
##켰
##밭
##쥳
##삳
##쌤
##쓴
##벼
##늤
##규
##츤
##뙴
##딨
##뻣
##늨
##촐
##쳣
##몈
##겸
##텬
##탔
##얗
##욨
##쨩
##긋
##찰
##냑
##셜
##덛
##갘
##듭
##얘
##눵
##숳
##쏠
##좋
##깝
##꿧
##맇
##픅
##릋
##쳤
##잳
##빨
##젠
##됮
##믄
##젬
##꼇
##샏
##캬
##젼
##똥
##앾
##렫
##넨
##듀
##e
##l
##x
##엊
##앞
##끓
##충
##쿤
##덷
##냡
##낻
##닞
##딛
##샜
##껃
##컾
##논
##캦
##잤
##햋
##슝
##늬
##펌
##톱
##땝
##걷
##벋
##휘
##튼
##줃
##똑
##엏
##햗
##퇴
##콜
##샵
##옵
##댐
##ㄻ
##춧
##총
##듶
##흡
##칫
##땅
##확
##랃
##슫
##칙
##랫
##곂
##둉
##휼
##뻑
##뷔
##냅
##펜
##씯
##낄
##멘
##낚
##냔
##앱
##듣
##찐
##녕
##롣
##됴
##꿉
##탁
##갰
##춘
##겧
##펔
##줔
##뻥
##탓
##룾
##켈
##괘
##숲
##뉴
##엑
##렌
##ㅝ
##욍
##얀
##접
##욜
##뀔
##딧
##챦
##n
##u
##댓
##젱
##뱄
##툰
##헁
##밍
##왓
##봩
##닸
##듳
##줏
##톨
##탬
##잩
##쌍
##밑
##취
##쟇
##짴
##껑
##봌
##붐
##굼
##딜
##섿
##벚
##꼴
##깃
##읗
##꾼
##잼
##킥
##떠
##톶
##셧
##틈
##덦
##겐
##긲
##괒
##퇐
##핱
##폭
##튀
##솟
##눜
##촸
##셀
##팄
##힘
##괴
##왹
##텔
##딬
##흙
##얄
##랭
##큥
##띧
##콯
##즉
##텄
##눙
##뱀
##랒
##뚱
##깢
##렅
##눅
##섶
##퐁
##랂
##폴
##밀
##쎙
##낒
##칭
##앤
##큼
##멜
##팝
##셋
##웨
##뱅
##끌
##윽
##좉
##렀
##룟
##턀
##겎
##뫄
##쏘
##췄
##녿
##뿌
##손
##펴
##섳
##깔
##핀
##찻
##툼
##놈
##ㅙ
##죴
##톢
##볻
##듲
##솔
##엋
##숫
##깉
##튁
##졀
##꼰
##흘
##깥
##뵥
##찝
##쌏
##셐
##닠
##쇽
##됬
##얙
##돚
##ㅟ
##핬
##잌
##컥
##돠
##넥
##귙
##십
##벨
##춯
##봄
##닽
##겢
##뎀
##옂
##웜
##샥
##앋
##웄
##팉
##쁠
##챃
##굳
##갵
##껀
##획
##봥
##v
##챠
##팬
##넉
##밫
##낳
##덴
##룔
##턱
##뜰
##읔
##팽
##슾
##뒀
##뼈
##첼
##넟
##앉
##햑
##헠
##큰
##뎠
##햧
##끽
##뭇
##엿
##챙
##턴
##뢍
##뭉
##겔
##힉
##큣
##믂
##빧
##뱌
##륨
##g
##텋
##쩩
##뎜
##줴
##궂
##뮤
##춰
##츱
##쩡
##샷
##뀾
##녔
##펙
##긓
##닮
##곽
##겆
##씬
##칟
##펠
##겇
##K
##섣
##뉘
##헥
##릌
##톻
##껬
##쪕
##픙
##잧
##깈
##렿
##웆
##귑
##룬
##랸
##빡
##뭏
##궄
##앴
##략
##떧
##땁
##튤
##귴
##졍
##팁
##빼
##낑
##뭔
##춍
##댇
##붖
##겹
##닺
##h
##냉
##돋
##읐
##꿬
##얍
##륭
##쟝
##됙
##팒
##냊
##긁
##샌
##봘
##뤀
##겜
##썼
##멋
##땜
##깋
##늦
##솄
##땀
##뵤
##녱
##웋
##롯
##뷰
##텅
##읕
##젤
##찾
##쎔
##듵
##옫
##둑
##봎
##졸
##쁩
##존
##귱
##슐
##쩌
##귤
##샂
##쉽
##넙
##걎
##겯
##쟛
##젹
##좁
##쎄
##덮
##짢
##덚
##젿
##햄
##텟
##넷
##귈
##삾
##곸
##짆
##잭
##젗
##쏟
##샙
##슥
##펑
##굑
##D
##챵
##첫
##줙
##돛
##쿺
##쩨
##맹
##팍
##늑
##흪
##딴
##츰
##턍
##떤
##텝
##걉
##켱
##샐
##즢
##괜
##눚
##덪
##틋
##볈
##첞
##벊
##곺
##싫
##쪄
##됨
##뢰
##홀
##웓
##빌
##j
##쿼
##렘
##뮨
##홛
##볓
##즙
##엡
##믿
##퉙
##늣
##뀐
##펭
##굮
##닻
##쥭
##캄
##b
##풐
##찔
##겓
##벳
##붇
##밉
##걌
##릊
##괃
##롤
##곹
##쇠
##닙
##헜
##낀
##톄
##J
##E
##챕
##뢌
##늠
##댝
##끅
##댔
##좠
##컷
##L
##숕
##쾅
##썩
##섷
##뇄
##쟌
##댛
##깁
##릈
##뀢
##젘
##샇
##땔
##빈
##꿀
##핏
##윙
##럅
##졲
##닜
##뱍
##엘
##겾
##겋
##눗
##뽄
##흑
##렼
##캍
##냋
##튿
##쳈
##뤼
##닭
##떻
##죅
##뎍
##띾
##괸
##씸
##럔
##봏
##탣
##팜
##킫
##썹
##욮
##댁
##졋
##빚
##긍
##샠
##핚
##틉
##눋
##즎
##탹
##훌
##풀
##흠
##댈
##첨
##랔
##겉
##쏙
##톙
##텨
##롷
##곷
##뭋
##캔
##싼
##툭
##칱
##뙻
##넞
##옛
##넠
##놀
##뵌
##쩰
##앶
##홧
##뒤
##흩
##폍
##콛
##뤗
##귝
##녑
##줫
##틐
##탐
##씰
##딷
##엗
##완
##혐
##봣
##뎨
##숯
##셓
##멤
##협
##쟎
##욛
##싵
##즘
##쇄
##릎
##밧
##씻
##짂
##듦
##펀
##웡
##냇
##칵
##봡
##갯
##맥
##엳
##숑
##쁟
##꿩
##슽
##렙
##콕
##쫑
##욬
##풋
##룹
##뱋
##뇌
##믆
##B
##먺
##샾
##뎝
##꼽
##쌑
##낮
##왜
##솜
##꾿
##폋
##덨
##턓
##뚷
##뷷
##셒
##헛
##찢
##뤃
##셉
##섹
##삯
##챘
##퉌
##엫
##돗
##짠
##맫
##넣
##믕
##팾
##핻
##픋
##멬
##탘
##핸
##믓
##롞
##틸
##릏
##쫌
##렞
##끚
##짧
##폼
##잰
##녇
##샟
##곈
##옅
##꼼
##롰
##옿
##썰
##찜
##쿧
##촉
##캠
##짤
##엧
##뚯
##펄
##괭
##듁
##밎
##뎔
##융
##걑
##쟐
##닿
##굥
##콰
##눤
##갣
##듕
##넻
##맺
##큘
##욘
##잏
##륽
##뛰
##뚲
##폇
##펃
##힞
##륮
##맄
##낃
##몉
##갠
##헷
##꿨
##킦
##땠
##ㅄ
##짙
##밷
##핳
##팥
##헀
##봇
##뺒
##졔
##짛
##쫀
##잫
##냬
##섰
##쟂
##삽
##힣
##닦
##앍
##푠
##걀
##똘
##햡
##칩
##퍙
##웰
##좆
##봅
##ˋ
##ˏ
##곙
##햣
##퉁
##욎
##맅
##큦
##꿈
##퍄
##뚤
##켝
##콮
##찧
##눠
##꽁
##햔
##횐
##돆
##륻
##헸
##젣
##녓
##앜
##꼊
##슘
##꺄
##뮹
##벧
##쌩
##핗
##뾰
##멯
##깤
##댤
##쥐
##쪘
##옮
##밋
##횬
##녜
##촞
##퍽
##씀
##웢
##쿄
##웤
##얭
##켐
##혙
##밪
##췅
##측
##딯
##덬
##댠
##댑
##톷
##뇜
##쏴
##슁
##큳
##잙
##겻
##쌰
##렦
##펗
##챂
##쥴
##걈
##쭐
##왰
##쳡
##횡
##씽
##듄
##돜
##몃
##뵨
##첲
##켣
##숴
##칳
##멱
##븓
##즁
##둰
##딤
##쫄
##삮
##줟
##댸
##썽
##쓱
##옆
##최
##읖
##뚵
##롬
##텁
##멪
##촜
##푼
##롓
##솧
##쓉
##싯
##왈
##홐
##낵
##샨
##밸
##뭄
##텽
##뫠
##랮
##콧
##랠
##잨
##윛
##젙
##숱
##멧
##멒
##빜
##푹
##꽂
##홍
##켲
##쎌
##륬
##몸
##쎅
##쿵
##갿
##벗
##앰
##쩍
##헐
##묙
##솓
##븍
##챋
##몫
##츼
##쪙
##읫
##핵
##캣
##곋
##낟
##쑥
##먀
##헨
##뎦
##떄
##Z
##먕
##곗
##숟
##줗
##햠
##웁
##셕
##젛
##F
##슻
##욯
##넴
##갭
##쌈
##텆
##텼
##툴
##젶
##갚
##댴
##웉
##됏
##귿
##돔
##죈
##럏
##찼
##훋
##튭
##떵
##덭
##ㅀ
##벵
##콗
##넦
##삻
##턷
##헉
##뒷
##슺
##캇
##챡
##뎈
##춪
##튠
##쯧
##캈
##냄
##퍟
##먈
##맡
##펱
##텍
##찟
##칰
##뜩
##꺈
##젵
##챻
##춛
##덱
##롔
##캋
##팼
##맊
##팢
##먁
##쁭
##갅
##첻
##옺
##굿
##꿎
##쟹
##릐
##흰
##췌
##몯
##툥
##믈
##픚
##숰
##샃
##꾜
##욫
##쟣
##맿
##괗
##힢
##롸
##잲
##줓
##낗
##헬
##껨
##싷
##꼿
##빶
##w
##윈
##얌
##뭌
##샞
##얎
##붗
##ㅖ
##켴
##즡
##얻
##넽
##킆
##싿
##놭
##섁
##킄
##씌
##먿
##탤
##쑺
##꽝
##칮
##멈
##튬
##늉
##럈
##뉵
##줒
##잗
##맙
##뷸
##텡
##렬
##R
##읓
##홖
##땍
##묻
##씆
##흗
##풉
##붓
##깠
##띤
##낏
##쌔
##읠
##웝
##줕
##냖
##뱃
##펻
##꺠
##힏
##땢
##굘
##쨚
##숩
##걐
##잒
##팆
##퉈
##Q
##맏
##렻
##핕
##룢
##혿
##덟
##얜
##섴
##죻
##늧
##챀
##냌
##곃
##볏
##칺
##댘
##굔
##픗
##궇
##맀
##옼
##헣
##젯
##듑
##놩
##쌕
##맟
##첯
##겈
##뱡
##깯
##녗
##롼
##쭈
##똫
##춨
##슼
##탱
##땧
##겪
##둫
##셥
##윅
##춥
##잴
##댰
##탖
##돕
##팣
##둡
##펖
##냤
##롹
##썸
##줐
##럄
##캰
##휙
##맬
##릥
##쨈
##룓
##햘
##봈
##툉
##듞
##홪
##켳
##쑨
##뚠
##쳄
##텩
##갼
##쩜
##첱
##켕
##햤
##롲
##췁
##횓
##꼭
##큩
##깟
##쳔
##빕
##큡
##앛
##ᄒ
##뵺
##옽
##옄
##끕
##눶
##슿
##엮
##핔
##녖
##쭙
##욧
##낶
##쳇
##쎴
##깽
##쩅
##콥
##킇
##엨
##챽
##숃
##끛
##밮
##줍
##츈
##렊
##헃
##렽
##틔
##컹
##츦
##땉
##껜
##혹
##갷
##꺁
##탞
##슦
##쿕
##켔
##슢
##볖
##냨
##틷
##묜
##햦
##꽉
##굗
##꿐
##녈
##붑
##씉
##킼
##뵹
##윌
##똣
##눳
##콋
##콖
##쌘
##켤
##겝
##팻
##럾
##샆
##셛
##릮
##븜
##랕
##횩
##렄
##팓
##봍
##쭤
##맃
##뺑
##퉅
##볐
##냗
##윻
##딖
##웹
##깧
##넚
##갬
##늙
##긑
##죵
##윾
##샢
##홤
##졓
##틒
##컀
##벜
##댱
##픁
##횢
##퉀
##긌
##텥
##듴
##롁
##띵
##컵
##벆
##붜
##폮
##럐
##즛
##삑
##텓
##눧
##흉
##싹
##곚
##엎
##렝
##뻘
##솝
##둦
##껍
##짣
##섲
##엦
##팰
##둩
##퐅
##둨
##챱
##땎
##훔
##듈
##홫
##젷
##텰
##쾧
##뺀
##룝
##틎
##탠
##탗
##윗
##뱔
##쒹
##캅
##췯
##늄
##톹
##돵
##슠
##굫
##곴
##팸
##낲
##즏
##챧
##쁨
##핃
##젴
##횔
##캗
##넫
##횝
##ᄏ
##냣
##높
##쯬
##깬
##벴
##콭
##샄
##봋
##쩣
##븡
##됶
##뙺
##븝
##쟅
##긔
##텯
##킅
##륩
##럌
##죡
##뺌
##펏
##퐉
##넏
##걍
##뜽
##쿱
##뎉
##봦
##껌
##혇
##뵈
##쁳
##싳
##텀
##샺
##컸
##홥
##겂
##떽
##꾵
##죔
##훚
##폅
##캊
##즄
##쳑
##픞
##굣
##훼
##캎
##츧
##쌌
##궏
##잦
##퀘
##칽
##팋
##푤
##윱
##믐
##껭
##뭡
##밯
##핒
##샸
##앆
##뎋
##쟉
##씹
##q
##꿋
##챚
##쳿
##횧
##볜
##툽
##껼
##츙
##뿍
##깇
##칑
##솽
##쟙
##힝
##쐬
##퉛
##욀
##챶
##숮
##꾹
##챌
##볕
##쩟
##혘
##홌
##굶
##탯
##넸
##쇧
##촙
##젲
##홎
##룻
##럮
##뿥
##뱁
##옞
##딫
##좇
##봑
##퓬
##넵
##뭍
##흳
##칲
##붱
##싞
##겤
##쳏
##킂
##헹
##힙
##꺽
##밒
##쪗
##먗
##땄
##숐
##갤
##렢
##톧
##챢
##맸
##멨
##챊
##럻
##랓
##쟤
##슛
##눕
##찯
##뗘
##푀
##뱟
##넺
##껵
##넡
##뙨
##짗
##츃
##벡
##묶
##빋
##컈
##뙤
##냏
##쌱
##잿
##핍
##깓
##냫
##휠
##툏
##멉
##듸
##댣
##뽈
##씅
##놋
##챔
##Y
##첮
##좄
##껕
##럤
##솬
##틓
##껻
##챨
##쭘
##텢
##톰
##붘
##큿
##껙
##둗
##뫗
##셭
##뻤
##떶
##쟞
##툳
##횟
##훙
##욓
##ㅒ
##쑈
##칞
##뜬
##첸
##퇵
##댷
##늡
##됰
##헟
##솨
##뒬
##멎
##쯕
##뉸
##눡
##봬
##궤
##푝
##꽈
##큽
##뺘
##눝
##댂
##쨕
##뎓
##렆
##륟
##짹
##솯
##켙
##땤
##솢
##웥
##곶
##턏
##뙜
##탳
##퉜
##덲
##샼
##룧
##컼
##츶
##샬
##쉐
##톼
##훨
##됑
##떢
##젂
##픆
##딥
##귺
##렠
##갲
##봒
##웦
##촤
##핲
##쌓
##솣
##밐
##켗
##땈
##킵
##귷
##홋
##첰
##뫘
##봨
##쉘
##궃
##윟
##뎧
##벶
##ㄺ
##킴
##홓
##롄
##렃
##왁
##쳉
##쌉
##푱
##틲
##룍
##랻
##솎
##왼
##븃
##씁
##쳠
##줠
##짼
##첚
##픕
##춬
##몀
##닢
##좔
##웊
##뇔
##뱢
##똗
##젞
##힠
##춸
##딮
##뷴
##댲
##쟏
##쭌
##킽
##쿜
##뭤
##슸
##쌋
##냎
##둒
##뺏
##뱉
##뵙
##쌎
##퀄
##볒
##빱
##륀
##챈
##쿶
##벟
##섮
##퐄
##셰
##릍
##곀
##췰
##렣
##욉
##퇼
##뜾
##뿢
##돝
##캭
##쌜
##뭊
##뗠
##떹
##껓
##즟
##괓
##켚
##흣
##욲
##틏
##큊
##쨔
##믾
##힛
##댹
##웽
##쥰
##톈
##낯
##뀓
##뼏
##쉰
##츷
##쩐
##홯
##궛
##뤕
##놉
##똔
##늍
##캡
##멓
##닟
##옉
##긒
##펵
##럣
##셏
##뎢
##쿡
##떴
##퍃
##톃
##뻠
##믺
##읮
##뼛
##닣
##쩦
##㎞
##쎵
##첳
##늫
##룎
##햫
##뵬
##띄
##뿜
##갮
##롵
##뮫
##뫙
##탂
##켯
##읟
##돘
##됟
##땓
##퓌
##춀
##꿇
##얹
##큑
##웇
##섞
##ㄼ
##땃
##솊
##떺
##곟
##쨰
##읎
##옦
##툐
##잚
##겣
##컁
##뤈
##촘
##뽸
##웧
##놰
##혯
##슏
##큄
##픟
##뻗
##곆
##넓
##쭸
##꺵
##쫓
##썡
##촨
##깎
##졎
##펮
##왙
##윺
##졐
##킾
##켇
##훛
##륫
##뼘
##뉜
##뚫
##첵
##좼
##윰
##븆
##됵
##탚
##졛
##얖
##볔
##턲
##챤
##탿
##쉳
##솩
##쩢
##윧
##쁮
##펒
##욥
##죢
##긏
##꿍
##튯
##쑬
##냭
##혖
##맆
##섀
##왘
##잽
##낔
##윝
##뽰
##앢
##죙
##깣
##큔
##춐
##춌
##턋
##쿻
##뻫
##믖
##옻
##댗
##픝
##뤁
##즣
##엾
##챗
##맷
##껸
##쏭
##솅
##걓
##푣
##뼝
##댚
##룇
##붚
##푞
##탙
##튷
##렡
##릔
##븥
##톔
##챁
##깦
##퀠
##퉄
##탭
##곁
##홬
##죸
##폈
##몆
##뗲
##봗
##H
##헊
##킛
##떃
##햰
##얶
##틑
##힊
##텸
##끆
##퐂
##멷
##쳦
##껔
##쎀
##괼
##췃
##퐃
##뀝
##벾
##싰
##헝
##탾
##얇
##둿
##슉
##덑
##뷱
##뱆
##풓
##짲
##톳
##떳
##얮
##핶
##짞
##겿
##밈
##쉴
##맴
##얕
##솠
##맠
##깹
##뭣
##쁍
##놌
##쳗
##쎧
##먠
##탰
##숏
##뗴
##휸
##럇
##뗐
##녙
##탛
##퍗
##푿
##힇
##붰
##툮
##쨜
##솦
##뿁
##칻
##떷
##찪
##핌
##랰
##롛
##엒
##굤
##W
##쏬
##푲
##튄
##뼐
##샴
##띰
##줖
##튂
##펬
##쟜
##쓷
##쓔
##찎
##췹
##읜
##눟
##죟
##쳬
##럗
##뭈
##뺄
##쾄
##빤
##텃
##퍠
##캤
##듐
##빆
##왖
##굩
##룜
##셴
##뼌
##몿
##넂
##뽇
##옡
##몪
##튺
##폊
##즞
##햭
##혤
##턕
##쌥
##욏
##쁫
##썄
##뒹
##붂
##맑
##졑
##픛
##콪
##밟
##빞
##픜
##즠
##읭
##젔
##쭹
##셤
##뱊
##껐
##앃
##볌
##턎
##꺕
##폳
##슌
##좊
##뢒
##뇰
##봔
##웍
##떈
##꼤
##뎁
##퍋
##쥘
##꽌
##큮
##쭛
##귕
##믁
##뜸
##짚
##갞
##헫
##랱
##늅
##옣
##죤
##뱓
##먾
##껫
##펕
##컫
##죾
##펺
##궣
##퍌
##왇
##깰
##걲
##욖
##퉤
##졕
##좡
##쉇
##펚
##윚
##쑫
##뀥
##쉼
##걔
##묭
##쌴
##땰
##꺅
##펫
##뽐
##갳
##둏
##뿤
##퐛
##궀
##퇒
##꾰
##뱐
##돴
##츌
##캴
##쉉
##튱
##짰
##㎡
##햩
##킿
##밬
##ㄵ
##퍈
##뷮
##켬
##쨀
##핓
##췩
##쩹
##윷
##찿
##겦
##뒁
##훅
##쯪
##뙥
##뉙
##궞
##늒
##얓
##왛
##옃
##뚣
##욪
##펍
##쎘
##텉
##퓸
##욭
##괬
##셪
##샊
##룼
##뱇
##뎼
##셸
##둴
##뭎
##뫃
##롿
##뉼
##훕
##짭
##탷
##쳊
##숬
##뜌
##앀
##캫
##힡
##빸
##텻
##놎
##땬
##챼
##퍅
##썇
##짯
##뱤
##쁱
##쵷
##뎊
##켂
##쳨
##늎
##탇
##렏
##뢀
##볃
##땆
##빢
##퍕
##댥
##뀡
##폄
##핞
##옐
##퍘
##숄
##쎈
##몌
##먆
##왑
##썃
##궐
##츻
##옜
##굦
##쓩
##텤
##턔
##괌
##눰
##큗
##썯
##삔
##뎟
##땋
##멮
##귬
##봫
##캥
##귇
##쑹
##졩
##츅
##멑
##끞
##곞
##푷
##뀤
##늏
##곯
##ᅟ
##댞
##콸
##띂
##꿘
##갴
##젚
##곌
##쥗
##큭
##냘
##쿘
##껰
##씊
##텹
##왯
##뀨
##뗀
##쥿
##벻
##섺
##뀰
##쁑
##쵼
##섵
##궡
##퉃
##뱎
##떟
##셑
##섕
##껠
##혺
##싀
##팹
##븧
##걧
##헡
##텂
##뱈
##띡
##륍
##췇
##퐝
##닡
##뺐
##됔
##뭘
##즤
##팯
##윸
##뙬
##쟠
##럥
##넾
##삶
##뜿
##줰
##깞
##앓
##븟
##퉝
##켁
##롇
##칚
##펰
##겊
##렟
##젳
##잪
##캘
##컌
##셫
##뫂
##뺭
##꿪
##뗳
##쫙
##펟
##읲
##꼅
##̆
##̈
##귁
##옙
##쿰
##꿕
##눱
##녤
##헴
##쭬
##븣
##둤
##놯
##쇈
##쏫
##퐌
##푳
##뇸
##룿
##좟
##륳
##췆
##븄
##뿡
##룯
##뚀
##윶
##덍
##땟
##랳
##뽔
##믙
##샫
##뇩
##촏
##슣
##륑
##z
##뫁
##숀
##뇍
##늪
##믘
##뤚
##홮
##팇
##댬
##퐐
##죷
##퉇
##륶
##맼
##뮾
##귲
##둳
##뭅
##쇙
##씪
##윢
##폿
##챆
##븋
##햨
##헢
##듰
##밲
##뗌
##뿣
##좻
##뢱
##촁
##졈
##킃
##랯
##듥
##됕
##켷
##돳
##훠
##쪅
##괐
##칯
##랲
##떜
##샿
##냩
##씾
##븅
##틪
##춫
##녂
##볘
##톌
##낓
##흴
##띳
##츴
##퀏
##앸
##깩
##몼
##떰
##롳
##쭣
##텦
##깾
##뤠
##뀍
##뵐
##팤
##쟆
##벹
##볗
##껩
##슂
##몹
##닇
##큅
##벝
##쩓
##꿓
##탼
##뽂
##됼
##깼
##뇟
##맦
##쯜
##쇁
##욋
##큠
##븉
##끋
##켖
##윁
##뙛
##뚶
##귘
##놧
##벱
##챴
##°
##긪
##퍾
##췀
##뚕
##괔
##핖
##졪
##귶
##엩
##챝
##빳
##꼨
##폥
##쑷
##쌐
##쨉
##봧
##켭
##댙
##덓
##쌪
##텾
##찓
##냍
##쬬
##띃
##텇
##뿅
##쨐
##귯
##홑
##둧
##윹
##놕
##랚
##줯
##겥
##ㅞ
##먐
##롶
##쥥
##깸
##쀼
##캪
##귛
##넊
##앂
##갶
##뫼
##냒
##벞
##괵
##퍝
##죚
##턌
##륕
##덀
##뇬
##괏
##흤
##뎽
##꺘
##쉈
##톴
##흧
##쟘
##옶
##춓
##빰
##뎰
##쎠
##쯘
##딐
##땣
##폣
##됸
##뀬
##맽
##틌
##캌
##딲
##뗑
##쩾
##횼
##땨
##씃
##흿
##뗄
##멖
##졘
##굧
##톸
##녣
##묠
##걜
##풩
##꾲
##뤂
##왚
##쌸
##폪
##쏩
##뭗
##쌒
##휩
##럲
##뎇
##쏑
##쏨
##윕
##벛
##흏
##쉮
##뿟
##졭
##큫
##쩤
##혗
##즇
##눨
##굨
##슇
##뿠
##긿
##켘
##몾
##즂
##슞
##읹
##죋
##샣
##읩
##괕
##뱨
##띴
##웯
##룅
##툔
##멫
##쮸
##뉭
##앹
##캽
##쿸
##핥
##챟
##옏
##쳩
##낝
##잃
##앷
##썿
##꺙
##숚
##뀜
##긜
##벘
##뇥
##왿
##팊
##먇
##떘
##헽
##츺
##쒸
##춑
##퀼
##갆
##퓰
##쿹
##돞
##똡
##셷
##럍
##죳
##헿
##텣
##튝
##탲
##꽤
##듇
##홭
##쥑
##쭞
##탉
##꼌
##풔
##첑
##뜍
##츕
##읰
##켸
##쉿
##왱
##퀀
##펩
##퉂
##눀
##뇼
##놜
##뵦
##츢
##솰
##넿
##맾
##꿰
##뺮
##횹
##콬
##숔
##먷
##펓
##굏
##훂
##뢋
##딭
##뫀
##횸
##댭
##푇
##쐐
##쉑
##섖
##퓾
##밓
##쟃
##쿚
##즊
##폽
##뷲
##덝
##뜔
##뱧
##꼏
##됳
##닎
##괍
##킻
##둽
##둈
##칒
##헂
##팧
##뺙
##젰
##뒝
##슶
##뇐
##픘
##죹
##껳
##멕
##촡
##뼉
##뢸
##굪
##퐆
##캏
##먓
##좨
##눹
##숖
##췉
##셱
##꺌
##뤌
##쭵
##찤
##똠
##냴
##쇳
##굵
##놴
##쎤
##죧
##꺚
##혲
##쿷
##툿
##쏚
##펯
##뎾
##푄
##횠
##쎼
##듙
##곝
##껮
##폘
##됱
##펼
##옾
##빻
##뱝
##눃
##뒨
##꿥
##곛
##쩄
##톕
##깻
##뽖
##뻦
##쯩
##썜
##멥
##멛
##ˊ
##˗
##훗
##땯
##휻
##읯
##첪
##퉆
##쨓
##뢈
##귖
##쎱
##촹
##륯
##쿙
##썾
##ට
##뽓
##픊
##슃
##넀
##눘
##앥
##굉
##븀
##얬
##햽
##얟
##밝
##슊
##씋
##쵝
##꿏
##긊
##솼
##컅
##뽗
##띁
##휳
##풧
##곲
##뵉
##뇻
##낡
##뤙
##깪
##빝
##뮥
##둄
##됒
##샻
##뱩
##껖
##턈
##냪
##굡
##뵫
##뷯
##궙
##캼
##켼
##읂
##웣
##촛
##쟴
##귣
##깂
##빊
##됯
##헺
##춖
##텧
##쥔
##웬
##왺
##쑝
##놬
##턩
##쩧
##쁰
##엪
##둼
##뉻
##퍂
##쳭
##댿
##̑
##죌
##롕
##쏖
##맢
##및
##뽙
##쯚
##듓
##씿
##눆
##큪
##츳
##퓩
##붔
##뗜
##닶
##횽
##쨘
##텊
##켑
##돧
##뀎
##쳌
##늭
##떸
##폗
##쁚
##텎
##푬
##쳎
##툫
##뵿
##뱒
##뮷
##믇
##쑿
##셖
##뭥
##녻
##쏼
##녭
##뫞
##켛
##꽇
##쵹
##곢
##텿
##뇓
##걛
##솤
##셬
##턒
##붤
##읺
##썅
##몁
##훜
##픀
##뒂
##쾃
##틊
##귐
##ㆍ
##놐
##숗
##뎣
##뱜
##쩒
##숓
##꺔
##뎩
##퍁
##븤
##쳍
##컿
##갉
##춎
##쳋
##뇯
##쫒
##춷
##쌛
##뗙
##쉅
##헵
##홒
##삫
##눛
##녠
##늖
##슟
##븢
##뾱
##춮
##켵
##떱
##땻
##뺼
##웩
##큨
##쿝
##쳰
##턉
##퐇
##롈
키키
##는데
그래
진짜
##에서
너무
나도
나는
많이
맞아
##니까
그런
우리
##으로
사람
요즘
아니
근데
그러
그렇
##으면
##하는
##다고
그거
##하고
엄청
그냥
그럼
##해서
생각
좋아
##들이
##이라
지금
##어서
그래도
그래서
내가
하는
한번
정말
좋은
##하면
게임
오늘
이제
같이
이번
##라고
아직
하고
##아서
##이랑
있는
##까지
##하게
친구
여행
그렇게
같은
##보다
##에는
##다가
엄마
영화
거기
시간
아이
##더라
들어
##지만
재밌
완전
##부터
하하
##들은
##보고
##인데
##리고
##한테
하면
보고
결혼
##아지
##로나
그건
하나
다른
군대
나오
가서
코로나
그게
ㅠㅠ
##기도
강아지
정도
회사
얼마
운동
##구나
다들
모르
아무
##기가
괜찮
##문에
그러게
##겠다
이번에
언니
보면
무슨
제일
이런
다시
다음
해야
어디
힘들
##려고
응응
##는거
먹고
##기는
겨울
##던데
##이야
##것도
##이나
어떻
가족
것도
##었는데
##하지
있어
계속
건강
조금
##들도
##잖아
맛있
##지는
##니깐
키우
그러면
날씨
##다는
남자
##해야
때문에
자주
10
요새
빨리
##에도
어떻게
머리
오래
##중에
여자
처음
공부
오빠
그리고
그때
아빠
예전
기억
가고
그럴
어떤
##리는
거의
가면
가는
집에
다니
##나라
##심히
##워서
전에
같ㅇ
사람이
해서
##이면
뭔가
##은데
내일
그니까
별로
나중에
아파
##면서
##양이
혼자
##라서
열심히
##어야
저는
어제
요즘은
맨날
재미
가을
이상
사람들
같아
우리나라
언제
##적으로
나이
버스
##자기
있으면
없는
바로
##지고
배우
하는데
부모
일단
##라도
##으니까
저도
ㅜㅜ
아닌
##는게
갑자기
고양이
##래도
##친구
피부
그치
드라
##리가
##대로
마음
아침
알아
그러니까
##지도
##하는데
##시간
있어서
동생
백신
##겠어
문제
##렇게
없어
##00
말고
원래
운전
나가
병원
있는데
있을
집에서
되게
그랬
##처럼
필요
##이트
##마다
사고
##하다
항상
보는
사람들이
##이라고
하루
무서
다녀
타고
여름
역시
자기
많은
당연
아파트
그런데
##인가
얼마나
애들
##하기
##스크
##어도
만들
일본
너는
부모님
대박
사진
가격
주말
해도
먹는
만나
학교
저번
##으니
그것도
##야지
저녁
제주
드라마
비싸
좋을
스트
관리
없어서
얘기
##이지
그렇구나
누나
찾아
다행
했는데
서울
챙겨
이렇게
알바
시작
중국
있ㅇ
그렇지
##머니
되는
사실
수도
너도
학원
##만에
중요
##더니
다이
가끔
##만원
사는
하긴
##적인
먹을
##했는데
##이다
걱정
##라는
##었어
한국
준비
##주는
좋아하는
음식
##네요
##한데
벌써
##가서
나온
미국
어려
##려면
옛날
하지
좋ㅇ
어릴
봤는데
제주도
새로
노래
대단
지금은
##가는
때는
화장
##이가
아주
맞아요
지하
나오는
아프
##와서
##정도
이미
나왔
되면
##해도
##학교
한데
인터
##지가
있고
##져서
##봤는데
나라
##이는
매일
스트레
관심
일이
오랜
예전에
가야
주변
연애
##인이
세상
안되
얼굴
##다니
교육
아마
있었
##더라고
끝나
지하철
보니까
이름
생활
먹어
##이고
얼른
##보면
느낌
보내
많아서
아무래도
##았는데
그런가
좋지
신기
시간이
동물
먹으면
아니고
싶은
##봐야
아니면
##기로
##하긴
인터넷
무조
그걸
##하니까
유튜
만화
다이어
나랑
배달
약간
저번에
##겠네
돌아
해외
##어나
이야
##려서
프로
영어
##다면
무조건
##들이랑
다음에
중에
받아
여기
추천
우리는
##게임
카페
다이어트
장난
스트레스
고민
자꾸
마스크
말이
유명
오랜만에
지나
##이라도
커피
기분
시켜
##시는
##기를
아직도
너네
비슷
남편
귀여
이거
20
누가
가능
축구
생각보다
미용
엄마가
시험
올라
같은데
##이네
캠핑
따라
알려
뉴스
동네
##에서도
너가
가까
맞는
싫어
##력이
혹시
확실
##지면
봐야
아니라
외국
놀러
아는
##징어
##하면서
돈이
##요일
선수
여러
보통
유튜브
##같은
전기
출근
##있는
쇼핑
어쩔
선생
##에서는
그만
기다
##전에
산책
아니야
떨어
최고
가장
그런거
스타
##에게
##님이
사랑
티비
##거나
거야
살아
귀찮
거기서
##가면
다르
서로
싶어
은근
전화
반려
##았어
비행
오징어
오면
최근
연락
자격
##겠지
##리면
이사
##스트
##이라서
싶은데
조심
귀엽
##여행
날씨가
사라
##자가
갔다
##니다
알고
##여서
30
맛있는
와서
신경
치킨
##보는
생각해
따로
많ㅇ
효과
뭐야
추워
근처
해보고
주말에
##장이
바람
맞어
##리도
사이
선물
점심
기사
군인
이용
먼저
##스터
여자친구
전세
물어
##주고
괜찮은
##었던
확실히
당근
힘든
맞다
애기
##한다고
뭐가
남자친구
우리도
자격증
너희
특히
내년
우리집
좋아하
오늘은
취업
##는ㄷ
당연히
모르겠
사람은
아까
수영
##같이
부산
없이
둘이
밖에
##하니
키우는
소리
미리
아침에
퇴근
오는
##한거
##보니
이해
세계
##사람
사용
훈련
직접
낚시
이게
싶ㅇ
##했어
궁금
보러
##일이
등산
우와
많아
우리가
사회
한번도
사람들은
##기만
##인지
가지고
애들이
교통
봤어
어느
청소
하지만
##보다는
제대로
싶다
기억이
넷플
하기
##전거
좋은데
보니
일찍
절대
아르
정신
##길래
좋겠
이러
몰라
바다
우린
가보고
연예
금방
생기
진ㅉ
위험
##하네
아하
하니까
점점
따뜻
##동물
쓰는
##으러
친구가
않을
영상
추억
다양
어렵
몰랐
캐릭
##수가
소개
자전거
##라인
기본
보이
##렸을
저희
##스타
사람도
대학
사서
작은
##주면
나서
##끼리
있지
좋다
차가
##식이
나름
재미있
골프
##성이
##되면
하느
비싼
가기
맞고
쓰고
가자
인기
할머니
없으면
##잖ㅇ
##거든
주는
잘못
##드는
영화관
아르바
##줘야
기대
대신
스포
##이라는
시키
있으
그렇긴
생각이
치료
입고
불편
##비가
11
예약
없ㅇ
주택
고생
##밖에
아예
지원
##스가
받고
아닌데
##라이
내용
방송
무섭
##보니까
야구
웅웅
##사가
보험
그런지
아르바이트
구경
재밌게
감기
월급
어디서
##시고
키워
행복
##고기
이야기
걸로
웹툰
휴가
##르고
이유
핸드
캐릭터
결혼식
관련
최근에
할인
##운데
어렸을
반려동물
12
올해
##차가
니가
앞으로
##는지
자동
수술
어린
접종
배워
##등학교
##르는
누구
아버
직장
##레이
쿠팡
있어야
수업
##수록
종류
한다고
##이었
##수도
##보단
요즘에
비행기
##가고
좋아해
선생님
저렴
##개월
##생활
##리를
##한다
먹어야
##오면
##원도
비가
괜히
있ㄴ
키우고
모든
있다
학생
##이긴
광고
집은
제가
주고
먹었
##주에
엄마는
에어
친구들
나면
보다
난리
##라면
연예인
크게
그래야
##겠ㄷ
##주일
이쁘
맛집
하더라
##먹고
들고
부럽
##하다고
게임이
나와서
사야
##봤어
##ㅠㅠ
아아
고마
때도
##가지
없을
다닐
되고
주인
주식
재밌는
그나
주로
자연
중고
##때문에
지금도
늦게
주변에
않아
해보
냄새
##기에
솔직
좋아서
보여
##제로
안좋
없고
위드
마지
##이니까
##되는
아빠가
눈이
남친
방법
핸드폰
결국
집이
##리스
##이크
편의
분위
살고
부분
돈을
시원
적당
##시에
예쁘
나한테
##놓고
나와
잘하는
1년
대한
물건
신랑
알겠어
100
안나
##이버
멋있
봐도
일어나
##냐고
택시
새로운
딱히
생ㄱ
피해
하더
##어가
컴퓨
한다
##하나
겁나
계획
자세
##했던
2차
고기
자유
맛이
보드
유명한
없는데
컴퓨터
마지막
부작
에이
##오는
좋았
하면서
나올
꾸준
내려
말이야
좋고
도움
만들어
일주일
겨울에
당연하지
기회
받는
인생
작년
##라리
##동안
거지
애들은
추석
중요한
솔직히
군대에서
어쩌
오히
##그램
몸이
##도가
어머니
여친
해본
##적이
기차
##원이
문제가
했어
간식
##봐서
##정이
어머
##대가
유행
##랜드
요즘엔
잠깐
하다
##부분
훨씬
##상이
오히려
아들
않은
다니는
배송
오호
가지
자체
##셔서
##하는거
행님
해주
##치는
번도
보기
안전
차라리
관심이
##림픽
정도면
말도
사면
아픈
앞에
스포츠
생일
했던
회식
##까지는
##화가
##점이
화장실
ㅛㅏ
나쁘
싸우
일반
어울
##스는
##사는
그니깐
라면
있다고
주문
들어가
부작용
개인
옛날에
성격
이후
있음
대중
##아야
모르는
네이버
마자
생긴
안에
좋긴
받을
월세
##만한
##리어
검색
바뀌
##동생
나오면
예능
곳이
그것
수가
인정
부담
있나
##할때
필수
경우
대출
##제가
고마워
미용실
미안
선택
새벽
##하다가
직업
##하느
자동차
가르
영양
카드
##하러
그거는
신청
전혀
피곤
요새는
쉽지
좋겠다
##학생
그나마
데리고
건데
현실
그렇고
게임은
재밌어
가격이
확진
ㅗㅏ
구매
좋으
마음이
인테
가져
연기
느끼
어어
##시면
##미가
##하는게
게임을
꾸준히
경기
지난
마트
주차
##소리
하나도
기념
##자고
##감이
건조
계절
단풍
어른
이는
헬스
##없이
##디어
하는거
패딩
##나는
밤에
##나서
##들을
나이가
생겼
시골
아냐
호텔
##가가
조카
회사에서
기름
싶ㄷ
자취
애니
하늘
환경
가을이
이상한
보는데
헤어
##장님
정도는
필요한
이것
##치가
날이
지역
##교육
타는
거래
도전
명절
올림픽
그러고
ㅠㅏ
그리
##자는
가게
때가
이젠
언니는
보면서
있긴
##동산
전기차
경험
택배
갔는데
15
##아버
최대
되어
모두
아닐
##로는
##텐데
넷플릭
대부분
##교통
않고
짜증
맞춰
상황
##줘서
쇼핑몰
말을
상상
그러니깐
염색
##걸로
편의점
듣고
적이
이제는
괜찮아
와이
##을때
##명이
무서워서
저녁에
동안
알지
온라인
있ㄷ
요리
##거리
뭐든
오오
만든
언니가
머리가
알았
2년
없었
있으니까
##저씨
##마트
##장에서
##장에
대중교통
달라
##건데
시즌
태풍
때마다
성공
##였는데
##겨서
이건
출퇴
화장품
오빠는
엄마도
프로그램
배우고
봐서
비용
피부과
당장
수학
오토
평생
한달
정보
##타민
생각하면
부동산
아기
##이도
강아지가
겨울이
끝나고
아님
좋아해서
같아서
##어요
##간이
##크림
가도
연습
하던데
부대
부족
위해
여름에
감독
오늘도
웃기
##간에
##거야
##스로
맞으면
거리
파는
##구가
스키
운동을
거는
많고
##우면
사건
자신
지내
##때는
도시
말해
잘해
##세요
어려운
비슷한
위해서
일을
가보
좋다고
주에
했ㅇ
영향
##마자
인테리어
출퇴근
느낌이
업무
이쁜
검사
공군
좋게
바꾸
안그
하다가
동생이
가본
되는데
있느
재택
유치
사람들도
이따
편하게
빼고
아저씨
알아서
어차
자리
확인
##리아
50
강원도
김치
노력
들었
집값
##구만
좋아하는데
걸리
유럽
##볼까
아무튼
오토바
굳이
하니
오빠가
안해
어차피
움직
사기
비타민
해봤
##은거
좋ㄱ
햄스터
##더라구
국가
알았어
저런
하게
자고
힘들어
실제로
조용
아이들
대단한
넷플릭스
평소
하루에
함께
데려
있으니
집중
하던
무서워
잘생
##만큼
엄마랑
예쁜
##들어
##말고
무서운
돼서
갖고
빠르
##하려고
##스럽
##타고
근처에
에어컨
때부터
없지
그림
마블
타면
##해지
##비도
국내
도와
사촌
이래
해결
##000
식당
##라니
##기고
똑같
##했다
대체
##습니다
괜찮을
스타일
그정도
슬슬
어ㄸ
차이
##군요
오르
잘하
추천해
기술
신고
힘드
##지를
나만
받으면
않았
##자마자
##ㅈㅈ
##물이
돈도
살이
이가
##장도
거기에
글쎄
해봐
조금만
워낙
활동
피부가
쉽게
안돼
없다
포기
##스러
코로나가
이름이
있었는데
추워서
가까운
맞지
할아버
정리
##영화
드디어
##스도
친구들이랑
재밌을
받았
받아서
자기가
모바
싸게
인스타
후기
##하기도
데이트
신혼
그렇다고
다같이
되지
충분
아이고
간단
많은데
살면
안하고
##려나
마음에
효과가
심각
다니고
놀이
메뉴
면허
모습
생가
시리
##아도
상관
##치고
##되고
##벤트
아직은
그때는
달에
집안
거면
근육
바빠
타이
나가서
귀여운
젊은
둘째
이번엔
이런거
곳은
먹으
옆에
추운
키울
##려야
아무것도
나쁘지
맞네
만나서
경제
그걸로
어플
여유
##가락
아쉽
큰일
대충
나갈
##겠지만
와이프
안가
우선
##도로
지방
##었지
해야지
건강에
다녔
들ㅇ
며칠
취향
다행히
무료
편한
##학년
친구는
방금
화이
오고
카카
않을까
제발
##겠ㄴ
##분에
것이
배구
살짝
외모
주사
##계가
주인공
먹으러
모바일
것만
상품
일부
있ㅈ
##인거
##보드
오징어게임
결제
샀는데
##었ㅇ
대기
중독
##에요
##더락
##이라니
부럽다
수능
이벤트
전쟁
##프로
영화는
멀리
바꿔
부러
##겠ㅇ
이것저
투자
아무리
##던ㄷ
성형
용돈
한번씩
아이돌
그러게요
40
눈썹
받은
숙소
하자
놓고
취미
##마켓
##그래
눈치
쿠폰
##일에
하는게
정도로
##지로
이것저것
2ㅗ
깨끗
않는
음료
카트
커서
계약
고등학교
시간에
남편이
영양제
계란
싶어서
알았는데
모르겠어
걸어
경찰
네가
매번
완젼
웃겨
##머리
친구랑
3ㅗ
가는데
때문
이불
여행은
알아보고
그만큼
근무
##하지만
##지어
아빠는
쉬는
적은
하려고
##까봐
##가지고
10년
몸에
없ㄴ
있ㄱ
전문
조심해야
11월
가입
매력
##이브
거라
안타
세상에
카카오
탈모
나갔
말하는
바르
북한
졸업
게임도
거긴
깔끔
느껴
일하는
해군
10월
우산
집도
후회
##수는
기분이
토끼
끝나면
정확
제품
##들한테
만큼
만드는
스토
않ㅇ
##아니
사람을
쓰레
봤ㅇ
##두고
30분
넘어
먹은
먹어서
어떠
##도록
##거같
##사를
이번에는
최대한
좋ㄷ
주위
하시
##등학생
갔다가
반팔
##인은
##로도
조금씩
우리나라는
하러
생각도
여행을
막상
쉬운
육군
##하시
건가
국민
다양한
대화
물고기
생기면
안그래도
시대
적당히
대구
대학교
뭔지
안먹
특별
거기는
##더라도
대해
오락
정해
주면
들어서
왠지
이모
차를
초딩
있어도
쓰면
책임
##이션
나오고
해외여행
꺼내
다리
심지어
##었다
##히는
##으면서
강의
많을
힐링
##사도
거북
약속
##스를
소개팅
이슈
전부
한ㄷ
##해보
요즘에는
시간도
재난
초등학교
##사고
##줄게
모르겠는데
자식
##들의
##랑은
##마리
##주로
##달라고
같긴
이동
잡아
해봤는데
##요일에
니는
집을
은근히
못하
파마
##목이
생각만
생각을
관광
답답
둘다
피자
내년에
사과
##으로도
농구
##까진
회사는
가족들
같으
심심
##에선
식단
유지
유산
된다
마시
일은
전공
충전
영화가
가족이
가방
못해
문화
육아
##오고
감사
시술
담배
애들도
있잖아
창문
##리지
##었을
좋은거
안된
어때
형님
##자나
##있어서
유치원
기간
써야
우유
##인트
##나면
##버스
##없는
친구도
배우는
왔는데
일어
##버거
강아지는
바쁘
안보
##드가
공부를
따뜻한
같기도
본인
치고
##장은
##되서
ㅈㅎ
소식
어찌
##쳐서
우리나라도
기준
배고
아쉬
크림
게이
되니까
인간
인기가
전역
커플
##구마
아버지
시리즈
불안
스케
신발
챙기
##번에
떡볶
맞은
맥주
먹ㅇ
##리기
높은
만족
허리
그대로
올랐
전자
##피스
##천원
건강을
비싸서
못하는
실내
##리카
##다던데
같아요
신기하다
도움이
브랜드
안정
조만
좋앟
하덜
한참
##우스
##했으면
##일은
아이가
아무도
상대
##분이
진짜로
그런건
같다
곳에서
##하자
##나게
##관이
기억에
고양이는
1시간
똑같은
너랑
먹었는데
밖에서
자가
생각하고
아닌가
개발
뛰어
죽을
친척
선생님이
이유가
맞을
잘하고
적응
##자리
처음에
##00원
만원
##었나
##으로는
운동도
나쁜
번씩
살기
체력
치과
##우고
##다는데
예전에는
귀찮아서
넘게
듣는
마리
못할
미세
발전
케이
삼성
현금
##한게
어디로
받아야
갔을
닌텐
와우
유전
##거래
##이니
##했ㅇ
인터넷으로
자체가
개봉
응원
차이가
##드라
만나면
보일
##었으면
3ㅏ
덕분에
마당
토익
누나가
각자
빠지
암튼
##심이
어린이
못해서
비교
시끄
힘이
##놀이
그래요
같ㄷ
뒤에
상담
카톡
해병
##코로나
아파서
공유
눈물
발라
영국
이럴
##비는
##량이
##돼서
오토바이
건물
넣어
레이
맞추
메이
반대
받으
##하더라
##부가
엄마한테
작년에
곳에
네네
지구
##니스
##자들
##던거
##주의
먹기
##아노
##먹는
대형
직원
##왔는데
그랬는데
부모님이
음악
##지원
마라
설마
찍어
체험
형은
##말이
##통령
안되는
그날
범죄
##도는
##장판
바빠서
맞았
추울
추가
##해야지
보드게임
가정
결과
도로
도착
시급
짱구
빨래
애가
역할
제한
첫째
##장을
여름이
가까이
돈은
싫ㅇ
올려
치는
##했을
##카드
##되어
그러네
나중
많으면
상태
아플
군대에
옷을
좋으면
##지에
회사에
힘들어서
키우면
다행이다
결정
달고
독립
분양
없다고
##근무
친구들이
위드코로나
확진자
충분히
막내
먹어도
있다는
피아노
혜택
##했네
대단하다
추워지
네일
보다가
수준
일도
지켜
##해주
##시아
##있어
아이템
##스크림
공기
바이
반찬
안ㄷ
군대는
나두
멋지
시절
진심
특이
##저기
##주가
조만간
벌레
줄어
하네
##쇼핑
퇴근하고
누군
만날
세금
차는
청약
휴대
과일
모아서
##드름
##트가
금액
몰래
미래
않아서
초반
쿠키
하이
했었
##우는
##한지
내일은
분위기
3년
담에
만에
매운
찾아서
##하기가
##주행
맛있게
아빠도
디자
롯데
문신
배드
불러
액션
외식
익숙
천천
##웠는데
몰랐는데
대통령
무리
중학교
크리스
하도
결혼을
학교에서
할아버지
무시
안쓰
회의
##해요
##했다고
##카페
언니도
가느
공원
배울
보호
보이는
예뻐
체육
##가도
##ㅐㅆ
재미가
얼굴이
당첨
몰라서
설명
오후
프리
했지
##인도
##나고
##트는
맞춰서
배가
새끼
여기는
좋네
##해져서
모르고
경쟁
사망
여성
있게
##가야
들어본
가격도
새벽에
걔네
도대
언젠
의사
##치면
##세권
##종일
아이스크림
여기저기
가야지
걸린
미쳤
실력
은행
##에만
##나도
아프면
가만
가봤
멀미
없으
올리
웃긴
치즈
틀어
##대는
어릴때
2주
것은
멋진
백화
선선
잡고
햇빛
##쪽으로
만화책
기념일
놀고
손이
아들이
이직
잘할
좋ㅈ
##나봐
##수를
##생각
다니면
배드민
어떡
한잔
##이로
##이터
많이들
거기도
결혼은
신기한
천천히
꽤나
받ㅇ
블랙
햄버거
##내고
##아리
##해보고
과자
불쌍
스벅
여드름
전에는
했으면
현질
##들ㅇ
그런게
코로나로
2ㅏ
꾸미
마시고
맘에
뭐라
앉아
어딜
연봉
진행
##셔야
생각은
남자가
외국인
이후로
배드민턴
간다
기업
김에
복무
비트
야외
옆에서
작품
##겹살
이번주
들어가서
여기서
가려고
들으면
뭐라고
바닥
사료
앞에서
추위
괜찮은데
당근마켓
도대체
나을
부터
의외
지키
##어버
##거운
##해진
##권도
##률이
생각하는
오락실
나눠
많았
말은
매년
스펙
##하려면
누나는
대전
된다고
만났
사무
장면
축하
해봐야
##경이
그러는
아빠랑
사이즈
너한테
똑똑
스터
않게
야근
업체
피시
##느라
##사지
굉장
나를
내는
넣고
베트
사업
새우
야식
일상
충격
##즈니
이해가
나보다
냉장
바닷
잖ㅇ
제이
텐데
##로만
##면허
##롭게
게임에
하나씩
예전엔
세상이
지나면
나의
부르
알ㅇ
일부러
그땐
면접
사귀
어깨
줘야
초코
최저
##할까
##차는
##였어
시간을
하루종일
고속
드는
무릎
밚ㅇ
성인
스킨
이도
이틀
있던
진주
콜라
해주는
##시키
##했지
##케이
거도
무한
순간
어이
오프
잔인
##더나
##해졌
맞아야
대해서
디즈니
벅수
부부
이랑
하겠
버스가
귀여워
여자친구랑
구워
사이트
##선수
결혼하면
운동이
고양이가
종류가
베트남
가성
노래도
많으
부자
삼겹살
서비
인사
일하고
저렇게
##이래
##한다는
##있는데
나가면
60
끝났
더운
마켓
싶었는데
운영
유투
하려
##싶다
##집이
있는거
가족끼리
18
것보다
공포
맞나
세일
알게
한ㅂ
##기엔
아니요
서울은
##스럽게
곳도
말한
혼자서
니도
종일
태국
특전
포장
환절
##지지
##었다고
##으려고
##러스
##먹을
영화를
회사가
다행이
이래서
떡볶이
닌텐도
개그
다운
때까지
우울
하셨
할까
한번에
가봐
매우
모임
봤지
분명
사장님
취소
태어
##라스
##성을
##제도
##제를
오늘부터
일주일에
까지
남은
다닌
빠져
엄ㅊ
요소
의미
장르
중간
##ㅎㅇ
아이들이
걱정이
스터디
눈에
소고기
이뻐
정치
##월에
##자도
##3ㅓ
##는데도
##에서만
다음주
휴대폰
백화점
냉동
두번
디저
여긴
옷도
있다가
있지만
정상
코인
##하려
##지컬
##선이
나가는
사러
시켰
했었는데
##기적으로
##려도
##방이
대기업
쓰레기
5년
것ㄷ
밥도
왔다
잘ㅎ
편하
##보가
##혀서
그렇군요
좋아할
얼마전에
먹으면서
남자친구가
등록
말만
못하고
써서
어우
해볼
##시켜
##비를
##트도
여행도
모르는데
화이자
남는
노는
뭔데
종종
##찌개
##ㅜㅜ
비트코
경기도
물론
빠른
생겨서
쉬고
자는
정부
칺ㅇ
행동
##질이
좋아하지
1차
거짓
그쵸
불법
어휴
전체
판매
포인트
##신이
##하신
그러다
그렇죠
지하철이
냉장고
보니깐
소화
쌀쌀
키운
##집에서
들어도
결혼하고
오래된
대박이다
남자친구랑
성격이
간다고
빌려
저거
중ㅇ
차도
##하던
##겠는데
다른데
피부에
만들고
나왔는데
바람이
올해는
2시간
거랑
밑에
밥을
배그
베이
빨간
사주
속상
취직
영화도
얼굴에
곳으로
노트
스파
예비
위한
주름
##거지
##운전
##장님이
##산이
강아지도
##지원금
같애
급여
모델
형부
##대에
음식이
간지
고맙
그냐
스우
형이
##나요
##국수
같은거
##시간에
가르쳐
가만히
교정
김밥
능력
렌트
멤버
오른
용품
제대
중간에
##동네
##살이
겨우
내내
만한
보다는
샐러
소음
이혼
해줘
##우니까
##키로
##회사
##학원
##ㅡㄹ
##메이션
운동은
오빠도
지나가
유산균
피시방
가수
내고
모으
부지
친한
페이
홈쇼핑
군대가
맛있어
이상형
4ㅏ
기계
끼고
낞ㅇ
너의
달라고
생길
우주
원룸
쪽으로
한두
한강
힘ㄷ
##들만
##계절
그렇다
동생은
집값이
갈아
믿고
보톡
부스터
초등학생
##마을
아니지
다행이네
굉장히
가기로
나야
슬프
안맞
한창
##아가
##라가
있어요
알려줘
김연
나무
돈으로
많다고
애견
좋더라
죽는
##어는
##지게
키우기
오빠야
재미있는
만나는
어려워
23
긴장
먹었어
싶다고
일ㅇ
풀어
했을
현대
홍삼
##할거
##였던
##그러
##달에
어디든
나느
놀아
대비
많지
배운
아휴
안될
입어
지진
##자를
##ㅐㅇ
사고가
애니메이션
스우파
가려
걸릴
기온
몇번
잠을
파티
편리
해준
##때도
##발이
##짜리
겨울은
돌아다니
24
6개월
TV
것을
날짜
대표
로또
세탁
스릴
콘서
하와
티비에서
따뜻하게
##000원
##ㅈㅈㅈㅈ
경주
들면
모아
안에서
애들이랑
예민
편이
##기면
##사랑
##예요
##주택
들어간
나오는데
영화관에서
크리스마
공사
만약
손흥
싶지
않으면
없네
유기
인도
##해주는
##영상
##방에
되느
뮤지컬
제목
처벌
케이크
하더라고
한버
환승
휴양
##실에
거기가
겨울에는
아마도
강남
모여서
번개
보네
심한
싶긴
애매
왜케
원하는
자극
재료
탁구
##어를
##해지는
##있으면
말고는
가능한
해병대
똑같이
만드
만난
아내
여수
위에
최소
키웠
태어나
감동
로망
보게
비염
아메
앉아서
##하라고
##이를
##3ㅏ
##트로
##없어
그러지
처음엔
대학생
남동생
바라
연휴
영ㅎ
잠시
##하던데
사람마다
##이라면
아이디
미세먼
건지
대로
사려고
아깝
팝콘
##할게
##의원
##엄마
만들어서
나라에서
기회가
보일러
부지런
가봤는데
걸ㄹ
먹는데
아뇨
예매
위주로
의무
있겠
일본은
살아야
여자친구가
긴팔
대회
먹지
모더나
이하
인형
입대
펜션
##만이
##거는
##라운
친구들도
가족들이랑
단순
머릿
부탁
분이
생겨
스크
외로
전국
##하잖아
##무원
##합니다
손흥민
고구마
기능
두고
로맨
서핑
슈퍼
스위
##겠다고
10만원
분위기가
메이플
25
깜짝
나은
도망
손님
스페
시장
않으
적ㅇ
##보험
그러다가
이상하게
있었던
공항
김선
많아지
물이
사교육
소리가
입맛
조기
좋지만
짧은
촬영
##전히
##스토
그렇네
생각해서
기다려
가볍
들었는데
스마트
심해서
캐스
##인을
##관리
##석이
##난다
있는게
있는지
재밌겠다
미국은
어려울
방법이
가깝
기어
따라서
목욕
실패
애플
오픈
이어
줘서
출발
한다는
했다
##아이
##있고
##증이
##겠어요
다녀야
##라이더
평소에
유투브
감자
같앙
걸리면
나고
돼지
미니
사지
옷이
집으로
체력이
필라
##보자
##여야
##되는데
강아지를
가족은
건강한
어머님
날은
누워
볼링
살았
양념
인천
일정
입장
있다면
코스
##용이
##세계
##상은
그렇지만
아파트가
돌아가
고민이
낮에
로션
막히
엄처
없으니
원피스
유재
이리
프랑
해줘야
##였나
##화를
아이스
그랬던
19
괴롭
시설
애교
없나
없ㄷ
일할
지리
직구
차박
하려면
##나가
##진짜
맞아서
아이유
##부터는
##한테는
추억이
재택근무
번호
보지
성적
손가락
예방
장소
크면
해줄
##을까
##식으로
##된다
##까지만
결혼할
다녀왔
유튜버
알려주
도시락
200
까먹
당일
동기
붕어
살아서
심하게
없으니까
있던데
집ㅇ
피씨
##만의
들어가는
들어가면
완전히
나라가
##하느라
걸어서
글램
더워서
런닝
마을
복잡
봤던
안하면
월드
짜장
참고
할로
##것같
##모가
##둥이
##봐야겠다
냄새가
가구
들은
불가
안하
알러
의견
이것도
재방
짬뽕
행사
싫어하는
최고의
다양하게
시키는
샐러드
내도
싸움
여튼
역세권
할지
여행이
10분
우리나라가
드라이브
부모님은
있었으면
힘든데
지원금
3일
넘나
두개
조ㅗ
##검진
##패딩
날씨도
가을에
부모님이랑
장난감
내용이
글램핑
2번
감성
거에
공짜
금요일
끝이
나아
달리
미술
샀어
오키
정ㄷ
조건
편하긴
했ㄷ
##이어
##치도
##가루
동생도
남편은
훈련소
할로윈
갈비
거라고
달달
말씀
생기는
스스로
어색
입을
초대
##두면
##리에
##했나
##년에
##상도
아니지만
생각나
하는지
여자가
집에만
운전면허
##같은거
신혼여행
노트북
기부
되겠
문자
방탄
안경
없음
털이
##거라
##상을
그러니
그거도
겨울엔
무섭다
주위에
필라테
2ㅜ
다가
대세
아래
요즈
입어야
조ㅛ
중에서
##치기
##해지면
##시까지
##으며
##받고
모르게
전세계
확진자가
김선호
갔던
거니까
검은
공간
관계
길이
대리
먹음
샤워
싫은
잡는
점이
제사
타보고
##게이
##전이
##해봐
##해질
##별로
##인데도
저렴한
ㅛㅣ
갈수록
낳고
늘어나
두꺼
설레
수는
실제
테슬
팔고
패키
##들고
##이었는데
##져야
##집에
##집은
##쪽에
##언니
##갔다
다음날
병원에
다르게
모르겠지만
자세히
카트라이더
70
80
국밥
독감
빠졌
있더
족구
찍고
크고
테니스
##거드
##는ㄱ
##시가
##르면
##으로만
엄청난
처음에는
미국에서
인터넷에서
국제
별ㄹ
소중
어쨌
적게
정주행
최애
##만하면
##자들이
##치료
##점은
##볼게
친구들은
아무나
기억도
동네에
재미있게
계절이
헬스장
비용이
괜ㅊ
뭐지
수면
연결
음주
통화
편ㅎ
필러
했나
##값이
하고싶
들어갈
건강이
버스는
아침부터
중국은
예비군
교수
동남
면회
사다
즐겨
지그
치면
##이드
##대면
##배송
##갔는데
더워
돌려
못한
반응
샴푸
싶었
없ㅈ
위로
태권도
편하고
##치를
##병원
##트를
머리를
찾아보니까
노래가
부작용이
달고나
거짓말
크리스마스
13
나간
단체
시국
않은데
조절
퇴사
표현
##거면
아이들은
날씨에
제주도는
군인들
가니까
메타
세대
소형
아는데
약국
잘해야
전지
조ㅠ
하니깐
##듯이
##보는데
##할지
##금이
시간은
이번에도
서울에서
세계적으로
붕어빵
가라
남았
마찬
많다
시킬
시댁
싶으면
안해도
연차
월요일
호주
##하진
##권이
##카락
##란다
사람이랑
결혼해서
기억나
동생이랑
둘이서
부분이
경우가
ㅂㅎ
내리
대상
라떼
리뷰
버티
식사
안ㅎ
안하는
여동생
자기는
##리포
##재가
##르게
##입고
다녀와
아파트는
아프고
상황이
1박
2ㅣ
ㅠㅐ
다를
바쁜
붙어
어떨
찾는
피파
한의원
했ㄴ
##4ㅓ
##동이
##임이
하나만
괜차
놀랐
되나
물을
미친
받으러
색깔
시가
이정
전부터
층간
해주면
##이에
##로운
##건가
##센터
모르겠다
맛있는거
머리카락
중국이
거북이
2개
값이
늘어
당분
마이
마련
본인이
어마
왔으면
우승
티켓
한대
##야겠
##인ㄷ
##디오
##바지
좋아했
군대를
건강하게
사진도
관련된
안좋아
빠르게
가볍게
14
1번
계소
야채
장비
전용
조그
즐기
짧게
차로
출연
흥미
##가에
##없어서
##슴살
##좋아
그렇겠지
생각했는데
아이폰
공부는
무서울
만나고
올라가
갈까
고장
과학
그분
길게
끌고
링크
마사지
많으니까
매매
무엇
바르고
수입
아지
왜이
있구나
잠이
출신
핑크
호캉
##병이
##일도
언제나
선수가
우리집은
특전사
3ㅓ
걸리는
경차
구입
낮에는
모를
배웠
버는
빠지면
살면서
입원
정책
조합
##하더
##르기
요즘도
다음에는
처음부터
가고싶
유튜브에
전기장판
스타벅
위험한
오프라인
1도
같고
국물
많ㄷ
매주
소문
소름
장사
전투
진작
##들에게
##식도
##용품
##초에
아니다
이름은
기다리
신랑이
같ㄱ
거리가
걷는
마다
무난
벌어서
신ㄱ
싶네
저기
최악
하라고
했더니
##도도
##마가
##방에서
그래야지
좋아하고
강아지랑
힘들지
##어야지
그랬구나
생활이
심각한
##리카노
계산
군인이
단발
되긴
레벨
싶으
올ㄹ
진정
##하겠
##로그
##렸는데
##위가
##맞아
##한테도
강아지들
다음주에
남자는
남자들은
적당한
환절기
당분간
가벼
가봐야
고딩
못ㅎ
벌어
봐봐
싸고
오니까
옷은
요샌
이구
하며
한가
한명
##하니깐
##하시는
##수술
없어도
병원에서
먹어보고
##스러운
무한도
가성비
동남아
3개월
KT
게스트
고양
논란
때만
맞제
비해
손목
어딘
작아서
체크
한동안
##도를
##아빠
##기전에
##여도
##바로
##소리가
##워야
아니라고
지금부터
언니랑
3개
끝까지
내기
눈을
딸기
떠나
습관
실수
싫어서
아줌
어쩐
오지
자랑
하시는
할때
해가
##해지고
##스템
##향이
##호선
지금이
건강검진
그럴까
예쁘게
재난지원금
검진
관리가
나머
시행
안내
타서
##차차
##율이
##배우
그랬어
20대
유튜브에서
저희는
일어나서
피해가
마동
버리
선크림
아닝
아끼
양궁
얘들
작가
잘해서
제작
지옥
타러
할게
##시경
##디션
##보기
##감을
##색이
##갈비
나가고
찾아보고
할머니가
시키면
검색해
지난번에
이따가
간만에
달라서
닭가
대만
데서
소비
안마
않ㄴ
예상
인원
침대
해줬
현재
##인줄
##나나
##부대
미국이
바닷가
보톡스
부스터샷
콘서트
계단
날아
동료
동영상
매력이
몇개
방학
술을
시킨
실비
왔어
일교
있네
챙ㄱ
테이
형제
##하며
##든지
##보이
##세가
##바람
아니가
어디가
언제쯤
서울에
##사람이
가진
걸려서
내말이
된다면
배민
선풍
욕심
임신
입양
탈색
하잖아
후에
##봐도
##자로
##었ㄴ
##으라고
재밌지
다녀오
일본어
드라마는
관리를
교육을
남친이랑
한달에
레이저
어쨌든
ㅇㅎ
ㅛㅐ
그동안
물고
배워서
사란
사랒
사는데
어르
얼음
올라서
이마트
잡아서
코트
킥보드
편할
할수
했다고
##들끼리
##아나
##해가
##겠ㅈ
##사관
##러워
아직까지
필요할
스페인
3번
공무원
많긴
매장
속눈
시내
없었는데
있더라
자살
했ㅈ
##하다는
##하거나
##체가
##로가
##데이
##부로
##애들
##많이
드라마가
머릿결
2ㅓ
갔어
강릉
길에
닮았
보긴
설치
수분
여전히
위생
초보
회복
##이기
##이잖아
##식을
공부하는
문제는
너네는
20년
뉴스에서
사이에
애기들
수영장
##더라구요
비트코인
전지현
ㅗㅐ
가는거
갈때
공익
과연
때려
모양
믿을
바꿀
비밀
소주
손톱
싫다
없ㄱ
##도에
##금을
나이에
여러가지
명절에
가슴
누워서
되서
딸이
뭐라도
수상
싶을
열어
이기
인강
자면
착한
타야
##러서
##약이
##입니다
모르니까
힘들긴
먹고싶
오빠랑
내일부터
백신을
말고도
동네는
유튜브로
캐릭터가
배워보고
이쁘게
바꾸고
특이한
의외로
고통
고추
곳ㅇ
놀면
도서
분리
사이가
않았는데
에스
연기를
유학
잘라
지가
차량
트럭
한거
해볼까
##하셨
##랑이
##한ㄷ
##르겠
##였으면
##트리스
##st
힘들게
고양이도
비싸긴
교육이
그런가봐
선수들
궁금하다
무한도전
3ㅣ
거실
넣어서
모기
발생
보조
사먹
속이
스피
언어
없는거
온다고
키가
했는
##프트
##린다
하는ㄷ
공부도
부모님도
저녁은
끝나서
특별한
닭가슴살
속눈썹
1등
500
무지
발견
인상
잘됐
정촌
토요일
해봤어
##한가
##급이
##으니깐
##길에
##려는
생각ㅎ
여행지
##시간이
디저트
아메리카노
마찬가지
기후
나라는
데는
되었
먹는거
밥은
벚꽃
병사
보낼
앵무
외출
은퇴
주기적으로
지는
텐트
트러
##내서
##기간
##해줘
##용으로
##받는
##접종
보고싶
기다리는
어머니가
싸우는
어울리는
35
4년
5분
강화
고무
논산
바뀐
비빔
빨ㄹ
살인
살ㅇ
생명
서서
오케이
점수
족발
좋겠어
지인
차에
항공
##들면
##보러
##정을
##건지
##제는
##린다고
모르지
힘들다고
어떻ㄱ
여자들은
마음을
3ㅗㅎ
걔는
다해
라이
마니
말ㅇ
맞게
목표
번에
블로그
않나
재킸
조심히
##이란
##스에
##나다
##텐츠
##일로
지금까지
가을은
이러다
어쩌다
사무실
감염
독서
땜에
마셔
멋있는
면역
비오
여해
입으면
진지
처리
홈트
##있ㅇ
##보네
##사진
##쓰고
친구네
다른거
프로게이
어느정도
월드컵
16
강ㅇ
그쪽
기초
나혼
더욱
됐는데
들었어
매달
모자
목소리
빠진
사랍
양이
이루
이왕
참여
한테
할거
홍콩
##바닥
좋아요
게임으로
가격은
음식도
벌써부터
몰랐어
도전해
앵무새
건ㄱ
공감
남의
돈만
라고
루미
봄이
살까
시기
안됐
어리
화가
##리트
##피아
##다리
##애가
##쯤은
그렇다면
다니면서
중국에서
가끔씩
나왔던
스트레칭
귀찮아
물어보
1위
걷기
남아
마시면
반품
사계절
스티
싸이
아가
여보
일기
중학생
챙기는
치아
친ㄱ
##시설
##4ㅏ
##졌어
##대서
##안이
##정민
##모님
아이는
학원을
어려서
인터넷에
20분
아버님
##라스틱
김연경
하와이
관절
길고
단어
로켓
마시는
명이
방역
번은
보단
봐야지
분들
안해서
알ㄱ
오전
종합
지도
쪽에
출장
튼튼
##신사
##우가
##다녀
##대도
##터널
한번은
들어오
어제도
시켜서
어쩔수
좋겠ㄷ
그것만
ㅈㅎㅎ
과외
그룹
극장
단독
마약
몰ㄹ
물에
보려고
사도
상처
싶ㄴ
아우
없느
장단
청년
탈출
편해
플레이
학습
##되지
맞아맞아
아이를
어디에
아파트에
대박이네
누나도
개인적으로
지리산
프로게이머
보여서
봐요
서운
신민
신선
신세계
지났
크아
포함
##는다
##드도
##있을
##했ㄴ
엄청나게
코로나때문에
운동하는
원래는
그랬으면
일본이
가능할
기다리고
생각해보면
어쩐지
갯마을
고슴
과목
늦은
다섯
러시아
명품
모시고
미루
부끄
실화
애완
오를
잘하면
중이
트렌
해리포
환불
##음식
오래됐
프로포
스타일이
기술이
미세먼지
캐스퍼
유재석
군복
맛난
별거
보냈
시도
아들은
완ㅈ
초밥
코딩
##하우스
##구리
##렸어
우리동네
모르겠네
##하지는
필요가
저렴하게
영향을
안타깝
짜장면
1억
나라도
라는
마카
못하면
베놈
봤을
비대면
스테
아팠
안아
어케
영업
있었어
자차
전주
좀더
헷갈
##어지
##인ㄱ
##다니까
##호가
##았ㅇ
##소에서
##방은
하나는
나가야
외국어
추워져서
정신이
행복한
여친이랑
간부
같던데
누구나
달려
롱패딩
말라고
물리
보증
빌라
사는게
없애
에너
예고
요가
울산
자르
자율
집주
카레
하얀
##던가
##선을
##소한
##격이
##력도
##제품
공부하고
있을까
연애를
보내고
자연스럽게
스크린
해리포터
21
들을
미치
받았는데
배려
석탄
시청
자리가
팔아
화려
##가게
##영업
##성에
괜찮으면
뉴스에
봐야겠다
90
단백
방에
보느
복지
서든
어땠
오느
오는데
지루
지각
찍은
편지
플스
하겠다
한시간
활용
##라우
##레스
##겠네요
##가기
##러운
##겨울
##큐브
맞아도
그거랑
가족들이
머리도
떨어져서
남친이
어울리
잘생긴
런닝맨
1인
고등학생
급하게
닮은
대선
독일
만만
모른
보자
사느
선호
선배
수수
수제
슬픈
시대가
이웃
이정도
채널
형도
##료가
##더만
##차도
##볶음
예전부터
가는게
동물의
이용하는
몰랐네
가자고
테슬라
고슴도
300
ost
그저
기간이
놀ㄹ
도마
목이
밀키
발표
보상
비오는
설거지
시스템
자라
장마
평범
해주고
##개가
##치킨
##보면서
##연이
##준다고
##했음
##성도
##UV
##땜에
힘들고
아침마다
그러니까요
떨어지
모르겠고
보이스
없었으면
두꺼운
가디
갔었는데
돈까
많더라
먹자
부상
셋이
식으로
신입
어ㅉ
없지만
여기도
오리
입술
잔소리
컨셉
포켓
##서는
##저히
날씨는
귀엽고
교통사고
않아도
경우도
상상도
마동석
가스
가긴
같지
군생활
귀신
규칙
놀라
더위
드론
마무
먹으니까
명작
벗고
볶음
사랔
산에
실망
얘기가
연말
작업
종이
좋았는데
출산
캐나다
한글
허리가
##하겠다
##는다고
##시다
##다닐
##금도
##방도
##통이
게임인데
재밌는데
머리는
재미없
찾아봐
시작하면
조용히
간단한
스토리
디자인
가상
가봤어
감당
나타
넓은
당구
맞았는데
반복
블루
상사
생산
아나
연장
장기
친정
친절
카메
화면
##하기는
##는건
##시로
##스에서
##먹어
##줬는데
##싸움
##달라
어제는
찾아보면
챙겨야
다이어트는
지나고
앞으로도
연예인들
보여주
일어나면
간단하게
정확히
고속도로
KTX
17
SUV
ㅠㅣ
강제
검정
급식
든든
먹ㄱ
몰라도
볼게
삼촌
식품
신중
예ㅃ
오버
의자
이겨
일자
재빘
천둥
테트리스
평균
##서도
##차를
##원에서
##퀴즈
아니라서
이번주에
그때가
다니기
움직이는
아줌마
개선
놓은
뉴욕
되니
들으니까
맛ㅇ
무궁
반지
버리는
사천
삶의
생리
엊그
의미가
이터널
있엉
작고
전ㅇ
주인이
중이야
쳐다
##월드
##인들
##미디
##모델
친구한테
재밌긴
회사도
##는거야
버스를
고양이를
음식을
안되면
생기고
2ㅗㅎ
시끄럽
루미큐브
곳을
기운
넣으면
되기
두피
로봇
마인
막걸
말하면
몇년
반도
배경
빠질
쓰는데
알ㄹ
완벽
이길
전동
제법
코로
할리
화이트
##지않
##간다
##이상
##기사
##때가
##인들이
##구요
##수업
##운동
##페이
지금이라도
재밌더라
##잖아요
여자는
나왔으면
놀이터
집안일
태어난
트러블
1학년
3ㅜ
금지
높아
달ㄹ
댓글
되어서
마취
본거
역사
유일
입는
자막
자영업
제모
조정
차차차
처럼
퇴직
판타
##들어서
##이지만
##였지
##터리
##박이
##박스
그렇ㄱ
배우면
다녀서
떨어져
최고야
이러다가
시원한
신랑은
서비스
개그맨
어르신
프로포즈
갖다
거만
골라
구조
글치
기숙
까다
먼가
목숨
바다가
비도
빠져서
산청
시ㅠ
아웃
연구
이마
자녀
축제
패스
패션
핫딜
했다가
홍보
##어진
##물도
##대를
##단계
##놓은
그런ㄱ
운전을
비싸게
음식은
대단하
어렸을때
##레이닝
거리두
영향이
5만원
곱창
공장
끝난
동호
먹게
밤에는
비쌀
사니까
소녀
손에
수리
얇은
예정
와야
재짔
정ㅁ
좋으니까
찾기
플라스틱
한식
할만
##러워서
##국이
##같아
##ㄴㄷ
##비로
##집도
##앞에
그렇겠다
같은ㄷ
들어갔
결혼하는
힘들다
배우들
궁금해서
키워보고
배워야
예쁘고
2차까지
올리브
불가능
가시
국방
단계
따고
모니
아껴
안녕
이전
줄이
차별
폭력
한지
한약
##은ㄷ
##가족
##원에
##밥이
거기로
결혼한
맛있겠다
여자들
처음으로
버스도
없어진
스트레스가
재미있을
1ㅗ
고스
교환
그려
끝날
나빠
덥고
디피
바지
바리
봤다
빠지는
뿌듯
신체
애초에
읽어
자야
재닜
파리
##리게
##오빠
##데이트
##것만
##모로
마음은
운전병
대단하네
스트레스를
시원하게
음주운전
PX
갔었
강한
걔가
공연
꼼꼼
내서
뒤로
따듯
바나나
밥이
벌고
색이
싸울
써도
잘했어
##스턴
##다운
##원은
##음이
##반이
##점도
배우가
아닌거
알아보
여름에는
좋을거
봐야겠
연락이
불편한
안좋은
스키장
가디건
34
걸렸
고르
끓여
발이
보며
부조
살ㄱ
세트
숙제
아부
알레
없긴
온천
옵션
이ㅃ
포항
필ㅇ
##어로
10시
우리나라에서
병원은
얼굴도
좋았던
kt
갈래
같ㄴ
다치
볼까
세포
에휴
왔ㅇ
웬만하면
유퀴즈
주지
즐기는
찾ㅇ
춤추
탈레
##내는
##드리
##기랑
##미리
##생이
##였ㅇ
##적이고
##소가
##성은
##색으로
사람한테
생각할
아무거나
해야할
병원을
연애는
기회에
부담이
무궁화
개념
다리가
데가
땡기
분야
스노
심리
알면
얘기는
어지
온다
완저
코미디
타본
통해서
해먹
후라이
##을거
##었ㄷ
##나무
##과는
##맛이
##너무
##성화
##출이
정도가
괜찮다
다시는
그랬나
쿠팡에서
싸우고
그정도면
알러지
도서관
동호회
겉옷
구름
기상
기침
내친구
동의
등등
많던데
몸을
발사
분들이
샌드
실력이
억지로
이걸
저러
제거
폭발
##때마다
##쿠버
##티콘
##요가
##했ㄷ
##산물
##적은
##웠어
##메가
재밌어서
여자들이
생활을
티비에
물어보고
추억의
그래야겠다
초반에
호캉스
가볼
개가
공격
된ㄷ
레전
매니
먼지
모닝
보습
브라
센터
싱가
인가
있더라고
잘나
장점이
좀만
한마
해얒
화상
효도
##서가
##기에는
##한번
##다며
##사이
##주지
##금은
##입이
##방을
##놔야
##하는건
나오는거
모르지만
다음엔
남자들도
다녀온
시작한
주변에서
이야기를
신경쓰
생각해보니
너희는
아버지가
먹어야지
기름값
먹으려고
요소수
스릴러
장단점이
길어서
멀어서
몰아서
보는거
부사관
빼면
싫은데
아닉
앨범
오피스
위치
이렇
잠도
적어
한정
했느
##마블
##단이
##던지
##돌이
##쪽이
##쯤에
아니냐
키우는데
남자들
동생한테
운전하는
중요하지
옛날엔
주변에도
보통은
점심에
물어봐
하늘이
배고파
마카롱
엊그제
1일
강아
게다가
고려
고소
극장판
놓으면
달팽
당시
동아리
마늘
마피아
법이
상당
선임
심즈
아름
여군
운이
의료
일만
입은
좋더
좋았어
찾고
컨디션
파스타
합격
향수
##두가
##두부
##식품
##키키
##미는
##했다가
##2ㅏ
아니었
맛있지
맛있는데
사람들이랑
외국에서
중고로
여친이
아닐까
모습이
일기예
4ㅚ
6시
갔ㄷ
건너
군데
답이
딱지
몸도
물가가
바디
보라
살찌
쓰지
약을
어두
웨딩
일요일
즐거
편안
##속에
##받은
##산도
##력을
##퍼센
사람만
좋아야
좋아지
하는건
아이도
들어오면
어떻게든
다니는데
당연한
옛날에는
지하철은
이름도
신기하네
대신에
있으니깐
부러워
로맨스
필라테스
3ㅐ
감정
갔ㅇ
같네
경비
노르
눈도
다친
맞ㅇ
바퀴
바꿨
사오
시민
엉덩
열정
유독
인ㄱ
전통
좋음
주민
준다고
추운데
##시도
##선생
##탈출
진짜요
그러자
##이랑은
여행가
찾아봐야
관심을
교육은
귀여워서
가까워서
산책도
전화해서
비행기가
청소년
1년에
와이프가
취향이
특별히
마라탕
언젠가
어마어
이구아나
스티커
3ㅚ
가려면
굿즈
그립
데리
될지
레저
방문
산다
샀ㅇ
스카
어서
오우
유니
일하면서
잔뜩
정기
제목이
천안
코코
텐ㄷ
투표
풀빌
해보는
힘을
##날에
##아파
##라는데
##으론
##중이
##했었
##정보
##함을
##함이
들어야
내일도
알아봐야
영어는
떨어졌
이쁘고
중고차
하더락
어울릴
건조해서
대형견
이하늬
단백질
su
건축
고급
내야
내리는
도둑
못가
못하게
미끄
사장님이
상승
숙박
오전에
완료
잃어버
있엇
제로
좋네요
죽은
지지
칭찬
코가
틀고
##습니
##잡고
##줬으면
##산은
##업이
##형이
##점을
그래그래
그런걸
그런것도
좋아졌
힘들었
얘기를
준비하는
어려워서
떨어지면
귀엽다
고생이
15분
45
가득
간ㄷ
격리
끝내
됐어
됐으면
무거
비혼
사격
생신
씻고
양말
잘한
조개
즐길
즐겁
지갑
추우면
코난
회원
##스키
##있음
##가를
##꺼야
##활동
##복이
##공부
##했었는데
##그런
##실이
생각해도
재밌었는데
일단은
떨어진
궁금해
온라인으로
프랑스
패키지
샌드위
2일
PC
가치
같으면
개는
거부
날에
댄스
맞음
먹이
못하는데
버거
보던
부르는
수익
안ㄴ
않는데
업데이트
자매
장거리
전원
종목
체질
칼로
클래
해요
##전도
##하죠
##우니
##드로
##해라
##시험
##시절
##셨는데
##마개
##진이
##ㅏㄴ
##받을
##봤ㅇ
##소개
조금은
머리에
언제까지
알아봐
관리하는
오랜만
보내는
동물을
카페도
떨어지는
추워지면
누구랑
경험이
바르면
기준이
바닥에
메타버스
올리브영
오피스텔
광주
다드
당신
동반
뒤집
디아
마냥
모가
복지가
부정
비만
비하면
성장
심장
싶다는
싶어도
애도
없엇
의심
적금
전철
접속
존재
좋ㄴ
하필
##지기
##시대
##있다
##다음
##바이
##적ㅇ
##소에
재밌었
가족이랑
10만
학원은
마스크를
시켜야
어쩌다가
행님은
##ㅈㅈㅈㅈㅈㅈㅈㅈ
유기견
얘들아
진지하게
신민아
2만원
ㅁㅎ
갔으면
기생
날ㅆ
노동
듣기
말하니까
맛은
베란다
보신
봄에
부서
안오
오랫
유통
의지
있자
자기도
잘안
편ㅇ
폭행
하더니
하우스
했음
흉터
##리랑
##간다고
##티가
##았던
그런것
그럼요
정말로
나오니까
이상은
여름엔
매일매
사랑이
선물로
군인들이
이용해
저희도
suv
가짜
갈게
강철
것들이
경력
계시
구하기
근ㄷ
나니까
낮은
당황
뚜벅
말아
모륵
바르는
싶기도
쓰러
엄빠
웃ㄱ
이력
재키
정마
찍는
추처
컨텐츠
터키
폰으로
풍경
하여
한판
##니가
##때까지
##크가
##해주고
##했더니
##일까
##히면
##갈때
아이들도
아이디어
결혼도
다녀왔는데
한국에서
이미지
영어를
상상만
상관없
쿠키런
오후에
판타지
나니
나는데
놀랬
대하
도쿄
리니
많으니
물놀이
방향
변화
보기만
본방
부딪
열이
왤케
이득
저랑
후임
##한텐
##었네
##애들은
##난화
버스타고
집에서도
챙겨서
시작해서
수도권
##다니는
신기해
뉴스를
그렇긴한데
쿠팡이
대한민
물건을
대중교통이
무료로
주인공이
어이없
교수님
##모델링
2ㅐ
3시간
5천
간장
걸려
고정
공간이
긍정
길거리
농사
대다
문화가
뭐니
보인
본다
비는
싫고
쓰니까
안본
않았어
와도
잘했네
전환
집들이
쪽은
참치
참가
책을
코스트
타임
펜싱
황소
##신데
##드릴
##시코
##디슈
##나물
##했잖아
##받아서
##았다
##염이
##워치
군대도
괜찮다고
공부할
별로인
하루가
자기소개
걱정되
나왔어
기사님
어렵지
이후에
직업이
태풍이
감독이
안돼서
안타까
스마트폰
카메라
간호
고수
그랫
날도
동거
듣기만
말할
무너
바른
배부
봤ㄴ
안한
애기가
얘기도
역대
웬만한
이탈
있대
장갑
질문
##하길
##리나
##이더
##기구
##감도
##곳이
생각하니
괜찮ㅇ
그랬지
여름은
학교에
알바도
아프다고
카페에서
남편이랑
혹시나
티비를
시키고
100만원
잘생겼
어마어마
걱ㅈ
계곡
과거
규제
난다
높아서
더더
몰아
바뀔
박스
상하
손해
술도
안심
안할
안보고
야간
자서
주의
춥고
태워
팀이
평일
황정민
##날이
##기념
##다른
##사로
##나이
##베이터
##대신
##먹으면
##커피
하나하나
백신도
다녀와서
얘기해
##었어요
노래방
귀여울
올라오
캠핑카
월급이
종류도
자신이
상품권
기온이
만만치
도마뱀
고스톱
매일매일
3만원
가니
같음
깔아
낮잠
내시경
돌고
리그
보낸
부드
비오면
빼빼
안들
안써
양치
어딨
엉엉
인성
인턴
입마개
잘은
재지
한때
한복
##개발
##식당
##보니깐
##사회
##께서
##하는지
운동화
언니네
겨울옷
사람들을
사진을
드라마도
걱정하지
한국인
세상에서
이거는
떨어질
귀엽게
전세가
미리미리
핸드폰으로
마지막에
자체를
바꿔야
배고프
자가격
미쳤다
어떡해
모가디슈
코스트코
가습
거로
공개
그린
기록
꽃이
끔찍
남들
맛없
미사
밤새
보는게
부실
사장
삼천
소나
애는
양상
여태
원작
유리
짐이
책상
타투
한마리
행정
희망
##크래
##었는
##식은
##로로
##러가
##머리가
##학과
##줘도
##따라
##류가
##맞고
##ST
생각하니까
강아지들은
괜찮지
기억은
일본에서
만화는
미용에
직업군
금액이
피씨방
이정재
돈까스
고객
귀차
담당
말라
멀어
세월
소설
손으로
아울
외제
장애
재활
전라도
좋죠
카라
특수
티빙
펜트
학창
한라
##날은
##하냐
##하실
##로우
##사에서
##려구
##와도
##애는
##유의
엄청나
좋아했는데
게임만
이런데
마음대로
일본에
알바가
비슷하게
조심해서
우리집에
사용할
좋겠는데
치료제
ㅗㅏㄴ
타이밍
선풍기
ㅡㅡ
가나
것ㅇ
난방
도배
동해
드래
리모델링
먹는게
모래
목줄
버디
빌려서
생선
셀프
수강
신용
싱크
쓰던
않지만
앞머리
오기
일하면
있겠다
잘했
좋다는
죽고
줄넘
즐거운
지어
진료
처방
컴터
튀김
하신
해라
화목
##서를
##수있
##진다
##싶어
##쟁이
그래픽
좋아하면
들어봐
운동하고
백신이
알바를
나온다
노래를
안되고
해외에서
이야기가
여러모로
최고지
바람도
소리야
넷플에
물건이
미안해
취미로
전문가
졸업하고
축하해
마켓컬
전세계적으로
스타벅스
마무리
OST
고전
공ㅂ
길어
남해
내부
느낄
단점이
대답
들었던
만두
만ㄴ
무겁
무신사
받지
얀센
연기도
옹옹
완결
이수
인증
자르고
장교
종교
지겨
한편
후보
##지마
##도그
##리에서
##이었던
##한건
##겠죠
##시나
##다보면
##꾸미
##주년
##위로
##워도
##히고
##숭아
우리랑
사람ㅇ
재밌고
나이도
학원도
중요하
아프다
남편도
전세로
괜찮은거
중고거래
멋있어
자유롭게
단풍이
쇼핑몰에서
넷플릭스에서
여유가
추워지기
이터널스
2명
22
가평
강제로
거울
걸고
곰팡
공주
귀영
길러
너만
닽ㅇ
떠오
먹방
뭐냐
미쳐
봐주
비닐
비숑
사형
숫자
아동
있잖
잡으면
전력
죽어
짧아서
쪽이
찝찝
처갓
치매
키워서
터질
##개는
##간지
##물은
##가는데
##았으면
##갔다가
재밌다고
오래돼서
알바는
한국에
동물이
선수들이
최고인
다르긴
짜증나
지내는
나갔다
누군지
ㄱㅎ
거절
고쳐
구피
꿈을
난ㄹ
데도
드리
말에
면제
민간
버섯
벤츠
복귀
산이
슬의
안ㅈ
알겠
어항
올린
왁싱
왜냐
요구
운ㄷ
울고
의지가
입이
있덜
조리
중인데
지급
진상
징그러
평일에
한파
##어보
##게티
##드려
##테니
##미널
##바다
##된다고
##웠던
##갈이
들어온
정도만
부모가
운전할
##하기로
시작해
중요한데
안되서
안되는데
내년에는
위험할
환경이
프로그램이
부족한
아쉽다
어린이집
바이러스
공짜로
길고양이
샌드위치
양상추
00
고등
기가
나옴
담주
더울
돌리
때매
물품
비비
비상
수족
싫을
써보고
아오
약도
응급
인공
일년
잘되
조작
짧아
차려
처으
치맥
터지고
통영
파란
하기로
해수
했고
현지
후배
##이팅
##기한
##시스
##안에
##공원
##타는
##봤지
그렇군
들어가고
재미도
없어지
병원도
학교는
중국어
가끔은
노래는
인터넷이
20살
여러번
30대
선물을
점심은
행복하게
학생들
부분은
##거같아
나중엔
재방송
1종
기르
날ㅇ
눈은
대면
뛰는
뜨면
렌즈
보람
비온
쇼파
실천
실험
연인
외할
우연
유용
자존
적어도
좋겠네
힌들
##어울
##스틱
##물을
##사에
##준다
##부부
##소음
##씨가
##방송
##역이
아니더라도
조금이라도
남자들이
아빠한테
없어요
주말에는
먹을까
아프리카
사랑하는
최근에는
조심해
부산은
내용도
12월
12시
피해를
마지막으로
깔끔한
정해져
이슈가
브라질
1층
2층
4ㅡ
같더
같더라
건ㄷ
것처럼
고모
공급
기미
말하고
맛도
몸매
바보
배변
버리고
빡세
생존
소속
아네
아이랑
안주
애드
얼만
여론
왕복
잔잔
잘만
적립
존중
줄은
집단
추리
케익
탔는데
토요일에
##자들은
##기업
##기간이
##겠나
##시네
##으려면
##구이
##4ㅡ
##닌깐
##려니
##군데
##번은
우리의
들어는
재밌다
힘들면
공부가
없어졌
다녀오면
다행인
나온거
대단해
##더라고요
만화가
카페에
기본적으로
하느라
좋아해요
시대에
안된다고
친척들
고슴도치
이탈리아
ㅇ8
기안
내려서
단지
대장
되어야
마저
맞긴
맞는데
배추
숨쉬
알라
애인
어쩜
억울
요거
유미
작게
장판
찍어서
테스트
한ㄱ
##가에서
##대표
##청소
##능이
생각하
##이라는데
엄마아빠
들어와서
##는거지
애들한테
비싸지
그만두고
보이긴
주택이
월급도
앞으로는
미안한데
화이팅
멋지다
24시간
진정한
대한민국
3만
5만
걱저
공공
날라
내랑
냉면
노란
느낀
당뇨
댄서
동시에
딱딱
머스크
멀쩡
면도
무도
무척
물가
뭐해
살살
신호
심해
얻어
연속
열시
오메가
유저
입주
있기
재니
전에도
줘도
크로
통일
파라
편히
품절
한자
했는ㄷ
허락
휴게
힘내
##자의
##전은
##거리는
##저나
##셨어
##마토
##수로
##차로
##놓으면
##했다는
##먹기
##정은
##건강
##욕이
##김에
##직이
##블로
아니니까
좋아진
##면서도
사람들의
사람들한테
알아야
얘기하니까
주변에는
프로젝
지나서
출근할
기다렸
이러고
야구장
바뀌는
성형수술
깔끔하게
일어날
레전드
아울렛
고향
구할
구독
글쵸
내면
넘는
드러
목소리가
몰입
문ㅈ
배틀
볼만
빨라
뿐만
사자
사게
스무
신뢰
싶고
싸서
아들도
어짜
엘리
외동
인구
일에
장만
장모님
직관
채소
컵라면
탈영
투잡
하겠지
한개
함부로
##한다면
##스테
##스포
##보지
##보려고
##민이
##근데
##쓰는
##얘기
우리보다
생각나는
자기계
아파트에서
준비가
나온다고
배달이
커피는
커피를
알려줄
효과는
선물은
재미있어
##생활이
맛집이
보기엔
근육이
나중에는
일기예보
기생충
이력서
4일
ㅇㅈ
ㅇ7
국어
나에게
낫지
낳으면
눈사람
늦지
대여
많네
말티
물도
물려
밀가루
불멍
불렀
산불
삶이
수록
실시간
없었던
완화
이라
잘하는데
재수
조르
존경
천만
키보드
하기도
했었어
##아하
##져도
##3ㅣ
##산에
##셔도
생각에
이제부터
코로나라
정도야
해야하는데
그러면서
운전은
주말엔
나라에
생활은
만화를
올라가는
기본적인
불편할
할인도
안전한
수학여행
가보자
아저씨가
조용한
일어났
왜이렇게
ㄹㅇ
골라서
닭발
도수
돌파
맥도
무기
미군
보르
봤나
뽑아
살게
생수
수당
신나
웃겼
이태
임대
전시
점도
정이
정돈
증가
총기
출시
클라이
탄산
통과
힞들
##하네요
##이였
##심을
##긴한데
##버렸
##원을
##대요
##데기
##장으로
##위에
##트에
##냥이
그렇게까지
나오지
강아지들이
해야겠
남자도
별로야
나이키
저도요
많은거
부모님한테
저녁엔
서울로
교육도
축구는
싫어해서
다르지
반려견
신경써
치킨은
부대찌개
결과가
프리미
나혼자
한마디
3명
간다면
결ㅎ
기도
기아
기존
김장
꿀팁
남이
넓어서
대화가
되겠다
마실
멘탈
바쁠
사귄
살다가
쓰게
에서
음성
입ㅇ
적도
좀비
중앙
초콜
취사
콩나물
타지
패러
편해서
했네
향이
##에스
##라나
##시기
##병은
##영이
##카는
##순이
##와야
재밌ㅇ
이런건
해야겠다
힘들어도
마음의
무서운데
드라마를
시작하는
귀여운데
20만원
기다려야
사회가
좋겠ㅇ
내용은
관련해서
조카가
사건이
김치찌개
11월에
스케줄
잔인한
시켰는데
주름이
2천
겉ㅇ
결말
계좌
교과
교회
그닥
꾸며
내복
도입
라인
마치고
맛에
못했
발톱
번째
봤었는데
빠지고
빼는
싶ㄱ
안다
유연
일하
조사
주소
챙기고
치우
치러
컴활
특유의
피로
필리
핫도그
해보면
힙들
힠들
##습ㄴ
##하덜
##리로
##이자
##이요
##기지
##었ㅈ
##럽게
##졌는데
##권을
##타면
##타임
##2ㅣ
##상품
##트리
##질을
##곳에
##보다가
거기다
##다는게
없어지는
누나랑
알바비
한국어
준비해
이름을
가능하
캠핑은
여러개
전기차가
소리를
어렵다고
이유는
피곤해서
빼고는
넷플릭스에
대구는
더더욱
4ㅗ
ㅗㅣ
거라서
과제
관ㄹ
궁ㄱ
나지
나누
남녀
내렸
니네
단점
데이
데이터
드니까
들으
몇십
목도
못생
발목
발달
봤느
산거
산업
성적이
슬퍼
승부
실습
안ㄱ
안들어
않지
알기
열고
오르는
온도
의경
잊지
잘모
잠잠
중욯
하실
형수
##하라
##하셔서
##두는
##버리
##의가
##배추
##편이
운동할
가족여행
1000
재미로
저녁에는
돌아가는
무섭긴
직장인
냄새도
멋있다
웃기다
간단히
타이레
꺼내야
심심할
왔다갔다
가벼운
일교차가
포켓몬
탈레반
자가격리
미사일
필리핀
3ㅡ
갈라
갤럭
금요일에
길을
능력이
다쳤
대책
돈ㅇ
돼야
됐다고
둘러
마치
마셔야
막혀서
말ㅎ
먹었던
무사
박쥐
봉사
사줄
사야지
속도
쇼미
수밖에
쓰기
얼ㅁ
연기가
올리는
재밋
줄여
지마켓
직원이
착각
창업
철권
청첩
추우니까
통신
했지만
##에다가
##고는
##지긴
##리오
##서로
##열이
##시피
##래서
##준비
##위를
아니어도
좋아한
하는ㄱ
영화로
코로나도
이런게
만들기
관리도
걱정은
화장을
보내주
가까운데
아까워서
수영을
사용하는
봤어요
휴가를
성격도
필수로
애니팡
##명이서
비용도
40분
지키는
우울증
정부에서
나머지
비빔밥
유통기한
SN
tv
거가
골목
그릇
그리스
꿈이
나보고
단속
도저히
동그
되야
땀이
리조
많잖아
말야
말투
맑은
배터리
뷔페
색으로
성분
수요가
시자
않ㄱ
오뎅
요금
운도
이겼
이라고
인해
일자리
잊고
전엔
전까지
절반
주시
줄줄
칼국수
코르
타기
트로
파충
플랫
학부
할래
회화
##신다고
##해본
##해줄
##있게
##가봐
##티비
##플레이
##안하고
##파크
##소희
##소리도
##번호
##ㅕㄴ
사람의
생각난
좋아함
##겠다는
언제부터
준비를
올라온
티비로
귀찮은
훈련을
궁금하긴
많아져서
보험은
그나저나
나와야
추석에
건조기
어른들이
웃기네
공군은
데려가
그정도는
일어난
빼빼로
27
가다가
과정
그쪽으로
기저
기타
남아서
넘어서
넣는
노인
된장
뜨거운
루테
마주
매형
미역
방이
백수
별의
병아리
사드
쉬어
심하면
싸웠
언ㅈ
엽떡
오나
왓챠
이발
이케
자료
자다가
적어서
좋덜
주거
주유
준다
징그
초에
터미널
트라우
하라
한숨
헬멧
##하더라고
##리스트
##었잖아
##시장
##테니까
##ㅎㄱ
##루토
##먹어서
##30
##제에
##냄새
요즘에도
이번달
건강도
그때도
아침은
알아보는
다녀올
만들면
학원에서
미국에
동물병원
시험은
귀엽긴
점심시간
사회적
11시
컴퓨터로
느끼는
혜택이
예뻐서
고맙다
지진이
진작에
##퍼센트
자기소개서
클라이밍
가혹
가보면
거니
끝ㄴ
도라
독학
되는거
들여
레드
만ㅎ
맘이
몰디
무스
받았어
별일
본적
부른
성향
속에
속도가
손을
승용
쓸데
않다고
얼어
연수
오일
왕따
울릉
인한
정류
지워
춘천
테니
토마토
피었
하냐
하트
할ㄱ
##고가
##내면
##말로
##물로
##할수
##걸이
##ㅘㅆ
##력은
정말요
게임하고
영화나
하나가
언니한테
겨울에도
어제부터
우리나라에
나이를
나가기
관리비
제주도에
아프지
연애하고
올라가면
귀엽지
군인은
좋아하시
부산에
비싼데
아르바이트를
키워야
광고도
핸드폰도
유행이
음료수
아쉬운
챙기면
불러서
최저시
세탁기
만약에
태어나서
층간소음
밀키트
할리갈
거리두기
바리스타
달팽이
풀빌라
3분
4시간
9월
9시
경제가
그ㄸ
내릴
다큐
떠서
말로
맞으
먹다가
무거운
미드
밝은
불면
불고기
뽑기
삶을
설탕
순수
스쿠
신축
안고
안남
안ㅂ
업ㅅ
연어
오라
올리고
위에서
이르
일회
작가가
좋던데
주가
챙길
취미가
케어
크루
하길래
해운
해당
해놓고
현장
후반
후유
히히
##거리가
##었음
##다보니
##약을
##바퀴
##적이지
##벌레
사람ㄷ
아니에요
있는ㄷ
여행사
영화에
들어보는
모르면
어디야
그럴수도
언제든
피부도
그치만
##하기엔
사진찍
드라마에
학원이
준비하고
아마존
이름만
다이어트를
외국은
선물도
중고나라
택시를
시골에
국가대표
외모가
유산소
홈트레이닝
알레르기
상당히
어짜피
맥도날
5일
개꿀
고기도
공동
관리는
관계가
그전에
나물
노잼
드림
만ㄷ
모기가
무성
받ㄱ
버려
복숭아
빼야
산다고
상상이
시기에
신깋
싸운
안ㅇ
어째
없었어
여럿
열대
예를
이른
있겠지
적용
주부터
중심
지속
쭈꾸미
천원
축의
편집
해산물
허니
허용
호불
##습닏
##자면
##지랑
##프라이
##이구나
##때부터
##로워
##사서
##영웅
##졌다고
##먹어야
##받아
##부는
##터가
##적이라
##2ㅓ
##봤자
##되니까
##랬는데
##모임
##렌징
##웨이
생각한
생각ㅇ
들어보
코로나는
모르니
괜찮네
다음달
문제도
사고싶
중요하게
나왔을
먹어봤는데
지나가는
커피가
축구를
살아남
이용해서
교통이
어렵다
월급은
자세가
하다보면
환경을
모두의
뭐든지
도와주
사촌동생
상관없이
깨끗한
네일아
나눠서
입장에서는
볶음밥
##닌깐요
자기계발
SNS
몰디브
1ㅏ
36
ㅠㅜ
가질
간ㅇ
거보다
건설
결호
교체
귀에
꼬박
낚시는
눈으로
따야
만남
버릴
본가
불어서
생필
소리도
수행
신서
아놔
약은
양심
엉망
오이
오르고
이대로
입에
있구
조시
죄송
질병
집이랑
찍을
차에서
책도
첨에
초록
컥ㅇ
테러
편이야
핫한
해피
행군
혈액
형이랑
흔들
##게도
##프레
##드를
##해주면
##해줘야
##디가
##수기
##ㅗㅏ
##건이
##판에
##태가
##kg
##법을
##법이
##곳에서
##환경
##메달
많이는
그렇구만
들어오는
회사를
예전보다
기억나는
가면서
문제인
없어질
부모님께
비싸고
먹을거
준비할
대단ㅎ
배달도
돌아가고
선수는
기사를
내년엔
##사람들
등산을
##이었나
일반인
가르치는
모바일로
경찰이
페이스
수수료
리니지
드래곤
말티즈
3차
8시
감수
공산
구슬
구글
김희
날씬
노노
느꼈
당한
독도
룸메
모공
뭐하고
반바지
벅ㅇ
벌어야
볼만한
봤는
부를
붙여
사시
상견
서해
선진
세워
소식이
습관이
식빵
실업
쌍커
쏠쏠
아이라
양보
없잖아
이만
줄이고
집사
차고
천재
평화
포토
피엑
했으니까
했으니
협상
환자
환기
환갑
##고루
##하자마자
##도시
##진다고
##플레
##ㅠㅏ
##주는데
##점에서
##왔어
하나로
괜찮으
맛있어서
문제야
그랬을
아파트도
하지마
제주도로
연애할
받아도
마스크는
알려줄게
자격증도
기대가
주택은
야구는
이유로
반려동물이
자세히는
모두가
확인해
할아버지가
어플로
##그래서
관광지
홈쇼핑에서
달달한
왜냐면
DP
가봐서
극한
까먹고
내리면
데뷔
됐지
될까
두통
먹던
목요일
방탈출
벗어나
부활
빨라서
사가
사탕
살던
서류
소풍
쏘는
아시
아랫
약이
요리를
이참
있은
잡은
제육
좁은
주먹
주방
주행
주는데
지저
지네
차단
찾으면
첫눈
쳐서
틀린
풀려서
하드
하닊
화생
##리니까
##치지
##해줘서
##구먼
##요한
##냐에
##람쥐
##길이
##주인
##감은
##정한
##3ㅡ
##위는
##되니
##집을
##살에
##직원
##훈련
그렇겠네
##보다도
결혼기념
##아지는
힘들겠다
가족을
맛있을
아침엔
아파트로
사진으로
가격에
한국이
제주도에서
202
동네에서
##에게는
휴가도
안전하게
ㅛㅏㄴ
가져다
호텔에서
ㅠㅏㄴ
오르면
##스러워
역할을
롯데리아
어깨가
분명히
스위스
막걸리
싱가포
삼천포
우연히
유미의
스쿠터
생필품
이참에
ㄴㅎ
가며
것들
귀가
그말
근력
나쁠
낭만
너를
넉ㅇ
넘어가
누리
돈벌
리얼
며느
모여
모일
목적
바ㅃ
병장
소파
소화가
속초
슬리
안바
알람
오해
이과
이라는
인식이
잘ㅇ
잡을
줄ㅇ
직거래
짜리
참아
초기
추웠
코믹
킹덤
태양
프렌
학대
해드
했잖아
##고도
##니아
##지나
##리그
##우먼
##이너
##시지
##면이
##수거
##의를
##소년
##TS
##계를
##제한
##빼고
##하는것도
그거야
여행가면
시간만
운동하면
처음이라
있을지
대박이
해외는
알려줘서
근처에서
사이버
교통비
골프는
11번
주택에
배송이
그러고보니
편의점에서
오징어게임이
자가용
장면이
사이즈가
최저가
무릎이
단독주택
기숙사
007
1회
5개
걑ㅇ
고깃
곤충
그랟
극단
노출
더웠
덜덜
도박
동갑
됐ㅇ
두면
뜨는
마른
막히는
맞는거
몸무
못살
무대
바깥
반반
발가락
별루
보나
사재
사준
수시로
순대
식구
쌍둥이
썬크림
악마
어령
없게
없다는
열심
외우
원피
이빨
임영웅
장수
재비
좋나
체형
촉촉
크니까
클럽
타는데
탄소
통해
팔이
평가
하자고
한옥
해물
훌륭
##야게
##야구
##었느
##스랑
##오징어
##보호
##국에
##수화
##대기
##겨야
##중인데
##주도
##했고
##했으니
##일을
##화도
##조차
##질도
##좋은
##늦게
그러나
좋아지는
재밌었어
##아지면
##는거는
키우게
재미는
운전해서
먹는다
학교도
비싸다
미국도
동물은
해외로
받아본
커피도
사랑을
여자친구는
당근에
청소기
비싼거
주식은
안나는데
주차장
둘째는
둘째가
맞추는
시급이
추워지니까
똑똑한
오빠야는
예고편
반도체
하여튼
##크래프트
펜트하우스
타이레놀
신서유
7년
BTS
갈지
것보다는
구멍
기구
내장
노후
단골
대응
동계
뒤에서
등교
때랑
마침
말까
말해서
매트
먹여
몸은
민주
밥만
보이면
샀다
아디
안사
알겠다
애를
어벤
어이가
여권
예술
오ㅃ
오라고
와인
이한테
입ㄱ
있잖ㅇ
주무
창피
캐시
커트
티가
풀리면
하울
형제가
혼ㅈ
화학
확정
희생
##자랑
##문제
##경기
##링도
##관도
##관련
##명을
##년도
##쪽은
##외과
##님도
##난이
##난ㄷ
##왕국
그거라도
게임기
결혼이
하나의
가서도
힘들ㅇ
가족사진
그럴걸
이상해
집에서는
찾아봤는데
찾아보니
한국사
이미지가
신경을
효과를
취업을
##했어요
키워본
어머님이
마트에서
모습을
관광객
꾸미고
입맛이
당분간은
일교차
모니터
응급실
해수욕
파충류
플랫폼
1개
감고
감정이
거임
경기는
골고루
공기가
끊을
대사
대량
때나
때무
맞습니다
먹ㄴ
메가
몇일
바라는
방치
브랜
사는거
살려고
상추
소소
시어
시기가
식물
싫ㄷ
심ㅎ
안걸
안하게
알렺
양배추
외롭
이재
인구가
일으
있다니
재개발
정ㅈ
종식
지면
짜고
추세
춤도
키도
팔아서
편은
피티
한다면
후리스
##지니까
##은지
##있지
##악산
##플러스
##투맨
##부턴
##카가
##았을
##19
##번째
##없으면
##애들이
##듣고
사람과
사람인데
이제야
친구야
여행가서
거기다가
##하지도
그때부터
필요하
무서웠
누나한테
찾아보
다행이지
챙겨주
준비해야
세상을
##기로는
마스크도
올라갈
특히나
우리집도
훈련이
반려동물을
##이었지
남친은
방법도
했어요
가르치
스토리가
스케일
실내에서
##드라마
전체적으로
로망이
스테이크
오버워치
ktx
알라딘
가전
가루
가기도
가보는
간편
감성이
강호
경기가
고기가
기프
기절
깜빡
꼰대
내에서
맘대로
모레
못나
무인
밀어
바탕
버릇
봤ㅈ
붙이고
빠르고
사전
사냥
살도
선거
소독
쉽지가
왜요
이병
이요
일인
일하는데
입사
적성에
조언
좌석
중계
차지
텀블
해봐서
##날씨
##고구마
##신가
##하길래
##도우
##리긴
##저래
##둬야
##로에
##가스
##구경
##할꺼
##여름
##준호
##반도
##선은
##무가
##점에
생각나서
다음달에
겨울왕국
건강은
오래되
같아도
드라이
있을거
먹는다고
다행이야
한국은
인터뷰
먹어봐
카페가
사랑의
##사람은
기본으로
반려동물로
계획을
기회되면
좋긴한데
부족해서
외모에
나갔다가
바이러
프리랜
스킨스
냉장고에
트렌치
오랫동안
처갓집
페이스북
2만
7시
pc
가라고
공룡
날에는
낳을
내에
놀다
눈물이
닥터
단기
단호
두드
두려
두껍
따면
많ㄱ
망가
매직
방에서
배차
버튼
번거
보장
보건
분은
성폭
손도
신문
싫다고
안지
약한
없던
에버
연재
옥상
외투
원더
이광
인명
입시
입학
전신
전달
제출
줄게
중순
질이
찍으면
파워
핫팩
호박
화산
##고싶
##들과
##자에
##아보
##라구
##은ㄱ
##구니
##같ㅇ
##미도
##졌으면
##세를
##려다가
##파이
##알바
##린데
##실에서
##핑크
##층이
##많은
##렉스
##몸이
한번쯤은
여행가고
엄마를
들어왔
들어봤어
코로나라서
가족도
자주는
다녀도
그런데도
일본도
중요해
30만원
보험료
방법을
영양제도
##거같은데
생각나네
엘리베이터
스킨스쿠버
가던
고래
공ㄱ
그라
근교
끊어
난민
난리도
내동생
넘은
닫고
더러워
들으면서
때리는
러닝
레슨
로제
마법
마즘
머지
몸살
뭘로
바베
밖ㅇ
별걸
보이고
보스턴
비스
비해서
사이다
사달라고
살지
서브
셀프로
소재
수건
수달
수요일
언ㄴ
욕심이
유도
이영
일과
입구
있겠네
잘한다고
잠만
잠들
적극
제습
제도
제공
존잼
죄다
주기
죽ㅇ
준ㅂ
중소
지인이
하잖
헤이
흔한
히터
힌드
##프가
##이든
##기나
##한ㅌ
##인것
##쿠폰
##대회
##상태
##줘야지
##당한
##제이
##량을
게임에서
하나에
힘들지만
배우들이
필요하면
다행ㅇ
서울이
시작했는데
아프간
가까워
사이에서
등산은
12월에
자동으로
주식을
부분도
자유를
어쩌고
싸우면
바뀌면
인테리
지난번
기념으로
헤어진
인스타에서
인스타그램
때문ㅇ
##아니고
정해진
스케이트
만났는데
곰팡이
몸무게
3주
ㄷㄷ
값도
강사
강하게
개웃
걔도
고인
깔고
나네
나루토
넣은
놓ㅇ
늙어서
다는
달리기
데로
됐다
되더라
들억
따지
많더
많ㅈ
많ㄴ
매콤
맨투맨
모이
못했는데
뭐하니
민감
반성
받기
배도
변경
보급
복구
복싱
봤음
봤으면
부장님
분ㅇ
불어
비누
빡빡
사내
살을
샅ㅇ
선ㅅ
세수
세트로
수다
슬기로
실컷
싸워
쌀국수
요기
워라
의식
이걸로
인연
일로
일요일에
잣있
지구가
천국
춥다
치기
타격
탄수화
피는
필기
한우
할ㄲ
후딱
##전부터
##하구
##하더니
##리는데
##었다가
##오래
##있는거
##다던
##족이
##보도
##가면서
##ㅛㅏ
##글이
##네는
##텐ㄷ
##부도
##타워
##종이
##놨는데
좋아져서
게임이야
오늘의
아직까지는
아직까진
들어봤는데
강아지들도
오래되서
공부해서
피부는
마음으로
필요한거
자기들
준비해서
옛날부터
나라를
얼굴은
보내야
기분도
떨어지고
세계에서
##사람들은
위험해
방송에서
먹었지
안좋아서
월세가
현실은
어른이
자취하면
집중이
이래저래
세상에나
발라야
시국에
논란이
갤럭시
3천
가기가
간절
감옥
강동
갘ㅇ
같기
개이
거제도
고용
구하는
그녀
나으
나들이
나처럼
낭비
놀았
놓을
다쳐서
다람쥐
더운데
랕ㅇ
롤은
면이
못하니까
문어
뭐고
바둑
버터
벅수는
변이
보관
보자고
불ㅍ
빵빵
세단
소고
순천
쉽ㅈ
시장에
신규
엔진
엔딩
읽고
입국
자국
잠옷
적으
전망
조종
주니까
지브
직장이
찜질
찾을
포스터
프린
한끼
후드
##들하고
##리네
##아는
##거가
##라기
##한대
##스킨
##ㅋㅋ
##셨나
##로를
##억이
##려는데
##장하고
##명은
##적을
##페이지
##되어서
##되는거
##당이
##km
##름이
##움이
##님은
##유럽
##막이
##빨리
##놈의
한번쯤
##다가도
들어봤
10번
머리숱
공부해야
기억난다
가을이라
있을때
##하다니
제주도가
가야겠다
교육에
지하철을
가능성이
시험이
산책을
살아보고
다르고
전화도
전화를
연락을
추워질
기사가
취업이
어렵게
웹툰이
선생님도
하더라도
##이크업
나한테는
일어나는
바뀌고
어른들
생겼어
오토바이는
나만의
전역하고
지구온
누군가
##시키는
운영하는
다행이네요
모으는
##라운드
가깝고
사계절이
신중하게
뒤집어
최저시급
1급
2인
28
2달
400
가다
가치가
감이
갔지
거고
거나
공중
공모
광안
군ㄷ
길면
김종
꺼야
끝내고
나나
나왓
남성
다녕
담아
도우
도깨
두산
드레스
들이
등원
디지
때로
또래
뚱뚱
만져
맛나
매출
무게
미성
바껴
바꼈
반드
벌ㅆ
보수
본지
분들은
비벼
상영
상의
수출
신분
쓴다고
아쿠
안먹고
알리
양파
열ㅅ
영어도
예체
오글
워터
잠수
장ㄴ
장점
전날
절약
중딩
중이라
줬는데
증상이
지뢰
집앞에
짜파
첨엔
최신
투룸
풀고
피고
하ㅗ
할꺼
해변
##에겐
##리자
##라떼
##겠더라
##셨을
##가을
##가나
##베리
##였다
##했느
##했지만
##장이랑
##관에서
##화폐
##것이
##행이
##움을
사람인
생각엔
생각이야
운동으로
맛있다고
맛있더라
날씨를
##리는게
다니던
사람들만
배우도
##인가요
애들만
다이빙
연애도
끝나는
동물도
영어로
##게임이
시험을
기다릴
이사를
궁금한
하기엔
정신적으로
연예인이
저렴하고
학생들이
그래야겠어
보여줘
결국은
시원하고
좋았을
아픈데
경우는
카드로
경험을
먹으라고
나갔는데
깔끔하고
케이블
마당에
디자인이
안쓰는
부르면
페이커
슬프다
괴롭힘
에스파
데리러
즐겁게
강철부대
슬의생
맥도날드
네일아트
상견례
26
2000
가해
갈수
갈등
갈색
갑작
강요
개구리
거를
것보단
겸사
곱슬
관람
궁그
그릭
금붕
깔아서
놀다가
다크
담임
덕에
될거
들수록
마사
맛을
맞으러
먹느
먹다
먹긴
멍청
못먹
밀크
발ㄹ
밥먹고
버렸
번지
병ㅇ
살다
스쿼
시에
시위
시끌
실용
안봤는데
알ㅈ
없어야
오로
있기는
자제
잘했다
죽으면
죽어도
짓고
짜는
참을
출석
퀄리
토욜
팔았
해달라고
했으
했ㄱ
확산
##만은
##자만
##우리
##가능
##같은데
##끈한
##집으로
##끼고
##김밥
##곳은
##놔서
##환이
시간ㅇ
들어올
괜찮았
가족들은
건강에도
가을을
이상이
나이들면
알아봤는데
가격을
있었을
장난이
물어보면
좋아하시는
부산에서
세계가
많아야
보험이
웹툰은
수술은
나와도
100일
인생이
간식을
네이버에서
어른들은
시즌2
성공한
확인하고
50만원
정확하게
안된다
유전자
언젠간
햇빛이
스파이더
소음이
반응이
머리카락이
신용카드
프로젝트
지저분
##주인공
슬리퍼
기프티콘
바베큐
슬기로운
강력
거실에
고3
구분
국룰
그르
기달
기미가
김태
꼬리
남을
대우
대란
된다는
딸은
레시피
믹스
밖으로
반은
방지
배출
보지는
사려면
사주고
섭취
소품
속에서
손님이
수원
스틱
시집
신나게
싶음
안올
안보는
약해서
유모
유튭
이등
인간이
일하기
읽는
자식이
젊을
접근
정기적으로
주식이
중단
지겹
처형
총리
칼퇴
캐리
트레이
한적
허벅
확률이
회계
##하루
##리즈
##리는거
##이들
##치게
##었는지
##해져
##테크
##대에서
##냐구
##권은
##중이야
##관계
##너가
##화로
##검사
##렌지
##챙겨
좋아질
좋아했던
엄마의
재밌었던
코로나에
괜찮았는데
가족의
그럴거
주말에도
다이소
유명하지
캠핑을
선수도
바람의
여자친구도
취업하고
대학원
##거든요
캐릭터를
쿠팡은
저렴해서
에어비
해보자
편의시설
계획은
지난주에
하늘에
지내고
오토바이가
하던ㄷ
이모가
답답해
가족들끼리
마리오
벌레가
갈비찜
수분크림
분리수거
보증금
춤추는
학창시절
한라산
줄넘기
알기론
텀블러
예체능
3학년
4개
px
거제
것에
고르는
공교육
군사
극혐
끊고
낙엽
느와
되도록
둘은
따지면
또한
마감
많나
말로는
말로만
먹으니
면세
무언
벌금
베스트
부르고
불펴
비올
사나
생일이
아드
업ㅊ
엊처
오마
우도
인식
인상이
일이야
잊을
자소
제네
즐기고
지정
짓을
쪄서
차타고
찬성
참석
최선을
카투
파도
파악
팬들이
편인
피카
한꺼
한계가
할텐데
호날
힠ㄷ
##신청
##하잖
##거라고
##이던데
##기기
##랑도
##인지는
##느낌
##다느
##세대
##공간
##동에
##줬어
##3ㅗ
##장애
##2년
##분은
##남자
##백신
##션이
사람보다
생각하지
여행의
영화에서
재밌던데
해야게
백신은
없어져서
운전도
운전하기
사진이
만나야
중국에
다이어트에
전기세
살아도
너희들
수영은
사회생활
자전거를
무섭고
접종률
##한다는데
에어팟
연예인들은
내려가
미용실에서
생겼으면
정보가
업무가
바꾸는
포기하고
지방은
다녔는데
정확한
대화를
꺼내서
거북목
전자발
줄어들
외로울
라떼는
티켓팅
최악의
집주인이
어땠어
유일한
엉덩이
학부모
2박
33
5시
가으
갗ㅇ
같다고
고령
고기는
교사
구석
그럭
금메달
깊은
깥ㅇ
나르
다름
대처
대바
떠들
뜯어
막힐
맞벌
물류
민방
바삭
반영
발음
뿌려
사본
살림
서른
손녀
술이
시트
신부
신행
아녀
아닞
아시아
안했는데
안봐서
않네
알림
양도
엄두가
엑스
오바
외곽
원격
원씩
이민
인해서
일한
일해서
잘먹
잡ㅇ
잡았
조인
죽이
중성화
찢어
취급
코시
테마
토트
틀면
팔자
펌프
평점
한소희
해양
해안
혁신
화요일
##니는
##신고
##전을
##드에
##해봤는데
##오늘
##인드
##인으로
##셨어요
##마일
##디는
##가다
##사리
##수수
##호텔
##티도
##근한
##근처
##대한
##주를
##주기
##선도
##분들은
##그럼
##살은
##왔ㅇ
아니게
좋아하니까
좋은가
아이구
아이패
나오긴
힘들었을
언제든지
마음도
병원비
필요는
주말마다
나라면
지하철도
배달음식
받아보고
가까우면
봐야겠네
바다도
나서는
잘못하면
##라이딩
아버지는
##이었으면
해보려고
검색해서
필수인
계절에
수학은
걸리지
햄스터는
##영화는
인스타에
경제적으로
북한이
답답해서
마당에서
수준이
추위를
렌트카
휴양지
자극적인
직구로
당일치
이루어
2종
99
가로
가래
거진
건ㅈ
결론
계급
구해
귀칼
극복
기차가
깊게
넣을
넣어야
니트
모이면
민폐
바짝
바다는
박서
박보
배는
번만
번역
사상
사줘야
사놓고
살은
서민
설거
성실
성향이
시세
식탁
신의
쓰느
쓰는거
아느
아미
아반
안봐
알압
여기가
예의
우찌
원래도
이버
이란
일들이
입어도
있군
있길래
잊어버
잘어울
잡아야
저것
전ㅎ
제시
조명
주신
진단
진출
채우
채팅
치우고
커버
커뮤
파는데
폭탄
협찬
화내
확률
흰색
히트
힌ㄷ
##하대
##아아
##이스
##치즈
##오니
##럽고
##차이가
##8ㅇ
##났어
##관을
##업체
##센스
##끼리는
##계획
그거로
##하고는
##이라는게
하는것
게임할
게임하는
재밌는거
하하하
나오느
##해야겠다
10개
여자도
공부하기
병원이
자기네
학교가
저번에도
비싸다고
중요하지만
안되니까
얼굴을
있었나
신기하게
돌아가면
카페인
당근에서
자격증을
아까워
많아진
바다를
어렵고
보이는데
친구들하고
결국엔
나쁘진
라면이
150
메뉴가
짱구는
사귀는
예민한
시설이
신선한
안타까운
이수근
이케아
쌍커풀
전자발찌
5ㅏ
ㅗㅐㅆ
ㅠㅐㅆ
가복
갔ㄴ
강추
개를
거였
겁이
경유
계발
관객
구해서
근로
글을
끼어
녀석
놀기
놓치면
달린
당할
돼지고
라라
마그
멕시코
문을
물은
발레
밥먹
번이나
보충
봐바
부품
분들도
뽑을
사줘
솔로
수염
스몰
신작
써봤는데
썰매
안한지
여보가
영원
유해
인성이
일ㅎ
일인데
있단
자도
자상
작성
잔여
전여
점검
정형
젤리
주머니
줄ㄱ
증상
철저
최초
타봤
터져서
티몬
틱톡
판단
프레
하이라
해복
활발
##만으로
##지느
##리터
##아졌
##드니
##해준
##시는데
##오는데
##보내
##가자
##구를
##ㅎㄹ
##할텐데
##버려
##려다
##20
##화는
##겟다
##쳐야
그러는데
그러던데
그렇ㅈ
좋아하긴
좋아한다
나오기
강아지나
괜찮고
가족과
다니니까
가을인데
주말은
만나러
시작해야
중요한거
중요하다고
##정도는
비슷해서
뉴스가
##하면서도
출근을
##에게도
귀엽겠다
기사로
이용할
바다에
다양해서
소개시켜
잘못된
기대하고
불편해서
감기걸
수업이
신랑도
어머니는
행님도
거래량
걸리기
해봤ㅇ
받으면서
어찌나
상대방
역할이
언젠가는
고양이랑
꼼꼼하게
배고파서
디아블로
프리미엄
드래곤볼
포토샵
싱가포르
미성년
한꺼번에
2학년
가위
가볼까
갑오징어
같았는데
거구나
겪어
계정
고를
고기를
구두
국산
남겨
낳는
높게
놔두고
되더
된거
딩크
라이브
라디오
립스틱
말하
몇백
무리가
바닐
벌면
보시
본다고
분노
사긴
사례
사막
살펴
소스
소득
소리는
수소
술집
스프
싶었던
썼는데
아고
않ㄷ
압박
았ㅇ
양양
오징
온난화
요양
이랬
일해
입혀
재능
저게
전과
접수
줄여야
지킬
집밥
청춘
풍경이
프라
피크
필욯
핑계
하얗
할라고
해얗
호랑이
흥미가
힙ㄷ
##라미
##라니까
##었는ㄷ
##셨으면
##사건
##했으니까
##적도
##되나
##역에서
##좋게
그러기엔
생각에는
생각하는데
다른가
운동선수
힘들었던
겨울을
키우던
예전처럼
아침에는
운전이
저녁으로
드라마로
얘기하는
찾아야
연애가
지하철에서
먹어본
시켜먹
거기서도
싶어요
군인들은
좋아하나
##사람들이
자전거는
구경하는
행복해
핸드폰을
100만
2차는
어머나
스포츠는
자리에
모르겠어요
안먹어
시끄러
꾸미는
당근마켓에서
이뻐서
방탄소년
환절기라
지옥철
테이블
학습지
이태원
신서유기
어벤져
커뮤니
1ㅜ
4천
ㅛㅐㅆ
가죽
간이
개도
거미
거리는
걸으면
게잌
계열
곳인데
공식
국회
긑ㅇ
끌어
나주
나아지
낫ㅈ
낮엔
내한테
녹차
당당
댕댕
되겠네
들으니
많았는데
먹ㅈ
멋ㅇ
메달
뭐래
민족
방과
백종
버블
버텨
보쌈
봤는ㄷ
불이
빵이
살쪄
소용
소금
순한
순위
술은
시장이
심할
싶ㅈ
쏘카
아낄
아기가
않으니까
어학
올렸
유료
이중
자본
장학
재건
정답
정해서
정부가
조선
주연
죽기
창원
추우
캠프
커리
컬러
코인은
테니까
토론
투어
팔면
포르
포메
하구
할만한
합리
합니다
화창
횡단
힙드
힞드
##하자고
##지말고
##레스트
##이제
##기후
##시게
##든데
##으시
##수에
##티브
##했는
##선으로
##소리를
##조가
##케팅
##ㅑㄴ
##패스
##돼지
##넣고
우리끼리
그러려고
##이라던데
##까지도
여행으로
들어와
결혼해도
나오더라
정도의
건강해
맛있긴
맛있으면
공부해
재미를
관리하기
있었지
느낌은
동물들
카페는
장난아니
너네도
올라와
바람은
교통수
몰랐던
예약해
주식도
자연이
자유로운
여친은
부담스러
대출도
환경에
헤어지
대중교통을
위해서는
공군이
식당에서
바꿔서
깨끗하게
해군은
기간도
제한이
시절에
진심으로
여드름이
모으고
이상형이
조건이
수상스키
고무줄
그저께
외제차
수족관
외할머니
요거트
피었습니다
사재기
500원
가물
경매
교양
낮ㅇ
녹음
농장
늘어서
다저
단단
단톡
담주에
더이상
들ㄱ
때리
망고
미팅
뱃살
법을
보리
보진
보글
보라고
본격
뼈가
살때
살려면
설계
셔츠
소통
실감
싸워서
쓰리
아기는
아그래
언처
언론
없더라
엌ㅊ
에고
연고
오냐
오타
오빤
완성
요청
용기
원이
위가
위허
이별
인데
잇ㅇ
잘하니까
장도
재산
점수가
제복
조치
졸라
졸ㄹ
주서
지낼
진자
쨍쨍
찾기가
최종
치워
콧물
큰아
키즈
키웠는데
편도
피가
하든
호빵
화나
흘러
##에이
##들ㄷ
##하우
##간히
##거리고
##있으니까
##국밥
##수육
##글라이딩
##럼프
##네슘
##주니
##주니까
##바리
##했대
##비용
##일수록
##2ㅗ
##너스
##클래
##됐으면
##화까지
##되게
##김치
##갔으면
사람에게
아니네
그렇네요
좋아했어
하는구나
들어보면
얼마전
언니야
오빠한테
혼자가
##적으로는
문제로
운전하고
##하다보면
여름에도
##스크가
학원에
있었음
보내줄
##봐야겠
다이어트가
놀러가
사랑니
치킨이
남자친구도
남자친구는
훈련도
선생님은
않아요
간식도
배송비
네이버에
구매할
전기차는
아기자기
말해줘
들었ㅇ
해봤지
정리하고
근육통
기준으로
아쉬워
케이스
3ㅏㄹ
콜라겐
태어났
캐스팅
소중한
애완동물
물리치료
완벽한
##아파트
초콜릿
청첩장
이병헌
느와르
토트넘
4ㅐ
가이
가조
같던
걷고
경계
관한
교촌
그루
길드
끈적
남매
넓고
넷이
노제
놀랍
달리는
당하는
들려
떠날
뜬금
리스트
말ㄱ
맛으로
메이크업
바래
밝혀
밥이랑
방은
변덕
변화가
보려
봐약
봤ㄷ
분도
비오고
뽑는
사슴
삭제
산은
설정
소세
송강
쉬면
시력
시범
시합
싶지만
쏟아
아몬
안받
안부
안산
안갈
알뜰
애기는
언능
열면
오사
올리면
웃음
워치
인ㅅ
일일
임시
입기
있겠지만
자는데
자르는
점은
정서
제도가
조아
좋으니
좋더라고
주스
주느
지게
지성
착용
체중
타다가
터진
틈틈
팬이
포카
하아
하락
한방
해약
햇볕
호흡
##고사
##리만
##거려서
##체도
##해는
##해줬
##인게
##인의
##다더
##ㅎㄴ
##노래
##였을
##중간
##주름
##학습
##일거
##년생
##파티
##10
##그룹
##그레이
##증은
##랄까
그래두
사람드
그러더라
##다고는
아이쿠
재밌으면
군대에서는
겨울도
건강해야
맛있고
어떤지
버스로
버스에서
배우러
필요해
사고는
사진은
준비는
어릴적
생활에
느낌이야
나랑도
돌아다
이야기는
동네로
출근하는
연락해
귀엽네
바다에서
영상을
영화관에
반려동물은
학생이
연예인들이
유행하는
그니깐요
월세는
선택할
ㅗㅏㅎ
호텔이
올림픽에서
##장에선
힘드니까
멀리서
제품이
공기업
일상생활
##하려는
공항에서
유재석이
어떨지
테이프
머릿결이
싸이월드
평범한
싱크홀
잔잔한
트라우마
성폭행
워라밸
에어비앤
1명
1주일
5시간
5천원
AI
ㅛㅐㅇ
가든
갑질
같앗
그전
그중에
기장
길에서
네비
님은
다으
됐나
되네
두근
따는
땅콩
때쯤
떠나서
레스토
리듬
리트리
마이네
망할
머니
머선
몇몇
모은
모아야
목에
바꾼
반전
발급
방사
배신
배를
배치
배로
밴드
볼ㄹ
비쌌
비와서
빵집
사요
사라고
산지
소소한
수단
순두부
스튜
아ㅃ
안간지
없엉
엊ㅊ
오지게
온도가
올릴
올해도
옮겨
왜그
우려
워킹
이지
일ㄷ
자긴
잡기
제약이
좁아서
좋기
줄을
책이
철수
최전
축가
칼날
코론
타도
털갈이
투명
하ㅛ
하지는
하잖ㅇ
한게
한결
한방에
할려고
해장
해줘서
헐랭
훔쳐
힞ㄷ
힠드
##어택
##게요
##지역
##리즘
##라인이
##이게
##었대
##저런
##인과
##있던
##러쉬
##키우
##4ㅡㄹ
##할인
##버스가
##차이
##꺼는
##약도
##래요
##결혼
##ㅆㅇ
##동도
##각ㅎ
##판이
##된거
##되기
##쓰면
##먼트
##없고
##멸의
##후에
나도나도
그러닌깐요
그거에
생각했던
좋아도
코로나를
다음부터는
오래걸
오빠네
바로바로
자기랑
좋을까
얘기만
제주도도
나왔다고
스트레스는
따라갈
봐야게
비행기는
구경하고
웹툰도
수업은
선생님한테
먹었더니
하더라구
방법은
계획이
인생의
스포츠를
지난주
조카들
ㅠㅏㅎ
업무를
데려다
메뉴는
육아는
감사합니다
카톡으로
대통령이
단순한
왜이리
마찬가지야
아가씨
시스템이
아부지
기상청
PC방
전원주택
##ㅈㅈㅈㅈㅈㅈㅈㅈㅈㅈㅈㅈㅈㅈㅈㅈ
숨쉬기
할리갈리
여럿이
에버랜드
스파이더맨
마그네슘
리트리버
1만
2배
2호선
4만원
55
6년
가요
가꾸
각질
간에
간혹
갵ㅇ
거슬
거품
고치
곤란
교훈
구체
너넨
덮고
돟ㅇ
되덜
되면서
듬뿍
마신
마셨
많더라고
맞기
맞았어
매미
모름
병이
볼ㄱ
봉투
비디오
송중
수십
순식
시그
실기
심하
십만원
아재
안갔
않음
알차
애용
양쪽
얼ㄹ
얼려
엘베
여의
연ㄹ
열차
오줌
온수
올인
웃는
원인이
위메
유아
육회
일해야
입었는데
입장에서
자켓
잘랐
잘한다
잘되어
잠은
저두
제외
조각
중에는
줬으면
즉흥
증명
지상
집착
짱이
척추
추락
취득
츄르
콜ㄹ
키오
타입
탈락
트리트
편하지
편한데
행님이
호떡
혹한
화투
확장
후후
흥행
힙합
##하가
##지방
##는ㅈ
##이기도
##이니깐
##피는
##저녁
##말라고
##으닊
##보게
##사면
##구석
##긴다
##나보
##럽다
##과의
##ㄴㅇ
##루마블
##주사
##장터
##산다
##검색
##점프
##박한
##품으로
##유치
##규모
우리엄마
근데도
그러긴
한번만
아이언
남자랑
그랬ㅇ
하루도
하루하루
많은가
##인가봐
얘기해서
##정도로
신기하
나랑은
캠핑장
따라가
싫어해
귀찮을
퇴근하면
추억을
결혼식에
직장생활
기차타고
화장실도
느끼고
마트가
비용은
똑같아
여유롭게
와이프는
중독성
정확히는
안정적인
마당이
도착해서
하이틴
걔네는
많았던
##시키고
이정재가
튼튼한
에너지가
서든어택
조정석
매니저
역대급
가습기
오메가3
선진국
시어머니
아반떼
하이라이트
보글보
1월
2천원
3시
4계절
56
600
가지는
갇혀
거예요
게잊
골든
과장
관ㅅ
괴물
교도
극장에서
기르는
나게
남으면
님이
대결
대놓고
더블
동성
될것
드릴
듣던
등에
따서
똑ㄱ
뚜렷
뜨거
마져
마스
말대로
매물
매점
멀면
멋이
멋져
물ㅇ
버전
별게
보안
부업
분홍
살거
샘플
생강
선정
손재
손바닥
스도
승진
시야
시나
시승
시력이
실종
싶더라
쌓아
아픔
안가고
앞이
얘네
어묵
언ㅊ
얻는
여신
외교
월요일에
위치가
일하러
자부
잘맞
저건
전도
제철
주부
집에도
쫓아
차분
최공
친하게
크기
큰거
킬링
터지
통통
퍼즐
하진
하겠지만
현역
형님이
혼나
홈페이지
흡연
##하시고
##하세요
##이에요
##기름
##인ㅇ
##겼는데
##로울
##코트
##햇는데
##대장
##르지
##르르
##르트
##교환
##했ㅈ
##부장
##부에서
##았ㄴ
##포인트
##7ㅇ
##란드
##량도
##층은
생각했어
여행갈
영화랑
시간되면
들어있는
##부터가
군대리아
강아지한테
운동하기
어디를
겨울만
겨울이라
가을엔
나이들
배우들도
알아볼
문제지
운전하면
역시나
당연하죠
만들어야
시작할
사실을
어려운데
안되지
##다니고
생활비
느낌도
돌아다녀
비슷한데
동네도
연락도
근처로
선물이
여자친구한테
물어본
자격증은
이해를
사회적으로
영상이
자전거가
치료제가
이유를
결혼식은
맛집은
도움을
인생을
여친도
해본적
성격은
연기자
상황에
화장품을
정보를
거리에
빠르다
식당도
추천해준
타이타
숙소는
케이티
선선한
사귀고
대비해서
돌아다니는
##스토리
목욕탕
##사이즈
카라반
교과서
두드러
두껍게
피카츄
방탄소년단
재건축
3ㅡㄹ
4명
가겠
가실
갈ㄱ
개미
개방
거길
거리도
걸리고
걸어가
경영
고고
공이
관시
구이
구비
구몬
굴러
귀멸의
글로
기를
깎아
껴서
껴입
꼬꼬
나긴
나ㅃ
난다고
남궁
내린
넘으면
데에
두세
두발
두시간
두마리
듯이
딸도
땡큐
떨ㅇ
레알
맞네요
맞으라고
메시
모으면
목적으로
무려
뭔ㄱ
미스터
바늘
밧있
벽에
보닊
봉쇄
사춘
살자
삼십
생생
샤인
서버
섭섭
성과
소송
승차
시장에서
심야
써본
쓰긴
아닏
안하니까
알ㅂ
앴ㅇ
엑셀
엔씨
연ㅇ
연령
열린
오잉
온ㄷ
올려서
운행
울신
웨이브
이색
인라인
자를
잔디
잡혀
장바
장비가
재작
저축
죽이는
중잉
진급
진주는
집어
집에는
찍ㅇ
찾압
천사
철저히
추진
춥지
치열
카이
캇있
커다
코에
탕수육
터졌
통제
포상
풀릴
필ㅅ
형한테
휘발
##에몽
##서야
##라던데
##었더니
##겠당
##말을
##다닥
##다더라
##마저
##가로
##구장
##8ㄴ
##졌ㅇ
##주얼
##정신
##적일
##적이야
##렸ㅇ
##TV
##넌ㄷ
##화장
##력으로
##조림
##그릇
##란트
##케이크
##색은
우리한테
사람으로
아니니
아니었으면
그러시
좋아지고
좋은지
게임들이
##이랑도
나오나
힘들거
10명
가는건
이상기후
고양이들이
없어지면
드라마에서
비싸면
비싸네
찾아봐야겠다
했는데도
사실상
음식물
어릴땐
나라의
주변엔
느낌으로
축구도
알려주는
쇼핑을
사랑은
점심시간에
물어봤
자격증이
이해할
자전거로
기대된다
있으신
아르바이트도
월급을
행복할
핸드크림
먹었나
연예인은
화장실에
부작용은
그것이
대출을
대출이
계절을
지역은
있긴한데
대부분의
시즌이
활동을
심각하게
때문인
소식을
현금으로
가정을
당근마켓에
해봐야겠다
##3ㅓㄹ
부지런히
조기교육
이어폰
##것같아
단체로
대상으로
1박2
소문이
잘됐네
에너지
보라카
재활용
기저귀
미역국
도라에몽
울릉도
해운대
중소기업
겸사겸
마이네임
스도쿠
타이타닉
2급
4번
4ㅡㄹ
5살
VR
ᄏᄏ
가난
갈ㄹ
갈려고
갑ㅈ
갔을때
거이
걸까
겨드
공인
구하기가
기관
낫있
낮아
낳아
놔야
누서
다닉
달은
달ㅇ
달걀
도보
두배
뒤쳐
때느
떠나고
뚜껑
뜨고
라식
많음
많다는
맞죠
맹장
먹구
모텔
목소리도
몸만
못해도
무관
반짝
받느
받ㄴ
배에
배낭
배움
버린
버틸
번식
봐라
붙이는
뽑고
사온
사기가
살려
상위
새거
샤브
설득
설악산
성별
세게
슬ㅍ
승리
승인
신이
신겨
쓰는게
아바
않ㅈ
앝ㅇ
야생
영웅
옆집
예쁠
오는거
왔다고
우는
원어
이스
이다
이성
이십
일주
재워
저요
저흰
적에
적을
전까지는
접촉
정ㅎ
정ㅂ
조던
지냈
크레
태권
터치
트위
파견
파괴
펑펑
편이라
폰도
플립
피지
하셔서
한일
한화
합의
합법
했다는
했어야
했었지
헤드
회식이
후기도
휴식
##자재
##하이
##하여
##하겠지
##우나
##재그
##마음
##사무
##구매
##속으로
##렇ㄱ
##운이
##대출
##준이
##단지
##주는게
##싶은데
##절이
##장면
##비싸
##일지
##일때
##작이
##소를
##잔치
##방으로
##11
##형은
##끼리도
##그거
##통에
##5일
##범죄
##롭고
##메뉴
##킥보드
아니구
그렇더라
생각해야
그렇게는
영화보고
시간표
결혼하기
결혼식이
괜찮았어
공부에
가을옷
고양이들
나가도
필요해서
사고도
만나기
서울대
시작이
시작ㅎ
걱정도
걱정마
음식점
얼굴만
생활하는
영어공부
마스크팩
출근길에
기다리면
반려용품
생각해보니까
애기들이
이러면
차가운
지원해
무섭게
수업을
수업도
분위기도
회식도
들어가기
부담스럽
경우에는
기념일에
생겼는데
지역마다
부대에서
국가에서
경제적
토끼는
이모티콘
책임감이
대형마트
마라톤
도로가
멋지게
오락실에서
스펙이
끝났으면
두번째
김연아
애매한
지그재그
안타깝다
유일하게
후라이팬
어두운
간호사
소나기
직업군인
빡세게
배틀그
전시회
목도리
무사히
누리호
훌륭한
요기요
도깨비
보글보글
휘발유
1ㅣ
2차가
가사
가얒
것들은
경기를
고미
그람
글씨
난ㄷ
남들이
낳아서
넣었는데
네이
년도
농담
다치면
대는
대피
돌ㅇ
듣는데
때보다
때리고
똑바로
맨유
멀티
명은
못본
못봤
문의
믿어
반ㄷ
반대로
발로
변비
봤네
부스
불ㅇ
브레이
뽀로로
뿐이
사정이
사소한
살해
속옷
손질
쉬어야
시각
식이
실적
쓸모
안생
엄두
없더
엤ㅇ
연상
오만
오브
우정
웃겨서
원인
위주
이승
일정이
임플
자이
자몽
잡채
장롱
재고
정동
조식
주도
주워
죽었
진돗
진주에
짱이야
차이나
체감
초등
코카
크기가
클렌징
타느
타코
타니까
파스
파느
필테
하ㅠ
학점
한쪽
할부
헝다
혼내
희귀
##봐요
##들로
##하늘
##거도
##피싱
##치로
##한ㄱ
##한잔
##해봐야
##겠엉
##시니
##시킬
##있ㄷ
##있다가
##보여
##사항
##구도
##수당
##돌아
##처리
##중독
##했는지
##타가
##산에서
##년은
##았다고
##눈ㄷ
##파는
##렸으면
##클럽
##셔츠
##없다
##와는
##50
##값도
##곳도
##합이
##픈데
##좋다
##낚시
##DT
우리나
좋아한다고
게임ㅇ
있는건
거기까지
아이크림
들어보는데
##아지고
하나를
나오더
이런저런
해야하는
어디에서
힘들었는데
##는거라
가족들도
10억
이상ㅎ
우리나라의
나이는
버스나
하루만
자기들이
주말이
누나들
챙겨먹
사실은
대단한데
대단하시
나왔ㅇ
가야하는데
만화방
여기에
##게임은
알려주면
뉴스도
다르니까
사라진
사라지는
추워도
낚시도
낚시를
등산도
몰라요
치료를
예약하고
내용을
방송에
구경만
접종률이
##가지구
멋있게
한다던데
했던거
들어가야
필수야
미안하지만
피곤한
기름이
기름값이
하늘을
염색을
안해봐서
사기꾼
평소에는
집중해서
그정도로
않았으면
깨끗하고
느껴지
책임감
치고는
뛰어놀
개봉한
급여가
고맙지
지나가다가
막히면
의견이
가라앉
흥미진
어딘지
면역력
일자리가
기운이
트러블이
무거워서
##스포츠
취사병
스케일링
지브리
바닐라
오사카
겸사겸사
29
3ㅔ
3000
sn
가력
가기는
가운데
개선이
거러
거잖아
고백
고라니
구내
구래
글고
기적
기르고
깁스
내꺼
넉넉
노을
놀랄
높이
눈치가
다칠
당해서
돌리고
동백
돼도
되니깐
두부
두달
땀을
떄문에
떠올
라멘
레몬
말잉
맛잇
맡기고
모발
몸으로
미얀
민원
민트
바빴
반값
발에
백숙
보도
보스
불고
브라운
비어
사려
살라고
삼성이
순서
숨이
슬램
심플
쓸쓸
알긴
양식
어무
오니
오아
오목
우짜
의존
인프
있닥
자만
자대
장인
저질
전어
전남
젊었을
정비
정규
조회
좋어
좋잖아
즐ㄱ
지치
집앞
차만
찰떡
체온
총을
친해
키고
터지는
편인데
폐쇄
푸석
하너
하라는
한닥
해석
혼인
활성화
##거리도
##드리고
##이여
##피가
##었으
##망이
##겠구나
##저리
##오염
##다나
##로드
##든ㄷ
##가격
##매가
##속에서
##였음
##주차
##3ㅜ
##ㅗㅐ
##일ㅇ
##금액
##9ㅇ
##갔을
##님들
##축구
너무나
친구를
나오잖아
나오자마자
키우면서
기억하고
내일로
없는게
백신접종
나가니까
좋을것
관리해야
얘기하면
중국집
가야할
있었ㅇ
먹어봤
그런가요
고민하다가
지나간
비슷할
출근해서
귀찮고
우리가족
##스타일
휴가가
아버지도
##봤어요
자유가
추석때
회식을
##할때는
단풍도
그러니깐요
화장품이
수학을
연습을
맞으면서
검사를
바꾸면
안그러
##해지니까
똑같지
10월에
전공이
치과는
영국은
공원에
어릴때부터
행동을
베이징
속상해
용품도
입어보고
역세권이
나머지는
미치겠다
보이스피싱
가상화폐
칼로리
강호동
케이블카
당일치기로
백종원
장바구니
31
4살
LG
가리
각종
같을
같ㅊ
거다
거주
경량
고지
고충
구운
그중
그분이
그다음
금리
넉ㄱ
넓어
넣어도
놓는
눈만
달아
닭강
닮아서
담요
당시에
대략
더우면
도토
도넛
되길
드려
따릉
때라
똑가
막을
말자
말이지
망한
멜로
뫃ㅇ
반차
병워
보기도
봉준호
부부가
빗소리
사니
샀던
새록
생긱
생김
섞어서
선임이
성분이
소원
소년
소유
수월
술마
숨겨
쉽고
승마
시러
신인
실물
심장이
쓰라고
아들이랑
악플
안했
안한다고
않냐
앞ㅇ
얘긴
에피
영하
예측
오케
온갖
요리는
웃김
원은
유병
이긴
이네
인건
인원이
임산
있거든
잘하긴
장나
재밍
정시
정ㅅ
존맛
졸랭
종목이
좋기는
진도
찜닭
차례
차리고
천만원
첫사랑
청구
쳐야
친환경
콘솔
퀴즈
크지
큰일이
클립
타봤는데
터널
팀장님
파업
팔도
페북
피구
한겨울
했었던
혼났
환자가
##개를
##지는거
##더가
##아프
##오지
##오나
##셨ㅇ
##다더니
##마냥
##가입
##국에서
##압이
##연애
##티는
##안해도
##공포
##놓을
##쿨링
##비만
##조사
##종류
##없음
##와의
##놔도
##현이
##역에
너무너무
그런다고
우리만
아니라도
코로나19
언니들
다음으로
건강관리
맛있다
10키로
아침에도
백신맞
##하다면
자기전에
부모님들이
학교를
챙겨먹고
어릴때는
##다니면서
느낌이라
느낌인지
보내면
싶은ㄷ
비슷해
축구가
캠핑도
알려준
산책하는
티비는
조심하고
신경이
추워졌
사이판
좋아하더라
사용하고
궁금하네
영상도
영상으로
불편해
방송을
에어프라이
분위기는
피해자
부작용도
조카도
당장은
부대는
자신감
자리에서
##구만요
어플도
큰일이네
부러운
용돈도
초딩들
파마를
본인의
소식은
전자상
삼성전
영국에서
맞추고
##해졌으면
지나가다
편리한
처벌이
손흥민이
돌아가면서
아래로
소형차
독서실
로켓배송
맛난거
자율주행
버거킹
지겨워
보람이
스무디
패러글라이딩
금붕어
번지점프
꼬꼬무
슬램덩
32
4ㅓ
SK
가겨
갔다고
강형
강해서
같어
같덜
같기는
개운
갬성
건물이
겁ㄴ
계신
고혈
고새
구성
규제를
그대신
기획
길은
꿈도
끌려
난리가
났어
놀ㅇ
놀래
높고
놓아
눈ㅇ
눈싸움
늘고
다신
다루
닭갈비
더빙
던킨
돌리면
두명
들지
들엉
땀도
땅따
때의
뜨겁
라운
마땅
많앗
많지는
말랑
맥날
머라
멀지
몇달
몰려
문열
미어
민망
받게
밤엔
배불
번갈
봤었
부위
분식
뿌리
사보
사줬
샤넬
서랍
손잡
수고
수박
쉬울
시누
신곡
실감이
싫으면
싸긴
아시는
아진짜
알약
얘가
에프
엘지
여섯
역에서
오죽
옷장
왕창
욕을
우먼
원숭
이자
이를
이집
입금
있ㄹ
자전
작ㅇ
장이
장염
쟤는
적ㄱ
전반
점프
정착
주근
죽겠어
줄었
줘야지
짜릿
찌는
채워
처남
치약
코어
타자
타격이
투니
트레이닝
팔아야
편견
폰을
풋살
프라이
하겠ㄷ
한입
할인이
해지
현명
화해
흐름
##봐야지
##내기
##리면서
##는것도
##프리
##이어서
##때문
##시트
##스틴
##ㅅㅇ
##코드
##머스
##머리는
##결제
##정하고
##장만
##비스
##돈으로
##되긴
##것보다
##희가
##증을
##택시
##올림픽
##평가
##찮ㅇ
##따로
##휴일
##직은
##역을
##콜라
맞아ㅠㅠ
우리신
사람처럼
생각인
생각으로
하는것도
여행하는
그렇게라도
같은게
영화인데
재밌더라고
나오던데
운동해서
무슨일
##이야기
맛있던데
##해야할
아빠를
그럴때
우리나라랑
버스에
하는데도
백신맞고
문제를
##하기에
되는지
한국의
미국의
끝나야
느낌을
배달은
##게임을
비슷ㅎ
귀여우
올라왔
출근길
그만한
알고리즘
애기들은
좋아하실
취업할
취업해서
보러가
많아도
청소도
청소하는
기본이
할머니도
구경도
광고가
이쁘긴
맛집도
늦게까지
택시비
작년에도
##하는거야
이후로는
가르마
느끼게
기념일은
어른들도
지역에
노력을
햄스터가
똑같네
추천해줄
이불도
11월부터
담배를
직원들
하이킥
진주에서
최소한
수입이
무난한
무지개
정촌에
집주인
소녀시대
클래스
마켓컬리
별의별
원더우먼
지구온난화
유모차
제네시스
흥미진진
sns
미얀마
3달
CC
ㅠㅕㄴ
갈치
강앚
같ㄹ
같았
거자
거냐
거리를
게시
공무
구러
국물이
군고구마
규모가
급한
까지는
낙이
날엔
너처럼
넣ㅇ
눈빛
늦을
늦잠
단위로
대가족
던져
도미
독특
됐ㄷ
따가
땅이
마우스
맞재
머야
멀미가
모을
문과
미접종
바랄
박지
반가
반나
발언
발라도
배탈
배웠는데
병영
병행
빌릴
사정
사왔
산을
살ㄹ
새롭게
성질
소수
손절
수험
습한
실사
실수를
싫으
아에
안동
안으로
예보
왔음
요번에
윷놀이
으악
인도는
일론
일년에
있ㅌ
잘되는
잡히
잼있
적절
좋앙
줄도
줄어서
줄여서
집까지
취약
치히
켜고
크리
트럼프
티셔츠
파트
팔ㅇ
페인트
포도
푸들
플러스
하력
하죠
하기가
하기는
한다니
항ㅅ
해봄
했엉
후기가
휴무
##만화
##들에
##을ㄲ
##니어
##내시경
##체험
##기라
##오는거
##인지도
##있는게
##다구
##로션
##ㄹㄹ
##ㄹㅇ
##사라
##사업
##설이
##수리
##베이
##버리고
##ㅇㅇ
##차만
##원으로
##머신
##발로
##싶은
##부에
##골이
##비빔
##터치
##산으로
##소는
##7ㄴ
##1ㅗ
##것ㄷ
##그냥
##그래도
##많아서
##씩은
##튀김
##뒤에
너무한
너무하네
우리학교
그렇진
좋은것
여행에서
영화만
아무데
다음에도
요새도
내일이
부모들이
없어져야
병원가서
스트릿
이렇게까지
알바몬
학원비
준비하면
관심은
신기하고
배달을
프로필
20만
201
싫어할
확실하게
쇼핑이
스타크래프트
추워진
물어보는
너희가
우리집에서
이해는
##사람들도
위험해서
보이던데
골프가
주택에서
무섭지
12시간
수술을
접종을
이쁘지
나한테도
어머니도
간식으로
잠깐만
배송도
보기에는
월세도
바뀌어서
피곤할
하는거지
자취하고
대중교통은
강원도는
스타일은
와이프도
식단을
가방에
적응이
이럴때
반찬이
과일도
무리하지
공원에서
웃긴다
가성비가
세일러
한강에서
부지런해야
감자탕
미니멀
##4ㅓㄹ
이구아
가슴이
이마에
뚜벅이
공공임
짜파게티
코시국
커뮤니티
스튜디오
트리트먼트
남궁민
원어민
임플란트
슬램덩크
2회
2살
UDT
가직
감시
같ㅈ
같ㅌ
개만
개나
갱신
갱년
거보단
걸을
걸어야
경ㅇ
경대
고데기
그체
그다
그리는
그생각
깉ㅇ
끊어야
끼리
나옥
나옫
남ㅇ
내요
내리고
놀란
누룽
다야
단축
대게
돌리는
돌려서
동아
둘ㅇ
디게
때면
마파
말이다
명도
모양이
못보
못봤는데
미주
미뤄
바3
박물
발랐
발바닥
배멀
버려야
보기가
보려면
볼때
봏ㅇ
부쩍
비율
비율이
사귈
사생활
상큼
상대가
생소
생갇
성우
세차
소방
식감이
신상
신나서
싶었어
씨씨
아픋
아슁
악용
안구
안하는데
알투
애정
야야
업처
연하
영환
오긴
오자마자
옷이랑
울면서
원에
원이면
육지
의도
이어서
이기는
인권
인종
있습니다
자외
잖아
잘함
재우고
정장
제니
조끼
조깅
중인
중에서도
지코
지긋
직ㅈ
창고
청주
큰데
키욱
통장
편잉
포레스트
하길
하셔
하이브
했자
홈런
화폐
회상
후보가
휴가는
흐리
##야끼
##을ㄱ
##아냐
##체는
##해봤
##해놓고
##시켰
##스파
##있나
##다이
##면을
##으려
##보여서
##수저
##과도
##과학
##미터
##꺼면
##근이
##중ㅇ
##본다
##비슷
##2ㅜ
##렸다
##입을
##릭터
##화에
##되었으면
##분도
##순환
##행을
##없는데
##달러
##애들도
##층에
그러냐
그러려면
그거를
좋은게
게임하면
시간에는
들어보니
재밌음
하나라도
군대가면
회사로
운동만
계속해서
공부만
공부하면
그럴만
다니다가
아닌ㄷ
병원비가
하루라도
다녀오고
타고난
저번에는
누나야
중요하긴
노래만
지하철로
미용을
시험도
올라가서
뉴스에도
출근하면
귀엽더라
치킨을
남자친구한테
너희도
좋아하잖아
부산도
소개해
잘못한
스포티
아르바이트는
아르바이트가
아버님이
종류별로
보여주고
남친도
멋있긴
기회를
받는다고
인생에
화장실이
신청해서
가져가
자취를
쇼핑몰이
염색도
들었을
조용하고
타이쿤
어플이
아쉽네
전쟁이
육군이
강의도
전역한
받으려고
첫째는
바이든
세금을
설명을
새끼를
실력은
##나봐요
야외에서
스파게티
한두번
애교가
전동킥보드
당시에는
미끄러
긍정적인
세월이
도수치료
잘모르
리조트
트로트
꼬박꼬
김희진
어벤져스
아이언맨
커다란
강형욱
주근깨
1달
3대
3천원
6시에
7시에
8년
cg
ㄴㄴ
ㅇㅇ
ㅠㅗ
가러
가발
가동
갈대
갔었어
개최
고집
골드
공을
공복
과도
과일은
군악
균형
김고
나눔
낮아서
낯가
높ㅇ
늦기
니랑
다만
다듬
단어가
동전
됐ㄴ
등이
등장
디스크
랜덤
마쟈
마케팅
막장
막창
말곤
먹기도
멀긴
물로
박사
받음
발리
밤을
번쯤은
베라
보약
부수
붙으면
빠를
새삼
생물
세척
센과
소스가
쉐이크
쉬워
식습
싶기는
싶지는
쌤이
쓰다
아항
안싸
안무
안조
양세
여쭤
오시
오예
오디션
와중에
왔나
요요
우동
우박
웨이팅
유부
있거
자리도
잘때
잘ㄷ
잘하지
잡으러
장르는
전골
절대로
정자
정우
정ㅇ
좃ㅎ
좋대
주나
주구장
진해
짐도
짓는
짜즈
쪽에서
차원이
천연
초겨울
춥다고
충치
콜드
큰이
클리
토스
통신사
파바
파이어
팩도
표정
플레
필터
한순
할배
현관
현빈
홍천
화물
환상
##어놓고
##내가
##자라
##자전거
##하하
##아직
##아웃
##우유
##때만
##었ㄱ
##저럭
##말에
##말은
##테일
##키는
##나와
##나온
##꺼풀
##플루
##안을
##르몬
##단다
##주라
##바게
##정리
##ㅏㄱ
##터는
##명이나
##일러
##군이
##성으로
##질은
##증도
##볼ㄱ
##림이
##모습
##직업
##푸드
아니잖아
하는걸
이번주는
거기에서
아이들을
군대생활
아무런
다시보기
해야하나
##는거랑
건강식
10대
10시에
오래오래
만나기로
관리해
걱정을
지하철에
보내줘
너네가
2030
가능해
동네가
산책하기
전화가
갔다와서
30년
수영도
소리지
세계적인
청소하고
보험도
이유도
120
종류는
자연스러운
부분을
한다는데
인생은
주문한
선택이
자동차를
현실이
가져가서
하늘에서
환경오염
전기차를
경험해
알았으면
자신의
안해봤는데
안가봐서
배구선수
투자를
40대
고등학교때
스토리도
쓰레기가
못하겠
생각만해도
기준을
불안해
불안해서
체력도
나중ㅇ
막내는
시절이
줄어든
불쌍해
외국인들이
사무실에
번개장터
아내가
다녀왔어
요즈음
다녀와야
소비자
포켓볼
떠오르는
루테인
화생방
소소하게
가전제품
단호박
인명피
고인물
머리숱이
자소서
카투사
민방위
살쪄서
지게차
위메프
샤브샤
주구장창
1조
42
6살
ㅎ0
가뭄
가지도
가이드
갔더니
개조
거라도
걸ㅇ
걸려도
경로
고닌
과정이
과장님
구해야
구워서
국대
군것
금욜
기보
긴급
꿀잼
누굴
눈뜨
느낍
다다음
대추
덥다고
덩치가
동양
됐을
됐네
되도
되잖아
되는게
두유
드시
드립
들러
막아
많덜
말릴
말리고
맑고
맞ㄴ
먹이고
멈추
목포
믿는
받으니까
밤마다
배터
배구가
백ㅅ
백만원
벌기
벗어
변화를
보세
보태
볼륨
빌ㄹ
산에서
서장
세사
속으로
수용
수명이
스러
슬플
싸니까
애기도
야자
어후
연ㄱ
열풍
영ㅇ
영혼
오며
오류
오리지
온다는
요트
요번
용어
용암
워크
원전
위협
윤아
인력
인연이
있냐
있죠
장모
쟁여
정준
제약
조세
죽어서
줄이는
중ㄱ
짱인
짱이지
찬바람
참는
체인
컥ㄱ
타게
타보
타짜
파이
팍팍
패드
평창
평택
푸는
피싱
하다니
하거나
한ㅈ
할ㅇ
항사
했더
호두
효율
휴학
휴직
희한
히피
힘도
##자리가
##도까지
##아저씨
##서서
##이구
##기차
##었구나
##마크
##마마
##나니
##과목
##할ㄱ
##버릴
##차별
##코인
##안에서
##ㅠㅐ
##교정
##3ㅡㄹ
##타이
##비트
##술이
##건조
##강아지
##년대
##군ㅇ
##초코
##초밥
##렸나
##된ㄷ
##소도
##청정
##알아
##분들이
##7ㅆ
##형으로
##그대로
##계탕
##함은
##법도
##없을
##ㅕㅇ
##갔을때
##류는
##맞다
##왕이
그거만
생각이다
지금보다
엄마들은
다른건
나오네
어디까지
여자들도
공부한
그럴려고
어떤거
혼자는
##하는데도
나가지
필요하지
저번주에
걱정이다
화장도
나왔다
안되는거
보내줄게
이야기도
프로그래
유명한데
지나갈
지나가면
기분전
알려주고
싫어하는데
사랑한다고
티비가
다르다고
전화로
비행기를
치킨도
좋아하셔서
취업하면
수영이
부산이
좋겠ㄴ
연예계
예약을
지원을
월급날
캐릭터도
누구야
먹었다
연예인들도
분위기를
좋았지
아픈거
생일인데
개인의
예능은
현실적으로
환경도
전기차로
염색은
편의점도
만든거
알았다
달라진
화장품도
잘해주
이쁜데
유럽은
안해본
아이들에게
도와주는
대체로
신혼집
와이프랑
우선은
##들한테는
##아니면
오락가락
못하겠어
아쉬울
메이저
도착하면
줄어드는
미래를
안쓰고
복무기간이
고속버스
이틀에
베이킹
예민해서
유기농
제목은
많아지고
##스토어
설레는
하고싶은
이마트에서
잘됐다
고무신
사무실에서
어르신들
땡기네
살찌는
민간인
가혹행
승용차
축의금
호불호가
결혼기념일
강동원
이등병
그럭저럭
박서준
키오스크
꼬박꼬박
김고은
샤브샤브
2ㅔ
4시
4주
5억
800
PT
가수가
간격
간다는
갑갑
갖춰
개월
게입
경치
고야
공차
공통
공기도
광역
구하고
규정
그랴
그제
기모
깐부
깨지
꽃게
끄고
끼워
낫ㅇ
눌러
돈주고
돌아서
땅에
때메
뚫고
뛰고
러쉬
리버
마비
말해도
맞춤
명곡
모스
못사
못함
무신
묻어
미션
미스트
밑에서
받는게
벅어
벌려고
보더
보아
부추
부자가
불만
붙을
붙어서
비주얼
빼서
사파
사주면
산부
산으로
삼시
상용
색을
소모
손주
수습
수시
술래
스틀
시계
싶네요
쌓여
안과
안ㅌ
않다
알지만
앱으로
야무
양을
언덕
얻을
역ㅅ
연금
오게
오염
와플
왔ㄷ
용서
윗집
이내
이디
이때까지
일ㅂ
자시
잔치
장가
장점은
저의
적고
정식
정ㄴ
정작
정리를
제2
조승
졸귀
좋앚
주차가
주제가
죽음
중식
중증
중에도
진로
질려
차근
착하고
참견
찾았
청원
칼ㅇ
케미가
코인이
쿠서
턱에
테라스
트렁
특징
폭락
폴더
표정이
풀리
하켜
하겠네
학ㅇ
할ㄹ
해놓
했대
형부가
호랑
화재
황금
후추
히어로
##고시
##내야
##기다
##기보다는
##문신
##문제가
##었거든
##다면서
##면에서
##으녀
##보라고
##병에
##병도
##구는
##키가
##국은
##수지
##티슈
##ㅓㄴ
##요하
##안은
##였네
##했구나
##했는ㄷ
##먹지
##명도
##소식
##분들
##제거
##살때
##실을
##실도
##브랜드
진짜야
아니냐고
그렇기는
생각하면서
게임이라
있는것
여행에
엄마들
결혼생활
키우다가
사진만
좋을텐데
스트리트
챙겨보는
중국인
아주머니
아프니까
받아들이
스트레스도
고민을
유명하
비슷한거
귀여웠
가능ㅎ
가능하지
축구에
싫어하
확실한
외국에
유튜브도
연락하는
사라졌
기사님이
##었던거
애기들도
퇴근할
사회에서
교통비가
청소는
청소를
정신건강
따뜻해서
추억이다
어렵긴
11시에
있다는데
친구들과
친구들한테
난리야
난리네
이쁘다
냄새는
그것보다
필수지
구매하는
헤어지고
헤어지면
지내면
도시가
영향도
인테리어는
예쁜데
##말고는
무서운거
도와줄
기술을
시리얼
아쉽지만
다녔던
외모를
취미를
##으면서도
피자랑
##자리에
추가로
막내가
미래가
당첨되면
은행나무
선선하니
블랙핑크
불쌍한
기업이
충격적
유투버
혼자서도
의미로
전체가
단순히
전국적으로
로맨틱
입맛에
교수님이
시국이
즐기면서
욕심은
2ㅓㅇ
서운해
군복무
평범하게
컨셉으로
마인드
아름다
아름다운
멘탈이
줄줄이
된장찌개
이광수
탄수화물
허벅지
조인성
돼지고기
라라랜드
정형외과
방과후
아몬드
순식간에
보라카이
자만추
하이브리
2분
4단계
5월
8시에
ㅋㅎ
갔어야
개냥
건성
것으로
고학년
고ㅑㄴ
곳만
과금
교유
군ㅇ
규제가
그떄
깔깔
꿈에
꿈은
난로
났는데
너나
너에게
널널
놓으
눈감
늙은
단위
단발이
단점은
달러
달아서
당사
더러
덥지
도는
도장
되었으면
둘리
듣ㄱ
때우
때부
때에는
땡겨서
라섹
랜드
로마
막힌
만보
많지만
말리
말랐
말하지
말그대로
무선
뭐를
뭐였지
미식
밀려서
반ㅇ
반바
받는데
방심
방식
방음
버킷
법적으로
보강
보컬
복수
복권
볼보
봤더니
부채
브리
빌리
뽑아야
사놓
사갈
샀다고
상가
상ㅎ
상징
서양
세개
세대는
소시
손예
손잡고
수컷
스켈
슬펐
신비
쓰려고
아싸
악기
안봤
약사
양반
어딧
연라
연관
오랟
오스트
왔ㄴ
웃고
원ㄹ
웨이크
웰시코
유난
의문
의사가
이비
인쇼
일욜
읽을
입장에선
잘되면
재해
저리
제조
제빵
조신
졸ㅇ
중도
직전에
집으
집콕
찍었
참기름
채용
천지
첫날
축복
카니
캡쳐
코드
코스로
크긴
큰ㅇ
키로
택시는
특정
파전
풍부
하정
학워
한명이
해킹
행보
허허
헐헐
확보
황매
희안
##항공
##개사
##에다
##자서
##자들도
##전한
##아침
##아이가
##서울
##거랑
##심한
##크레
##겠는
##시원
##오라고
##있ㄴ
##있어야
##4ㅗ
##요즘
##불이
##세에
##즈가
##의자
##의로
##절로
##비타민
##았ㄷ
##렸던
##입대
##포가
##임도
##되어야
##조리
##조절
##조끼
##삼촌
##그리
##그때
##모를
##휴가
##갔어
##갔ㅇ
##님이랑
##꽃이
##짬뽕
##난화가
##갖고
사람이라
아니래
아니아니
그렇지도
친구의
재밌나
재밌ㄱ
보고싶다
회사랑
운동에
괜찮긴
이런것도
그때까지
어떤데
내일까지
혼자만
피부관리
일본으로
대박이지
누나들이
챙겨보
시작하고
다이아
걱정이긴
좋아하는구나
나온지
어려우
##정도면
있었네
지하철역
느낌ㅇ
동물원
동물들이
싶은거
유명해서
너네집
비슷하지
사랑으로
근처에도
이용하면
부산까지
교통체
좋겠지만
자전거도
불편하
불편하긴
예약이
결혼식도
광고에
보여주는
택시가
마지막이
내려가서
작년에는
라면을
##할때가
카드를
피곤해
주차할
기념품
하는거야
가게가
가게에서
15년
15만원
부족하면
위해서라도
유럽에서
움직이면
저런거
##만큼은
마블은
신혼부부
집안에
주사도
깨끗이
영양제는
매력을
매력적인
책임을
이동할
마시는데
인간의
아버지랑
받으려면
상태가
롯데월드
경쟁률이
냉동식품
해볼게
갈아타
해준다고
미세먼지가
스위치
시설도
글램핑은
늘어나는
기억나지
무엇보다
정책이
가고싶어
습관을
아끼고
물고기는
선호하는
반지의
어르신들이
비혼주의
적립금
365일
반드시
잔여백신
레스토랑
방사능
알차게
글로벌
전자상거래
CCTV
오리지널
3월
4학년
ㅣㅋ
가끄
가산
각각
감도
감소
같진
건빵
것들도
격투
결말이
경상도
고른
공급이
구교환
국수
귀염
그럳
금연
길냥이
김해
깍두
나락
내주
넘치
넘치는
넥슨
년에
년째
노예
노려
노선
노력이
농작
닦고
당하고
덜어
돗자리
동유럽
되지만
두는
뒤늦게
들업
등급
등반
때쿤
땡기는
만ㅇ
멀다
모더
못쓰
뭐하러
뮤직
바ㄸ
박정민
밖을
밥에
밥이나
방해
방영
배다
배스킨
번ㄷ
변하는
별롱
보유
봄은
북적
블록
비워
비추
사기도
사기는
사주는
살만
삼각
샀ㄴ
상장
새집
새로나
생ㅎ
생갹
샵검색
서면
성범죄
셋째
손목이
수사
숟가락
쉬면서
스마일
식은
실버
실외
싶더
싶당
쌍둥
아티
아토
안간
앞두고
애쉬
얼ㄱ
여보는
여배우
연극
연세가
예야
예저
오렌지
옥수수
올때
올까
옮길
용기가
운저
월요
위반
유출
으러
이약
일하느라
입으
있ㅊ
자차가
자르면
작은데
장례
전성
전참
전보다
점차
조급
조교
조성
조직
조싴
주목
주제
주려고
증말
지고
지은
질리
찌개
찾으러
캐리어
타려고
토르
통합
팀을
파운데
패턴
평상
하지도
할라
할려면
혼날
혼수
화사
훈훈
##개로
##만해
##어어
##어라
##자매
##자네
##간의
##거려
##거장
##프팅
##기느
##때매
##겠군
##겠넹
##시리즈
##스티
##인ㅈ
##든가
##가니까
##구로
##국가
##수칙
##진거
##할것
##팀이
##티를
##음료
##대고
##불고
##였구나
##멍이
##감염
##교시
##회사는
##타운
##맛을
##론데
##됐다
##등이
##분을
##쓰기
##방학
##질환
##린거
##철이
##달아
아니긴
그러네요
그러겠지
그렇기도
생각난다
##이라니까
지금처럼
오늘이
그렇게나
엄마들이
아이오
아이에게
재밌는게
결혼정보
운동해야
아무렇
##지는게
날씨엔
10살
다니지
가을도
우리나라에도
버스정
고양이들은
아침을
보는건
다녀야지
애들아
부모님들
부모님들은
얘기하고
찾아보는
알바나
중요성을
먹을게
먹을지
나왔ㄷ
안되게
싶은게
배달비
돌아갈
해외에서도
여기까지
고민하는
고민하고
지나도
비슷비슷
그런거는
살아있는
전화해
생각해본
생각해보고
점심을
군인도
물어볼
힘든거
좋아하네
세계를
##사람도
이러니까
따뜻하고
골프장
있으며
12년
배워두면
쿠팡으로
선생님들
사야겠다
없을때
다닐때
자연재
택시도
좋았ㅇ
어쩌면
스포츠가
회식은
화장실을
라면도
월세를
미안하다
신청하면
구매해서
기념일이
자취방
헤어졌
거래처
알았네
시즌1
성공해서
피부과에서
웃기노
김치전
##해지긴
대체적으로
놀이기구
아쉽긴
아이돌은
계약직
가입해서
제품을
전공을
허리케
결정을
공기청정
초반에는
체육대회
경쟁률
실력도
어딜가나
사료를
순간부터
18개월
포장해
제대하고
기능이
많아지는
##것같은데
남았네
어떨까
핑크색
3ㅓㅇ
나혼산
부끄럽
놀이터에서
알레르
세포들
구름이
긍정적으로
길거리에
어딨어
크로플
초록색
아이라인
주먹밥
프리랜서
이영애
전여친
피크닉
##클래스
사춘기
크레이지
투니버스
세일러문
마파두부
오스트리아
3억
5번
8월
ㅏㄴ
간대
갈만한
개들은
개인이
거군
견적
계셔서
구하면
금융
기왕
깎는
깻잎
나같
나더라
나였으면
나한텐
난이
난감
날ㄹ
났ㅇ
내놓
높으면
눌어
느낒
늦어
다치는
델타
도심
돌싱
되돌
두렵
마누
마이크
막고
만지
말려
말하기
말아야
맞으니까
맡아
맡은
매장에서
멈춰
메인
멘붕
몇명
모야
모범
못한다고
못한다
묵고
물만
물가도
박명
발목이
배타고
배경이
벅ㄱ
번을
변호
별명이
보기는
보이지
봄에는
봐얒
부셔
북극
분당
분석
불닭
비린
뾰루
사리
사투
사장이
삼아
삼계탕
샀지
상식
색은
샹치
설빙
셔틀
소아
소질
수어
스킬
스팸
시공
식사는
신라면
심해져서
싶진
쓰나
아깡
안ㅁ
안하는게
알기로는
업그레이
없이는
엉뚱
엘레
역류
연주
예뻤
오다가
옥션
우체
운명
육개
이시
이곳
일종
임상
자산
자른
작아
잡혔
적혀
전이
전략
정ㅋ
정성
제왕
조조
중에서는
지식
질러
짜서
차서
참지
참으면
출ㄱ
취준
카지
캣타워
큐브
키는
텃밭
텔레
통하는
튀어나
파이터
편해졌
폭염
풀옵
하우
하져
하녀
하자마자
학폭
현타
형아
형태
호주가
호르몬
홀리
홈플러스
흡입
##어리
##봐라
##고를
##을텐데
##자금
##하셔
##하튼
##하시면
##아닌
##체크
##시느
##스레
##있네
##있을때
##디도
##가요
##사나
##사친
##구에
##나오는
##진은
##같아서
##미용
##84
##생들
##대사
##세끼
##네도
##회가
##각이
##장ㅇ
##적이라고
##등급
##줄알
##트롤
##런ㄱ
##석에
##린ㄷ
##ㄶㅇ
##뿐만
##엘라
진짜가
많이해서
사람이야
좋은건
이번이
아이러
들어보니까
군대의
군대에선
다시보
있어야지
건강할
건강해서
맛있었
맛있ㅇ
10시까지
그럴거야
다니는게
뭔가를
알아봐야겠다
문제다
그랬었는데
애들을
일본인
관리하고
시작도
시작했
화장하고
나라들은
보내준
##봐야게
영어가
고민중
마스크가
비슷하
미용도
아니라면
놀러가서
귀찮긴
사라질
많아졌
바다로
위험이
기대되
수술하고
종류를
친구들끼리
부럽ㄷ
100원
100명
##어가지고
##했던거
ㅛㅏㅎ
예능에
예능에서
새벽배송
현실에서
건조하면
시골에서
시골이라
택배로
##아버지
알았ㅇ
김치랑
노력해
잘생기고
국내여행
##영화를
면허는
근육을
눈썹문신
쿠폰도
우산이
반팔에
국민지원금
해외여행도
##사고가
심심해서
육아가
시술도
형님은
우유랑
브랜드가
토익은
##니스탄
##카드로
혜택도
보호대
미쳤어
##이로그
2ㅏㄹ
야식은
환절기에
장르가
중간중간
소화제
오른쪽
대표가
애매해서
연휴에
많아지면
갈비탕
ㅛㅣㅍ
지금부터라도
실수로
아끼는
3ㅣㄴ
마셔도
안됐는데
자영업자들
아껴서
스노우
클래식
고등어
휴게소
대책이
징그럽
열대어
허니제이
호불호
아디다
바탕으로
바이러스가
워터파크
호날두
장학금
교통수단
소세지
배틀그라운드
서장훈
트렁크
1ㅘ
LA
ㅗㅘ
ㅛㅜ
감튀
강습
같지는
거창
거라면
게을
경주는
계실
공략
구구
국비
궁긎
권태
그알
그랭
기내
기기
길도
길ㅇ
김민
김포
깊ㅇ
꿈의
끊기
낳은
냥이
넘ㅇ
놀리
늙어
늦어서
단양
달래
담엔
동대
돼요
되며
드시고
듣긴
들리는
떨엊
롤이
마으
말인지
맘껏
맞이
맞ㄱ
맞출
맨나
먹나
모이는
몬스터
못하지
못가는
문이
발ㅇ
밧ㅇ
방을
방충
벌ㅇ
벗는
변ㅎ
복습
복지는
볼거
볼때마다
봉지
부디
부루마블
붙이
뻐근
사인
사태
살수
살찐
생ㅇ
서우
세우
센스
수납
술먹고
숨어
쉬지
쉬엄
쉬운데
승객
식기
신세
신도시
실행
싫었는데
싶기
쌍꺼풀
쓸어
씻는
아치
아니까
악세
안은
안팔
안빠
않으니
알파
알면서도
어니
엌처
엑소
엠비
연계
오천
왔지
요일
원조
유머
음쓰
이국
이쁠
인내
인지
인ㅈ
일리
입으로
잘돼
저장
저작
저출
전면
젊어서
젓가락
정직
조이
존버
좋ㅊ
죽인
지낸
집엔
짱구가
체벌
초과
초중
출입
캊ㅇ
캘리포
커튼
코를
콘텐츠
크크
타는거
타봤어
탄탄
토스트
트와
편하다고
포스
폼클
피해서
해놨
해봥
해가지고
홍수
화를
후덜
휴스턴
흑역
##어스
##야하
##자인
##자라서
##잖앙
##드만
##재료
##재를
##있다고
##느니
##구라
##연수
##찌가
##세는
##세로
##즈는
##처러
##밖ㅇ
##걸음
##편은
##했ㄱ
##싶ㅇ
##받으면
##부름
##부모님
##일리
##25
##판을
##소식이
##OT
##되었
##살기
##뭐하니
##통은
##쳐도
##모도
##케익
##곳으로
##변이
##꼬치
##늗ㄷ
##엑스
너무나도
우리를
우리때는
우리회사
게임이나
있는지도
여행가는
결혼까지
나오니
정도에
얼마에
가족한테
키우지
기억ㅇ
집에선
재미없어
이상할
마음만
##시간은
##00만원
있는데도
그랬다
필요도
필요하다고
사고를
##하기만
##하기에는
드라마나
다행이라고
중국이랑
중요시
아프가
나왔음
관심도
연애의
세상은
##다니면
생활할
추천ㅎ
##게임도
고민할
유명해
유명하잖아
커피랑
기분ㅇ
20개
출근하는데
그만뒀
최고긴
서로가
전화는
연락은
연락처
사라지
전세는
좋아하진
##한거는
궁금한데
사회복
이러니
위험하지
보이더라
골프를
골프채
불편ㅎ
수술도
접종자
누구한테
##이었음
선생님을
부분만
자세하게
내려가면
기차여행
주문해
주문했는데
검색하면
그것은
패딩을
조카랑
거래가
괜찮아요
오오오
가보신
강원도에
집값은
잘생기
에어컨을
그림이
해결이
글쎄요
집안이
다녔어
주인공은
쿠폰을
경찰서
전문적으로
카카오톡
탈모는
북한은
스토어
다리에
강의를
사과는
상대적으로
눈물을
범죄가
첫째가
독립하면
세금이
익숙해져서
작품이
하려니
특전사는
이상형은
인도네
아깝다
양념이
일정을
막히고
아이스티
손가락이
공간을
패키지로
무난하게
재난지원금으로
방역수칙
종합비타민
베놈2
모른다
##볶음밥
더위를
연말에
아웃백
안녕하세요
PX에서
개념이
안본지
기안84
후유증이
피엑스
제육볶음
바껴서
편의시설이
아이패드
자본주의
에어비앤비
혹한기
겨드랑이
아바타
진돗개
닭강정
에피소
삼시세끼
파운데이션
ㅜㅠ
가비
감기는
같지만
겹쳐서
경락
고성
골반
공ㅇ
공용
공장에서
관찰
구하기도
군부대
그사람
금바
꺼냈
꽃을
끝도
날만
남았는데
내이
넘넘
넷마블
놀라서
놀라운
누르
누님
눈썰
닜ㅇ
달만
돌봐
돌ㄹ
동감
돟아
두분
똥손
로코
리스
리틀
마르
마녀
막혀
만도
만기
말ㄹ
말구
매너
맨ㄴ
먹자고
못된
못찾
물티슈
미나
미련
믿음이
반납
밚아
밚ㄷ
밤은
방ㅇ
버리면
베네
보겠
보냊
부대가
분장
불ㄹ
브래
비위
빠짐
뿌리고
살라
샀다가
생닥
성ㄱ
세종
섹시
소울
소라
소상
수치
수주
숯불
스쿠버
시외
식도
식혜
신과
싫엏
싫지만
싼거
안드
안일
안입
안에는
안오면
암벽
약하게
양조
양평
에센스
여우
연ㅅ
열정이
예식
예선
오븐
오더니
온몸이
왠만하면
은ㄱ
이맘
이끌
이놈의
인수
인질
일방
입찰
입어서
적ㄷ
접어
정전
정리도
정수기
조립
좋ㄹ
좋ㅌ
주섭
주는거
줄고
중동
지르
지식이
진한
질주
집엣
차리
차면
차이는
쳐도
추어
치마
치와
칬ㅇ
태연
터져
터지면
티도
팔았어
팩트
평이
포근
폭로
풀리고
필드
하객
한계
한살
할일
해바
했는지
허르
후로
후쿠
휴지
흡수
##하단
##더러
##라이트
##는디
##은행
##피트
##기능
##기까지
##심도
##시작
##시즌
##말도
##있었
##있으니
##마시
##로워서
##면도
##물고
##구에서
##40
##영화가
##0ㅇ
##났는데
##안하면
##냐가
##세윤
##였고
##공항
##주려고
##편으로
##회는
##회의
##했으
##정ㅇ
##PG
##받았
##관에
##상으로
##렸다고
##소리는
##알지
##되면서
##분ㅇ
##함께
##온다고
##휴직
##역으로
##막길
##난다고
##샀어
##효과
##벼락
##BS
##몸에
##RT
아니더라
아니니깐
그렇대
생각ㄴ
좋아지면
결혼에
코로나만
회사생활
해야겠네
건강하지
맛있음
키우느
키우려면
기억해
사람이면
별로라
아파도
재미이
사람들에게
언제적
피부를
문제집
없어지고
##하다보니
아파트를
저녁을
스트리
다행인데
시작을
걱정했는데
좋아하는거
나온다는
아프게
안되겠다
먹어보
배달의
돌아간
영어유치
추천할
비슷하다고
뉴스로
출근할때
최고다
다르니
##았어요
이사가
갔다온
신경쓸
바람막이
군인들도
전세계가
우리집이
좋아하던
수영장에서
등산이
많아요
어느새
하기에는
정신적
이러면서
추억도
작은거
작은엄마
나름의
재미있어서
할머니는
할머니랑
불편하고
방송이
무섭기도
야구도
키워도
웹툰을
자동차가
##이긴한데
하더라구요
부럽네
아아아
방법으로
물건도
안나서
안나는
내려오는
작년부터
기차를
안전을
주문하고
주문하면
부작용으로
네이버페이
예능이
미용실에
직업을
현실적인
마트는
건조한
호텔도
지역이
택배가
대부분이
상황에서
편의점에
온라인에서
화장품은
프로그램을
프로그램도
움직이
실제로는
평소에도
##해지지
잘하더라
추천해줘서
##스러워서
취향에
배구도
전쟁을
숙소를
탈모가
느껴지는
해군이
정해인
초딩이
강의가
형님도
시리즈는
올랐으면
올랐다고
실내에
상담을
맞추기
금액도
디자인도
여기저기서
선선해서
당근마켓으로
다운펌
다닌다고
##3ㅓㄴ
백화점에서
오빠야도
남동생이
의무화
대회도
유투브로
훈련소에서
검은색
샤워하고
퇴사하고
##센터에서
전투기
레벨이
검색해보니
거실에서
스피커
이왕이면
우리동네는
모니카
꼼꼼히
부조리
다치지
##선생님
스카이
잃어버린
본방사
프렌즈
해수욕장
제습기
김종국
히트텍
당당하게
손재주가
트위터
타코야끼
치히로
버스정류
아프가니스탄
2개월
38
3살
4인
7살
ㄷㅎ
ㅏㄹ
ㅛㅔ
ㅠㅘ
가길
가던데
간의
갑자
거네
거칠
견디
경남
고사
고빈
공원이
구나
구속
구겨
국악
국군
그늘
그렂
그랜
급할
기한
기계가
김동
나로
낙하
낚ㅅ
낭만이
낯설
너두
너보다
놋ㅎ
느려
담날
댁에
더럽게
도시는
돌릴
됐ㅈ
되더라고
되려나
둘만
드럼
들ㄹ
떨면서
뜨개
말했는데
맘편
맞느
맞는게
먹엉
먹기는
먹이는
메모
목적이
무의
문구
미아
박나
박수
반갑
발ㄱ
발령
방어
백만
벅토
벽지
별점
복학
봤었어
부리
부는
붙ㅇ
뷰티
브이로그
비쌎
뽑아서
뿌리는
사양
사원
사유
사면서
산채
상ㅅ
새차
생에
생ㅅ
생삭
성인이
소액
소용이
숏컷
수요
수련
수백
순삭
시상
시사회
신으면
쌍수
써보
쓰면서
아씨
아닙
아팥
아기를
안주는
애틀
앱에서
얘는
없은
없겠
여주
여기로
여주인공
열일
영확
오더
오겜
왔을
울어
울었
월욜
유익
이천
인물
인삼
일이지
임금
잊혀
잣ㅇ
잤는데
재능이
저래
전해
전사
전직
절ㄷ
정지
주짓
죽겠
죽이고
지날
진ㅈ
진격
질투
쭉쭉
차승
채식
채워야
책은
축축
춥게
치질
컨트롤
쿠션
크면서
클라
타는게
태안
토종
팄ㅇ
편지를
폐지
포커
풀린
피어
하네요
하시고
하냐고
하려나
학ㄱ
해봊
했길래
했거든
헌혈
헬스는
호수
호주에
황희
회도
효녀
훼손
##어져
##어졌
##들었
##자야
##자격
##하노
##체를
##이군
##피부
##겠노
##시티
##시킨
##스런
##말라
##말이야
##마비
##보이는
##보드는
##나지
##나는거
##매트
##진ㄷ
##버린
##ㅛㅐ
##호는
##근육
##잡을
##안해
##권으로
##였ㄴ
##주시
##받아야
##ㅗㄴ
##적으
##송이
##되도
##되느
##줄은
##1ㅜ
##왔다
##없지
##킬로
##량은
##웠ㅇ
##능력
##늠ㄷ
그런걸로
아니어서
그러진
##하는ㄷ
##하는걸
생각나면
지금이랑
게임의
이제라도
영화들
나오던
괜찮던데
남자애
빨리빨리
여자랑
여자한테
예전에도
기억을
가고싶다
##이면서
재미없는
우리나라로
아닌것
만들었
대박인
저번주
관리할
얘기한
먹을때
걱정이야
준비도
대단한거
돌아올
돌아다닐
영어학원
고민이야
가능하다고
맞는다고
선수들도
유튜브를
출근하기
산책하고
살아가는
귀찮다
싶어하는
30만
효과도
기사에
기사는
물어봐서
사회에
위험하긴
영화관도
있으려나
예약해서
고생하는
보험을
구경이
캐릭터는
선생님들이
학생들은
먹었으면
다닐까
편의점이
부분에서
멋있고
일어나고
고기랑
어머니랑
간식은
하다보니
가지러
보기에도
들어가도
월세로
예능도
미안하다고
자동차는
가져야
가져갈
마트에
패딩은
호텔은
##교육을
상황을
자신감이
인테리어를
50분
노력하는
해봤자
빠르긴
사촌언니
않았을
활동적인
면허도
큰일이다
대충은
안가본
취향은
결제를
음료도
때문인가
때문인지
10년은
제품은
신발도
오토바이를
익숙해지면
사망자가
가봤지
대전에서
업체가
야식을
디즈니랜드
우울해
시켰어
빨간색
모델이
TV에서
말씀드
거짓말을
버티고
정책을
레벨업
해줬으면
탈레반이
매니아
싱가폴
편안한
##바이벌
베란다에
상하이
장애인
파란색
자존심
신호등
기다렸다가
나혼자산다
말투가
쓸데없는
일회용
후유증
극한직업
박보검
샤인머스
도미노
알투비트
지코바
지긋지
정준하
기분전환
2월
2마리
4월
4개월
5세
5000
9월에
ㅋㅋ
ㅎ9
가계
가봄
가거나
간간히
갈ㄲ
감명
같다는
같습니다
걔들은
거닊
검토
것부터
게인
게으
곳으
과제가
관중
국정
국가가
그대
금전
기자
기승
길렀
길러서
까불
꽁꽁
꽃다
날마다
남산
남극
내다
너거
네덜
놔서
늦ㄱ
달이
대규모
더럽
도ㅑ
돌려도
동ㄴ
뒤에는
디스
따기
땅을
떡갈비
래퍼
레슬
로드
리더
리마
리가
마스터
말처럼
맘스터
맘카페
맞췄
먼지가
먾ㅇ
몰카
못갈
묘미
박효
백시
번쯤
벼락
보기로
보기에
본ㄷ
본가에
봇ㅎ
봏아
봤다고
불꽃
비요
비켜
빵을
사은
사마
산다는
상한
상해
상사가
색다른
서점
서빙
서바이벌
섬세
소원이
손은
수거
쉽지는
슈크림
슬쩍
시려
심부름
십년
싸면
싸다고
아역
안개
안볼
알제
알죠
어바
어둡
얼ㅈ
얼르
업계
없잖
여성이
예쁨
오네
오겠지
옮기
옷에
옷ㅇ
외부
외박
외에는
외삼촌
운ㅈ
이익
이누
이전에
일하니까
일상이
입에서
입장이
저지
저한테
전ㄱ
점핑
조상
조커
좊ㅇ
주간
지배
지독
지름
지어서
진리
진학
집만
집근처
짝사랑
짤로
차차
체코
춥지도
카운
칼국
캣맘
컴백
코리아
크다
큰집
타봐
타다
타면서
튜브
트레
특가
편학
평거
하노
하반
하거든
한의
핫ㅎ
해방
했잖
했어도
행ㅂ
호기
호호
후기를
흑인
흰머리
힘은
힘내서
##만두
##고무
##들여
##신을
##신거
##자라고
##하도록
##지네
##라엘
##레인지
##시스템
##오가
##오니까
##있으
##가는거
##가지가
##사야
##사벽
##ㄱㅇ
##할까봐
##속이
##났다
##음악
##요금
##불고기
##엔딩
##결이
##편도
##바디
##정돈
##싶네
##3ㅐ
##카라
##명씩
##일이라
##봤는
##상에
##았ㅈ
##성ㅇ
##책을
##허브
##트랙
##조심
##랗게
##형님
##밤에
##그림
##워크
##히기
##행ㅇ
##토로
##품이
##탄이
##될거
##난거
##믄ㄷ
##셀로나
##웨딩
##놈이
##놀이도
많이도
그거보다
좋아행
좋은ㄷ
게임들
엄마네
영화야
들어만
재밌ㄷ
군대에서도
운동신
괜찮더라
해야하
어디다
먹고싶다
##해야하는데
여자배
그럴땐
사람이네
이상하
우리나라만
있으면서
알아봤
##시간을
하루만에
무서웠는데
스트렛
중국어는
중요하다
다이슨
걱정되는
가야겠네
느낌인
해외에
추천하는
비슷하네
가능해서
미용사
올라오는
캠핑이
동네에도
쇼핑은
티비엔
근처는
전세도
아까운
세계로
사용하면
훈련은
훈련하는
영상은
나름대로
그렇긴해
지원이
무섭네
무섭다고
행복을
캐릭터들이
직장에서
종류의
에어랩
남친한테
예쁘긴
신랑이랑
피해는
자유여행
컴퓨터를
자체는
주문해서
개인정보
조카는
넷플릭스로
성공할
아저씨는
확인을
실제로도
조용해서
데려갈
집중력
식당에
포기할
할아버지는
놀이공원
면허증
경제적인
지방에
중독이
수능이
눈썹이
토끼도
대화도
이모네
유지비가
맥주도
상대방이
발전이
비교해
도로에서
시급은
위드코로나가
액션이
무리해서
경쟁이
미쳤네
연봉도
사무직
콜라보
인사팀
공포영화
포장마
냉동실에
키운다고
해줘도
##회사에
23년
처벌을
재료가
비염이
사교육이
복잡하고
싸움이
조ㅛㅇ
연결해서
무엇을
어딘데
검색해보니까
스페인어
놀면뭐하니
스피킹
화려한
감당이
파리바게
스노쿨링
유니버
수강신청
전력난
여론이
ㅗㅣㅁ
못생긴
쇼미더
공산주의
11번가에서
하울의
적극적으로
면세점
무언가
포르쉐
이스라엘
자외선
차근차
엘레베이터
황희찬
1ㅓ
1화
1호선
2대
4대
4층
5개월
5시에
7번
84
IT
ROT
ㅇㅋ
가더
간거
간소
간섭
감상
갔는
갔나
갖ㄱ
개막
거꾸
결승
고모가
곳이라
공감이
교감
기니
기피
깔면
깔려
깨는
꼬마
꿀알바
끝ㅇ
나옺
났을
내지
너느
넉으
넘을
넘쳐
노가다
농구가
눈엔
뉴질
느낔
늙으면
단거
달도
당ㅇ
대머리
덥다
동ㅅ
되닊
되겠어
뒹굴
드는데
드시는
들리
들음
때준
때눈
떨리
랭킹
맀ㅇ
마마
많구나
말린
말입니다
먼데
멋ㅈ
메롱
모병
모집
목걸이
못타
못하니
몽골
뫃아
무역
물에서
뭐였
뭔지도
미백
밀고
밑으로
바4
받긴
발야구
밤이
방버
방콕
밪ㅇ
배꼽
뱃살이
법도
벗겨
복층
본적이
볼수
볼려고
봤엉
부다
부사
부장
불ㄱ
빡센
빼곤
뽀글이
사거
사운
사직
사봤는데
삭발
살기가
상어
상생
상쾌
생화
샢ㅇ
서리
선뜻
섬유
세이
세번
세븐
센스가
수를
수비
순살
시크
식장
식욕
신라
신차
실리
싶덜
아라
아카
아닠
아기도
안ㅆ
안방
안가는
않더라
알로에
애국
액티비
야니
양육
어몽
없인
에바
여르
여건이
연필
열두
열리는
오길
오는게
웃길
유령
으로
이때
이슬
이산
일이라
있니
있드
자라서
잘하나
잠바
전복
전파
전이라
전까지만
접때
정카
조싲
조십
종전
좋진
좋앗
지우
직종
짧고
짧ㅇ
쪼금
쯔양
차들이
찾으
체계
초보자
총리가
최곶
축구나
치사
카타
캐치
컥어
털도
통일이
팔에
팔려고
펭귄
플라
피면
하야
하거
하차
한바퀴
할머
해소
해제
했잖ㅇ
후다닥
##고생
##신도
##습니까
##우드
##겠구
##시를
##까요
##오기
##오긴
##있었는데
##다다
##마늘
##가는게
##구역
##0만원
##래가
##예약
##불로
##복을
##복도
##준다는
##였ㄷ
##려니까
##릴까봐
##투스
##랐ㅇ
##주문
##주나
##했어야
##했었어
##동에서
##부지
##일까지
##았는
##선에서
##금지
##위해
##소사
##돈이
##혀야
##순위
##1ㅏ
##끼는
##끼가
##그치
##계약
##올때
##온다
##써서
##모는
##모르
##블럭
##색도
##새우
##새록
##필요
##후군
##샵에서
그런갑
우리오빠
##으로서
사람에
##이라면서
하고싶다
아이허브
모르겟
아무생각
겨울의
가족모임
키우는게
남자애들
그럴거면
별로일
가을에는
사람들끼리
버스타
배우기
부모의
문제라고
하루를
여름도
만나는게
학교다닐
비싸도
시작하
시작한지
학원비가
중요할
걱정ㅇ
제주도라도
대단하다고
연애하면
있었다
있었다고
먹어줘야
느낌인데
보내기
만화도
돌아오는
다이어트도
고민해
축구선수
미용은
올라가고
따라가서
외국에서도
살아야지
귀찮게
귀찮ㅇ
이사갈
조심ㅎ
근처에는
물어봤는데
퇴근길
추억에
어렵ㄷ
골프도
인기있는
있으닊
고생을
내용인지
방송도
키워봤
캐릭터로
결혼식을
배워도
먹었음
결국에는
나올때
기차는
해주는데
생일은
화장실은
어울ㄹ
개인적인
카드가
재밌어요
경기장
계절마다
자취하는
##교육이
맞춰야
달라지는
성공하면
도시어
50억
아이들과
똑같구나
괜찮을거
차이를
않았ㅇ
않았던
인스타로
경제를
계약을
계란이
바르게
우산을
넘어가면
##거같ㅇ
대화하는
대구에
자식을
감사하게
창문을
본인도
스케일이
개발한
현금이
각자의
시끄러운
음악이
도로주행
##카드를
상태에서
지켜야
벌레도
매운탕
불쌍하다
연봉이
사료도
지키고
대전은
충격이
빠져나
휴대폰으로
배그는
베이컨
렌트해서
보톡스는
대표적인
휴양지로
대학생들
모더나가
슈퍼마리
25만원
로션을
마을버스
늘어나서
필러는
2ㅣㄴ
핑크뮬
게스트하우스
물고기도
고추장
ㅠㅣㅁ
편안하게
바퀴벌레
유니폼
배부르
화목한
그래픽이
파라솔
신경써야
일회용품
고깃집
원피스는
대량으로
민감한
신분증
스몰웨딩
단단히
오타쿠
틈틈이
1박2일
따릉이
고혈압
땅따먹기
박지성
배멀미
조세호
리버풀
하정우
아이오닉
인도네시아
소상공
박효신
차근차근
ROTC
뉴질랜드
2는
2ㅘ
6천
7만원
ㅇㅍ
가잖아
가니깐
간첩
감축
개랑
개구
개정
걔랑
거랑은
결ㄱ
경구
경차는
과목이
괜춘
교재
교복
교장
구하
규정이
그놈의
근본
김치가
깨고
꺼려
꼬맹
꾸밀
나뉘
나같은
낙태
난링
났ㄷ
넉어
노브랜드
놀아야
다리를
단점도
달랐
답ㄷ
당신이
대마
대가
대본
대접
데스크
도시에
돈이면
드려야
디테일
따지는
뚝딱
롤러
르러
마요
만료
만병
만지고
말했던
맞ㅊ
맞춘
맞다고
맡기는
맡겨야
매장에
먹기로
먹은거
명예
명씩
못참
못가고
무늬
뭐만
미지
바를
밚으
받는거
방울
방수
방ㅂ
방식이
배욱
배에서
백두
변동
별도
별별
별다른
보편
보지도
보르겠
본게
봐주는
봤지만
비번
빅뱅
빛을
빨래도
사와
사나이
사우나
산ㅊ
살ㅈ
생태
생방송
선명
설문
설렘
성추
세대가
솔솔
수동
수육
순정
술만
쉬다가
습해서
승선
시티
신ㅊ
신형
신박한
실ㅇ
심하지
심하긴
심한거
싱싱
싶엉
싶단
쌓고
쏘고
쓰이
쓸게
아슬
아케이
약물
얇아서
얼죽
엄격
없죠
없네요
없다니
없다면
에구
에펠
영창
왔네
외에
요리가
원두
유며
유분
유졍
육상
인센
인도가
일시
일찌
일ㅉ
일하다가
입지
있너
있겠ㄷ
자궁
자리를
작으면
잘ㄹ
잘될
장비도
쟤가
전형
정하고
졸아
좋구
좋겠어요
주4
준ㄷ
지경
지출
진통
질질
징역
차기
차량이
초음
초파
추는
추구
춥긴
친근
코는
콧ㅎ
털은
토이
트롯
팀으로
퍼스
평점이
폰이
푸드
피겨
픽업
한게임
해돋
해보니까
호주는
혹ㅅ
화자
화제
환장
황당
##개봉
##어디
##고추
##고양이
##내내
##전ㅇ
##지에서
##더리
##간ㅇ
##간하면
##라느
##는것
##드니까
##때나
##문화
##해장
##오느
##셨다
##셨군요
##다네
##가니
##긴다고
##나마
##매매
##할머니
##버스는
##꺼같
##약은
##원ㅇ
##8ㅆ
##졌나
##운ㄷ
##였는
##바위
##했었지
##먹어도
##정ㄷ
##산을
##년이
##상ㅇ
##았지
##았나
##았ㄱ
##선수가
##포도
##소득
##무시
##둘이
##줄ㄱ
##트맨
##삼아
##린이
##누나
##실은
##달이
##모양
##값은
##량으로
##곱슬
##cm
##않고
##tv
##쯤이면
##농장
##찾기
##완료
나도야
아니여
아니구나
그러더라고
##하는것
하는건데
게임이랑
게임하면서
오늘따라
같이하면
하고는
여행할
여행이나
같은건
영화제
시간이면
시간가는
재밌기도
하나같이
정도까지
회사에서도
괜찮게
힘들겠지만
겨울인데
건강해지
그때만
기억력
재미난
이상으로
언제가
버스비
아침밥
알아요
원래부터
그랬던거
필요하다
필요하긴
다녀오는
여름만
자기만
가격으로
먹는건
비싸진
비싸니까
관리비가
다행이긴
한국인이
나라들도
교육의
지나야
남편을
가능한데
시험기간
따라하는
혹시라도
산책할
사랑에
사랑이야
갔다왔
갔다오면
치킨집
바람에
너희집
내년부터
모르겠ㅇ
사용이
낚시에
교통도
하기에
정신을
정신병
다양하고
영화관이
기대도
치료가
배워볼까
누구지
쿠팡에
먹었을
연예인도
주식으로
해보지
안좋은거
예쁘다
예쁘다고
자유의
내려와서
만들어진
중요한게
어쩌겠어
해주지
안전장
생일에
화장실에서
##할때도
거래량이
ㅠㅏㄹ
짜증나서
##을때는
요리하는
없었을
태풍도
부대에
노력하면
집값도
비타민도
잘생겨
받았을
타이어
모바일로도
숙소도
음료는
탈모에
바르셀로나
토끼를
토끼가
##들한테도
안먹으면
많을수록
소개팅은
심심한데
충전기
시술을
바쁘게
안보이
시리즈가
올랐는데
조만간에
친척들이랑
체력은
빠지지
시끄러워
해병대가
맞았다고
있다는게
혜택을
세금도
쿠키영상
매운거
초코파이
어이없는
사이트에서
서비스가
태어날
스터디카페
정치에
다음주부터
비트코인이
소화도
번개가
잠시만
기다려봐
감자튀김
살았으면
이리저리
괴롭히는
조합이
실비보험
스피드
목표로
관절에
포함해서
없애는
이정도면
퇴직금
컨디션이
징그러운
탈영병
실업급
촉촉한
인테리어가
오로라
한적한
맞벌이
팔자주름
본격적으로
여의도
전남친
프로그래밍
산부인과
조승우
손예진
유난히
황매산
새로나온
본방사수
뜨개질
지긋지긋
거꾸로
2시
3단계
4차
5명
6일
65
7월
8천
8살
8만원
900
9시까지
9호선
CG
RPG
ㅛㅓ
ㅛㅗ
ㅛㅡ
가늠
가리는
가지가
가보니까
감을
감기가
같네요
같더라고
개성
객관
거인
거여
거라는
걸그룹
경주에
경향이
고진
고비
공구
과일이
구역
군산
그처
그허
그럿
그쯤
기반
기력이
길가
까르
꽃가루
꿈꾸
끼는
끼면
나다
낙지
날이라
남주
낮추
낳기
내성
너구리
넘었는데
노륵
높아지
놓ㄱ
누우면
눈오면
늦으면
다님
달부터
당ㅎ
당하면
대천
대용
대탈출
더러운
덕질
덥지도
도중에
돈으
돈가스
되자
되겠지
되겠ㄷ
될ㄱ
드니
득템
들여서
따뜨
따갑
떠나는
뜨끈한
라느
러브
런던
레터
마셔서
만오
만성
만능
만지는
말지
말인
말뚝
말인데
맛없는
먹더라
먼ㅈ
메세
명이나
모던
못하지만
문방
물멍
물업
뭐하
뭐죠
미생
반만
반이
반죽
반대가
받ㅈ
받은거
밤늦게
방도
법은
병에
병아
보륵
복근
복장
본것
봄도
불빛
브이
비건
비싿
빛이
뽀송
사봐
사력
사와서
사태가
상ㄱ
새치
색도
생신이
서러
선착
성능
세제
셒ㅇ
쇼피
수정
쉬워서
스팀
스탈
시라
시사
시카
시킴
식비
식사를
신어
신사
신나는
심하고
심해지
십만
쌍용
안살
안추
않겠
알콜
야경
야놀
언닌
염증
영구
오다
옷입
왜왜
요정
요리도
우스
우째
우웅
육성
은그
이니
이순
이뤄
인싸
일식
일일이
임용
있우
있던ㄷ
자다
잔ㄷ
잘살
잘했으면
장마가
장보러
재배
저만
저녀
저절로
져서
조르겠
좋야
주황
주는게
즈음
지쳐서
징징
짜면
짱ㅇ
쪽도
쫄깃
찍기
찍었는데
찾은
책읽
철봉
체질이
쳤는데
최선
추첨
축ㄱ
출신이
춥ㄷ
치우는
코너
코르겠
퀘스트
크는
탄지
토할
통에
투수
트리
팀장
파산
평ㅅ
폰에
표시
프랜
피할
피트
피규
하난
학과
한줄
한몫
할걸
해리
해2
했었ㅇ
화공
환급
후속
휴전
흘려
흰둥이
##만으로도
##어른
##봐봐
##야겠ㄷ
##들으
##신한
##신다
##하겠네
##지션
##거리를
##드랑
##이런
##피언
##한것
##었으니까
##겠ㄱ
##겠구만
##저거
##스코
##오더
##오ㅏ
##인걸
##인후
##있더라
##있던데
##셨다고
##으라
##테이
##보며
##보는거
##가며
##사단
##병으로
##매도
##4ㅐ
##할라
##찌는
##늩ㄷ
##음을
##대비
##잡는
##데가
##권에
##배는
##편을
##받으러
##학을
##비아
##비행
##관계가
##일어나
##반찬
##건ㄷ
##눈데
##너츠
##입은
##탕이
##됐는데
##그렇
##점으로
##엄청
##애를
##블릿
##갔던
##류를
##깄ㄷ
##맞으면
##놨어
##광고
##샀는데
##ts
##듣는
##껀데
##bs
##웹툰
그러기
이번ㅇ
여행하기
영화인
재밌더
##한테만
결혼해
다른사람
회사에서는
운동이나
겨울되면
맛있는게
오래전
가는것도
다니려고
별로다
우리나라를
우리나라에서도
없는지
아닌ㄱ
##시간도
동생을
그랬어요
사고나면
##하다던데
하루는
만나보고
비싸더라
관리비도
챙겨드
사는건
준비한
미국으로
미국에서는
아프긴
생활도
먹어요
먹어봤어
배달시켜
받아야지
카페를
커피숍
비슷하긴
가능하면
생각보다는
올라오면
올라가야
알려줘야
싫어요
##같은게
기다린
다르다
다르면
연락해서
귀엽ㄷ
생각해봐
물어봐야
물어보니까
당근이
좋아하지만
소리만
퇴근해서
사용해
낚시대
청소가
넷플에서
정신없
생기지
위험하다고
저희가
가기전에
영화관을
영화관은
시키지
예약도
구경하러
월급으로
어린데
광고를
주인은
해보신
부분에
1년은
멋있어서
보드도
좋았고
꾸준하게
내려가는
작년엔
어쩌냐
일반적인
바뀌어
직업으로
신청하고
호텔에
헤어질
거래는
전기차도
15만
쇼핑몰에
염색하고
듣고보니
없었ㅇ
달라졌
시즌3
수학이
감독은
안해봤
움직여
움직이고
도와주면
사촌들이랑
힘드네
않았지만
젊은이
아쉽게
외모도
외모는
주사를
계약서
영양제를
경찰에
카카오가
졸업하면
느껴질
주위에서
바쁘다
커플이
신발은
응원하는
공유해
레이싱
맞추면
도로에
위드코로나로
공기놀이
멋지네
초반엔
안쓰면
현질을
업체에
구워먹
사장님은
중간고사
##하려니
형부는
멤버들
먹었어요
태어나면
##엄마가
서핑도
차박도
복잡한
알러지가
지원금도
금요일은
신혼여행으로
테슬라가
바쁜데
조그만
몇개만
##보이는데
손톱이
고통을
잘라야
기후가
목표는
목표가
면역력이
관절이
미루고
검정색
사천성
쳐다도
따듯한
자매가
고객센터
비온다고
머스크가
실시간으로
신경써서
혈액순환
며느리
배차간
개이득
공모주
딩크족
국회의원
저두요
나이들수록
엄두도
안그러면
장바구니에
고충이
새록새록
정우성
히피펌
버킷리스트
웰시코기
카니발
업그레이드
육개장
차승원
꽃다발
슈퍼마리오
1분
cc
ㅇㅅ
ㅠㅡ
가셔서
가구가
간식이
갈려
갈려면
개양
개통
개씩
거구
거겠지
거리면
건의
걸음
것과
견과
결재
경ㄱ
경차가
고길
고층
골ㄹ
교생
구기
굽네
귀농
그야
그사람이
근디
금강
길가에
깄ㅇ
까만
까먹을
끝에
나기
나시
나란
낚아
낫다고
낫겠다
낮에도
노랑
노벨
농산물
높다고
눈알
눈오는
다해서
다리도
달콤
달이면
답도
답장
더우
덩치
덮밥
도저
돈에
됐음
되기는
된대
뒷산
드리고
들리면
등ㅇ
디젤
딱이
딸래
땄는데
때에
떴는데
떼고
뛰기
라이트
레고
로그
루틴
류승
리터치
마세요
만지면
망설
먹거나
메일
물량
뭐뭐
뭐더라
민식이
밀리
밀웜
바글
바엔
바가지
바이크
반곱슬
발ㅎ
방ㅅ
벌크
변이가
보구
보직
볼래
볼거리가
부동
불효
붓고
붙은
브릿
비글
빨갛
산ㅇ
산소
산다면
살기도
삶은
샀ㄷ
색상
샤오
선발
성이
성수
세면
세안
소홀
소재가
수만
수확
숨만
쉬어서
스윗
습도
시금
시워
식겁
식욕이
신났
실현
싫었
싱글
싼데
쓰던거
아구
아따
안됨
안와서
않앗
알어
애프
얇게
없구
없던데
없잖ㅇ
염증이
영사
옆으로
오더라
오려나
오천원
올려야
옮기고
옷만
왜그러
외울
외계
울렁
웃을
원장님
월차
유엔
유혹
응모
응답
이나
이주
인근
인덕
인기도
읽기
잃은
있자나
자느
자원
잔나
잘된
잘나가
잡곡
잦ㅇ
저냥
저학년
접는
정나
정원
졓ㅇ
조율
좋기도
죄책
죻ㅇ
주장
줄인
줄일
줄서서
중ㄷ
증거
지으
쫓겨
쯤에
착하게
최곤
출그
춤을
치울
치명
친오빠
캔디
타긴
타던
탱크
통닭
통제가
투썸
팬들
펌을
펌이
폭우
피피
하시면
학기
한시
한주
한바
한통
할께
할수록
행운
허재
허리도
혼란
화성
화분
확ㅅ
훨ㅆ
##전용
##하겠어
##하셔야
##리언
##아슬
##서클
##간거
##레길
##드라고
##기관
##치라
##열은
##열차
##겠니
##시장이
##급으로
##식ㅇ
##재밌
##오키
##인건
##있느
##다시
##마리가
##마시고
##으신
##으져
##구멍
##구하고
##수만
##과제
##할듯
##같지
##ㅇㅎ
##ㄴㄱ
##원들
##요거
##안ㅎ
##세트
##세척
##였ㅈ
##랐ㄴ
##주신
##주느
##놓는
##편에
##감독
##회에
##했거든
##링이
##동을
##싶어서
##3ㅚ
##타인
##관리도
##술을
##일텐데
##적이라서
##상담
##았네
##파도
##파이터
##렸다가
##무진
##되는게
##조를
##증에
##린지
##법은
##철도
##9ㄱ
##달라는
##따가
##온거
##많ㅇ
##표를
##곳을
##댄스
##앞에서
##랭이
##멜로
##홀로
맞아본
우리아
아니었나
그러는거
그렇지는
생각하게
생각없이
지금의
아이들이랑
들어왔는데
결혼하니
운동하러
괜찮아지면
겨울철
겨울이니까
건강히
건강보험
건강식품
맛있었는데
남자의
10일
10주년
오래전에
기억력이
그럴지도
어떤게
다니다
다니는거
나중에라도
가을만
우리나라보다
알아본
알아보면
문제네
운전자
있을걸
그랬더니
하루면
무서움
여름을
애들하고
대박이야
만나자
좋을꺼
서울이랑
서울에서는
알바생
중국을
중국도
미국이랑
노래들이
대단하긴
나왔던데
나라마다
가야게
있었고
생활의
동물들은
##봐야겠어
돌아오
돌아가서
시켜줄
이거도
20도
외국어는
선수들은
유튜브는
출근하고
출근해야
다르네
서로의
주말에만
사이좋게
이용한
전세금
좋아하죠
취업하기
퇴근은
사용하지
낚시가
교통은
이러는
어렵네
어렵더라
대학을
나서도
치료도
주택도
내용인데
방송국
12시에
수술이
수술한
사야할
해보긴
안나네
멋있을
일어나지
인생에서
이후에는
예능을
자동차도
마트도
지역에서
지역으로
도전해보고
달라지
달라질
부동산에
아기들
위해선
사건은
자신을
국가에
평소보다
집중을
그림체가
똑같은데
힘드실
데이트를
충분한
안가도
안가봤
중독성이
##프로그램
눈치를
쉬는날
우산도
후회할
육군은
국민들이
책임질
약속이
답답할
우유도
우유를
바쁘고
닌텐도로
유전자가
어린이집에서
음악을
디자이너
불러야
무리하게
똑똑해서
사업을
180
18세
요소가
급여는
유산균도
피시방에서
돌아다니고
케이크도
휴양림
어머님도
애교도
짬뽕이
문자로
2ㅜㄹ
조ㅛ아
빠졌어
소형견
미친듯이
늘어난
흥미를
단발로
아줌마가
물고기를
20년은
500만원
비대면으로
셋이서
재미없을
천둥번
까다롭
까다로운
산청은
이렇ㄱ
바꿨는데
카라멜
1층에
프리미어
순수한
구슬치기
열심ㅎ
서브웨이
인테리어도
디지털
다크서클
영원히
미성년자
프라하
횡단보도
구체적으로
올인원
자부심이
킬링타임
공인중
자이언
동백꽃
경량패딩
임산부
번갈아
##비빔밥
아무데나
누룽지
군악대
파이어족
상용화
이디야
이비인후
우체국
이곳저
아디다스
방충망
캘리포니아
폼클렌징
맘스터치
이누야
아슬아슬
퍼스널
1부터
1인가
3점
3층
3D
5ㅣ
6만
6시간
7일
95
dp
ㄱ7
ㅅㅎ
가신
가드
가냐
간ㅈ
간ㄱ
간접
갈라고
감기도
갑니다
강도
갖는
검증
것들을
게하
견주
결ㅈ
결제가
곰돌이
곳이면
과하게
괜한
교차
구미
구단
구명
국경
그쪽에
근래
금수저
기독
기른
김수
꼭대기
끄러
끊이지
끓여서
난이도
낞으
날을
날리
남양
남ㅈ
납치
낫긴
낮게
낮춰
내보다
냈는데
넘사벽
노르겠
누섭
누르면
눈제
느꼊
느려서
늘ㅇ
늘려
늙는
다스
당직
대행
던지는
동ㅇ
동원
되려
두루
두둑
든다
듣게
들긴
들렀
땡겨
뛰면
랜선
마루
많기는
말리는
말라는
말하는거
맑음
맙소사
맞앙
맞앜
맞지만
맡겨
맵찔
먆ㅇ
머가
먹기만
멀ㅇ
멸망
명만
목돈
못했어
못했네
무단
무주
물ㄹ
물린
뭐냐고
미녀
미치는
밀면
박은
반에
반ㄴ
받쳐
백번
벌었
벌어도
베란
보복
보너
보옂
복ㅈ
복불
본인은
볼라고
봤구나
부려
붉은
브로
비키
비싹
뻔뻔
뼈해장
사아
사관
사모
사극
사둔
사다가
살았는데
상대로
새롭
생락
생크림
서포
서귀
섞어
선글
세부
소닉
손발
수지
수여
술게임
숨은
스시
스탕
시들
시허
시부모님
신ㅅ
신장
싫음
싶넹
쐬고
쓰니
쓰이는
씻기
아베
아유
안만
안키
안왔
안틀
안보면
앉으면
않더
않느
알겠는데
애한테
애기를
양가
어유
어젠
얼어서
없더라고
엘에이
역이
오매
오름
오백
온거
온라인이
올영
요약
우아
원주
웨이
위기
유희
유류
유켱
으응
이식
이적
이기면
인자
인하
인거
인저
있진
자랐
자퇴
잘이
잘했는데
잡코
재채
전ㅈ
전ㅅ
전날에
전단지
젛아
조폭
졸리
좋더라구
주면서
주사가
주제로
주가가
죽으
줄임
줄이기
지들
지붕
지불
지장이
지르고
집ㄷ
집합
쫄보
찌고
차들
차선
차원에서
채로
출전
취해서
커야
쾌적
쿤ㅈ
크다고
큰애
클마
킬러
터트
터지기
트래
트랜
특강
팀은
파인
파는거
포인
풍선
플래
하두
하저
하소
하넹
하얘
한ㅇ
함씩
핸들
허전
헛소리
혹은
확시
황사
휴일
##만을
##료도
##내에
##자니
##게이션
##전화
##하구나
##하더락
##도리
##도로는
##리한
##리얼
##드림
##이슈
##피그
##기네
##문을
##크고
##둬도
##스쿨
##스텔
##말야
##있잖아
##셨네요
##다녔
##마넌
##물에
##가라
##가물
##긴데
##수영
##경찰
##할라고
##ㅛㅇ
##꺼라
##민호
##생에
##잡아서
##안ㄷ
##준표
##였어도
##단ㄷ
##던ㄱ
##중에서
##걸ㄹ
##주는거
##바겐
##했겠다
##동ㅇ
##3일
##학기
##비랑
##일수도
##2ㅡ
##혼자
##포로
##황이
##맣게
##페인
##됐다고
##못해
##화된
##분의
##덩이
##겟지
##겟ㄷ
##런치
##없다고
##달ㄹ
##커플
##ㅕㄹ
##ㅡㅡ
##난로
##떡볶
##ip
##폭탄
##떻ㄱ
##멤버
##샴푸
너무하다
그런다
아니라는
그러는지
그러려니
##하는ㄱ
그거때문에
좋아하게
게임처럼
여행갈때
영화라
아이키
들어갔는데
결혼하는데
결혼한다
겨울방학
건강의
키우는거
남자라
10시간
머리만
여자를
그때그때
그럴수
재미없어서
##적으로도
버스보다
없는ㄷ
부모는
아닌지
아침이
알아보니
동생들
##00만
그랬었지
여름옷
당연하게
만들ㅇ
찾아봤
찾아볼게
되는ㄷ
먹을라고
좋아하는지
어려웠
나왔다가
주변은
세상엔
세상에는
안되나
이름부터
만화로
시켜주
시켜줘
올라야
올라와서
외국도
##있는지
쇼핑도
서로를
##스트라
귀엽잖아
바람을
아까울
아까도
수영장이
퇴근길에
이해해
궁금ㅎ
따뜻ㅎ
않을ㄲ
영상통
몰랐지
재미있다고
없으면서
시키려고
예약은
주택으로
감기에
관련한
누구를
직장을
쿠팡을
##이었고
먹었네
100억
안나오
자세로
자유롭
기차도
기차에서
않은거
스포츠에
스포츠도
라면은
들어가니까
있나봐
신청해
현실을
ㅗㅏㄱ
단풍놀이
단풍구경
시골은
기름진
올림픽은
그리워
쇼핑몰도
쇼핑몰은
비용을
검사하고
아저씨들
들었지
움직여야
그림을
스타일을
스타일도
상관이
이벤트를
투자하는
3ㅗㅇ
가입하면
먹은지
주위에도
파마도
답답한
감사한
담배도
창문열
유치원에
유치원에서
기간은
ㅈㅎㅎㅇ
만족하고
안정환
3ㅏㅇ
시끄러워서
빨래는
역할로
가까이에
청약이
금액은
회의를
걔네가
만화책도
블랙위
어딜가
기업들
바닥이
추위에
오락실에
##시키면
태국은
포장해서
하셨는데
의미에서
장르의
코인으로
행동이
우주선
우주여행
감동이
아깝긴
있겠나
외로움
오키오키
관계를
ㅛㅣㅁ
색깔이
조그마
손목에
ㅇㅎㄹ
물고기가
차량을
기후변
라이딩
애완견
안아프
하얀색
신입사
나타날
생리통
목숨을
한지민
후라이드
아름답
오랫만에
경력직
길거리에서
부드러운
무겁고
전력난이
신뢰가
다큐멘
드림카
도우미
그릭요거
트레이너
분노의
합리적인
사슴벌레
송중기
유아인
분홍색
브레이크
장모님이
농작물
난이도가
소아과
애틀란
진격의
쇼미더머니
실리콘
성추행
에펠탑
인센티브
레터링
cctv
천둥번개
이누야샤
기독교
3인
4만
52
7천
NB
sk
ㄱㄱ
ㅛㅘ
ㅣㅆ
가리고
가봐야겠다
각오
간판
갈거
감각
감탄
감정을
값은
갔음
같긷
같더니
개들도
거느
거죠
거였는데
건전
건드
것으
고개
고데
고킨
공붛
공휴일
광자매
괜찬
구해줘
굳은
굶어
굿굿
권리
그니
그마
글러
기간에
김혜
꽃도
꿔바로
끌리는
나더
나트
남미
남들은
높을
누스
닉네
다정
닫아
답인
당이
대청소
더우니까
데워
도지
독박
동ㅁ
동창
됐던
되려고
되겠ㄴ
될텐데
든다고
들려서
딱인데
딸을
땡땡
뜨끈
뜻이
라니
룰이
많죠
말썽
망하는
망했어
매물이
몇시간
모나
모의
못보고
무야
무식
무작
무튼
물량이
뭐시
뭐여
뭔지는
뭣도
밀리는
바에
바뻐
발품
밤에도
뱅기
벅으
벌ㄱ
벗을
변태
별론데
병문
보읻
보던데
보더니
보드는
보자마자
볼에
볼라
봐줘야
부여
부섭
부리는
불ㅆ
붓기
브루
비석
빌라도
빙수
빨강
뺏어
뽁뽁
산타
생갂
생갓
석유
선고
성대
손맛
쇼트
숨을
쉽진
슈가
스폰
스텝
습하고
시장은
식스
식초
식중독
신도
신한
신생
싫긴
싷ㅇ
쌤은
써봐
쏘면
씨가
씻을
씻겨
아저
아ㅠ
아홉
안이
안저
안성
안줄
안쓸
안봤어
알수
어드
어엉
어필
얼핏
없넹
여전
연료
연출
열도
열리
영황
영끌
오트
오십
오리고
왔다가
외가
우왕
위치는
유효
이강
이육
이기고
인위
일다
일산
읽은
임원
입문
있네요
있거나
잖ㄷ
잘되고
재우
재벌
쟤네
저스틴
전염
정경
정글
정정
제때
제안
제트
좃하
좋이
좋셌
좋닥
주성
주에는
죽여
지수
지으면
질색
창밖
창문에
채우고
초급
초기에
최강
치다가
케잌
켜서
코스도
클수록
키위
탐방
통학
통증이
트는
팀장이
파이팅
판다
팔ㄹ
팔공
팔리는
팩이
편입
푸들이
품고
풍성
피로가
하벼
학년
학군
한여름
할줄
합쳐서
해체
해독
해먹는
행방
현상
협력
호러
회전
회색
훈ㄹ
휘두
흔치
##개념
##신ㅎ
##신ㅇ
##자동
##하듯이
##도어
##잖어
##라지
##프다
##이죠
##이름
##기준
##기보다
##기간에
##겠음
##시마
##말로는
##식에
##인듯
##있ㄱ
##으벼
##보트
##보느라
##할려고
##촬영
##났ㅇ
##대나
##길ㄹ
##였던거
##공사
##중인
##본적
##동은
##부를
##카도
##반에
##았음
##았다가
##선물
##친다
##청약
##책이
##분들도
##짐이
##계란
##평이
##림도
##커스
##량에
##뇨ㅏ
##씩만
##합니
##갈까
##몰라
##좋지
##er
그래라
우리애
아니었어
그렇ㄷ
그렇겠네요
그거까진
좋아져
##들이라
있는가
있는걸로
재밌는지
재밌었지
보고만
결혼하
하나봐
다른나라
군대서
모르나
언니를
해야겠어
힘들었어
가족들한테
##하지말고
키우니까
남자만
공부하
공부나
그럴껄
혼자만의
이상한데
사람들과
사람들하고
사람들한테는
나이대
##친구가
피부미용
마음껏
문제에
문제고
있을지도
있을거야
필요한데
자기한테
자기들끼리
많은걸
부모님을
대박ㅇ
드라마인데
되는ㄱ
걱정해
한국도
준비할게
나라로
생활에서
신기해서
동물들도
추천한
유명ㅎ
지나갔
남편한테
뉴스는
봐야겠어
봐야겠ㄷ
외국에서는
그만하고
기다려서
산책은
그런거야
사랑해
다르겠지만
비행기도
최근엔
이사가면
귀엽다고
사라져
30살
선물해
군인의
이용ㅎ
여자친구를
좋아하니
부산으로
사용해서
위험ㅎ
가기엔
주택을
결혼식장
##이었을
먹었ㅇ
보다보면
이쁘면
이쁘다고
주식에
자연을
시원해서
일어나자마자
자세한
에이블
좋았나
내려오
내려올
어머니한테
여친한테
어울려
주문이
네이버페
생긴다고
미용실이
선택을
피곤ㅎ
ㅗㅏㄹ
단풍은
시골로
올림픽이
대부분은
대중교통으로
피부과는
피부과를
정보도
연습하고
50만
노력은
들었다
비타민은
비타민이랑
햄스터도
평소엔
마블영화
국내는
그정도야
추천해줘
해봐야지
워낙에
놀이동산
둘째도
큰일날
와이프한테
다녔지
성형외과
용돈을
아이돌도
아이돌이
숙소가
근무가
후회는
만큼은
쓰레기를
대구도
힐링되는
거북목이
약속을
##해보려고
피자도
심심하면
식단이
마시지
가방을
문화를
크림이
신발이
만족해
빠지긴
그날이
그날은
상태로
지켜보고
과일을
익숙해
언젠지
아이스크림도
실력을
틀어놓고
외국인이랑
복무기간
추위가
만났을
충격적인
60만원
끝났는데
디저트는
정상화
해줘야지
원룸은
돌아다니면서
제목만
##할게요
스크럽
로션은
피씨방에서
참고해서
미술학원
조건에
김선호가
나간다고
약국에서
월요일은
버티는
마련이
방학때
입양할
닮았다고
전지현이
보조개
보조제
생명을
미루다가
모른다고
아나운
친절한
뉴욕에
주지훈
심리학
정기권
코코넛
체질에
오랜만이다
올리브영에서
하여간
무신사에서
인공지
형수님
정류장
며느리가
내장산
캐시백
메가박스
보스턴이
매콤한
광안리
믹스커피
다저스
어릴적에
시나리오
재작년에
그러시군요
미어캣
배불러서
공공임대
갱년기
스포티지
알레르기가
일종의
카지노
쉬엄쉬
눈썰매
스트리밍
사마귀
지름길
유니버셜
바글바
구명조끼
NBA
1이
1주년
2억
5ㅓ
67
ㅂ8
ㅌㅌ
가셨
가얗
갈만
강해
강원
강쥐
같던ㄷ
개들
개설
개별
개냥이
갱ㄱ
거처럼
경ㅎ
고니
골키
공약
공간에
괜ㅎ
구축
국위
국가는
궁근
권유
귀한
규모
그에
그쳤
그레이
그닌깐요
극세
급격
기특
깨질
꺼는
껍질
끊ㅇ
낑낑
나잇
날인데
남부
남쪽
남북
낳지
내느
내는데
넘버
넣었
노태
노는게
노선이
녹아서
놀기만
느는
늘었
늘리고
님도
다라
다잉
다룬
닦아
담양
당해
대고
대도
대작
대왕
더군
덕분
돈이라도
동심
동결
동화
동거는
드신
드리는
드시면
들은거
등을
딨ㅇ
따위
라치
러시
롤도
많다던데
맞ㄷ
먹업
먹엇
먹거리
면에서
못지
못느
못입
못가서
못봐서
몽탄
무뎌
무뚝
무면허
물ㄱ
물풍
밀려
밀접
밖에도
반들
받거나
방독
뱀은
버텼
번ㅇ
번쩍
벌칙
법인
베뉴
베이지
베스킨
벽돌
보트
보력
보느라
보직이
복도
볼일
볼ㄲ
봇하
봐줄
부어
부적
부침
분해
불행
비를
비정
빌딩
빙어
사항
사수
사육
사올
사보고
사가지고
사줄게
살에
상ㄷ
상술
상업
상거래
색조
색칠
생깍
서예
성취
세련
세균
송정
수서
수목
수송
수요일에
수분이
쉬다
쉽ㄱ
시선
시점
시세가
식사도
식재료
신ㅎ
신ㅇ
신봉
실거
실비는
싫지
심사
쌓인
써먹을
쓴다
씨는
씽씽
아찔
안날
안락
안막
안닮
않도록
암기
암살
암컷
약으로
양산
양성
얘들은
언어도
얼ㄴ
얼ㅂ
여고
역까지
열받
오션
온나
올바
완져
왔어요
외우는
외동이
울지
웃기는
원자
원장님이
원데이
위염
위치도
유격
윤계
윤석
이고
이년
이쪽
이쪽으로
인재
인플루
일등
읽ㅇ
입었
자니까
자려고
잔다
잡히면
장을
장남
재판
저가
적으면
전설
절벽
점을
정한
젛ㅇ
조마
졸음
좃ㅇ
종ㅇ
좋가
주토
주더라
주세요
준수
줬어
지오
지적
지쳐
질ㄹ
질려서
짐을
집가서
집순이
찍어야
찍으러
착해서
참나
참으로
창의
천하
청결
쳐본
총쏘
치팅
친가
친목
칺ㄷ
칼슘
캐쉬
코디
코스가
콧물이
쿠섭
클레
타봐서
탄력
털을
테라
퇴그
트램
틀어야
파일
팔뚝
팔아도
팔로워
편식
표지
풀ㅇ
풀려
풀어서
품종
피자가
피지컬
하누
하낟
학사
할것
할거야
할때는
합니
항의
해고
해치
해줄게
해놔야
했구나
허세
형네
홈플
홍준표
화날
활짝
흐려
흰머리가
힘으로
##을ㅇ
##니즘
##내려
##지면서
##우러
##는지도
##피도
##때쯤
##겠더
##오냐
##오브
##인디
##있어도
##있어요
##다덜
##으켜
##보는게
##보이고
##사님
##베리아
##버려서
##연도
##ㅛㅓ
##차에
##티아
##티나
##졌을
##졌다
##안도
##안나
##데요
##노ㅏ
##던게
##중이라
##중에도
##주세요
##바바
##먹은
##먹는게
##정말
##엤ㄷ
##줬ㅇ
##줬음
##장교
##장갑
##부작
##비에
##비용이
##산거
##파서
##업도
##친ㄱ
##소설
##임을
##출신
##되네
##것처럼
##겟ㄴ
##볼도
##볼ㄲ
##랬어
##외국
##통수
##없ㅇ
##밴드
##낞ㅇ
##않아
##캐슬
##돼야
##늨ㄷ
##튼ㄷ
##갰ㄷ
##렌토
##칭이
##십니다
##껬ㄷ
너무해
우리딸
아니였는데
그러더
생각날
같은것도
아이한테
재밌잖아
다른것도
군대가서
얼마든지
모르니깐
괜찮아지
그러게나
언니들이
다음은
다음번
해야겠ㄷ
어디는
건강하고
맛있었어
##다는건
머리로
공부하면서
가는ㄱ
다니느
별로고
가을이니까
나이스
나이드니
버스랑
나가는데
여름이랑
많은게
많은지
주말까지
만나지
저번엔
저녁도
저녁먹고
중국의
되는건
사는것도
먹을래
어려우니
하지말고
화장이
아프진
가야겠
연애만
안되는게
있었구나
만화에
남편과
축구장
올라오고
동네마다
가까우니까
선수를
출근은
떨어지지
비행기로
신경도
점심도
퇴근시간
이해하는데
궁금한게
청소하면
어렵진
잘못해서
어디서든
키워보
웹툰에서
관련이
할인을
반려동물도
어린애들
직장은
##레이션
학생들도
맛집을
안좋ㅇ
물건은
멋있더라
도움은
받는다
않은가
ㅛㅏㄷ
검색해봐
미용실을
미안해서
선택해서
직업은
가르치고
피곤하고
피곤하면
쉽지않
ㅗㅏㅈ
계절은
택배를
되어있어서
없었나
피부과에
사건도
말해봐
가보려고
검사도
바꾸려고
유치원도
50대
걸리는데
움직여서
데려와서
도와주고
똑같아서
않았나
재밌을거
받았으면
받았다고
지방이
다녔었는데
않을까요
것만으로도
투자할
커서는
하시는데
시대를
식단도
마시면서
문화는
육아휴직
게이머
적응해서
체력을
발전해서
삼성페이
영국이
체험해
빨래가
첫째도
독립해서
네일샵
아이템을
누군가는
미래에
미래의
했었ㅈ
문신은
중학교때
사망한
의사들이
걸린다고
2ㅏㄷ
사료가
만났어
베트남에서
많으니깐
서비스도
서비스를
혼자서는
특전사가
다운로드
##하려는데
1차만
멤버십
지나가면서
모으기
TV에
키웠던
생겨야
메이플스토리
어머님은
누워만
조ㅗㅇ
초대해
신혼여행은
소중함을
하고싶은데
크리스마스에
조ㅠㅇ
대상포
여동생이
고장나서
국물에
고딩때
어딘가
안마의자
날아갈
그런가봐요
발견해서
어느정도는
지났는데
보냈는데
시도해
이정도는
종이의
두피가
자영업자들이
구조가
불가능한
따듯하게
##드리드
무궁화꽃이
고소공포
바디로션
시민들이
가치관이
질문을
어마어마하게
낮잠을
끔찍한
희망을
특수부대
요구르트
인공눈
브라질리언
휴게소에서
남이섬
초콜렛
승부욕
잠잠해지면
사촌동생이
서해안
이빨이
민주주의
퀄리티가
접근성이
주머니에
댕댕이
변덕이
네비게이션
두드러기
태권도는
도토리
손잡이
공무원이
클리닉
전참시
사투리
후덜덜
소라게
기니피그
핑크뮬리
만병의
초음파
공인중개사
이비인후과
서귀포
바글바글
더군다나
1시
2도
2ㅘㅆ
82
8시간
SRT
ㅠㅓ
ㅠㅐㅇ
ㅡㄹ
ㅣㄴ
가약
가2
가봊
가더라
갈ㅇ
감ㄷ
감흥
갔구나
강ㅎ
같지가
개복
걸어도
검찰
겪고
고의
고발
고춧
고졸
골랐
공고
과태
교토
구니까
국립
궁급
그로
그그
근사
기지
기여
기증
긴머리
김영
까페
깜박
끼니
나며
나비
나까지
나홀로
난ㄴ
남지
남은거
남기고
납품
내신
내방
내후
넓으면
넘었
노릇
논술
놀게
놋하
농협
놔두면
누난
눈높
다래
다쳐
단지가
담보
답다
닿는
대대
대밌
대전에
더니
덕후
독도는
돈아
돈가
돌잔치
동상
동숲
되려면
둬야
뒤져
뒤로는
드레
드람
등ㅅ
디엠
따ㄸ
따돌
따려고
딱이야
때를
땡길
똥을
뜯어서
라쿤
레깅
막ㅇ
말다
매월
매실
먼치킨
멜론
명확
몰고
무드
무렵
무덤
미워
미필
밀어버
바지가
박아
박살
반전이
방구석
백일
별명
보석
보녀
보름
보시는
보너스
볼수록
봤고
봤ㄱ
봤거든
부시
부리고
부자들
북유럽
분ㅈ
불만이
블라
비버
비즈
비중
사신
사바
사랴
사립
살ㄷ
살빠
살만한
상반
상무
생이
생객
생파
생걱
샟각
샤이니
서늘
서프라이
석사
섞인
선한
설날
섬에
소지
소외
소비가
속ㅅ
속기사
수료
수칙
수치가
술집에서
숨기고
쉬어야지
스물
스캔
습도가
시고
시다
신화
실은
실무
실탄
실적이
심근
심상
심해지는
싶엇
싸지
싸는
싸웠는데
씻으면
아트
아그
안도
안ㅅ
안약
안챙
안젤
안넣
안가서
안했으면
안어울
안챙겨
알앗
았ㄴ
앞을
약해
어렸
억새
얼구
얼추
열싲
영수
영유
영역
오신
오자
오설
올겨울
옷들
왼쪽
요플레
우우
웃으면서
원해서
위대한
위내시경
응ㅇ
의학
의류
이면
이삭
이론
이1
이달
이뻤
인조
인ㅌ
인류
인바디
일보
일대
일잉
잃을
잇몸이
있지는
있더락
자네
자금
자리는
자면서
잖으
잘ㅁ
잣이
장어
장ㅅ
장작
장사가
재혼
재질
재맸
재테크
재입대
저를
저려
저그
적지
적정
전ㄷ
전집
접ㅈ
정하는
정리가
젖은
제설
제댈
젠가
조명이
종점
좋애
좋뎄
주더
주휴
주벼
중구
중엔
줗아
지을
지들이
지에스
진입
진화
질환
집돌
쪽을
쪽ㅇ
참아야
채굴
책으로
초창
촌에
총알
총으로
최다
최민
취어
치키
치솟
칺아
컥으
컬리
코끼리
코드가
코트는
타니
타나
타워
테일
테이크
톡톡
통근
튀는
파우
팔릴
편하다
평등
풀렸
풋풋
피하는
하심
하ㄸ
하도록
하드라
한문
한단
한ㅊ
한가지
합ㄴ
해얃
해봣
했거
했죠
행위
허느
허가
현상이
협박
혼나고
홍진
화살
화요일에
황태
효곽
훨씨
흑흑
흔히
##개만
##전공
##전으로
##하거
##하잖ㅇ
##하려나
##하겠다고
##아치
##아메
##거에
##라임
##는걸
##담이
##이더라
##겠습니다
##말랑
##식구
##있ㅈ
##셨ㄴ
##셨네
##마스크
##면에
##으셔서
##가까
##사냥
##긴ㅎ
##수선
##4ㅚ
##진도
##할만한
##같다
##연습
##ㅛㅣ
##ㅛㅐㅇ
##꺼도
##호도
##용도
##예비
##잡아
##안되서
##람회
##르륵
##노소
##였어서
##였다가
##였지만
##였는지
##배가
##배달
##투어
##먹는거
##싶ㄷ
##줬던
##장구
##장이라
##았느
##선이랑
##소스
##잔ㅇ
##됐어
##책임
##되길
##7ㄱ
##방울
##15
##남매
##올라
##봉지
##온이
##써야
##퍼는
##품도
##맞춰
##맨이
##메이
##메이드
##난리
##럴림픽
##후로
##닫고
##념이
##좋고
##뉴ㅐ
##뜩이나
그런식으로
우리팀
우리처럼
아니며
그렇더라고
그럼그럼
생각했
생각함
이번달에
있는ㄱ
있는지는
친구처럼
여행계획
거기만
시간이나
시간나면
시간내서
들어가지
들어오고
결혼해야
나오게
회사들은
운동회
괜찮겠다
이런걸로
다음부터
해야되는데
힘들ㄱ
힘들ㄷ
힘들텐데
겨울이면
건강에는
키우자고
오래해서
처음들어
공부하러
예전만큼
그럴꺼
어떤걸
다니니
다니던데
다니니깐
부모도
그치그치
알아도
백신패스
나가긴
나가지도
필요성을
만들었는데
부모님과
부모님의
사진이랑
스트랩
관리하면
얘기하
중요하다는
걱정이네
음식들이
제주도를
연애하는
세상ㅇ
안되어
안되지만
끝나도
끝나기
이름으로
느낌일
그런가보다
신기하긴
신기하더라
무조거
배달해
약간의
돌아와서
돌아오면
해외도
카페나
유명하긴
시켜야지
가능성
따라가기
놀러도
아는형님
쇼핑할
그만둔
연락하고
귀엽던데
사이코
기사도
좋아하느
모르겠음
아까는
수영하고
##한거야
##한거라
세계는
청소하기
바다낚시
몰랐다
소개로
기본은
보이니까
대학에
대학병원
잘못이
기대는
치료는
방송은
구경해
행복ㅎ
할인해서
누구는
직장에
##이었다
##이었ㅇ
먹어야겠다
광고는
난리났
없을거
보여줄게
시원한데
예쁘지
예쁘면
알겠어요
멋있는데
일어나기가
2차도
컴퓨터는
나올지
일주일동안
작년보다
어쩌지
생일날
싸우지
생긴다는
검색하고
부담없이
있나요
미용실은
주차도
건조기가
헬스도
생겼던데
하늘도
짜증이
염색이
동안은
알지알지
알았더니
##마트에서
한달살기
웃기고
웃기지
웃기더라
거리라
영향력
인테리어에
안그럼
아저씨도
걸리게
함께하는
집중하는
##스럽지
에어컨도
에어컨이
그림도
그림그
##000원이
식당이
오르는데
오르막길
잘하잖아
활동이
활동하는
먹으니깐
추운거
아쉽게도
살짝만
이벤트로
성형은
40만
숙소에
쿠폰이
깨끗해서
3ㅗㅎㅇ
근무를
탈모도
10월인데
##아니가
넘어져서
반팔입고
국민이
해외여행이
소개팅을
전부다
##해보자
초등학교때
자식은
농구는
가족들과
충전하는
있잖아요
신발을
전자제품
맞을까
번씩은
케이팝
개봉하면
해병대는
건물을
맞추기가
##먹는다
범죄자
결과는
가까이서
진심인
의사생활
없으니깐
선선하고
이직을
블랙헤
과자도
기업들이
부터는
지키기
스펙을
야식으로
하나씩은
무릎에
더운게
닌텐도를
가봐야지
##시켜서
비트코인은
경기도는
베이비
가르쳐야
능력도
제대한
유산균은
애견카페
애니메이션은
돌아다니면
부탁해
사교육비
아이유가
예방접종
의견도
공간에서
늘어나면
##언니가
더워도
호주에서
마이너스
스타벅스가
기다리는데
해줬는데
시내에
때려치
가슴에
먹고싶은
항공권
명이서
신민아가
크아는
유재석이랑
##라우드
수수료가
교통사고가
드론으로
친절하게
검정고무
삼촌이
오버워
로봇청소
마인크래프트
자영업자
대단하네요
유퀴즈에
화상으로
1일부터
즐거움
이하늬가
회원가입
ㅁㅎㅅ
어이없네
보인다고
걱정되긴
어마어마한
안들어가
안써도
배고프면
싱크대
길러야
수족냉
얼만데
산불이
이라크
웃겼는데
발달해서
통신망
동그랑
11번가
못살아
몇일전에
브랜드는
찜질방
강력한
학창시절에
오마카
##ㅈㅈㅈㅈㅈㅈㅈㅈㅈㅈㅈㅈㅈㅈㅈㅈㅈㅈㅈㅈㅈㅈㅈㅈㅈㅈㅈㅈㅈㅈㅈㅈ
이다영
정동진
오아시스
오죽하면
수험생
씨씨티비
구구단
식기세척
맘편히
어몽어스
도시어부
만오천원
피규어
이곳저곳
쇼트트랙
쉬엄쉬엄
극세사
무뚝뚝
고춧가루
000원
1대
1초
1월에
1ㅘㅆ
2주에
2시에
2명이
2000원
4마리
625
94
MT
dv
vip
ㅐㅇ
ㅓㅄ
ㅗㅡ
가늘
가네
가녀
가뜩이나
간헐
간김에
갔으
강국
개콘
거잖
것까지
경리
경각
계회
계기로
고시
곳곳에
공대
공존
공기는
공사를
과소
국영
귀걸
그어
그서
그퍼
근대
글렀
기쁘
까까
깡패
꺼낼
꽃은
꿉꿉
나사
난폭
났다고
내로
넘쳐서
넣ㄱ
높은데
놔두
눈에는
다지
다륻
다리는
단편
달성
닮ㅇ
대외
대하는
대사가
덜ㅇ
도덕
돈과
돈쓰
돌이
동글
동선
동작
두산이
드물
듣다가
디도
디카
따져
때까지는
땡긴다
리스크가
린스
마심
마2
마셨는데
막ㅎ
만점
만질
말이라도
망하면
맞선
맡길
먹네
모인
모발이
몰려서
몸에서
무인도
뭐할
뭐하는
뭐랄까
믿기
밑이
바나
박해
박태
반사
반정도
발ㅅ
밧이
배정
배상
법으로
벗ㅇ
베타
변한
변해서
보벼
보였는데
보도록
보안이
봤냐
봤잖아
뵈러
분기
분윅
불매
불구하고
붕괴
붙이면
붙여서
뷰가
브렉
비지
비리
비둘
비빌
빌라가
빨개
빼앗
뽀뽀
사치
사겼
사겨
살래
살ㄲ
살기는
상ㅇ
샆ㄷ
새치가
생거
생갈
서야
서부
섞여서
선태
선후
설ㄹ
설사
설렁
설렌
성남
성묘
세무
소장
소질이
손맛이
수액
술에
스칼
스웨
스킵
습득
시체
시럽
시비
시츄
시선이
실명
심정
심석
심한데
심하네
심하다고
싶닥
싸구
써야지
썩은
쎄게
쎄서
씹어
아스
아일
아누
아스트라
안씻
안한다
앉을
않니
알콩
애로
야경이
얌전
얌전히
얘깋
어프
어버
어질
어젯
언어를
얻어서
없냐
엤ㄴ
여주가
영탁
예산
오홍
오시면
옮기는
왕자
외에도
우중
웃곀
웅변
원ㅇ
원하면
원인을
유자
육준
윽시
의심이
이경
이석
이마가
인물이
일손
일하다
입ㄷ
잇몸
있냐고
자급
자나
자발
잔ㄴ
잔소리를
잡으
장에
재발
저금
적은데
전현
전이랑
전자기
정복
정바
정성이
조수
주시는
죽었다고
중형
줗ㅇ
즇ㅇ
지킨
직급
진실
집이나
찌면
차니
차이도
찾다가
챔피언
챙긴
천장
철이
철분
청양
청정
최우
출국
충돌
충성
측정
치지
침낭
카푸
카리스
칸들
칸나
캇ㅇ
캡슐
커녕
커져서
쿤제
클리어
클라스
탑텐
탑승
태워서
택ㅅ
튀어
틀ㅇ
티백
팀에
팀플
팔만
패치
패디
편핮
편한거
폭풍
폰게임
플렉스
피오
할이
할부로
해열
해저
해산
햐느
호프
혼ㄴ
후임이
흑돼지
##딱지
##개씩
##만들
##월이
##전엔
##전에는
##리라
##아봐
##아들
##서워
##라는게
##는지는
##는다는
##이거
##이덜
##이틀
##피자
##기하
##기보단
##크러쉬
##해약
##겠고
##시니까
##시라고
##시네요
##천이
##인간
##인들은
##마루
##겼어
##디로
##면은
##듯요
##물어
##가느
##사들
##사기
##러드
##나야
##과금
##버리면
##연금
##생ㅎ
##대교
##대행
##대학교
##잡기
##안해서
##여자
##였잖아
##율도
##공주
##의사
##배움
##닪ㅇ
##주자
##감기
##바가
##했더
##했엉
##먹으
##PS
##3ㅕ
##부르
##적에
##적이면
##적이긴
##맛도
##봤ㄴ
##았는ㄷ
##위원
##켜서
##무니
##넌ㄱ
##쪽에서
##력ㅇ
##것들이
##형이랑
##점수
##계의
##뭐니
##먼저
##900원
##달ㅇ
##ㅌㅇ
##봉이
##애플
##온ㄷ
##유저
##유가
##유ㅏ
##현실
##합ㄴ
##환경이
##역할
##꼬리
##pg
##메이크
##몰에서
##캐릭터
##효진
##퇴근
##뉴스
##탐정
##쟎ㅇ
그런적
사람이나
사람이라고
아니었는데
아니겠지만
아니여도
그렇제
생각보단
그래서인지
게임하는데
게임이라고
여행ㅇ
여행지가
영화보러
시간과
들어봄
재밌ㄴ
보고도
결혼한다고
하나요
나오는게
나오더라고
코로나랑
운동기구
아무일
괜찮아서
괜찮았던
무슨소리
다음부턴
힘들꺼
힘들것
날씨에는
10개월
오래돼
여자아이
여자애들
예전이랑
그럴것
다니자
혼자도
가을날씨
이상하면
이상하다
이상한거
우리나라에서는
나이들어서
버스기사
고양이처럼
드라이기
알아보는데
병원비도
집에서만
그랬ㄴ
그랬다고
주말이라
만나게
만나는거
저녁부터
저녁마다
제주는
관리해주는
얘기할
찾아가
찾아볼
찾아가서
중국으로
##만원씩
봤는데도
##가는건
아프기
나왔지
교육과
있었ㄴ
있었는지
생활용품
먹어라
신기할
만화카페
해외를
말이에요
올라간
동네를
가까우
맞는지
놀러갈
산책하다가
그런거보면
귀찮지
다르지만
맛있는지
추워지는
이용하고
맞다맞다
취업하는
퇴근이
세계관
##일이니까
등산화
교통비도
재미있고
할머니한테
주택이라
지원해주는
무섭ㄷ
이유식
할인해
12시까지
배워보
##이었다고
선생님들은
광고하는
먹었다고
이쁘더라
사야겠
고마운
택시타고
자유로
컴퓨터가
에이스
좋았으면
내려야
내려갈
유행은
안전이
생일만
나쁘게
개인주의
마자마자
바뀌었
##할때만
미용실도
그렇고만
가져오
시골이
도전을
도전은
명절에는
명절에도
택배도
1500원
넷플릭스가
상황은
##을때가
##거리에
알았지
태풍은
아기랑
스키도
스키는
어려운거
강원도로
강원도가
김치볶음밥
들었나
유럽도
국가를
조용하게
그림체도
기술은
포기하는
면허를
면허가
근육통이
타이틀
며칠전에
무료배송
방금도
##인거지
이벤트도
한번씩은
않는다
음료를
카트는
계란후
매력에
안타서
카카오에서
후회하지
건가요
안먹어서
이모도
책임이
이슈는
유지비
담배는
배고픈
크림을
인간은
스케이팅
개발이
듣는다
비교하면
누군데
세금으로
문신을
익숙해서
예뻐지
설명해
멋진데
스벅은
작품을
의외네
장면도
업체에서
어깨도
벅수랑
서비스로
60대
사장님한테
포인트로
능력을
능력자
##학원을
유산균이랑
안맞으면
안맞아서
오빠야가
놀아주
편리하게
날짜는
날짜를
콘서트도
뮤지컬은
환승연애
강남에
애매하게
만드는데
이하로
외로운
로맨스는
애플워치
코스모
로션도
프랑켄
재택근무가
장소에
유튜버가
나아질
노트북으로
독감처럼
한의원에서
야채도
그분도
배웠던
무난하고
가벼워서
바닷가에서
사랒ㄷ
아직까지도
이기적인
보고싶은
살인사건
라이프
160
자차로
어울리긴
비오는날
입술이
컨셉이
보여주기
든든한
높아져서
퇴직하고
시ㅠㅇ
##같아요
내친구도
##선생님이
건축물
힘들었겠다
##활동도
수익을
당신은
풍경도
방향으로
배고프다
마켓컬리에서
비비큐
유용하게
입주민
외동이라
일기예보를
불렀는데
돌파감염
무기력
유통기한이
프렌치
오래되긴
후드티
오로지
퀄리티
구석구석
엑스레이
결론은
박보영
하얗게
포메라니
오냐오냐
두근두
해장국
시그널
교도소
시야가
대단하시다
인프라
라운딩
원숭이
독특한
그생각을
인종차별
한순간에
군것질
##아침에
모더나는
박명수
권태기
사회복지
해바라기
지날수록
샤인머스켓
어바웃
운동신경이
파리바게트
아케이드
피피엘
복불복
파인애플
무작정
비석치기
오트밀
동그랑땡
dvd
1순위
2잔
2주는
4시에
5인
5명이
5000원
75
85
SM
bts
ㅛㅑ
가덜
가시는
가보니
가사가
가정이
가더라도
갈리는
값을
갔ㅈ
강압
강대
거대
거세
거미는
결심
경호
계셔
고망
고장이
곰탕
곳ㄷ
공문
공학
공방
과속
과자가
과자는
광ㄱ
국토
그기
그릴
금이
금토
길로
김준
까는
깔았는데
꺼도
끊임
나초
나니깐
나은거
난ㅇ
낞아
낞ㄷ
날까
날려
날카
날리는
낳ㅇ
내과
너구
너흰
넓게
넘치고
년도에
노화
노답
노는거
놀ㄱ
놀리는
놀면서
놈이
농업
농사지
누성
늦어도
닌ㅉ
다릊
단정
닭은
닿으면
대상이
데릭
델꼬
돈모
돌체
동영
동일
동방
동탄
됐으니
되었는데
되어도
되잖ㅇ
되었지
둘어
듣ㄴ
듯ㅎ
딘ㅉ
따른
따숩
딱ㅇ
딸한테
땡ㄱ
똥이
뛰어야
뛰는게
롤링
루피
리정
리프팅
리메이크
링피트
많대
말ㄷ
말하니
맛ㅈ
맣ㅇ
매고
매이
매입
맥주는
맨몸
맪ㅇ
먹잖아
멀었
멈출
메일로
몇시에
모드
모노
모히
못들어
물리면
뭐로
뭐임
뭐부터
미만
미디어
민속
박진
박카
반ㅎ
반겨
발라서
밟는
밤낮
밥솥
방구
배랑
배소
벅수가
벗으면
병역
보살
보토
보답
보완
보르게
봅니다
봐선
봐둔
분제
비하
비치
비안
비판
비난
비쌋
빈ㅉ
빈부
빈센
빙하
빵도
뺏어서
뿌염
사각
사이는
사시는
사수가
산사
산ㄷ
산악
살균
샀는
샀음
상병
상ㅌ
새마을
샡각
세우고
셧다운
소심
소비를
소통이
속ㅇ
솜씨
수성
수단이
순간에
술자리
숫자가
슈프
슈팅
스태
시시
시켲
시기를
시베리아
식자재
신는
실질
싸다
쌓ㅇ
쏙쏙
씻어서
아인
아보
아랍
아앗
아ㅠㅠ
악역
안까
안불
안놀
안가면
안타고
안사고
않덜
알이
암막
앞서
약먹고
양은
언어는
얻고
엄만
없자
없대
없길
없군
없구나
여사친
역이랑
연기는
예스
예배
오덜
오옹
오붓
오셔서
온대
온난화가
와오
왔는
왔ㅈ
왔던
외구
외근
요금이
욕조
욕하고
용도
용감
용량이
운ㅇ
울집
웃어
원도
원빈
원인가
위헠
유대
유발
으른
의자도
이외
인디
인절
인격
일출
일했던
일하던
있ㅅ
자잘
자두
자장면
잔ㅇ
잔다고
잘지
장기적으로
적ㄴ
적합
전재
전액
절실
정하
정치는
정식으로
정권이
제바
좋구만
좋습니다
주자
주관
줄께
줄이면
중화
지디
지점
직무
진드
짐ㅉ
집게
집행
짧으면
짱짱
쪼개
찍으
차은
차랑
차릴
찾게
찾았는데
채울
처리가
천생
첨부터
초당
친해서
친해지
침침
침대에
칺ㅈ
코도
코피
콧하
쿠데
쿵쿵
크니
타요
타일
탈퇴
태블릿
틀었는데
티브
팔ㄱ
팔로우
패널
팩을
편지도
폭설
폭등
풀ㄹ
플스는
피북
피하고
필링
하눈
하세요
학력
한인
할ㅈ
항체
해두
해는
해겨
해조
해줭
해먹고
했구
행사가
허스키
험하게
헤어나
형식
형성
회수
후에도
훈려
흘리고
##만해서
##신기
##자리도
##전까지
##하넹
##도라
##잖ㄴ
##아라
##서비스
##라더라
##담도
##이었어
##기계
##기적인
##심ㅎ
##문자
##크는
##말까
##재범
##인에
##인기
##있더
##셨던
##로마
##족발
##사러
##사의
##사라고
##러스트
##키우는
##매고
##ㅍㅇ
##할래
##할땐
##미로
##티로
##ㄴㅎ
##생은
##불안
##글스
##노동
##세기
##세포
##단ㅎ
##배기
##교대
##먹자
##먹는데
##먹으러
##각하
##부자
##부리
##명의
##반장
##적인데
##적이다
##년ㅅ
##파가
##위기
##순간
##1ㅘ
##령이
##것보단
##형이라
##컬러
##녀가
##살면
##란ㄷ
##통장
##언ㄷ
##털이
##따고
##박사
##브라
##직한
##빙수
##맞는
##엇ㅇ
##젆ㅇ
##빵이
##빵은
##풍기
##얼마
##뷔페
##뉴ㅏ
##뱅크
##손으로
##낳고
##큰ㄷ
##찾아
##FC
##에서의
그런듯
그런ㄷ
아니여서
아니었던
그러길
그러겠다
그렇다는
그거면
그거말고
생각인데
생각하긴
생각이네
좋아라
좋아합니다
좋아졌어
하는지도
게임인
여행하면
그렇게도
시간대가
시간대에
보고는
결혼하려면
가서는
정도라
정도까지는
회사들이
운동장
모르는게
다음주는
힘들진
먹고살
겨울ㅇ
가족으로
키우려고
여자로
그럴려면
가는구나
집에가서
다니게
별로라고
문제인데
나가자
사고로
하루이틀
자기를
애들ㅇ
일본어는
사진으로만
주말인데
학교에서도
저번처럼
비싸던데
누나들은
챙겨야지
챙겨주고
이렇게라도
알바로
중국인이
##적인게
##이다이
걱정될
걱정해줘서
음식에
화장은
나라들이
나라에서도
일이고
가야해서
연애할때
안되니
얼굴로
해외에서는
받아들
고민도
유명하고
축구랑
미용사가
올라올
동네에는
그만두면
산책이라도
최고로
티비도
자격이
조심하면서
갔다오
따로따로
근처가
당근은
당근으로
우리집으로
좋아하거든
취업난
사용한
넷플로
좋겠네요
생기니까
기본이고
저희집
좋다던데
재미있는데
기대했는데
불편하지
내용ㅇ
무섭더라
야구를
야구가
감기약
감기처럼
웹툰으로
12살
수술할
수술하면
접종은
누구보다
직장인들
선생님께
저렴할
저렴하다고
있다니까
그래야겠네
안좋을
핸드폰에
결국에
분위기에
부분ㅇ
예쁘더라
물건들
안나고
멋있네
일어나니까
중요한건
어쩌나
##적이게
유행을
배송은
배송비가
해주니까
안전운전
어울린다
새벽부터
직업도
현실과
주차장에
단풍을
패딩이
하늘의
이것만
ㅠㅏㄱ
경험은
염색하면
와이파이
2년을
프로그램에
프로그램은
피부과도
한달정도
부동산이
연습할
말해줘서
위해서라면
영향력이
업무는
가본적
아저씨한테
자리만
걸리긴
데려온
해결할
기술도
신고를
##스러울
받았나
모습은
상관없는
귀여운거
젊은이들
지방에서
다행히도
배구는
외모지
주인공도
상품도
상품이
결제해서
40만원
이불은
근무하는
카카오페이
넘어질
넘어갈
넘어가서
반팔은
육군으로
국민의
힐링하고
거북이는
파마는
유지하는
우유가
배고플
크림치즈
인간들
인간적으로
커플링
떡볶이는
맥주랑
올랐어
전자레인지
자가용이
아닌가요
친척이
건물도
레이어
메이커
반대야
받으라고
제한을
추워지는데
아이템이
청약에
걔네들
걔네들은
햇빛을
햇빛도
현질은
앉아있는
진행이
의외다
축하한다고
너한테는
똑똑하고
업체는
바닷바람
사귀면
이틀만
하려구
18년
모임도
정치인
두번은
디저트로
정상적으로
대기업은
판매하는
키운다
고맙네
홈쇼핑이
모아둔
여수에
바라보고
기능도
기능사
메이플은
성적은
까먹어서
동기들
가구는
어색할
필라테스도
대세긴
공간도
표현을
한의원은
우승할
안좋아해서
##좋아해
오프라인으로
고양ㅇ
시행하는
마동석이
양궁은
침대에서
레이저로
##하셨는데
병사들
35범
사랍ㅇ
그룹이
시청률
화려하게
감당할
당구장
SUV가
신중해야
이겨내
마인드가
국방부
한약을
교환학생
춤추고
보습이
마카롱은
살찌면
어두워
투표는
조개구이
부정적인
재밌었겠다
컨텐츠가
아이디어스
수도권은
뭐니뭐니
안심할
여태까지
한편으로는
비비고
현지인
억울한
노란색
멀쩡한
수당도
패러디
의경은
지속적으로
SNS에
##프레쉬
감수성이
태양의
원피스가
이재명
트렌치코트
보건소
개웃겨
디지몬
뚱뚱한
아쿠아리
갈등이
지겹다
가래떡
최초로
가위바위
핑계로
가물가물
아기자기한
가이드가
워킹맘
장롱면허
어무니
혼인신고
인건비가
말랑말랑
편견이
야무지게
방심하면
훈훈한
변호사
엉뚱한
역류성
풀옵션
동대문
치와와
박나래
주짓수
피어싱
기승전
여자배구
전형적인
주4일
실업급여
까르보
배차간격이
브릿지
아슬아슬하게
잡코리아
다큐멘터리
대상포진
서프라이즈
안젤리나
오설록
알콩달
빈센조
가위바위보
1키로
1달에
3시에
4ㅜ
4명이서
59
63
78
EBS
FD
SS
UFC
ㅋㅋㅋ
가주
가겠다
가더라고
간게
간은
간격이
갈아서
감ㅅ
갔잖아
갔었지
개편
갯벌
거덜
거깃
거즘
거하게
거부터
거냐고
건사
걸레
걸스
겂ㅇ
게장
겠ㅇ
격하게
경부
경ㅊ
경북
고르면
골치
공지
괜랂
교실
교사가
국외
그레
그집
그새
그려서
글킨
금쪽
기울
기약
긴게
길긴
길어지
김우
깊이
깊ㄷ
까진
깜깜
깜놀
꿀잠
끊어서
끝은
나하
나날이
낚싯
난자
날ㅎ
날려서
남긴
낫다
낮으
내보
내집
내밌
너와
넣으
네고
노약
노른
녹아
논의
놀지
농촌
늑대
다담
다보
다낭
단어를
달력
달라는
닮아
당여
대시
더한
던져서
도도
도피
돈버
동에
동요
동동
동사무
됐고
될꺼
드셨
드는게
든ㄷ
듣기로는
들더
듯한
등사
디올
딴짓
딸이랑
때마
때누
떨려서
또는
뜯는
룽지
류현
마는
마코
막연
막막
만땅
많았어
말으
말하는게
맛없어
매생이
매출이
맥심
머라고
먹ㄷ
멈췄
메밀
명의
못자
못학
못나가
무좀
무르
묶고
문세윤
미키
미끼
믿기지
밀린
바비
박찬
반년
밚덜
발하
발도
발주
방음이
버즈
번지는
번밖에
번화가
범위
법ㅇ
법칙
변하고
보더라
보세요
보상을
복용
본적은
볼펜
봄이랑
부주
부질
분ㄷ
불아
불은
불량
브런치
비대
비록
뽑ㅇ
뿌링
뿐ㅇ
사며
사연
사기를
사전에
산도
산ㄱ
살랑
살려서
살거면
삼다
삼아서
상화
새는
샌프
서는
서열
서태
선언
선ㅌ
선새
설국
센치
소변
속을
속도도
속도를
송파
숏패딩
수선
수류
수많은
숨도
쉬기
쉬러
쉬니까
쉬어도
스팟
스콜
시달
식용
식량
신난다
신호가
실전
실려
싫어도
심하다
씨리얼
안땡
안당
안통
안난
안됙
안하지
안주고
안했어
안자고
알ㄷ
알면서
앞뒤
앞부분
앞머리가
애정이
야시
약가
약혼
어딩
어따
엄ㅁ
없기는
엠티
여하튼
역사를
연동
연산
연못
열혈
였던
영ㅅ
예절
오은
오실
올ㄱ
올렸는데
옳지
와라
왜그래
외관
외워
외워야
요원
우등
울아빠
원만
원인데
원카드
원하던
위는
위약
위헌
유가
유태
유툽
육포
으으
으음
응시
이서
이이
이의
이쯤
이삿
이겨서
이니스
이갈이
인지도
일당
일이다
일하는게
읽어서
입김
있아
있넹
자빠
작전
잔들
잔ㅎ
잘돼서
잡ㄱ
잡힌
잡았는데
잤더니
장군
재생
저격
적자
전우
전학
절제
정체
제재
제보
제사를
조륵
조치를
족발이
좃아
종족
종사
좋자
좋단
좋넹
좋지는
주입
주던데
주제에
준다는
줄다
줌으로
쥐어
진ㅎ
진압
진로를
짇ㅉ
집ㅈ
집집
짝이
쫗ㅇ
찬스
찾ㄱ
찾기도
처우
처분
청바지
체리
추우니
축소
출첵
춥더
취지
칼이
칼ㅎ
캡틴
코노
코팅
코륵
콘테
쿠스
쿠킹
크으
키트
키움
키웝
타야지
탔어
태우고
터지게
털어
토토로
통행
투블럭
툭툭
팀장님이
파격
파이트
판다고
패럴림픽
팬클럽
포뇨
푸라
플ㄹ
피터
하어
하원
하댜
하3
하납
하떠
하다고
하자는
하셔야
학ㅅ
학업
한장
한건
한박스
할거면
함양
해동
해달라
했더라
행사를
허위
헌팅
헬기
현미
화나서
환ㄱ
회장
흐르
흐린
힘달
##어게
##어플
##잘하는
##고에
##들지
##들어가
##자에게
##게이트
##하더라도
##리니
##리며
##잖니
##아요
##체조
##이하
##이며
##기들
##치에
##었엉
##해가지고
##둬서
##오일
##듯한
##보조
##보이긴
##가보
##사는게
##사이에
##긴하는데
##나오면
##나오고
##럽ㄷ
##수준
##슬라
##버림
##버스로
##억원
##ㄴㅈ
##8ㄱ
##졌던
##생을
##요미
##요ㅏ
##세여
##단에
##단은
##공이
##던디
##릴때
##투자
##주셔서
##놓지
##편의
##감에
##감자
##회를
##했자
##ㅆㄷ
##먹ㅇ
##먹었는데
##정에
##싶다고
##줬더니
##부족
##강의
##2ㅔ
##2ㅕ
##봤더니
##판도
##렸ㄷ
##입ㄴ
##페라
##소다
##잔데
##무지
##임금
##청에
##청에서
##등록
##돈은
##읒ㅇ
##쪽도
##창에
##렁이
##것을
##겟네
##석은
##택이
##택배
##제라
##제랑
##찮으
##토스트
##종은
##죽을
##언제
##와중에
##렜ㄷ
##ㅂㅇ
##큐어
##변에
##넘게
##rt
##쌤이
##쳤어
##빨이
##충전
##밀리
##뱅이
##싫어
##놀이가
그런일이
아니어
아니겠지
그러신
##하고도
하는걸로
좋은ㄱ
게임회사
이번년도
친구라
친구드
여행객
여행지로
그렇게만
같은ㄱ
엄마표
영화보다
##더라궁
들어보고
결혼ㅎ
하나면
코로나땜에
정도라고
회사서
회사의
회사일
모르는거
무슨맛
다음번에
해야해
해야해서
힘들다는
가족력이
가족이니까
##하지마
맛있었던
10도
10프로
오래가는
처음이
공부하느라
기억하지
가는길에
집에와서
이상적인
사람들ㅇ
버스만
없어져
운전하다가
나가게
나가기가
그랬었
필요할때
보는ㄱ
##이라고는
무서우
다녀보고
여름과
주말부터
드라마야
챙겨주는
사실이
다이소에서
먹을수록
##했는데도
미국을
어려우니까
나오는지
##정도가
나왔으니까
인터파크
주변에서도
연애관이
안되느
있었느
생활로
보내서
다이어리
배달료
영어랑
마스크때문에
유명인
따라하고
뉴스보니까
봐야할
외국인이
놀러가면
쇼핑하고
그만둘
스타가
서로서로
전화번호
연락ㅎ
이사한
갔다왔는데
치킨이나
생각해요
근처면
선물하기
기사에서
이용진
당근거래
내년에도
취업은
모르겠ㄴ
정신과
생기긴
위험성이
저희집은
작은애는
좋다좋다
재미있겠다
맞고는
가자마자
기대되는
시키는데
불편하게
예약할
예약해야
웹툰에
캐릭터들
12일
누구라도
선생님이랑
저렴한데
##생활에
##생활을
모든게
학생때
보다보니
난리다
난리더라
해보세요
보여야
시원ㅎ
안나가
한다더라
자유롭고
인생샷
해본적이
해본적은
아들을
해주는게
ㅛㅏㄹ
일반인이
바뀌어야
인정하는
새벽까지
구매를
구매한
경기에서
헬스장은
패딩도
생겼다
생겼다고
자취생
헤어팩
헤어지는
명절이
최대의
와이파
요리사
없었음
연습하면
부대마다
감독도
웃기게
스키나
출퇴근을
유럽이
움직일
햄스터를
알았어요
집중력이
잘생각
잘생겨서
해결되면
해결됐으면
대체공
스타일의
정리하는
##영화도
근육도
추운게
어플을
어플에서
며칠은
화이자가
이벤트가
아이돌들
때문이
10년도
스토킹
##거같다
하시나
반팔입
자식들이
같긴한데
마시러
충전소가
육아에
안보는데
크림도
인간도
불안한
허리에
전자렌지
1시간에
뛰어내
처음에만
유전이
영국에
음악도
추울때
결과를
도착할
상태를
줄어들어서
쿠키가
회의도
아이스크림이
은행도
멀미를
멀미약
만화책이
어떡하지
햄버거는
스벅이
꾸미기
꾸미면
여기서는
지키면
야근하고
일상을
고속도로는
디즈니는
##선수들
삼겹살을
끝났어
끝났다고
마켓에
하려는
다닌다
휴대폰을
등록금
불법으로
쌀쌀해서
키운다는
베이글
급여도
멤버들이
##동네는
지나가는데
홈쇼핑에
한강에
초등학생때
안맞는
나무가
홍삼이
기온은
재료는
있겠네요
단순해서
스위트
손님들
공항이
유투브에
살았던
19금
유튜버들이
2002년
가구도
재방으로
샐러드도
지원금을
2번이나
어색해
국밥이
하고싶어
나간다
붕어빵이
놀랐어
늘어날
마이클
출연진
##좋아하는
그분은
매매로
가고싶은데
한가득
떠나야
실수하면
할때마다
나머진
선크림은
방학이
위생이
모양도
여러가지로
도서관이
정촌은
은퇴하고
감염이
프로게이머가
없애야
울산에
시청률이
선배가
규칙적으로
블루베리
화면이
의자에
아줌마들
아줌마들이
사천에
배경으로
##지않고
집안일을
1학년때
스노보드
저러나
1일차
당시엔
좋았어요
보라색
일요일은
부러워요
경비원
주민들이
스카이다이
미끄럼
##그런데
오랜만이네
노동자
안심하고
평일에는
안써서
##크래프
난방비
컴터로
지겨워서
떠오르
물품을
비온다
유용한
여론도
트라우마가
쓸데없이
사진찍어서
사고싶은
살아남기
수행평가
죄송합니다
모공이
피엑스에서
그말이야
식구들
한옥마을
관광객이
번거롭
공중파
멍청한
밀크티
시끌벅
토욜에
호날두가
반영구
성실한
사례가
부담스러워서
넷이서
틈틈히
햇볕이
최전방
매니저가
한일전
시각장애
존맛탱
에어프라이어
이집트
그다지
유부초밥
번개장터에서
하이브리드
상징하는
삼각김밥
아토피
허리케인
나같아도
악세사리
에피소드
브래드
포장마차
액티비티
경구용
딸래미
벌크업
프리미어리그
뼈해장국
사관학교
요약본
재채기
블랙위도우
병문안
오리고기
인공눈물
과태료
레깅스
디도스
빈부격
FDA
오은영
스카이다이빙
200원
3초
39
3마리
6인
6만원
7만
700
8개월
8천원
BM
GT
K5
mb
rpg
ㄱㅎㅇ
ㅜㄹ
가급
가누
가깡
가리지
간도
간병
간지가
감ㅇ
감금
강하고
같습
개들이
갱각
거일
거잖ㅇ
걷는게
걸림
걸렸을
검프
겁도
경고
경ㅈ
경질
경력이
계저
계시는
고자
고향이
곤약
골골
곳이라서
공평
과실
관상
관악산
괴로
교대
교정도
구라
구린
구성이
군기
군번
귀걸이
그지
그놈
그친구
그마저
글도
글쿤
급증
급해서
기껏
기말고
김정은
깨져서
꺼면
꺼가
꽂아
끊이
끊겨서
끝인
나우
나요
난들
난드
남기
남한
남원
내자
내연
내무
내리기
낼부터
너누
널리
넘겨
네일이
년이
농사도
놓치
놓치지
놨어
뇌가
눅눅
느린
늦ㅇ
다오
다다
다되
다하고
닫는
달지
달마다
닭을
담달
대만에
대선이
대사관
던지
던지고
데나
도울
도구
독채
돈ㄷ
돈독
돈이나
동기가
돼지가
됐든
되실
될듯
뒤면
뒤처
드셔
듣네
들이는
딜러
땄어
땅덩
때야
때분
떨고
뚫어
롱패
루지
류의
립밤
많ㅊ
많ㅌ
말년
말까지
말한거
맞ㅈ
매려
매장이
맥시
맥북
머스
먹진
먹기가
먹지도
명탐정
모로
모험
목ㅇ
몸치
못만
못말
못ㅅ
못받
못했던
못하는거
못했다
무화
무책임
뭐에요
뭐먹을
뭐하냐
뭐시기
미는
미장
미혼
민ㅉ
믿음
박스를
박람회
박재범
반발이
받앙
발찌
발휘
밥ㅇ
방ㅎ
방파
벅수도
벌ㄹ
벽을
변수가
변요한
병을
보져
보존
보네요
본사
봤으
봤었지
부인
불을
불침
붙는
비중이
빙고
빛나는
빡시게
빼기
뻣뻣
뽀글
뽑았는데
사하
사골
사얒
사놨
사십
사볼까
사먹는
산업이
살ㅁ
삼국
샀으면
상권
상금
샆ㅇ
새가
생개
생은
생명이
선행
세서
세입
소매
순으로
술술
스탭
승승
시바
시커
시뮬
식비가
식구가
신을
신동
신림
실어
싫ㄱ
심해진
십ㅎ
싶던
싸가지
쓰다가
쓴거
씻어
씻지도
아자
아리
아읻
아늑
아는게
안돌
안와
안찍
안오는
안오고
안심이
안들고
안개가
앉는
않던데
않겠지
알잖아
암보험
앱을
야후
양악
언급
언ㄷ
없덜
에르
엠씨
여간
여왕
여운이
연탄
연출이
연달아
열을
였는데
예외
예정이
예산이
오기로
온실
온도도
옮겼
옷차
와야지
왔으니까
왜그런
외우고
우ㅉ
울음
울어서
워드
원치
원정
원한다면
웬일로
위햇
은은
의욕이
이차
이룰
이핵
이쁨
인어
인ㅎ
인당
인사도
인권이
일ㄱ
일언
일이라고
일한다고
잃고
입덧
입력
입히
있ㅁ
있도록
자니
자지
자란
자라는
작으
작아도
잔드
잘ㅅ
잘해도
잘챙겨
잡음
장발
재무
재멨
재계약
저분
저랬
적느
전교
전셋
젊어
접고
접조
정호
정권
정년
정석
정거장
젖어서
제값
제정신
젠ㅉ
져야
졓아
조여
졸ㄱ
졸랐
종ㄹ
좋타
좋곘
좋다면
죻아
주라
주요
주상
주기가
주사는
준제
줄만
중매
중대
중반
중년
중이다
줬다
지울
지능이
진하게
진상이
진심이
질을
질병이
집들
집이라
집보다
집인데
짜게
쫄면
차트
차곡
차려서
참ㅇ
책만
천차만
첨에는
첪ㅇ
쳐봤는데
총도
충실
치트
친ㅎ
친화
친해지고
칠순
칸쵸
커블
컷ㅇ
켜야
코알
코수술
크기도
키티
탈까
테런
텐트도
퇴원
튀겨
틈이
파고
파나
파리가
퍽퍽
펀치
포터
포스트
품질
풍족
프록
플랜
피디
필숭
필수가
하마
하믄
한도
한남
한쪽이
할지도
할일이
할수도
할라면
합성
합쳐
해부
해먹을
했군
했어서
향도
향기
향수를
현ㅅ
형편
형수가
확ㅈ
확ㅇ
활약
활성
회시
후면
후원
후예
훌라
휴식을
흥분
희소식
##어려
##봐약
##자켓
##하심
##하군
##더랑
##리느
##리안
##거리면
##라거
##이네요
##이였는데
##피니
##기에도
##문도
##치러
##해놨
##해달라고
##겠냐
##시더라
##시던데
##식이라
##천에
##오로
##인증
##로랑
##테고
##듯해
##보에
##가수
##가의
##사삭
##사이트
##병들
##ㅎㅎ
##나오
##나긴
##나보네
##수있는
##혈이
##경에
##렐라
##할수록
##향을
##버렸어
##코스
##호랑
##요원
##복귀
##준다면
##였다고
##던뎅
##중에는
##ㅠㅐㅇ
##회도
##했어도
##링크
##츠는
##장사
##장난
##카드는
##산지
##술도
##ㅗㄱ
##ㅗㅏㄴ
##일거야
##상한
##상황
##판으로
##렸ㄴ
##친다고
##입니
##셔널
##포에
##포트
##잔ㅎ
##무는
##무사
##책은
##화수
##되겠다
##되었다고
##견이
##1ㅓ
##쪼록
##그라
##올린
##볼로
##법에
##철에
##94
##란이
##란시스
##종목
##왔다고
##5년
##모니
##모아
##퍼가
##층에서
##많고
##유도
##곘ㄴ
##능ㄷ
##될지
##맞추
##켠ㅅ
##침대
##넘어서
##겄다
##떨어
##좋은데
##늦ㄷ
##빌딩
##캠프
##캠핑
그래봤자
그렇구
그렇겠죠
생각나고
##이라며
지금쯤
좋은곳
오늘만
이제서야
아직ㄷ
여행이라
엄마에게
영화로도
시간인데
시간에도
아이맥
보고서
결혼의
결혼했는데
다른ㄱ
군대로
회사까지
얼마씩
운동ㅇ
괜찮다면
해야할지
힘들겠
가족이라
키우기가
날씨야
남자면
##해야겠
머리부터
여자만
여자친
그때를
아빠의
그럴듯
어제보다
이상이면
아침도
아침저녁
##00원이
병원에서는
그랬음
필요없는
그런데는
애들끼리
대박인데
가격이랑
만나자고
학교랑
저녁이
비싸지만
서울에는
이렇게나
알바할
너도나도
##적인거
##이다보니
한국어도
한국어로
준비하는데
준비한다고
음식만
노래에
노래방도
대단하지
나왔대
나왔잖아
주변이
안되겠
얼굴이나
교육자
교육열이
있었다면
이름ㅇ
먹어보니
보내도
배달하는
프로가
지나가서
기분은
이거지
이거저거
가능하니까
알려진
가까울
쇼핑하는
떨어짐
그런거도
그런거면
사랑과
귀찮으면
비행ㄱ
조심하라고
30분에
3040
맛있는것도
추워지고
바람으로
이용하
이용하는데
너희들은
너희들도
모르겠ㄷ
소리에
퇴근하는
사회는
위험하고
따뜻해
않을거
기본이지
보이게
##스타일이
대학은
재미있지
골프에
비싼게
가기싫
예약ㅎ
고생한
고생했어
지원할
지원하는
지원해서
무섭지만
행복하고
할인하는
접종이
접종완료
선생님들도
저렴하니까
##한다던데
광고로
부럽네요
냄새나고
적당하고
1년도
물건들이
일어나야
한다더니
하면서도
만들어지는
일주일은
자체도
##하는거지
해주신
생일도
생일파티
나쁘지는
네이버가
인정해
가르칠
좋겠다는
현실에
가져가면
연기력이
주차장이
주차장에서
헬스장도
생겼을
기름을
애니는
하늘은
도전해봐
가게에
15일
되어있
아닐걸
짜증날
염색약
평생을
스키를
자신감을
업무도
김치도
노력해야
안해봤어
비타민을
비타민C
자고로
무서워하는
잘생김
그림체
국내도
사촌이
해결될
똑같을
차이로
오르기
해봐도
포기해야
심각해
상관없어
먹으라
안가봤는데
취향도
주인공인
중독된
투자한
계란찜
걸어갈
이불이
전문가가
바르는데
북한이랑
##거같아서
물고기들
자식들
자식도
파마가
답답ㅎ
농구를
감사히
시술은
불안할
스케쥴
올랐을
1시간은
적응을
유전자는
응원하고
건물들이
직원들은
맞았지
올려놓고
독립하고
확진자도
매운맛
롯데는
무리하면
할아버지랑
무시하는
무시하고
예뻐지는
설명도
사망자
가봤ㅇ
만화책은
기념일을
어떡하냐
불쌍하고
외국인들
해봐야겠네
사업이
일상으로
진주도
잔인하고
하겠다고
많으신
삼겹살에
인사하고
인사이드
하려니까
다행이지만
장르를
##3ㅓ라
휴대폰도
5년은
비트코인을
배그도
속상한
김밥이
멤버가
제대하면
##회사에서
그렇다니까
현대에서
배운다고
##000원에
유기묘
##3ㅏㄱ
부지런한
부탁해서
생겨도
도망갈
사교육비가
가깝진
출발하는
인천에
막히게
198
괴롭히
200만원
의견을
싸움을
지원금으로
감성적인
방탄은
필라테스가
관계는
면회도
싶었느
싶었ㄴ
월요일부터
붙어있는
##센터에
어마무시
올라가니까
오프라인에서
##들에게는
저기서
가벼워
양궁이
동료가
방학에
테이퍼
사란ㄷ
때려치고
바꿀까
먹고싶은데
고통이
발생한
속눈썹이
아메리카노는
외출할
블로그에
이루고
과목을
미루는
초밥도
배려가
단백질이
발표를
규칙적인
출산율이
화면도
KTX가
두피에
##지않게
어지럽
겉옷을
내친구는
내친구가
어두워서
즐거워
노르웨이
엉덩이가
여행가기로
지지율
좋아졌다
디아블
쓰러질
놀랬어
무너지는
가습기를
남들보다
이런데도
외할아버지
엄마아빠가
댄서들이
유저들이
남녀노소
박쥐는
tvn
단속을
절반은
다음달부터
해피엔딩
날씬한
천재지
틀린그림
민주당
마법의
헤이마마
감옥에
소고기가
스쿼시
녀석들
철저하게
소득이
장난아니게
키즈카페
임시완
돌아다녔
비쌌던
##차이즈
여럿이서
구비해
섭섭해
재작년
정규직
푸석푸
문열고
현명한
반가운
페인트칠
코시국이라
공복에
가혹행위
깔깔이
때우기
귀염둥이
숟가락으로
전성기
##스티벌
베네수
돌아간다면
이슬람
백두산
진통제
초파리
길가다가
선착순
퍼스널컬러
베란다가
비키니
인공지능
물풍선
오션뷰
윤계상
테일즈
검정고무신
스칼렛
카리스마
두근두근
아쿠아리움
김우빈
##란시스코
1은
1편
2위
3박
43
41
6월
6ㅏ
8만
88
ai
lg
ㅁㅈ
ㅗㅓ
ㅠㅕ
가렇
가셔
가봥
가려서
가스가
가볼게
값만
갔네
강렬
강사가
같으니까
갤러
거까지
거였어
걷다가
검도
것ㅂ
겉으로
겠다
겹치
고문
고대
곳에서도
공가
공홈
공장이
과로
과잉
과장님이
광수
괜않
구급
구렇
구하는데
군면
군필
굽고
귀로
귀요미
그이
그른
그겋
그시절
극과
금ㅂ
급으로
기댇
기니까
긴데
긴바지
길ㄱ
길쭉
길바닥
깨우
꼬불
꼬리를
꽃보다
꾹꾹
끼가
나에
나인
나각
나강
나선
나눌
나아서
나보다는
난주
난방을
낞ㄱ
날린
날잡아서
남쪽에
내나
내력
너라면
넉느
넉ㄴ
넘기
네모
년을
노ㅠ
노견
녹색
놀림
놀라고
놀이가
놀이도
높다
높으
높긴
놨는데
눈꽃
느리게
늘리는
늙었
늦는
늦었
다자
다져
다륵
다하는
닥스
단ㅈ
단디
단합
단계가
단지에
달어
달ㄱ
달릴
담임이
대자
대관
대파
더웠던
덥긴
도주
도왖
독수리
돌도
되냐고
된ㄱ
될거야
두뇌
두가지
드느
디퓨
따끔
따르는
때릴
때주
때랑은
떨ㄹ
떼는
뛰쳐
라푼
랭크
렌탈
롤플레
룰을
룰도
룸메가
리필
마리는
막혔
막국수
막판에
만은
많잖
말세
말하자
망원
먹일
멘토
면에서는
멸치
몇천
모시
모았
모태
모기는
몰리는
무증
묶어
묶어서
문도
문서
문법
묻고
물이랑
물려서
뭐했
믆ㅇ
미우
바가
바버
박스로
밖에서는
반신
밟으면
밥값
밥이라도
방향이
배곺
백지
백수가
밸런
번ㅆ
범인
베테
변신
별말
보거나
복제
복직
복합
봤자
부엌
부츠
부닼
분수
불리
불쾌
브레
블로
블리자
비결
빌라는
빌게이
뿌려서
사럼
사기로
사장도
사달라
사놓은
살긴
살잖아
상자
상다
상세
상해서
상남자
생식
생ㄹ
생악
생겻
생머리
서두
섞여
선ㅁ
섭외
성을
성숙
세네
세명
세뇌
소요
소총
소스도
소프트
손난로
송민호
수산
수집
수색
수돗
순간이
숲이
쉬우
스윙
승모
시흥
신ㄹ
신처
심해질
싲ㅎ
싶나
써봤
썩어
썼다
씨앗
아점
아난
아픅
안양
안시
안비
안시켜
앉ㅇ
않으려고
알기로
애인이
앱도
앴ㄴ
약ㅎ
약ㄱ
양아치
얘길
얻ㅇ
얼룩
없닥
없엊
에픽
에그
에뛰
여는
여수는
역전
연회
연차가
열싴
열십
영통
옛나
오니깐
온몸에
올게
올지
올거
올라도
옮ㄱ
옷이나
옷가게
완공
왕의
왜지
외숙
욕도
욕실
욕하는
용으로
우야
우물
웅장
원장이
원자재
웨이트
위문
위장
유채
육전
음ㅅ
응으
이목
이2
이종
이니까
인문
인상을
일ㅈ
일용
일박이
입장도
있낭
있겠어
있겠ㄴ
자게
자러
자야지
작동
잘보
잘라서
잘하느
잠드
잤어
장ㄹ
재산이
재해가
잰ㅉ
저걸
저렺
적었
전개
전두
전ㅂ
전주는
절도
젊으
점수를
정수
정ㄱ
정보는
제하
제페
제임
존ㅈ
존귀
좀따
좁아
종이에
좋차
좋겟
좋구나
좋더락
주체
죽게
죽ㄱ
죽어나
죽었다
준빟
중립
중간이
지기
지미
지긐
직ㅇ
직모
진미
진주로
질렀
짐승
짝퉁
짤로만
짬짬
쪼끄
쪼그
쪼꼬
쯤은
차마
차익
차돌
창작
채우면
챙경
천왕
첨성
청송
체계가
쳇바퀴
초월
초고
초장에
추고
추적
춤은
치느
치곤
치아가
치워야
카키
칸ㄴ
칺으
캇이
케바
케릭터
크기는
큰맘
통ㅎ
투자가
판ㄷ
팔리
팔까
팬들은
페이지
펴고
편이긴
평수
폭우가
폰으로도
표절
피를
피자는
하수
하대
하세
하남
한식이
한건데
한때는
할껄
할매
할ㅌ
함ㄲ
해마다
햄버
허리는
혁명
현장에서
혈압
형태가
호오
호화
혼난
홍대
확고
확지
확이
확대
환기도
회는
회산
훠궈
흘리는
힘늘
힘뜰
힘듦
힙한
##만명
##에어
##료ㅏ
##고지
##고기도
##을수
##을것
##신호
##자주
##자한테
##하라는
##하겠ㄷ
##두지
##리단
##서나
##서관
##간ㄷ
##드나
##드렸
##심하게
##치곤
##해얒
##오게
##오프
##인거야
##다간
##다닌
##다이가
##마니
##마라
##마사지
##겼ㅇ
##로서
##든ㄱ
##으려나
##테니깐
##보긴
##보낼
##가지는
##러는
##나본
##나와서
##국제
##과를
##ㄱㅎ
##할ㄲ
##ㅇㅈ
##차려
##꺼랑
##꺼가
##억은
##났을
##졌네
##음ㅇ
##대의
##데리고
##길을
##세상
##였느
##였어요
##루가
##공간이
##꾸라
##걸스
##감으로
##교ㅏ
##바꼭
##회전
##했었나
##먹구
##정거
##엤ㅇ
##부러
##부림
##학대
##카트
##카드가
##타도
##타페
##ㅗㅐㅇ
##일걸
##반응
##강이
##2개
##2는
##24
##맛은
##상의
##상주의
##업을
##위반
##작가
##성이라
##릭스
##둘째
##셌ㄷ
##되야
##되기도
##순대
##1ㅘㅆ
##남이
##남은
##그게
##댕이
##질하고
##질수록
##계열
##증으로
##함에
##함과
##살인데
##즌ㄷ
##므로
##응께
##온도
##써도
##백원
##쉬고
##웠다
##슈타인
##품을
##곳만
##읍ㅇ
##변을
##역은
##밚ㅇ
##침이
##메라
##추어
##새도
##액션
##밑에
##취가
##냉면
##멋대로
##풀이
##완전
그래놀
맞아야지
그런줄
그런애
우리때
사람으
사람한테는
아니예요
그러겠네
그거지
그거보고
##해서는
생각에도
좋아좋아
좋아보이
같이가서
##라고는
하고있어
있는ㅈ
여행하고
여행이라니
영화라고
거기선
시간대
아이의
아이큐
재밌겠
보고시
군대간
코로나라고
정도인데
얼마인지
운동복
운동인데
언니만
언니의
힘들더라
##는거면
맛있나
키우다
남자애들은
자주가
10kg
여자애
여자라서
여자들한테
아빠만
다니긴
가을이라서
우리나라처럼
아닌게
고양이한테
병원으로
무서웠어
다녀본
아파트들은
그런데서
만들어도
일본의
일본어가
가격만
가격대가
얘기하다가
찾아가는
다행잉
챙겨먹어야
##만원에
먹을만
먹을려고
한국을
한국에도
한국인은
음식으로
음식점이
미국이나
옛날보다
아프네
##정도만
나왔더
인터스텔
관심병
얼굴이랑
교육비
있었던거
보내는데
보내주는
보내드릴
신기하지
동물농장
##봐야겠네
돌아온
##어나서
프로그
##들이랑은
받아주는
장난아
장난이고
장난감이
고민은
말이긴
시켜도
시켜줘야
너네랑
남편분
귀여움
20프로
알려줬
뉴스만
맞는것
외국어를
##같은걸
출근도
쇼핑으로
쇼핑하러
기다리기
최고라고
사랑이지
살아본
살아온
거기서는
다르더라
최근에도
조심하면
사라지고
근처도
근처라
사이도
전세값이
취업도
수영복
사용은
사용ㅎ
사회성이
하기싫
이러나
추억이지
다양해
어렵ㅈ
보이덜
나서서
할머니들이
기대를
주택청약
지원도
아르바이트로
키워봤어
행복이
결혼식에서
앞으로의
접종까지
직장도
쿠팡만
저렴하
부럽더라
보여주면
방법인
나와야지
택시기사
자세를
컴퓨터에
좋았다고
나올거
추석인데
어쩌려고
기차로
유행한
유행ㅇ
유행했던
해주시는
회식하고
어울려서
있다고는
주문할
들어가는데
받을수
그것ㄷ
선택의
선택지가
영양제가
신청은
신청한
확진자는
좋으시
가져온
마트가서
패딩입고
생겼ㅇ
호텔을
자취할
헤어스타일
##장님도
거래를
거래할
도전하는
그리구
가게도
넷플릭스는
염색한
편의점은
요리학원
##거리면서
화장품에
감독의
사건사고가
잘해줘야
업무에
이쁜거
데려오면
빠르네
##해지면서
도와줘야
사촌들
스타일로
스타일링
오르긴
신고도
활동도
받았ㅇ
놀이공
메뉴로
집안일도
배구를
상품평
일부로
오징어게임을
결제도
수능은
##프로가
멀리까지
숙소에서
취미생활
2ㅗㅎㅇ
않는다는
전문적인
깔끔해
느껴져
느껴진다
##아니야
30분은
##하시네
대학교때
해외여행은
힐링이
이슈를
못하겠다
식단은
마시니까
가방도
육아를
안된거
우유는
바쁘지
배고픈데
아쉬워서
시리즈도
상대를
상대하는
살기에는
발전하는
삼성은
현금을
비교해서
공유하고
건물주
지구를
맞았을
빨래를
역할도
올려도
추워지니
추워지기전에
하이큐
디자인은
익숙하지
무시하지
당첨되는
걸린다
실력으로
가봤네
햇빛에
어떡ㅎ
햄버거를
외국인들은
작품은
이번주부터
사료는
추위도
당근마켓이
장면은
야근을
야근은
새우도
면접을
어이없어
대해서는
부부끼리
하겠ㅈ
사이트를
끝났지
마켓에서
하려다가
환절기엔
모임이
사장님도
의미를
의미있는
백화점에
두번이나
쓰레기통
취직할
예비역
원룸이
죽는줄
긴장해서
풀어주는
현대차
편리하고
6개월에
제목을
휴양지가
자극을
아메리
남동생은
부지런하다
입대할
외로움을
250
도망가는
공항에
많아지면서
촬영지
가깝게
유투브에서
돼지국밥
입장에서도
성적을
장소는
당일로
동기들이랑
런닝머신
복잡할
복잡해서
##것같아서
조건을
어색하고
필라테스는
2ㅜㅇ
늘어나고
소중해
조절을
남았으니까
시댁에서
ㅂㅎㄴ
여동생이랑
좋아했었는데
14일
즐기지
매매가
구입한
가고싶은
스타벅스에서
전투화
선크림도
날아가는
동영상으로
얼음이
자살한
갈때마다
발생하는
논산에서
항공사
월드컵이
그쪽은
싸이클
아가들
##시설이
갯마을차차
부끄러워서
오래됐는데
코딩이
마카오
아팠는데
있을까요
21살
석탄이
어땠는지
수제비
이웃집
교통사고는
캐나다에서
한글날
재미없다
나타나
시끄럽고
시끄럽게
할리우드
프로포즈를
자녀가
단계는
폭력적인
바지락
음주운전은
아부지는
어지간하면
한정식
강아지만
열정적으로
대형견은
도둑들
가치관
##일까요
무너질
황정민이
희망이
귀차니즘
전라도는
타이밍이
난방비가
OST도
무겁게
찝찝해서
울고불고
짧아져서
없어졌으면
댄서들
크로스
이제부터라도
웃겼어
##플레이션
과정에서
마주치면
자료를
이번달은
독학으로
테니스는
1ㅏㄷ
일반인들도
룸메랑
##드라마는
기절할
페이스북이
pc방
옥상에
세수하고
비올때
외곽으로
자상한
오징ㅇ
하얗고
포르투
헤어지자고
쓰리잡
큰아들은
뜬금없이
임시보호
호흡이
하루하루가
4계절이
울신랑
도보로
심플한
우짜노
구운거
그중에서
삼성전자
마땅한
안구건조
그럴만도
홍천기
보태서
메이저리그
공기청정기
마누라
텔레비
저출산이
일방적으로
낙하산
레슬링
리마인드
호기심
카타르
차기작
추구하는
야놀자
로그인
하소연
신입사원
꿔바로우
뽁뽁이
인플루언
따돌림
비즈니스
계란후라이
끊임없이
모히또
민속촌
슈프림
진드기
외모지상주의
알콩달콩
뿌링클
살랑살
샌프란시스코
이삿짐
이니스프리
줄다리기
집집마다
시끌벅적
불침번
시뮬레이션
푸석푸석
베네수엘라
롤플레잉
에뛰드
제페토
05
1호
1ㅐ
2의
2월에
3편
3회
3ㅙ
48
4명이
4호선
6학년
8개
8명
9시에
LH
ㅅ0ㅇ
ㅈ9
ㅎㅎ
ㅏㅎ
ㅓㅇ
ㅗㅎ
ㅣㅍ
가바
가작
가슴살
간사
갈때는
갑각
갔으니
같스
개장
개벅
걔들이
거스
거옝
거니깐
걸러
걸렸는데
검ㅅ
검사는
경전
경상
계급이
고로
고독
고칠
과식
과정을
광명
광팬
괜챊
교무
구만
구별
구우면
구분이
굳ㅇ
궁긐
권투
귀신이
그죠
근ㅊ
글ㄹ
급ㅇ
기우
기발
김병
까마
깨서
껴야
꼬리가
꽂히면
끄는
끊는
나돈
나쵸
나쁮
나던데
나네요
낙곱
난린
낞덜
남ㄴ
남길
남는거
남성이
납작
낫이
났다
났나
낮았
내만
내놨
내보고
낼은
냄ㅅ
넣으려고
녀석이
노숙
노홍
놀아서
높여
놓ㅊ
눈여
눈이랑
눌ㅇ
느긋
다봤
다트
다치고
단식
단팥
닭이
담고
담겨
담그
담아서
당하
당기
당했
더라
데를
데모
덴마크
도롱
도너츠
독자
독일은
돈이고
돌림
동시
되다
되냐
되죠
되기도
되던데
됩니다
두툼
두명이
두통이
둥글
드문
드리면
들ㅈ
등촌
딘딘
따땃
딱인
딱ㅎ
딸린
떼어
뚝뚝
뜨자
띄어
라따
레게
레오
롤드
룰렛
류준
리코
리즈
마우
마디
만만한
만으로도
맏ㅇ
말하면서
말레이
말하느
맑아서
맛지
매물도
먹통
먼지도
멀리는
멍때
메추
몇인데
모라
목걸
목이랑
몰입이
몸에도
못ㅂ
못봤어
못했을
못가게
무기도
무소식이
문젝
물가는
물속에
뭐다
미투
미룰
믾ㅇ
믿지
반입
밚ㄱ
받나
받앗
발송
밥해
밥그릇
방귀
배즙
벅ㄴ
변기
별일이
보낵
복이
복지도
볶아
본ㄱ
봄을
부장님이
분배
분류
분이라
불과
불싸
불리는
블라인
비사
비수
빗물
빗질
빚이
뺀다고
뽑은
뿌린
사더
사간
사우
사래
사단
사네
사적
사제
사왔는데
사줬는데
산건데
삼전
샀잖아
상을
상할
상주
샌각
샏각
생성
생ㄲ
서라
설악
성고
성동
성희
셀토
소대
소르
소량
속은
속기
손ㅇ
솔깃
수천
수느
술이나
숨바꼭
쉬려고
쉬우니까
슈돌
스쿨
스런
스모
스콘
스펀
슬랙
습기
승급
시중에
시계가
신박
신장이
싣고
실기가
실기는
심어
심해지면
심하진
싶지도
싶다가도
싸이버
썼어
쓰니깐
쓸모가
씽크
아신
아키
아차
아델
안자
안열
안썼
안하니
안했지
안받고
안들어서
알야
압도
앞에도
앞으론
앰플
얍얍
양떼
어그
어쨋
어렴
어둠
업어
업종
없진
없겠네
없겠지만
에센
엠마
엠넷
엤어
여학생
연비가
연비도
연관이
열어서
열기가
엽기적인
영햐
옆자리
오돌
오딘
오던데
오세요
오에스
온순
올레길
완치
외고
요런
욕구가
용어가
우대
우편
우박이
유오
유람
윤여
으니
음시
읎ㅇ
응ㅋ
이쁙
이쁟
이시간에
익수
인ㄷ
일병
일하시
읽으면
잃으면
임창
잇는
잉어
잊어
자겨
자각
자장
자칫
자는게
작ㄱ
잔ㅉ
잘가
잘때는
잡지
재래
저버
저렇
적성
전만
전인데
절친
점령
정ㄹ
제기
제도를
조미
졸려
좁은데
종은
종영
좊아
좋ㅅ
주선
주조
주기도
주거나
주셔서
줄으
줄었다고
중장
즉석
지자
지문
지근
지능
지수가
지들끼리
지출이
직군
진이
집순
쩔어
쪼끔
쫀득
찔끔
찜찜
차ㅉ
창가
책상이
척척
천고
첨들어
청ㅅ
총싸움
축제도
춥ㄱ
취재
취햐
층에
치는데
치안이
친하면
침을
침해
카누
카풀
칸ㄷ
커지
커도
컨테
쿨어
쿨하게
큰애가
클릭
키스
키크고
킹스
타려면
탁월
탈수
태평
텅텅
토크
토너
통장에
통마늘
투기
투자는
튀긴
특정한
티라미
틴트
파랑
파도가
팔ㄷ
팔굽
팔려서
팬티
편이지
편이라서
편해진
평화가
포지션
폭이
폭포
푸른
품목
피우
피드
피난
피해야
하체
하동
하낭
하겠어
하4ㅓ
한ㅅ
한눈
한류
합이
항아리
해둬
해명
해놔서
허술
허무
허브
허리를
헌터
헬리
혼전
화제가
화나는
회피
휘둘
흐흐
흐르는
흥이
히노
힐ㄹ
힘덜
힘ㅇ
힠들ㅇ
##만족
##어치
##야말로
##옷을
##들으면
##신히
##내용
##내에서
##자국
##자들의
##자체가
##하데
##지서
##지구
##리다
##리버
##리세
##아져
##아주
##거기
##라카
##프리카
##드려야
##담배
##이신
##이냐
##이기는
##이상은
##피로
##기전
##해를
##해보면
##시오
##시긴
##천국
##오르
##인상
##인형
##인이다
##다행
##마이
##마당
##보리
##보라
##긴해
##긴했는데
##나가서
##매로
##수밖에
##과자
##쿠나
##진료
##영어
##같으
##같기도
##베르
##버스를
##차기
##차나
##티에
##8년
##플러
##졌ㄷ
##예선
##예방
##대학
##안ㅇ
##머리도
##머리를
##글즈
##세도
##세라
##준거
##였ㄱ
##공예
##돌이가
##중엔
##ㅠㅜ
##놓은거
##편지
##바늘
##ㅆㄴ
##먹을때
##받ㅇ
##부르고
##타로
##비안
##터도
##터져
##산다고
##반ㅇ
##반으로
##건ㄱ
##았고
##선양
##파야
##렸네
##된다면
##소독
##OP
##됐을
##둘ㅇ
##화하는
##덕에
##13
##조마
##그렇게
##질한
##린다는
##낸다고
##60
##살아서
##종도
##통신
##죽지
##달고
##묵고
##밌ㅇ
##애서
##브라운
##팡이
##값에
##백화
##케어
##갔나
##답게
##깄ㅇ
##틀어
##pl
##끝나고
##액이
##캉스
##캐릭
##뿐이
##채널
##후의
##샵은
##랭크
##뒀는데
##땜시
##롯이
##댔는데
##콥터
그래놓고
너무한다
나는거
그런지는
아니였어
그러실
그러기에는
생각지도
생각났어
좋아학
좋아해야
게임보다
게임인가
오늘까지
있는걸
친구와
영화들이
영화배우
시간이라
아이와
들어보네
재밌던
재밌으니까
##인데요
하나쯤은
다른걸로
##기도하고
강아지에
강아지야
회사에도
얼마야
얼마를
운동한
운동ㅎ
운동하다가
괜찮겠지
해야될
힘들잖아
##는거도
먹고는
##하지가
남자를
남자인
##해야겠어
101
공부하는데
공부해도
공부한다고
그때의
다니느라
내일배움
별로긴
별로인데
열심히해서
이상의
이상하고
이상해서
이상하지
우리나라에는
우리나라에선
나이차가
배우려고
드라이버
운전만
있을텐데
그랬ㄷ
자기야
자기의
자기개발
당연한거
사진에
먹는것
먹는것도
만나도
좋을때
관리만
서울도
서울이라
챙겨줘서
알바하는
알바하고
시작된
중요하니까
##만원이
먹을수
걱정할
걱정되고
걱정되서
한국사람
나온다는데
나온김에
옛날에도
노래방에서
나왔ㄴ
나왔더라
나왔어요
나라라고
나라에서는
가야겠어
가야되는데
있었지만
끝나니까
끝나자마자
생활관
생활하면서
신기했어
배달비가
돌아왔
돌아갔으면
추천좀
##게임만
카페인이
마스크에
축구하고
미용이
시험인데
캠핑용품
놀러와
아는사람
선수의
여러가지가
출근이
산책이
그런거에
스타는
##에게나
귀찮은데
조심해도
귀엽지만
알고있
30평
신경안
치킨에
점심으로
힘든가
모르겠네요
이해하지
이해하기
세계적
사용해야
등산복
등산하고
가지고는
생기는데
몰랐ㅇ
보이더
대학이
맞고도
11일
월급만
이야기한
어렸을땐
어린아이
접종하고
배워본
저렴한거
있다던데
학생은
에어쇼
부럽긴
사야하는데
해보는게
보여줬는데
안좋으면
시원하
시원해졌
적당할
예쁘더
나와요
잘하는지
신랑한테
일어나기
택시비가
피해자가
자세는
마지막까지
내려와
##적이진
자체에
행님이랑
생긴게
검색을
바뀌니까
그것을
부담스러운
신청했는데
피곤하다
구매하면
가져와서
연기하는
느끼한
헬스를
##장님은
지역도
명절이라
올림픽도
1500
15000원
##아버지가
아닐텐데
2년은
없었고
부동산은
아기들은
지내야
업무의
유치한
아저씨랑
확인할
노력하고
오토바이도
해봤나
데려가서
잘생기면
##말고도
빠르다고
##스럽고
마블이
오르지
잘하진
힘드니
포기해
할아버지도
정리해서
##영화제
받았지
메뉴도
모습도
집안에서
먹으려
추운날
키울까
경제는
큰일나
나갈때
상품으로
오징어게임에
오징어게임은
결제할
중독인
부러진
깨끗해
계란도
계란이랑
조심해야해
주위에는
쉬운게
##하시지
대학교도
안먹는
안먹은지
해외여행을
많을거
소개팅도
관광지가
답답하고
사과를
가족들하고
충전이
문화도
어때서
형님이랑
우유에
바쁘면
바쁘네
바쁘다고
안보이는
본인들
소식이네
시리즈를
그런건가
똑같은거
뛰어넘
뛰어난
친척들이
만원에
치과가
개봉하는
응원해
빠지게
비교적
비교하는
공유하는
발라줘야
반대를
범죄는
보드게임은
역할은
아플까
위드코로나를
지켜주는
##해주는게
하이클래스
3년은
액션을
익숙한
보호자가
오후에는
들어본거
멀미도
치즈가
##생각하면
여드름은
2ㅏㅇ
앉아만
연봉을
많았으면
장면을
해봐야겠
부자들은
요소수가
스터디도
정치를
다음주에는
정상에서
정상적인
정부는
포인트가
냉장고가
소화를
속상할
멤버쉽
샐러드는
소음도
이혼이
기계로
##들만의
홍삼을
놀아주는
가려니
가려는데
대표님
하더라고요
자극이
탁구는
아내는
키웠었는데
아메리카
##3ㅏㄶ
남동생이랑
아이디어가
머릿속에
전국에
전국민
누워있는
코스튬
애교를
장소랑
유튜버들
마을이
가구를
장난감은
나아진
달리기가
훈련소는
어색해서
ㅛㅣㄴ
##언니는
소중해서
수면제
즐겨야
놀랐ㅇ
고장난
무엇이
3ㅓㄹ
3ㅓㄴ
입원한
전기장판도
장사하는
환절기에는
동남아시아
아끼면
작가님
시킨거
킥보드가
3번은
자살을
초보라서
가는거야
비밀번호
먹고싶은거
##하셨으면
무지하게
마찬가지로
텐트치고
강화도
라이벌
재킸ㅇ
앵무새가
안됐다
어려서부터
아우디
과목은
미루면
부끄러
군복이
우리동네도
아팠던
간부들이
보증금을
21개월
이정도로
300만원
ost도
ost는
밀키트가
장마철
입술에
가스비
군생활이
가상세계
블루라이트
170
쳐다보고
3ㅜㅇ
높아진
어르신들은
목숨이
아웃겨
자녀를
패션왕
들어갔다가
바리깡
세포들이
분야가
선임들이
##2ㅏㄶ
군데리아
사오라고
찾아봐야겠네
그립다
천안은
제로콜라
끝내기
프랑스어
뚜벅이로
터키에
수도권에
황소는
배부른
배부르게
과거에
끔찍해
밤새고
원작이
엄청나네
장교로
죽어라
왜냐하면
연속으로
임대주택
탄산수
기존에
2천명
꾸며서
4ㅗㅇ
데이터를
봉사활동
주유소
들여다
정류장이
피었습니
3분의
들어보긴
3차까지
공산당
룸메이트
이만저
나쁠건
감정이입
브랜디
간편하게
깜빡하고
소독제
이광수가
그녀들
자국민
맛나지
스쿼트
되도록이면
떠들썩
설거지는
설거지가
교통수단이
최종예선
포카리
잘랐는데
순서대로
오아시
술마시고
한겨울에
뜨겁게
전반적으로
우리신랑은
적절한
박물관
영환데
식습관
용암이
휴학하고
제2의
졸귀탱
눈감고
랜드마크
교통체증이
실버타운
장례식
아무렇지도
다시보기로
게을러서
알파카
이국적인
흑역사
작은엄마는
버스정류장
시상식
게으른
견과류
달콤한
샤오미
그릭요거트
굳은살
나트륨
어드벤
행방불
국위선양
조마조마
주토피아
무드등
심상치
영수증
##아메리카노
전현무
천생연
유태오
끊이질
모로코
방파제
천차만별
테이퍼링
라푼젤
전두환
제임스
아메리칸
살랑살랑
눈여겨
성희롱
유오성
천고마비
헬리콥터
2가
2편
2리터
3일에
4ㅔ
46
4박
4월에
5키로
511
6개
6명
7개월
93
DM
EU
FPS
pt
srt
ㅓㄱ
ㅓㄴ
ㅗㄹ
ㅗㅐㅇ
ㅠㅔ
가글
가줄
가수는
간시
간신히
갇힌
갈리
갈라면
감자가
값ㅇ
갔느
갔으니까
개성이
걔들
거ㄸ
거엥
건기
걸으면서
결이
결저
고나
고릴
고참
공도
공ㅈ
공휴
공주가
공매도
과격
과제를
구간
구부
구박
굶으면
굶어서
귀를
귀뚜
그애
그르게
근질
금손
기원
기르면
기르기
길냥
김치는
까먹는
깔아야
깜ㅉ
깨어
깨워
꼼짝
꿀ㅇ
끓인
나리
나른
나왕
나으면
낙서
난ㅈ
난리를
날으
날ㄱ
날씽
날벼락
남고
남겼
남기는
낫ㄱ
낫ㄷ
났으면
낭ㅎ
낯선
낳았는데
내라
내비
내녀
내기를
낸다고
넉었
넌ㅇ
널어
넘었어
넣지
넣음
년은
노ㅛ
노리는
놈들
놈들이
농민
높지
높진
놓기
누락
눈ㅈ
눈부
눈ㅊ
늘면
다소
다정하고
단절
단기로
단둘이
달라도
달려서
닭도리
담은
담달에
답ㅇ
당ㄱ
당일에
닽아
대니
대부
대구가
더해서
더웠는데
던파
덩어리
데만
데드
도자기
독해
독재
돈의
돈많이
돈없으면
되잖
되진
두더
두께
뒀는데
드렇
들게
들기
들ㄷ
들면서
듯ㅇ
따신
따도
따지고
땄지
땅도
떠난
똥꼬
뜯고
라켓
라인이
람보
렌트는
로보
로얄
료칸
루프
루머
리유저
리프레쉬
마느
마싯
마슼
막는
막기
말안
말라서
말하는거야
맛나게
망치로
맡고
맡기
매장은
머시기
먹던데
먹이를
멀고
멋지고
멍이
멍멍
멍멍이
메르
멧돼지
멸종
명란
몇개월
모음
모션
목요일에
못자서
뫃ㄱ
무족
무러
문젱
물릴
뭉쳐야
뭐이
뭐할지
뭔ㅈ
민물
밑반찬
바느
바바리
밖에서도
반항
받ㄷ
받지도
발ㅈ
발등
밤ㅇ
밤부터
밤바다
방한
방앗
방석
밪으
배만
배수
배영
배찌
배미
배웅
배웝
백구
백퍼
버림
버는데
번식이
벌벌
베개
변할
변기에
별이
별도로
보양
보물
보냐
보허
보행
보겠네
본부
볼지
봏으
뵙고
부렁
부름
부어서
분한테
불시
불려
불교
불륜
비우
비타
비유
비축
비바람
빌어
빌런
빚내서
빠삭
빠륵
빼박
뺑뺑
뻔해
뿌리면
뿐인데
사볼
사림
사범
사얗
사상이
사들고
사드리
살리
살앙
살인데
살기에
삶아서
색감이
생극
샟ㄱ
샵에서
서럽
서먹
서커스
성지
성당
성시경
성매매
세팅
소망
속사
손소독
송소희
수두
수급
수의
순하고
스며
스승
승인을
시스
시중
시총
식성이
신전
신은
신제품
실ㅈ
실시
실직
실손
실장님
실물로
싫더
심신
심오
심리를
십분
싷ㄷ
싸도
싸인
싸네
싹다
쌀국
쌓이면
쌓이는
써봐야
썰어서
쏘쏘
쓰자
쓰더
쓰기도
씨지
아련
아형
아팟
아푸
아참
악덕
악당
안피
안재
안배
안친
안달
안탄
안쓴
안됮
안다고
안봐도
안듣고
알거
알프
알겠지
암것도
압구
았어
앙ㅇ
애월
약한가
양의
양심이
양꼬치
어여
어덯
어긋
어수선
억압
얼ㅋ
얼큰
없기
없앨
엇ㅇ
여드
역으로
역주행
연경
연유
열쇠
열기구
염려
엾ㅇ
옛ㄴ
오려
오려고
오롯이
온열
온다던데
옷으로
와사
와닿
왔으
왜들
왠만한
왼손
요한
요즙
용납
우기
우럭
우정이
울ㅇ
원활
원인은
원짜리
위기가
위상이
유동
유선
유녕
유지가
육체
윤선생
으이
으르
의사는
이체
이대
이선
이백
이효
인신
인기를
인권을
일ㄹ
일진
일박
일해도
일거리
임관
임요한
임직원
입긴
입점
있ㄸ
있잔
있납
있더라구
자로
자판
작심
잔소리가
잘학
잘자고
잘했다고
잠실
잠자리
잡다
잡티
잡으려고
장ㅇ
장화
장벽
장혁
장조림
재즈
재취
재질이
저럴
적다
적엔
전산
전분
전방
점ㅇ
점에서
정관
정육
제줃
조차
좀전에
종로
종아리
좋데
좋던
좋껬
주실
주시면
죽지
줄거
지에
지니
지프
지느
지연
지긎
지우고
직전
직저
직방
직빵
진ㅅ
집들은
집사가
징계
짙ㅉ
짤라
짬밥
쩐다
쫒아
차리면
참ㄱ
창출
창녕
찾는게
챙겼
추웢
추웠는데
춥네
충ㄱ
충부
치안
치석
칫솔
카우
칸ㅎ
캐나
커텐
커리어
코빅
코스를
코인도
코르게
콩국
쿨한
크러쉬
타오
타운
타이트
태극
탱탱
턱이
텂ㅇ
템파
투입
특기
틀었어
팀원
파주
팔게
팔긴
패스트
패드로
팬더
퍼스트
페스티벌
펴서
편하면
편하기
편이고
평수가
폐기
폐차
폰만
폼이
표를
푸짐
풀리는
품질이
프사
하키
하곤
하숙
학비
한물
한수
한예
한골
한분
할텐ㄷ
합병
합기도
해벼
행사도
향신
허더
헤비
헤헤
헴들
형이나
호테
호갱
혼밥
황리단
후진
훈육
훌쩍
휠체
흐리고
흥민
힐리
##만도
##에이드
##어주
##야기
##고만
##들ㄱ
##들어도
##내로
##게장
##전문
##지하
##지금
##도르
##두는게
##리더
##리치
##리조
##거니까
##라며
##는ㄴ
##이러
##은이
##기구가
##심ㅇ
##치만
##한걸
##었고
##폰으로
##인ㅎ
##짓을
##셨나요
##다던ㄷ
##마요
##디스크
##면ㅅ
##물러
##가리
##가져
##가방
##병을
##나두
##나간
##나갈
##나가는
##설계
##국도
##국이랑
##경은
##경험
##진다는
##팀은
##미인
##미안
##차라고
##코니
##코가
##티켓
##용은
##플렉스
##생제
##운동이
##대전
##길도
##길에서
##세스
##세일
##여해
##루나
##공을
##공기
##네가
##중잉
##교사
##바다가
##회에서
##했단
##했을때
##본ㅇ
##먹었어
##츠가
##정ㅎ
##정부
##정산
##받지
##받은거
##타서
##비르
##관리를
##술사
##일이야
##일지도
##반은
##강도
##싸고
##봤다
##봤네
##상ㅎ
##았으
##렸지
##너지
##클링
##작업
##샤인
##냈어
##돈주고
##셌ㄴ
##되니깐
##되는지
##줄도
##트럭
##창이
##16
##것ㄱ
##조각
##당ㅎ
##그건
##그리고
##계로
##계에서
##증후군
##제네
##함도
##살도
##누피
##뭐야
##행사
##실ㅇ
##왔던
##죽은
##언이
##브스
##모자
##직장
##갔었는데
##믹스
##유연
##IP
##현상이
##혜택
##역까지
##콘서
##갈수록
##추고
##새끼
##빠지
##북적
##빵도
##뿐만이
##채가
##붙어
##풍이
##훈이
##욱이
##샵도
##듣기
##떠라
##칭은
##뜰ㅇ
##hc
##BC
##뛰기
##헨티나
##잲ㅇ
맞아여
우리꺼
우리에게
우리애들은
사람하고
아니였으면
그러죠
그러잖아
그러더니
그렇던데
그거나
생각하는게
생각하지만
생각하며
하는구
한번더
좋은걸
게임방
게임인지
하고나면
친구만
친구끼리
여행지는
엄마보다
영화의
영화표
거기까진
재밌었나
하면은
보고있는데
결혼하니까
결혼할때
결혼한지
하나부터
군대가는
나오길
정도까진
괜찮겠네
그러게ㅠㅠ
이런걸
해야되는
해야할거
힘들더라도
힘들다던데
가족인데
가족이나
키우기는
날씨랑
날씨면
남자로
남자라면
머리길
오래되면
여자의
기억ㄴ
거의다
다니기도
뭔가가
가을바람
이상인
나이드
나이먹고
배우다가
배우인데
부모들
아침으로
알아보니까
동생들은
문제긴
그랬는
그랬대
필요로
보는구나
만들기도
일본에서는
부모님들도
먹는중
만나니까
드라마만
좋을지
누나네
서울까지
서울에도
챙겨줘
챙겨갈
챙겨먹는
시작했어
중국산
사는지
한국말
나오는건데
매일은
매일같이
일이긴
주변도
안되긴
아마추어
있었ㅈ
있었잖아
있었는ㄷ
지하철이나
느낌의
보내줬
만화에서
만화방에서
배달음
배달앱
이야기만
프로는
##들이랑도
카페랑
고민ㅇ
고민이네
지나가고
시켜주고
비슷하니까
귀여웠는데
누가봐도
가능하고
축구하는
시험기간에
같은데서
따라와
아는사람이
여러군데
여러명이서
유튜브가
전기자전거
산책하는데
최고는
사랑한다는
귀찮다고
귀찮아도
반려동
이사할
이사가고
조심하는
귀엽ㄱ
생각해보니깐
사이드
점심때
점심먹고
기사만
군인을
전세집
전세대출
남자친구를
좋아하니깐
모르겠던데
수영장도
이해하는
이해하고
낚시의
등산하는
많아질
사회성
아르헨티나
위험하다
추억으로
좋다는데
비싼건
잘못을
기대해
불편하면
예약하면
내용이야
야구에
구경할
이야기라
걸로도
캐릭터랑
할인쿠폰
12명
12000원
##레이드
비행기에서
난리던데
주인을
중고도
중고딩
보여줄
안좋다
안좋다고
방법이긴
핸드폰이
핸드폰은
잘하는거
멋있지
멋있다고
일어나도
컴퓨터만
내려오면
기차표
안전할
생일이라
ㅛㅏㅈ
ㅛㅏㄱ
싸우게
주문을
들어가게
##동생이
그것때문에
인정을
부담을
있나보
대출은
선택에
선택한
느끼해서
주차는
건조해져서
애니로
ㅠㅏㅈ
경험도
되어가는
짜증ㄴ
상상을
상상할
##을때도
요리해서
2년이
##건데도
시즌제
봐서는
아기들도
여름에만
웃기긴
사건을
잘해줘
영향력을
출퇴근이
출퇴근은
공군도
재택이
김치찜
유럽으로
움직임이
아이들의
##스럽긴
국내에
해결하는
식당은
스타일인
잘하실
기술력이
신고하면
않았을까
해봐라
둘째랑
먹으며
먹으려면
경제도
여유를
큰일인
안가지고
지방으로
수능을
투자하고
한번씩만
음료가
카트도
걸어다니는
경찰도
경찰이랑
3ㅗㄹ
조심해야지
11월달
가입을
가입한
우산은
후회가
##아니라
대구에서
대해선
약속은
##해보이고
초등학교는
이동하는
못하겠더라
농구도
마시기
전공은
충전소
가방이
본인들이
떡볶이가
만족하면서
전자렌
적응하고
발전을
발전소
마당있는
비교도
상담도
카톡도
카톡이
공유가
건물에
체험을
올려주
독립을
피아노를
수준으로
##해주니까
아이템은
누군지도
누군가가
몰래몰
불러도
대통령도
대통령은
안쓰럽
당첨된
걔네도
웃긴건
불쌍해서
외국인들도
사이즈로
새우랑
##케이스
대해서도
사이트에
베트남은
많으셔서
부자연
18일
하셨나
모임을
요소수를
##하려다가
편하겠다
해볼래
##시켜야
베이커
취직하고
취직해서
고맙다고
용품이
기계도
우주에서
초등학생들이
나무도
편리해서
날짜가
대표로
하와이로
공사하는
만드는거
미세먼지도
아깝고
아깝지
부지런하게
예매하고
의무가
##라운드가
서핑은
사교육에
목욕을
오픈한
출발해서
누워있
코스프레
프랑스는
장소를
장소가
알려주세요
도시락을
도시락도
까먹으면
동기들이
넘나리
조ㅗ아
글램핑이
2번째
달리기도
말씀하시
운전면허증
방탄이
다가오
검은콩
설레고
국밥은
최애는
130
표현이
메타버스가
리뷰도
리뷰를
한의원을
색깔은
안좋아하는데
즐기러
구입할
그럴까요
사랒들
회복이
비밀의
손톱에
보조금
해봤어요
벚꽃은
모자라서
이루어진
앵무새는
싸이월
아버님도
##다녀서
유재석은
우리동네에
헷갈려서
에너지를
지각할
수제간
귀신같이
규칙이
##하겠다는
##다닐때
친절하고
든든하게
이겨야
몇년전에
반도체가
##수업은
골라야
까다로
산청에
연구를
어렸을때부터
재짔ㅇ
##가족이
모닝은
보습에
부사관으로
위치에
아니었고
아니었어도
일기예보가
딱지치기
살찌고
스카프
미끄러워서
무거워
조개구
오랜만인데
안오니까
하우스에
흉터가
suv가
기사님들
카메라로
상하차
부드럽고
양치질
##사회에서
겨울옷은
책상에
양상추가
자존감이
얼만지
존중해
몰입해서
증가하고
가능하대
슬퍼서
잠잠해
대책을
오뎅탕
이겼으면
매형은
이발소
불면증
크루즈
만남을
쌍커플
쏠쏠하게
싱가포르는
소파에
학대하는
극단적인
별루야
임영웅이
체형교정
외롭지
못나가서
사전예약
조언을
프리랜서로
단기간에
몸무게가
프린터
지구온난화가
누군가의
무게가
보수적인
신분당
아쿠아
잠수함
가해자
마사지도
공교육이
오마이
제네시
##공간에서
발음도
시트콤
가로수
영원한
프레쉬
어학연수
커리큘
단톡방
큰아들이
한결같이
각질제거
역대급으로
뚜렷한
아픔을
포상휴가
이상기후가
뒤쳐지는
반짝반
민트초코
인프라가
장인어른
숨겨진
클립으로
에프에
미접종자
이구아나는
양세형
여쭤보고
콜드브
화물차
특징이
스켈링
깍두기
북적북적
평상시
아무렇지
돌싱글즈
뾰루지가
신세경
초중고
트와이스
이맘때
정전기
후쿠시마
국군의
네덜란드
불꽃놀이
카운터
때눈ㅇ
섬유유연
신라호텔
아카데
아무생각없이
롤러코
미지근한
해돋이
객관적으로
꿈꾸는
류승룡
사모예
어딜가든
조그마한
아나운서
노태우
말다툼
심근염
비둘기
청양고추
레이어드
푸라닭
그마저도
디퓨저
천왕봉
케바케
라따뚜
롤드컵
류준열
블라인드
컨테이너
팔굽혀
히노끼
천고마비의
요한슨
1만원
1위가
2ㅡ
3도
37
4천원
4번째
53
5층
5월에
6세
8억
87
89
SF
as
ebs
epl
ss
ㄱ8
ㅇㅆ
ㅍㅎ
ㅏㅇ
ㅐㅆ
ㅗㅗ
가곳
가닊
가릋
가젹
가지만
가치를
각이
갈굼
갈건데
갈거야
감ㄱ
갑ㄴ
갑시다
갔고
갔는ㄷ
강이
같습니
개고
개시
개강
개당
거치
거겠
거락
거밖에
거에요
건더
걷기도
걷기가
걸ㄱ
걸ㄲ
겠ㄷ
겠네
겪은
경기에
계기가
고프
고단
고질
고기만
고수가
공ㅅ
공화
공사가
과한
과몰
광대
국자
국사
군이
굳어서
굽는
권고
권장
그자
그랜드
그라운드
극장에
글ㅇ
금세
기더
기린
긱사
긴거
길지
까봐
까고
깨면
껀데
껴입고
꼭꼭
꽂혀서
꽃꽂
꾸덕
꿀이
나어
나한
나감
나눈
나토
난숙
낞ㅈ
낞ㄴ
날로
날씩
날잡고
남일
낮ㅈ
내눈
내맘
냉채
냥냥
넘ㅊ
네는
네트
놀았는데
놈은
농사는
놓친
누조
느리
늘려야
늙ㅇ
늙었나
니한테
다인
다투
다질
다룰
닦는
단ㄱ
달면
달에는
닭찌
닭갈
닭다리
담긴
담에는
당면
당겨
대서
대딩
대강
던질
덦ㅇ
덮어
독해서
돌발
돌솥
돌봄
돌보는
동ㄱ
동새
돼있는
될지는
둘리가
듀오
드세요
듣다
등짝
듳ㅇ
디디
딴지
딴다고
딸들
땀나
땅땅
때까
때린
때깢
때처럼
때려서
때까진
땡긴
라스
랬ㅇ
러블
맀ㄴ
마은
마구
마치면
막차
만하
만ㅈ
만의
만끽
많자
많ㄹ
많네요
말했
말해야
말리지
맛만
매드
매수
매트리스
머신
머크
멋질
메리
멘트
멜로가
명심
명상
명령
명대사
몇살
모지
모러
모츠
모셔
모성
모기도
목록
목격
몰랏
몸싸움
못이
못구
못했어요
뫃으
무는
무배
무상
무사고
문자가
물러
물집
물광
뭐하나
뭔갈
뮤비
미야
미스
민들
민박
밀양
반박
받으니
발잉
밝게
밟고
밤고구마
밥상
방만
밪ㅈ
배밌
배트맨
버틴
버리지
번씨
벌을
벌초
법적
베리
보덜
보장이
복어
봐보고
봤죠
봤으니까
부근
부노
부성
부캐
북어
분실
분이랑
분장하고
불에
불도
불합
붙잡고
뷰러
비서
비엔
비우고
빌리고
빗겨
빙하가
빨아
빨랐
빵이랑
뻐근한
뿐만이
사교
사소
사암
사납
사럄
사니깐
사오면
사오는
사거리
사셔야
사먹을
사놔야
사드릴
삭막
산모
산거는
살짜
샀ㅈ
상도
상향
상여
상실
상푸
새도
생ㄷ
샤라
서둘
선을
선전
선입
설비
섬이
성심
성교육
세고
세미
세정
세우는
소말
소셜
소스에
소규모
송편
수저
숲세권
쉬게
쉬웠
스쳐
시일
시큰
시드니
신병
신안
신종
신부가
실ㄴ
심는
심해지고
싱거
싱숭
싳ㅇ
싶게
싶ㅌ
싶었ㅇ
싸진
싸워도
싼타페
쌓는
쌩쌩
썰이
썼ㅇ
쏟아지
쓰며
씨유
아가야
악어
안울
안면
안티
안햇
안대
안적
안읽
안샀
안됟
안에서도
안주면
안하려고
안할거
않더라고
않겠나
애버
애쓰
애틋
액상
앤드
야유
야옹
약에
양주
양손
어라
어데
어캐
억지
언넝
얹어
얼ㅇ
엄정
업청
없ㅊ
없제
없ㅌ
없겠다
엎드려
에엥
엑시트
엔지
엘사
여지가
역사가
연ㅎ
연착
연상이
열ㅇ
열무
열번
열까지
열어야
염통
영영
영홛
오복
오분
오와
오메
오기도
오류가
온통
온전히
올래
올림
옷들이
왔는ㄷ
왜캐
외벽
우연이
우르르
울컥
웂ㅇ
웃게
원지
원펀
원이나
원없이
웹ㅌ
위닝
위헙
윗층
유망
유조
유가족
윤리
응큼
이율
이장
이층
이뿌
이라도
인제
인맥
인원도
인식도
일행
일곱
일하게
일이나
잃어
입는데
있ㅂ
자습
자2
자택
자랄
자차는
작지
잖더
잖ㄱ
잘아
잘사
잘ㄱ
잘치는
잘되서
잘했지
잡아도
잡혀서
장미
장투
장터
장ㅁ
장윤
장관이
장비는
장점도
재맜
재수술
재개봉
저나
저에게
적는
전업
전작
절개
접할
정할
정산
정화
젠더
조식이
족욕
존재가
좋잖
좋라
좋그
좋다니
좋겠지
좋길래
주어
주전
주셨
주긴
주르
주려
주에도
주가는
준ㅈ
준대
중이라고
줘봐
줬ㅇ
쥐약
즉시
증권
지남
지들은
직원도
진ㄹ
진즉
질릴
집처럼
쩔지
쪼매
찍ㄱ
차라
차일
착해
착하네
찬다
참신
찾는거
천슬라
철인
청량
체포
총에
총이
총격
총게임
최아
최그
추웠던
출장을
춤이
취하면
츄리
치나
친다고
카약
카면서
칼같이
캐서
컥ㅈ
케찹
코랑
코앞
코트도
크네
큰돈
큰누
큰애는
타르
타보면
타거나
타볼까
타입이
탄력이
탈북
태닝
택도
택ㅂ
터울
터무니
텀이
토일
통하고
투덜
티는
파크
판교
팔더
팔던데
팝업
펌도
페트
폐업
폭스
표기
푼돈
피로도
하날
하4
한구
한소리
한자리
한쪽은
할ㅁ
함ㄷ
핫하
해낼
햐더
현ㅈ
혈압이
혼영
홀로
화나게
환자들
황토
황당한
회를
효자
후횧
후에는
후식으로
흑돼
흘ㄹ
흡수가
##만두가
##에느
##어오
##야겠ㅇ
##울ㅇ
##들한
##을듯
##을수록
##니엘
##내일
##전에서
##전이라고
##지밥
##지옥
##두니까
##리학
##리기도
##거로
##거북
##프리오
##드레스
##담회
##이잖
##이느
##문화가
##크스
##열을
##열심히
##양대
##었더
##었잖
##해보는
##해보니까
##겠덜
##겠따
##시라
##시죠
##시장에
##시장도
##오를
##오겔
##있긴
##다섯
##면으로
##테러
##테크가
##ㄹㅎ
##보기가
##보내고
##물건
##사촌
##키면
##닝이
##수라
##4ㅜ
##진데
##ㅔㅆ
##버릇
##연휴
##찌만
##미한
##차례
##8ㅂ
##났다고
##플립
##생도
##생숭
##안하는
##데도
##데는
##길은
##였으
##였으니까
##즈도
##공자
##공장
##럼이
##배출
##중해
##ㅠㅇ
##주시면
##바를
##회복
##했어서
##했나봐
##정이랑
##ㅏㅇ
##동아
##동으로
##장에서는
##부대는
##카로
##카나
##카에서
##비지
##비실
##관광
##관리가
##ㅗㅓ
##일기
##건ㅇ
##년대에
##봤ㅈ
##상사
##상이라
##눈이
##눈ㄱ
##파이어
##밥을
##른ㄷ
##포장
##임ㅇ
##팩도
##청이
##톤이
##돈도
##분까지
##쓰레
##집ㅇ
##쪽을
##방지
##력발
##줘라
##것다
##당도
##겟어
##밤바다
##질지
##질거
##런지
##워지
##제비
##살로
##랬ㅇ
##법으로
##토끼
##토킹
##종을
##죽이
##없네
##봉사
##애라
##온라인
##모드
##모사
##직ㅇ
##백이
##류도
##뎄ㄷ
##팔이
##씩이나
##유예
##패치
##범이
##젓가락
##맞이
##색을
##색해
##색ㅇ
##샘이
##갈지
##갈로
##넘어
##난ㄱ
##새가
##on
##얼이
##규칙
##젼ㅅ
##짢ㅇ
##D로
##괜찮
##떄문에
그런말
우리회사는
그러느
그러덜
그러셨군요
##하는건데
생각으
생각보
생각하기
좋아보
##이라던
하는ㅈ
게임으
게임해서
게임이지
같이가
같이하는
##까지가
친구분
영화면
영화들은
영화처럼
거기를
시간될
시간마다
들어봐야
완전한
나오자
나오길래
코로나와
코로나인데도
코로나때매
그게임
회사원
회사인데
운동해도
모르네
모르잖아
괜찮ㅈ
괜찮나
괜찮ㄷ
괜찮으니까
언니들이랑
무슨일이
다시한번
해야한다고
해야하니
어디선
어디라도
힘들었나
##는거같
건강하
건강챙
건강해지는
조금더
키우자
키우시는
날씨인
남자야
남자한테
##해야되는데
1000원
공부방
공부하다가
공부하라고
그때로
아빠와
기억엔
기억하는
그럴게
그럴리가
다니엘
해서는
내일부터는
별로면
어제까지
가을비
이상ㅇ
이상하네
나이차이가
없는듯
없는것
배우자
배우는거
배우는게
고양이보다
피부염
마음가
알아볼게
알아보러
그러니까ㅠㅠ
백신으로
운전하면서
나가려고
병원가면
그랬ㅈ
그랬었나
##하다니까
##이라고도
하루아침에
여름보다는
만들ㄱ
사진관
주말만
주말이면
만나는데
저녁때
좋을텐
관리사무
챙겨봐
챙겨줄
챙겨볼
시작은
시작하기
중국어가
학원이나
학원비도
걱정하는
준비로
##한데서
미국에서도
하지말
화장하는
아프더라
아프셔서
이미지를
관심있는
연애에
얼굴에서
##다니기
있었ㄱ
지하철만
느낌이라서
보내줘서
신기핟
싶은가
해외배송
카페가서
기분을
시켜주는
귀여웡
가능성을
시험에
캠핑하기
따라올
따라가는
동네에서는
가까워야
외국영화
놀러는
놀러가고
##같은건
출근하면서
선생ㄴ
그만해
스타를
스타듀
티비보다
티비로만
살아봐서
귀찮지만
싶어지
연락할
자격즈
이사도
조심하자
조심해라
귀엽기는
사라지면
30초
치킨이랑
해보고싶
당근이랑
힘든게
좋아하시나
아까부터
수영하면
없이도
이해못
이해해주
세계에
세계여행
사용도
낚시하는
낚시하러
사회를
##인지라
애들이라
교통을
교통편
정신은
정신차
생기니
생기기
위험도
위험하게
위험한데
영상들
다양ㅎ
어렵지만
기본만
보이기
보이더라고
##스타일도
재미있으면
주는건
기대작
스포일러
예약한
고생ㅎ
고생하고
지원한
아닌데도
내용인
보험료가
키워봐
이야기하면서
어렸을때는
##이었ㅈ
##이었네
##이었어서
비행기표
광고에서
친구들에게
연예인을
사야게
다닐만
주인도
자연스레
중고등학교
해보려
해보라고
안좋게
시원해
예쁘니까
100세
안나와서
안나오면
한다며
자세도
좋았음
기회는
어머니께서
##부분은
안전하고
안전하다고
말도마
스포츠카
일반인도
검색해보
부담도
부담되는
부담스러워
필수는
필수품
선택하는
새벽에는
카드만
카드사
카드사에서
신청ㅎ
구매해
느끼는게
자취하면서
애니가
거래하는
그리울
가게를
택배는
갔는데도
되어있는
상상해
##을때마다
요리에
없었다
대중교통도
달라붙
성공하는
피부과가
한달도
연습해서
사건들이
자신은
도시에서
말해줄
잘해주고
잘해줘서
좋다고는
출퇴근할
공군에
하다가도
아저씨들이
김치만
움직이지
조용할
넷플릭스도
데려와
집중도
집중할
무서워해서
빠르지
국내에서
도와준
해결해야
##했다는데
신고해
않았다
글쎄다
활동량이
정리할
받았던
모바일이
데이트도
메뉴를
##치고는
이런거도
어플로도
아쉽ㄷ
큰일이야
안가져
취향을
편한게
주사위
것만으로
결제하면
전쟁에
눈썹은
깨끗ㅎ
않는다고
경찰관
때문이지
근무도
가입하고
느껴보고
스토리는
30분이면
넘어가는
넘어가고
반팔을
대화로
대화하면서
대학교에서
이모한테
초딩때
##었다는데
##해보이긴
이동휘
관광지는
피자를
피자헛
유지비도
마시게
감사하다
담배피
창문도
기간이라
안보내
안보여
아쉬웠
게이밍
전역하면
챙기기
챙기려면
개발자
개발자가
치과도
유전인
유전자의
토익도
각자만의
빠지더라
비교가
오토바이에
레이져
맞추기도
추가해서
시급도
지켜봐야
##해주는데
바이올린
반찬가게
특이하게
했었느
롯데마트
문신이
외식을
대통령을
무리한
무시할
체육관
경쟁력이
사망률
사망자도
가봤지만
##생각을
과자를
작품들이
사료랑
당근마켓은
많았을
만났던
굉장한
야식도
초코맛
초코파
초코우유
최저임금
##시키기
##해졌어
삼겹살이
인사만
##이래서
##이래요
운영이
요소도
의미도
정치인들
##3ㅓㅇ
디저트가
대기업이
쌀쌀할
빌려주
다른데도
배그가
사주지
간지러
이혼을
##학원은
김연경이
나무를
애견샵
##그러면
해준다
6개월은
대표적으로
하와이는
모아나
인도에
케이크가
강남역
애매하긴
만드려고
여수밤바다
최소금액
키웠었어
아깝다고
##엄마는
보일러를
펜션에서
외로워
전국이
손흥민은
도망가
스페셜
사교육을
실패한
실패할
실패하면
이어지
출발할
유투브도
돼지갈비
일정은
아이스아메리카노
시설은
해줄까
다녀왔ㅇ
까먹음
동기부
마을에
마을에서
의견에
드라이브도
오키나와
생각나지
대세가
연결된
필러를
시댁이
호주랑
피파는
140
1번은
장비빨
출신이야
호캉스가
기다리다
환절기라서
한명만
3개월에
검진도
안내도
예상하고
동영상을
탈색을
사란드
인강도
인강으로
트럭도
아메리카노가
병사들은
서서히
3ㅗㅎ아
기초부터
더욱더
사랍ㄷ
남아있는
중학생때
##4ㅏㄱ
##4ㅏㄴ
부끄러운
트렌드
헷갈릴
빌라에
없애고
화려하고
지루해
런닝맨에서
수제버거
채널이
동물의숲
고슴도치도
시스템은
규칙을
사랔ㄷ
나타난
블루투스
고속도로가
고속도로에서
일자리는
일자리를
재빘ㅇ
시끄럽다고
로봇이
배경음악
완벽하게
댓글에
까다로워서
핫딜이
홍보도
예정인데
뿌듯해
알아보려고
걸렸던
옵션이
도서관에
도서관에서
동의해
센터에
잘나가는
고려해서
고려해야
의료진
##2ㅏㄶㅇ
4ㅚㄴ
웨딩홀
유니클
정기배송
풀빌라는
대형견이
잃어버리면
오피스텔에서
광주에서
성장하는
신민아는
리니지는
있대요
계곡에서
부드럽게
입마개를
맛없으면
티빙에서
버디가
길어져서
얀센은
인증샷
비닐도
터질지
후배가
아프리카에서
애인이랑
재니있
크로와
탈영한
이력서에
일어났는데
취사병은
계좌로
승부욕이
둘러보고
동그란
동그랗게
##가봐요
징그럽게
테니스도
어째야
들어보기만
살아남을
수수료를
두통에
추웠다
##제한이
덜덜덜
탄소배출
매직을
외투는
중순에
근교로
인스타그램에
인연은
순천만
프린트
오글거리는
지뢰찾기
마사지가
실용적인
출석체크
50만원정도
지저분해
김태리
방지턱
접종률도
2박3일
맞벌이라
디아블로2
오징어도
이중주차
애완동물로
알뜰하게
포카리스
일상생활로
워라밸이
1주일에
가꾸고
교훈을
온수매트
시어머니가
마스카라
부업으로
여신강
집어넣
피지오겔
후라이팬에
체감상
희귀한
뛰어놀고
구내식당
넉넉히
예측이
라운드
무슨일이야
악용하는
cgv
현관문
동양인
희한한
폴더블
희안한
식은땀
되돌릴
마이크로
형태로
홀리뱅
아이러니
아이러브
저작권
빠짐없이
시외버스
신과함께
클라스가
##자격증
네덜란
집근처에
뒹굴뒹
배꼽이
근본적인
승선근무
CGV
문방구
생신이신데
민식이법
응답하라
인덕션
브로콜
클마에
땡땡이
모나리자
모의고사
신도림
급격히
방독면을
수목원
씽씽이
감흥이
무덤덤
##가까이
때려치우고
오마카세
간헐적
경각심을
디카프리오
선후배
육준서
해열제
따숩게
오붓하게
인절미
집행유예
차은우
쿠데타
SSU
무슨맛인지
외숙모
나돈데
숨바꼭질
킹스맨
피드백
루프탑
몰래몰래
아카데미
롤러코스터
과몰입
소말리아
1팩
1차는
2ㅕ
3등
4강
51
6ㅣ
68
61
66
6월에
72
7시간
9천
CD
MC
UN
VIP
sm
ud
ᄒᄒ
ㅇ6
ㅎㅇ
ㅏㄱ
ㅏㅌ
ㅏㄶ
ㅓㄹ
ㅠㅑ
ㅣㄱ
가식
가마
가공
가ㅉ
가림
가더니
가겠지
가시면
각질이
간장에
갈아야
감은
갔ㄱ
갔는지
강백
같으니
같았어
개에
개서
개털
개추
갭이
거예
거란
거래도
거보다는
걷어
걷기만
겂ㄴ
것같
것ㅁ
것인가
것이지
겉절이
겠어
겨자
겹치는
경허
경치가
곁에
고가
고럼
고현
고난
고립
고사리
곡성
골절
곱배
곳보다
곳이야
공기를
공원도
과다
과실이
광교
교관
교권이
구지
구출
구런
구냥
국무
군항
군에서
굵게
귤도
그면
그론
그렁
그곳
그렿
그댈
그렄
그렆
그들을
그와중에
글서
급성
급식이
긍게
기하
기러
기수
기호
기겁
기동
기출
기쁨
기안이
길치
길들여
김구
까칠
까지만
깨끄
꺼라고
꼬막
꽃구경
꾸물
꾸주
끝낙
나뭇
나밖에
난릳
낞더
낞이
날개
날하
남한테
남았어
남사친
낱말
내게
내오
내니까
내기도
내기가
넉ㅈ
넘겼
넘모
넘으니
노총
노르게
논에
놀랜
놀았어
놈들은
높이고
놓쳐서
놔도
누수
누르고
눌렀
눌러서
눙ㅇ
뉴발
능려
늦으
니나
닜ㄴ
다락
다방
다짐
다읔
다정한
단ㄷ
닫았을
달빛
닭고기
담을
담백
당나
대문
대주
대우가
댕기
더해
더부
더녀
덧셈
데에서
뎅기
도와서
독이
돈보다
돈이야
돈내고
돌악
돌린
동파
동무
돼지도
돼있어서
됀찮
되었어
되자마자
되어야지
된닥
된다니
둬도
뒷광고
드가
드나
듣기는
들아
들거
들으니깐
등의
등으로
딨ㄴ
따긴
따르
따끈
따끈한
땀흘
땅값
떠나면
떠나요
떡을
떡이
뛰어도
뜰ㅇ
럾ㅇ
롤린
마ㅉ
마산
만낫
만렙
많겠
많구
많던
말려야
말했잖아
망해
망하고
맞기도
매체
매진
매밌
맨들
맴버
맵이
멀지도
멋져서
멱살
면봉
몇분
모다
모흐
목욜
몬가
몸ㅇ
못잘
못먹고
못자고
못했ㅇ
못먹어
못먹어서
못알아
무술
무주택
문다
문장
물기
뭉쳐서
뭘까
미인
미소
미달
미묘
미쳐서
미복귀
민초
밀리면
바랍
바란
바라고
박고
박는
박ㅇ
박소
박혀
반ㅈ
반ㄹ
반ㅂ
밚은
받기도
발병
발길
발렌
밟아서
밥주고
방ㄱ
방위
방토
밭에
배떡
배웡
뱀을
버리기
번이
범고
범인이
벨트
별ㄱ
별따
병은
병맛
병사가
보야
보재
보보
보익
보군
보켜
보임
보육
보온
보시면
보루토
본가가
볼ㅇ
봄가을
봇해
봐볼
봐주고
봤니
봤더
부도
부은
부과
부타
부몬
부유
부피가
분단
불독
불판
붙여야
비옷
비포
비써
비수기
빌리는
빙상
빨대
빵은
빼도
빽빽
뼈를
뽀로
뾰족
사약
사함
사거나
사먹고
사놓으면
살꺼
살릴
살빼
살쪘
삼척
샀었
샀었는데
샀으니
상우
상하는
상가에
새우는
색감
샌ㄱ
생동
생갸
생소한
샢ㄷ
서치
서람
서강
서현
서툴
선천
선ㅎ
성의
성질이
성수기
세끼
세번째
셀카
소릴
소린
소멸
소모가
속도로
송도
수트
수욜
수고가
숙ㅅ
숙제는
순환
숱도
숱이
쉰다고
시동
식료
식ㅅ
식세기
신ㄴ
신조
신ㅂ
실ㅎ
실ㄱ
실ㄷ
싫ㄴ
심ㄱ
심적으로
싴ㅎ
싶ㄹ
싶노
싼게
쏘리
쓰일
씨름
씻어야
아익
아비
아쥬
아옹
아빡
악화
안어
안느
안학
안알
안쪽
안힘
안하면서
안드는
안보니까
안방이
안간다고
않어
않구
않앙
않잖아
않겠지만
알다가도
앖ㅇ
았으
앴ㄷ
야인
야식이
약소
얄미
양재
양옆
어설
어뜨
얼바
얼릉
업ㅇ
없니
없단
없냐고
연스
연세
열받아서
옆동네
예느
예물
예방에
오열
오힐
오잖아
오면서
오만원
오신다고
오페라
온종일
올드
올ㅎ
올꺼
올랏
옶ㅇ
옷장에
완ㅂ
왜안
외도
외적인
요즞
요즠
요요가
용ㄷ
용산
우비
우릭
우릳
운치
울며
원플
원형
원딜
원으로
원정도
웹투
유시
유래
유해진
으아
으이구
을ㅇ
응워
이진
이꺼
이준
이찬
이빠
이자가
이만큼
인새
인도로
인피니
일광
일어서
일하시는
입ㅈ
입수
입ㄴ
잇어
잇ㄷ
잇ㄴ
있스
있데
있르
자으
자여
자그
자류
자라고
자가가
작사
작ㅎ
작ㄴ
작정하고
잖덜
잘알
잘새
잘하네
잡는거
장은
장성
장농
잦아
잦ㄴ
재매
재연
재탕
잼있어
저느
저주
저보다
저스트
적으로
전주에
전까진
전개가
젊ㅇ
점ㅅ
점수는
접시
정재
정차
정해야
제게
제3
제사는
제기차
조퇴
조치가
졸릴
졸린
좋잖ㅇ
좌우
주니
주이
주단
주라고
주기로
준다는데
중의
줘라
줬던
쥐가
증상은
증거가
증후군
지드
지사
지바
지낙
지혜
지쳤
지지고
지식을
직어
진열
집가
집ㄱ
집밥이
징병
짖는
짤리면
짧아지는
짧아지고
째고
찍었던
찍으려고
찝찌
차야
차바
차보다
차들은
차리는
찬ㅇ
찰리
참관
참교육
찹쌀
창원에
찾앗
채워서
청바
체지
체지방
초부터
추웟
추세가
추웠어
출렁
춤에
춥기
춥진
춥더라
춥더니
충동
충청
충ㅂ
침이
카는
카오
카으
카멜
칺더
칺ㄴ
캠ㅍ
캥거
커스
커지는
컥ㄴ
컷있
켜놓고
코치
코스는
코트를
코엑스
콜랐
콩깍
퀵보드
큰가
클로
타미
탈피
태아
털ㅇ
토목
통조림
트랙
티를
판이
팔았는데
팔리면
팔았던
팬션
펀드
펌은
페미
편함
편지는
편하니까
편지로
편하더라
포만
포이
포천
포병
풀만
풀면
풀무원
풀리긴
프라우드
피폐
피해도
피라미
핀란드
하계
하닥
한심
한것
한군데
할테
할듯
할말이
함들
해버
했겠다
했다는데
행ㅅ
헤라
헬ㅅ
현수
형ㅇ
호구
혼혈
홈즈
홍수가
화내고
확인이
회장이
회장님
회화를
횡령
후를
휩쓸
흉흉
흐지
흐물
흐트
흘렀
히라가
히말라
힘듬
##개인
##만ㅎ
##에나
##료는
##고리
##을ㄷ
##니를
##습이
##자리는
##전ㄷ
##하도
##하디
##하랴
##하믄
##하거든
##하구만
##하더라구
##도라고
##더미
##아해
##간다는
##거덩
##거예요
##우기
##체인
##라면서
##는ㅇ
##레나
##담에
##늘ㅇ
##피클
##기르
##문제는
##치면서
##크리
##크를
##크로
##열로
##랑ㅇ
##한다니
##었자
##었으니
##었을때
##해얗
##시장에서
##급한
##스렁
##스케
##스탄
##재훈
##오리
##인척
##인갑
##으실
##사한
##사용
##사상
##사탕
##사나이
##ㅣㄴ
##나네
##나보다
##국으로
##국이라
##수르
##수입
##경도
##버가
##버섯
##버리는
##ㅛㄱ
##차지
##민도
##객이
##속도로
##80
##래를
##근ㅎ
##났으면
##졌음
##예매
##요리
##요핮
##대니
##안하
##데서
##글을
##글자
##닌ㄷ
##닌ㅇ
##였으니
##익이
##단위로
##던것
##네즈
##걸고
##주스
##주길
##주부
##주현
##주면서
##감고
##바는
##바스
##발을
##본다고
##먹음
##먹으니까
##동글
##3ㅔ
##절ㅇ
##각해
##장이라고
##부츠
##부부가
##카롱
##터에서
##관리는
##산업
##산성
##일꺼
##일째
##일찍
##강국
##2ㅐ
##상어
##련님
##너도
##너라
##입으면
##된게
##포동
##소민
##성인
##됐다는
##톤으로
##알고
##방ㅇ
##17
##남친
##조건
##조차도
##삼일
##희는
##질까봐
##워즈
##올리
##쟁이라
##즐ㅇ
##히느
##랬ㄴ
##행도
##행성
##왔ㄷ
##왔ㄴ
##왔네
##통을
##통닭
##름ㅇ
##없나
##달까
##언을
##즌ㄱ
##와우
##박스를
##값을
##블랙
##갔다고
##갔더니
##웠을
##품은
##현상
##맨날
##ps
##난ㅎ
##필요한
##잇는데
##벌이
##짝이
##랜베리
##채로
##갑자기
##얼로
##벅이
##규ㅏ
##쳤다고
##뉴얼
##취를
##멜로우
##웨어
##십니까
##넉ㅇ
##떤ㄷ
##빈스
##즎ㅇ
##놀이는
##짧은
##탱이
너무많이
우리날
우리한테는
아니더
아니겠
아니죠
아니더라고
그러이
그러는게
그거보단
그럼에도
생각중이야
##이라곤
게임기가
게임에서도
게임이라서
이제와서
친구로
엄마와
영화보면
거기까지는
시간씩
시간이랑
들어야지
재밌느
재밌대
재밌었을
완전체
결혼하는게
하나둘
군대랑
나오덜
나오니깐
나오겠지
정도도
정도일
회사생활이
운동의
운동이랑
운동하면서
모르면서
아무쪼록
이런ㄱ
해야되
힘들ㅈ
힘들기만
겨울인
##던데요
가족보다
가족처럼
가족이라고
건강과
건강해지고
건강보조
맛있ㄷ
맛있ㄴ
맛있어요
키우잖아
날씨만
남자들의
남자애들이
때문에라도
자주하고
머리결
머리에서
오래간
여자애가
그때쯤이면
예전의
예전보다는
가고시
다니라고
다니기로
그니까요
별로였는데
언제인지
나이로
나이대가
배우게
그치면
백신만
백신에
문제지만
운전에
운전자가
나가는게
그랬군
필요하니까
##이트를
보는것도
여름에서
여름보다
여름보단
자기들은
자기관리
많은것
아파트값
일본이랑
부모님하고
가격대
주말도
저번부터
저번달에
저녁에도
제주항공
비싸니
비싸덜
비싸기도
비싸지는
관리실
얘기로
찾아뵙
찾아보기
다행이고
시작인
중국에서도
다이엍
먹을것도
먹을때도
한국에선
나온ㄷ
옛날처럼
제주도나
아프지만
아프거나
나왔ㅈ
나왔거든
연애부터
연애결혼
안되네
교육학
끝나지
지하철이랑
생활하면
먹어봄
먹어봤지
신기록
##하긴한데
인터넷을
프로틴
영어점수
중에선
추천은
스트레스야
고민했는데
말이여
유명하다고
지나니까
기분으로
시켜주면
너네들은
비슷하면
비슷하다
20kg
캠핑의
맞는다
선수로
보통일이
출근하다가
선생이
그만두는
산책이나
최고여
스타크래프
살아갈
살아가기
전화하면
조심하
사라져서
사라져야
갔다와
알고보니
30도
30세
추워진다고
바람만
사이클
기사보고
군인이라
애기랑
애기라서
좋아하겠다
좋아하던데
취업해야
취업하기가
취업준비
취업난이
수영할
부산여행
퇴근도
오는길에
이해하
사용을
훈련만
궁금하고
##일이니
등산하다가
청소기는
청소기를
일찍부터
정신없이
정신병원
금방금
위험을
위험하
다양하
몰랐음
차가워
맞고나서
영화관에서는
시키면서
있으벼
생각이지만
치료비
불편함
11로
112
11년
예약하는
고생하
고생했다
고생하셨
무섭네요
보험처리
구경은
행복하
이야기하고
결혼식인데
반려동물에
올해가
올해부터
어린애들도
접종한
직장인이
##이었구나
##이었잖아
저렴하면
학생도
먹었었는데
이쁘겠다
이쁘잖아
사야되
자연의
자연으로
보여달라고
핸드폰만
살고싶
100년
100점
한다니까
계획에
고기집
자유시간
자유로울
컴퓨터도
컴퓨터로도
에이드
좋았ㄴ
좋았어서
나올까
꾸준한
일주일도
기회도
어머니께
##적이어서
기차보다
유행이라
행님한테
해주시
싸우기도
싸우면서
라면에
들어가나
바뀌긴
대출금
선택도
직업인
직업이니까
가르쳤
영양소
카드도
신청을
신청하는
피곤하
피곤하다고
좋으니깐
마트나
패딩입
생겼ㄷ
조카들이
환경에도
이것이
도전하고
도전해보
15배
아닐수도
염색하는
온라인은
알았음
2년동안
성공했으면
프로그램으로
당장이라도
한달이
부동산에서
연습은
연습하는
부대도
말해줄게
잘해요
잘해주면
가보긴
업무량이
재택으로
노력으로
노력해서
노력하는데
움직이기
국가의
조용해
아이들하고
데려올
하던거
##스럽다
그림은
마블에서
도와줘서
이래가
해결해
해결되
##000만
오르는거
잘하시
추천해주는
추천해줄게
기술로
포기한
가까운게
인스타도
놀이를
놀이기구가
집안일은
바빠도
어플에
여유롭
여유롭고
안가게
지방흡
모바일게임
상품을
일부는
결제하는
전쟁나면
성형을
용돈이
아이돌들은
40도
취미는
눈치도
커서도
계약이
웃겨요
10년이
가입해야
매력있는
안타봐서
탈모샴푸
나갔으면
해군으로
제품도
스토리에
쓰레기도
30분만
국민연금
물고기들이
적당히가
안먹을
안먹게
안먹는게
안먹어도
특별하게
들어서도
초딩들도
책임도
책임감을
힐링하는
거북이를
소개팅이
초등학교에서
사과도
사과가
마시려고
충전을
문화재
문화상품
시술이
창문이
안된대
어때요
유치원은
안보여서
기준은
배고팠
커플은
아버지한테
스케치
챙기면서
맥주가
만족을
만족하는
올랐나
올랐ㅇ
안정된
상대는
##00원에
살기엔
닌텐도는
발라드
영국도
지구촌
먹기엔
직원들이랑
그날만
범죄를
가정에
짱구도
빨래하기
상태는
아이템도
반찬은
줄어들고
##쇼핑몰
누군가를
과일이랑
했었ㄴ
크리스피
공원은
체육관에서
새끼는
들어본다
멀미는
멀미하는
없으며
틀어주
기념일도
##생각이
햄버거가
과자랑
스벅에
앉아있으면
진행을
진행하는
작품도
여기서도
추위는
##해진다
많았지
대전이
대전으로
만났으면
축하할
야근이
야근수당
면접도
어깨에
콜라가
사이트가
삼겹살이랑
운영을
공포는
##먹을까
다운로
우울한
취소하고
중간에서
소고기랑
백화점은
백화점이나
경기도에서
빠른거
좋아하지는
1차도
불법다운
전체를
판매를
쌀쌀한
키운지
빌려준
빌려줄게
속상하다
스파이
주름도
급여를
고맙게
교정하고
용품은
소음은
유산균을
유산균이
원룸에서
슬프기도
안맞아
나무젓가락
긴장하고
풀어놓고
몇번을
몇번씩
몇번이나
해준대
콘서트는
크리스마스는
인도에서
환승할
강남에서
재료를
탁구를
대학생들이
연휴라
부지런하지
인형이
입대하는
펜션도
펜션이
손흥민도
도망가고
손님도
손님들이
조기유
가깝지
목욕도
오픈북
사지마
막히지
차박이
다녀왔던
피씨방도
복잡한데
역세권에
3일째
공짜는
달리기를
생각나는데
다가와서
아래에
대리만족
707
소중히
돌려받을
퇴사한
사람이랑은
둘이서만
버티기
여동생은
다를거
##4ㅓㄴ
색깔도
2개씩
마이너
마이콜
마련은
안좋아해
야채를
출연한
무서울거
아지트
경차로
모를까
조합원
기다리다가
기다리면서
무난한거
한명도
한명은
게스트로
게스트하우
고양이나
자랑하고
안내를
계단도
배민에서
임신한
사랒드
어르신이
3번이나
공무원들이
2ㅓㄴ
닮았나
닮았으면
초보운전
먹고싶네
유학은
닭가슴살이랑
토요일은
여행지에서
벚꽃이
병사와
강화해야
지인들
홍콩은
어리니까
스트레칭도
반품도
관절도
들어오지
ㅈㅎㅎ아
그룹으로
상처를
상처가
아우터
러시아는
명품백
미루다
부끄러워
실화야
실화냐
오래됐네
코딩을
안타깝게
롱패딩을
빌라로
해리포터는
석탄을
서든은
고슴도치가
300만
떨어지는데
사랔들
디자인으로
나타나는
반복되는
블루베
친정에
SUV로
강제적으로
신중히
루미큐브가
3ㅜㄹ
아웃도어
패션에
들어갔어
국방의
아껴야
한약도
뿌듯한
##오빠가
PX가
공연을
아부지가
포항에
땡기는데
스노클링
심리적
어지간히
구름도
기침이
폭발한
가볼래
마카롱도
극장판이
선임들
의료보험
6시부터
즐거웠
좋아지긴
이구아나를
스티커도
스티커를
대형견을
가득한
생신인데
코난도
코난은
수익이
오랜만이라
오피스텔이
심장사상
접속해서
재키있
상관없는데
방향제
부딪혀서
보인다
걱정되네
평일엔
도마뱀은
리그오브
직업군인은
세월을
튀김은
알겠습니다
후배들
유용할
자존감
대장동
숨쉬기도
요거트는
연속극
기다렸다
신뢰를
##스테라
##스테이트
닭발은
무기징
미군이
통과하면
나이키가
반려견이
중앙시장
결말을
교과목
나누고
내렸으면
니네집
몇십년
못생겨
직장인들은
탈레반은
지마켓에서
기저질환
##냄새가
승용차가
도와주러
엉망진
죄송하다고
아이라이너
근력운동
코믹한
대박이네요
단독주택은
발가락이
BTS가
플랫폼이
추세인
무서웠을
가르치는데
간편하고
버릇이
닥터지
원더걸스
내동생도
필기시험
낭비하는
엔딩크레
조종사
1급은
비벼먹는
수출을
양파넣고
상견례는
대우를
트레이더
아드님
고령화
구석에
##오늘은
999
잘어울릴
강추야
자상하고
프레시
감기걸리기
다저스가
큰아들
AI가
가꾸는
전도연
돌아다녀야
삼십분
승차감
무관심
번식력이
바닐라라떼
깁스하고
체온이
인건비
버거킹이
번갈아가
반나절
일론머
소방관
의도치
과도한
식습관이
쓰다듬
양세찬
환상의
인명피해가
눈뜨면
눈뜨자마자
열풍이
워크북
찬바람이
정신건강에
2분기
고ㅑㄴ찮
평상시에
자연재해
자연재해가
투니버스에서
맛있었겠다
엠비티
미나리
식도염
이끌어
##효과가
무의식
수련회
유익한
가계부
도ㅑㅆ
간소화
뭐였더라
꼬맹이
설문조사
얼죽아
시간가는줄
가지가지
이순신
주황색
시금치
한바탕
1인가구
두둑히
트랜스
글러브
바뻐서
슈가슈
신생아
팔공산
골키퍼
라치카
박태환
아스트라제네
카푸어
해산물이
무슨소리야
스태프
류현진
BMW
온실가스
닥스훈
반신욕
승모근
유채꽃
일박이일
포르투갈
경전철
까마득
도롱뇽
임창정
##리세이드
귀뚜라미
닭도리탕
리유저블
태극기
향신료
반짝반짝
미야자
싱숭생숭
포카리스웨
여신강림
승선근무예비
udt
캥거루
프라우드먼
히말라야
심장사상충
리그오브레
엔딩크레딧
01
1천
1ㅕ
1시까지
2기
3단
3일은
4ㅣ
5대
5회
5ㅡ
5시까지
5호선
7세
8월에
98
9일
97
9만원
M16
WH
XX
gs
vs
ㄱㅋ
ㅅ9ㅇ
ㅆㅇ
ㅇㄴ
ㅈ0
ㅍ7ㄴ
ㅜㅇ
ㅣㄹ
가아
가심
가켜
가렵
가사도
가부장
각ㅈ
간질
갈ㅈ
감겨
감안하고
갑상
값에
강하
강ㄱ
강풍
강해야
강다니
강도가
같넹
개로
개의
개바
개혁
개좋아
개미는
걔한테
거시
건ㅅ
건방
걸요
것좀
격차가
겪는
견뎌
견딜
결코
경연
경산
고도
고는
고2
고작
고르고
고치는
고시원
곤지
곧잘
골때
곳들이
곳마다
곳이니까
공단
공임
공과금
과대
관ㄱ
관려
광어
괜탆
괜칞
교감이
구리
구설
구웅
구맿
국수가
군에
군내
군무원
규현
그란
그섷
그뒤
그릏
그첳
글이
긁어
급히
급변
기느
기뻐
길이가
김은
김나
김윤
김유
까매
까맣게
깎고
깨기
깨워서
껴안
꼬부
꽁치
꾸몄
꾸역
꿀맛
꿀꿀
끝을
끝남
끝낼
끝이야
끼니까
나보
나좀
나녀
나유
나잖아
낚는
난도
난장판
낞았
날렵
납자
납ㅇ
납득
낫ㄴ
낳아야
내전
내거
내한
내역
낼도
냄비
냅둬
너주
너부터
널ㅇ
넓ㅇ
넘어야
네임
노하
노리
노팅
녹용
놀려고
놀았던
누르는
눈에서
뉴캐슬
늦었어
다우
다은
다재
다느
다사
다나
다비
다채
다닞
다툼
다먹고
다나와
단어는
닫아야
닭볶음
담ㅇ
답은
답변
대륙
대변
대사도
대장은
대나무
대부부
더러워서
덕을
덕산
덥다가
데릴
도요
도란
도베르
독하니까
돈인데
돌라
돌ㄱ
돌려야
동지
돟ㄷ
됐구나
됐는지
되신
되든
된게
될줄
될ㄲ
될겅
뒷통수
드렸
드가서
들야
들깨
들켰
들더라
들리고
들으며
듬직
디카페
따니
딱이네
딸들은
땄ㅇ
때일수록
떨릴
똥도
라나
레인
레트로
렌트가
르렇
리터
리모
리셋
맀어
마식
마일
마흔
마구마
마드리드
막힘
만ㅎㅇ
많앙
많앚
말이나
말하는데
맘만
맘도
망ㅎ
망가지
망치는
맡으면
맡기면
매생
매각
맵고
먹겠
먹ㄹ
먹으로
먹지는
먹이면
메디
메시가
면을
몇가지
모는
모자를
목을
못마
못하나
못간다고
무자
무탈
묵은
문젠
물통
물욕이
물놀이도
뭐하게
뭐라는
뭐하는지
뭘해도
미라
미각
믿는다
밀워
바싸
박을
박혀서
박스에
밖이
반ㄱ
반지는
밚ㅈ
밚았
발을
발ㄷ
발암
발음이
밝고
밝아서
밥으로
방청
밪ㄴ
밭에서
배기
배아프
백혈
백현
뱀이
버드
버릭
버는게
벅었
번이라도
벌지
벌이
벌떡
범칙
법규
변하
변하지
별에
별개로
보길
보노
보질
보헤
보상이
보상은
볶아서
본ㅈ
본저
볼땐
볼때도
봄과
봄이나
봐줘
봐달라고
봐볼게
봤어야
부천
부재
부느
부코
부화
부잣
부니까
부인이
북경
분쟁
분량
분께
불업
불친
불필요한
브리즈
블핑
비로
비긴
비례
비그
비와
비효
비냉
비맞고
비와도
비글이
비인기
빅맥
빙빙
빠듯
빠륻
빼려면
빼놓을
뻑뻑
뻔한
뼈에
뽐뿌
뽑으면
뿌드
사저
사셨
사든
사사
사설
사길
사명
사위
사돈
사삼
사륜
사뒀
사셔서
사가야
사려구
사줬어
사셨으면
산대
산촌
산거라
살벌
살기로
살자고
삶도
삼양
삼삼
상ㅍ
상가가
상권이
새야
새상품
색시
샐ㄱ
생전
생라
생다
생애
샡ㄱ
샵에
선무
선별
섬은
성ㅈ
세컨
세워서
세단이
셈이지
셋다
셜록
소희
소맥
소지가
소갈비
소나무
소시지
소렌토
속이는
손자
손발이
손편지
송이
수이
수바
수원에서
숙제를
순ㅅ
순둥
순서가
술한잔
쉐보
쉬라고
쉽다고
스라
스나
스탠
스핑크
시월
시서
시저
시진
시큼
시켱
시까지
시려서
식ㅇ
식상
식물이
신개
신시
신문에
신나고
신세대
신김치
실ㄹ
실ㅍ
실수가
싫ㅈ
싫었어
심슨
십일
싱ㄱ
싶엊
쌈장
쌓기
썼을
쓰던데
쓰지도
쓸수
쓸만한
아열
아노
아작
아소
아녔
아빤
아스파
악의
악질
악몽
안ㅋ
안감
안파
안빼
안에도
안가지
안사는
안하다가
안하시
안경이
안간다
않겠다
알다
알코
알던
알다니
암울
앞에서는
애닌
애착
애정을
앱이
얘도
어기
어스
어허
어중간
억제
얼나
얼카
얼집
얼렁
엄태
업ㅁ
없거
없우
없지는
없자나
엤ㅈ
엤느
엤ㄱ
여서
여치
여장
여덟
여권도
여직원
역세
연체
연쇄
염두
염따
영재
영양이
예쁟
예상이
예의가
오겠
오륵
오뚜
오복이
오염이
온니
온도에
올랑
올케
옮긴
옷으
왔었는데
왔으니
왕이
왜곡
왠데
요저
요금도
요금은
욕이
우천
우디
우미
우수수
운명이
워너
원체
원ㅎ
원대
원하지
월ㄱ
월그
웹소설
위하
위계
윈도우
유느
유디
유물
유창
유세윤
육퇴
윤곽
융합
으쌰
은하
음반
응대
의논
의리로
이에
이보
이코
이럼
이분
이온
이놈
익힌
인과
인ㅇ
인대
인쇄
인상도
인성도
일ㅅ
일제
일꾼
일리가
입엉
입나
입던
입으려고
있길
있3
있읏
있기를
자요
작을
잘자
잘행
잘보고
잠긴
잠ㅇ
잡ㄴ
잡초
잡힐
잡히고
장우
장ㅈ
장악
장래
장ㅂ
장사도
장비를
장애가
재입
잼는
쟤랑
저탄
저수지
저소득
적ㅈ
적적
적다고
전은
전수
전기를
젓ㅇ
정주
정하면
정직원
제정
제부
제도는
제복이
제테크
젠틀
조지
존예
종료
종을
좋니
좋우
좋냐
주세
주더라고
주스는
주방은
주니어
죽겠는데
줄까
중복
중환
줬음
쥐꼬리
지향
지폐
지렁이
직결
진도가
진리지
질도
질리지
집의
짓이
징ㅉ
짜잘
짝은
쩝쩝
쪽이라
쪽으로는
찜해
찾았어
책ㅇ
처읍
처리기
체허
체감이
쳐박
초소
촉박
출결
출바
출력
춥ㅈ
충겨
취하는
치는거
치면서
친해진
칠레
침수
칭구
카고
카네
칸드
캠퍼
캠페인
컥을
컬리에서
컷트
컸을
코리안
콜라도
콜라는
콩이
크랜베리
큰아빠
클ㄹ
키욷
타려
타볼
타협
타라고
탁재훈
탄피
탔으면
태푸
태우면
터뜨
토를
톡딜
통보
통증
통유
통으로
퉁퉁
특ㅎ
특공
특성
특집
특색
틀어서
틀어도
티코
파푸
파전에
파는지
판정
팔ㅈ
팔찌
팔려
팔꿈
팔기도
팝송
패밀리
페인
페디
편해야
폭설이
퐁퐁
표가
표정도
푸틴
푸들은
풀이
피나
피쉬
필로
필히
필름
하래
하공
하산
하넌
하셍
하능
하늠
하구나
하겠ㅇ
한이
한저
한사
한ㄴ
한봉
한쪽으로
할아
할려
할때도
합닏
해경
해적
해죽
해둔
핵심
햇어
햇는데
했겠
했ㅌ
했네요
행ㄷ
행성
허리아
헬로
헬맷
협의
형량이
호우
호감
홍상
화끈
화석
환영
회에
횟집
후방
훅훅
흉이
히느
힌들ㅇ
##날짜
##만한거
##어머
##어제
##옷이
##들인데
##을꺼
##니당
##자느
##자루
##전골
##하드
##지덕
##지기도
##지르고
##지리아
##두기
##두루
##리티
##리하게
##리더라
##아진
##아이랑
##아봐야
##간대
##거를
##라잇
##담해서
##이프
##이는거
##이거든
##이모가
##기자
##크루
##열도
##었죠
##었다는
##었어도
##저도
##저스
##저가
##시리
##시쯤
##급식
##스카
##오는게
##인치
##인다
##인들도
##인지가
##인원이
##인건가
##짓고
##셨지
##다라
##마도
##마시는
##마인드
##으셔
##보세요
##가네
##가보다
##가보네
##사느
##사과
##사정
##러시
##구리가
##긴해도
##키로도
##나우
##나기
##국ㅇ
##매는
##매나
##혈증
##경부
##경기는
##버터
##연속
##미있
##미역
##차고
##차서
##차곡
##호박
##억ㅇ
##용이라
##약속
##생ㅇ
##생들이
##운다
##운다고
##대지
##대란
##안나고
##머가
##길로
##세서
##준ㄷ
##루에
##꾸역
##돌은
##처가
##ㅠㅐㅆ
##걸레
##결합
##감사
##바나
##바르
##바이크
##발ㅇ
##했다니
##했길래
##했잖ㅇ
##본게
##본이
##츠를
##정비
##정에서
##정으로
##줬지
##줬다고
##절한
##부위
##비면
##비교
##터라
##터넷
##산ㄷ
##명으로
##반하
##반지
##적이네
##2가
##2ㅘ
##맛있고
##상하
##상승
##맘마
##선택
##파고
##업무
##위험
##친ㄷ
##된다는
##른ㄱ
##른ㅇ
##포함
##잔ㅎㅇ
##무기
##혔는데
##덕분에
##분양
##7ㄹ
##줄이
##트라
##견도
##견은
##격ㅇ
##방법
##욕을
##조아
##형을
##컬레이
##계는
##증명
##린가
##볼래
##살인가
##랬지
##랬더니
##실험
##토리
##킹도
##곡이
##왔다가
##없으
##달래
##애도
##김밥이
##써클
##값만
##량의
##뇨ㅐ
##류ㅐ
##슈ㅏ
##ㅑㅇ
##유나
##될까봐
##맞은
##놔야지
##변ㅅ
##역시
##놨더니
##틀고
##막히
##메스
##찬데
##끝나면
##앨범
##않는
##ti
##둥이가
##채는
##갑다
##돼도
##떡이
##긋네
##샵에
##렌즈
##왓슨
##취향
##밀하게
##끌고
##렀ㄷ
##깔고
##맹이
##컷이
##싼데
##탐험
그래ㅠㅠ
너무하네요
그런ㅈ
우리에겐
사람많
사람끼리
요즘ㅇ
요즘들어
아니잖
아니덜
아니였
그러며
그러지는
그렇기
그거까지는
생각대로
생각처럼
생각하기도
좋아햇
좋아핮
##이라네
지금ㅇ
지금이나
하는디
한번을
정말이야
좋은걸로
게임잉
게임이면
게임하다가
오늘저녁
있는것도
친구였는데
여행간
여행이라도
여행가기
여행상품
엄마만
영화에도
영화중에
시간당
아이드
아이티
##더라면
##더라공
들어봐서
재밌ㅈ
재밌네
재밌더라구
재밌었ㅇ
보고나서
결혼시
결혼하게
결혼하지
결혼한다는
##아지는게
그건데
하나라
다른게
군대에는
나오기도
회사나
얼마안
운동이라
운동하려고
모르다니
괜찮더라고
그러게말야
이런일이
해야하고
어디냐
어디쯤
어디가서
어디있어
힘들기는
겨울이야
가족만
가족력
있어가지고
건강식으로
맛있네
맛있지만
맛있잖아
남자보다
남자라서
##해야하는
때문에도
10판
10마리
여자들의
처음이니까
오빠들
아빠랑은
예전이
기억날
기억에는
그럴려나
다니시
다니나
사람이고
사람이다
별로라서
어제보다는
가을야구
가을가을
이상만
나이만
나이트
나이드니까
나이지리아
없는ㄱ
배우를
배우는데
배우들은
배우들의
부모니
부모들도
고양이들도
마음ㅇ
아침잠
동생들이
문제라
없어졌어
운전해
운전대
운전하는데
운전병이
나가라
나가라고
나가는거
있을ㄲ
그랬었어
그랬나봐
사고날
다녀보
타고나는
역시도
자기보다
많은ㄷ
애들한테도
##하기를
##하기까지
만들지
만들러
일본을
사진들
사진보니까
가격이면
저녁까지
드라마들이
드라마에도
비싸잖아
비싸지도
관리에
관리비는
관리실에
서울만
시작인데
되는구나
수도꼭
다이소에
##만원은
걱정말고
한국에서는
한국사는
한국영화
음식인
어려우면
어려웠는데
대단하더라
대단하신
지하에
지하주차
이미지로
관심ㅇ
관심사가
가야하
가야죠
가야겠ㄷ
주변을
세상의
##다니는데
있었는
있었ㄷ
있었어서
있었거든
지하철보다
지하철타고
지하철역이
먹어봐야
보내주고
보내주면
신기한거
동물병
동물이라고
싶은지
해외직
받아쓰기
다이어트약
장난으로
고민될
마스크만
유명세
유명해지면
지나니
커피만
커피에
커피한잔
시켜먹는
너네한테
남편하고
시험이라
같은데도
캠핑에
캠핑족
뉴스보고
맞는건
싫어했는데
놀러나
여러분
유튜브만
유튜브에서도
전기세가
##있는ㄷ
산책하면서
산책하기도
산책로가
최고가
스타트
##에게서
살아계
귀찮으니까
서로에게
전화할
전화하는
전화하고
전화했는데
전화하니까
오징어가
연락이라도
이사람
##스트를
조심한다고
알고는
30일
신경쓰고
##보는것도
생각해봤는데
사이로
사이비
점심이
이용을
이용하게
이용해야
전세를
물어보니
물어봤어
괜찮은지
애기라
애기때
자격증이나
아까운데
부산에는
오는날
세계일
낚시로
낚시나
궁금하
궁금할
등산하면
사회랑
사회로
사회의
교통의
교통카드
어느순간
일찍이
이러한
따뜻할
영상미도
추억은
어렵더
어렵ㄱ
어렵네요
자전거에
자전거랑
보이니
대학도
대학때
재미있다
재미있긴
재미있ㅇ
할머니댁
기대하는
시키는게
치료하는
불편해도
110
119
고생은
고생했
무섭기는
보험비
어디서부터
키워봤는데
