{
  "version": "1.0",
  "truncation": null,
  "padding": null,
  "added_tokens": [
    {
      "id": 0,
      "content": "<s>",
      "single_word": false,
      "lstrip": false,
      "rstrip": false,
      "normalized": false,
      "special": true
    },
    {
      "id": 1,
      "content": "</s>",
      "single_word": false,
      "lstrip": false,
      "rstrip": false,
      "normalized": false,
      "special": true
    },
    {
      "id": 2,
      "content": "<usr>",
      "single_word": false,
      "lstrip": false,
      "rstrip": false,
      "normalized": false,
      "special": true
    },
    {
      "id": 3,
      "content": "<pad>",
      "single_word": false,
      "lstrip": false,
      "rstrip": false,
      "normalized": false,
      "special": true
    },
    {
      "id": 4,
      "content": "<sys>",
      "single_word": false,
      "lstrip": false,
      "rstrip": false,
      "normalized": false,
      "special": true
    },
    {
      "id": 5,
      "content": "<unk>",
      "single_word": false,
      "lstrip": false,
      "rstrip": false,
      "normalized": false,
      "special": true
    },
    {
      "id": 6,
      "content": "<mask>",
      "single_word": false,
      "lstrip": false,
      "rstrip": false,
      "normalized": false,
      "special": true
    },
    {
      "id": 7,
      "content": "<d>",
      "single_word": false,
      "lstrip": false,
      "rstrip": false,
      "normalized": false,
      "special": true
    },
    {
      "id": 8,
      "content": "</d>",
      "single_word": false,
      "lstrip": false,
      "rstrip": false,
      "normalized": false,
      "special": true
    },
    {
      "id": 9,
      "content": "<unused0>",
      "single_word": false,
      "lstrip": false,
      "rstrip": false,
      "normalized": false,
      "special": true
    },
    {
      "id": 10,
      "content": "<unused1>",
      "single_word": false,
      "lstrip": false,
      "rstrip": false,
      "normalized": false,
      "special": true
    },
    {
      "id": 11,
      "content": "<unused2>",
      "single_word": false,
      "lstrip": false,
      "rstrip": false,
      "normalized": false,
      "special": true
    },
    {
      "id": 12,
      "content": "<unused3>",
      "single_word": false,
      "lstrip": false,
      "rstrip": false,
      "normalized": false,
      "special": true
    },
    {
      "id": 13,
      "content": "<unused4>",
      "single_word": false,
      "lstrip": false,
      "rstrip": false,
      "normalized": false,
      "special": true
    },
    {
      "id": 14,
      "content": "<unused5>",
      "single_word": false,
      "lstrip": false,
      "rstrip": false,
      "normalized": false,
      "special": true
    },
    {
      "id": 15,
      "content": "<unused6>",
      "single_word": false,
      "lstrip": false,
      "rstrip": false,
      "normalized": false,
      "special": true
    },
    {
      "id": 16,
      "content": "<unused7>",
      "single_word": false,
      "lstrip": false,
      "rstrip": false,
      "normalized": false,
      "special": true
    },
    {
      "id": 17,
      "content": "<unused8>",
      "single_word": false,
      "lstrip": false,
      "rstrip": false,
      "normalized": false,
      "special": true
    },
    {
      "id": 18,
      "content": "<unused9>",
      "single_word": false,
      "lstrip": false,
      "rstrip": false,
      "normalized": false,
      "special": true
    },
    {
      "id": 19,
      "content": "<unused10>",
      "single_word": false,
      "lstrip": false,
      "rstrip": false,
      "normalized": false,
      "special": true
    },
    {
      "id": 20,
      "content": "<unused11>",
      "single_word": false,
      "lstrip": false,
      "rstrip": false,
      "normalized": false,
      "special": true
    },
    {
      "id": 21,
      "content": "<unused12>",
      "single_word": false,
      "lstrip": false,
      "rstrip": false,
      "normalized": false,
      "special": true
    },
    {
      "id": 22,
      "content": "<unused13>",
      "single_word": false,
      "lstrip": false,
      "rstrip": false,
      "normalized": false,
      "special": true
    },
    {
      "id": 23,
      "content": "<unused14>",
      "single_word": false,
      "lstrip": false,
      "rstrip": false,
      "normalized": false,
      "special": true
    },
    {
      "id": 24,
      "content": "<unused15>",
      "single_word": false,
      "lstrip": false,
      "rstrip": false,
      "normalized": false,
      "special": true
    },
    {
      "id": 25,
      "content": "<unused16>",
      "single_word": false,
      "lstrip": false,
      "rstrip": false,
      "normalized": false,
      "special": true
    },
    {
      "id": 26,
      "content": "<unused17>",
      "single_word": false,
      "lstrip": false,
      "rstrip": false,
      "normalized": false,
      "special": true
    },
    {
      "id": 27,
      "content": "<unused18>",
      "single_word": false,
      "lstrip": false,
      "rstrip": false,
      "normalized": false,
      "special": true
    },
    {
      "id": 28,
      "content": "<unused19>",
      "single_word": false,
      "lstrip": false,
      "rstrip": false,
      "normalized": false,
      "special": true
    },
    {
      "id": 29,
      "content": "<unused20>",
      "single_word": false,
      "lstrip": false,
      "rstrip": false,
      "normalized": false,
      "special": true
    },
    {
      "id": 30,
      "content": "<unused21>",
      "single_word": false,
      "lstrip": false,
      "rstrip": false,
      "normalized": false,
      "special": true
    },
    {
      "id": 31,
      "content": "<unused22>",
      "single_word": false,
      "lstrip": false,
      "rstrip": false,
      "normalized": false,
      "special": true
    },
    {
      "id": 32,
      "content": "<unused23>",
      "single_word": false,
      "lstrip": false,
      "rstrip": false,
      "normalized": false,
      "special": true
    },
    {
      "id": 33,
      "content": "<unused24>",
      "single_word": false,
      "lstrip": false,
      "rstrip": false,
      "normalized": false,
      "special": true
    },
    {
      "id": 34,
      "content": "<unused25>",
      "single_word": false,
      "lstrip": false,
      "rstrip": false,
      "normalized": false,
      "special": true
    },
    {
      "id": 35,
      "content": "<unused26>",
      "single_word": false,
      "lstrip": false,
      "rstrip": false,
      "normalized": false,
      "special": true
    },
    {
      "id": 36,
      "content": "<unused27>",
      "single_word": false,
      "lstrip": false,
      "rstrip": false,
      "normalized": false,
      "special": true
    },
    {
      "id": 37,
      "content": "<unused28>",
      "single_word": false,
      "lstrip": false,
      "rstrip": false,
      "normalized": false,
      "special": true
    },
    {
      "id": 38,
      "content": "<unused29>",
      "single_word": false,
      "lstrip": false,
      "rstrip": false,
      "normalized": false,
      "special": true
    },
    {
      "id": 39,
      "content": "<unused30>",
      "single_word": false,
      "lstrip": false,
      "rstrip": false,
      "normalized": false,
      "special": true
    },
    {
      "id": 40,
      "content": "<unused31>",
      "single_word": false,
      "lstrip": false,
      "rstrip": false,
      "normalized": false,
      "special": true
    },
    {
      "id": 41,
      "content": "<unused32>",
      "single_word": false,
      "lstrip": false,
      "rstrip": false,
      "normalized": false,
      "special": true
    },
    {
      "id": 42,
      "content": "<unused33>",
      "single_word": false,
      "lstrip": false,
      "rstrip": false,
      "normalized": false,
      "special": true
    },
    {
      "id": 43,
      "content": "<unused34>",
      "single_word": false,
      "lstrip": false,
      "rstrip": false,
      "normalized": false,
      "special": true
    },
    {
      "id": 44,
      "content": "<unused35>",
      "single_word": false,
      "lstrip": false,
      "rstrip": false,
      "normalized": false,
      "special": true
    },
    {
      "id": 45,
      "content": "<unused36>",
      "single_word": false,
      "lstrip": false,
      "rstrip": false,
      "normalized": false,
      "special": true
    },
    {
      "id": 46,
      "content": "<unused37>",
      "single_word": false,
      "lstrip": false,
      "rstrip": false,
      "normalized": false,
      "special": true
    },
    {
      "id": 47,
      "content": "<unused38>",
      "single_word": false,
      "lstrip": false,
      "rstrip": false,
      "normalized": false,
      "special": true
    },
    {
      "id": 48,
      "content": "<unused39>",
      "single_word": false,
      "lstrip": false,
      "rstrip": false,
      "normalized": false,
      "special": true
    },
    {
      "id": 49,
      "content": "<unused40>",
      "single_word": false,
      "lstrip": false,
      "rstrip": false,
      "normalized": false,
      "special": true
    },
    {
      "id": 50,
      "content": "<unused41>",
      "single_word": false,
      "lstrip": false,
      "rstrip": false,
      "normalized": false,
      "special": true
    },
    {
      "id": 51,
      "content": "<unused42>",
      "single_word": false,
      "lstrip": false,
      "rstrip": false,
      "normalized": false,
      "special": true
    },
    {
      "id": 52,
      "content": "<unused43>",
      "single_word": false,
      "lstrip": false,
      "rstrip": false,
      "normalized": false,
      "special": true
    },
    {
      "id": 53,
      "content": "<unused44>",
      "single_word": false,
      "lstrip": false,
      "rstrip": false,
      "normalized": false,
      "special": true
    },
    {
      "id": 54,
      "content": "<unused45>",
      "single_word": false,
      "lstrip": false,
      "rstrip": false,
      "normalized": false,
      "special": true
    },
    {
      "id": 55,
      "content": "<unused46>",
      "single_word": false,
      "lstrip": false,
      "rstrip": false,
      "normalized": false,
      "special": true
    },
    {
      "id": 56,
      "content": "<unused47>",
      "single_word": false,
      "lstrip": false,
      "rstrip": false,
      "normalized": false,
      "special": true
    },
    {
      "id": 57,
      "content": "<unused48>",
      "single_word": false,
      "lstrip": false,
      "rstrip": false,
      "normalized": false,
      "special": true
    },
    {
      "id": 58,
      "content": "<unused49>",
      "single_word": false,
      "lstrip": false,
      "rstrip": false,
      "normalized": false,
      "special": true
    },
    {
      "id": 59,
      "content": "<unused50>",
      "single_word": false,
      "lstrip": false,
      "rstrip": false,
      "normalized": false,
      "special": true
    },
    {
      "id": 60,
      "content": "<unused51>",
      "single_word": false,
      "lstrip": false,
      "rstrip": false,
      "normalized": false,
      "special": true
    },
    {
      "id": 61,
      "content": "<unused52>",
      "single_word": false,
      "lstrip": false,
      "rstrip": false,
      "normalized": false,
      "special": true
    },
    {
      "id": 62,
      "content": "<unused53>",
      "single_word": false,
      "lstrip": false,
      "rstrip": false,
      "normalized": false,
      "special": true
    },
    {
      "id": 63,
      "content": "<unused54>",
      "single_word": false,
      "lstrip": false,
      "rstrip": false,
      "normalized": false,
      "special": true
    },
    {
      "id": 64,
      "content": "<unused55>",
      "single_word": false,
      "lstrip": false,
      "rstrip": false,
      "normalized": false,
      "special": true
    },
    {
      "id": 65,
      "content": "<unused56>",
      "single_word": false,
      "lstrip": false,
      "rstrip": false,
      "normalized": false,
      "special": true
    },
    {
      "id": 66,
      "content": "<unused57>",
      "single_word": false,
      "lstrip": false,
      "rstrip": false,
      "normalized": false,
      "special": true
    },
    {
      "id": 67,
      "content": "<unused58>",
      "single_word": false,
      "lstrip": false,
      "rstrip": false,
      "normalized": false,
      "special": true
    },
    {
      "id": 68,
      "content": "<unused59>",
      "single_word": false,
      "lstrip": false,
      "rstrip": false,
      "normalized": false,
      "special": true
    },
    {
      "id": 69,
      "content": "<unused60>",
      "single_word": false,
      "lstrip": false,
      "rstrip": false,
      "normalized": false,
      "special": true
    },
    {
      "id": 70,
      "content": "<unused61>",
      "single_word": false,
      "lstrip": false,
      "rstrip": false,
      "normalized": false,
      "special": true
    },
    {
      "id": 71,
      "content": "<unused62>",
      "single_word": false,
      "lstrip": false,
      "rstrip": false,
      "normalized": false,
      "special": true
    },
    {
      "id": 72,
      "content": "<unused63>",
      "single_word": false,
      "lstrip": false,
      "rstrip": false,
      "normalized": false,
      "special": true
    },
    {
      "id": 73,
      "content": "<unused64>",
      "single_word": false,
      "lstrip": false,
      "rstrip": false,
      "normalized": false,
      "special": true
    },
    {
      "id": 74,
      "content": "<unused65>",
      "single_word": false,
      "lstrip": false,
      "rstrip": false,
      "normalized": false,
      "special": true
    },
    {
      "id": 75,
      "content": "<unused66>",
      "single_word": false,
      "lstrip": false,
      "rstrip": false,
      "normalized": false,
      "special": true
    },
    {
      "id": 76,
      "content": "<unused67>",
      "single_word": false,
      "lstrip": false,
      "rstrip": false,
      "normalized": false,
      "special": true
    },
    {
      "id": 77,
      "content": "<unused68>",
      "single_word": false,
      "lstrip": false,
      "rstrip": false,
      "normalized": false,
      "special": true
    },
    {
      "id": 78,
      "content": "<unused69>",
      "single_word": false,
      "lstrip": false,
      "rstrip": false,
      "normalized": false,
      "special": true
    },
    {
      "id": 79,
      "content": "<unused70>",
      "single_word": false,
      "lstrip": false,
      "rstrip": false,
      "normalized": false,
      "special": true
    },
    {
      "id": 80,
      "content": "<unused71>",
      "single_word": false,
      "lstrip": false,
      "rstrip": false,
      "normalized": false,
      "special": true
    },
    {
      "id": 81,
      "content": "<unused72>",
      "single_word": false,
      "lstrip": false,
      "rstrip": false,
      "normalized": false,
      "special": true
    },
    {
      "id": 82,
      "content": "<unused73>",
      "single_word": false,
      "lstrip": false,
      "rstrip": false,
      "normalized": false,
      "special": true
    },
    {
      "id": 83,
      "content": "<unused74>",
      "single_word": false,
      "lstrip": false,
      "rstrip": false,
      "normalized": false,
      "special": true
    },
    {
      "id": 84,
      "content": "<unused75>",
      "single_word": false,
      "lstrip": false,
      "rstrip": false,
      "normalized": false,
      "special": true
    },
    {
      "id": 85,
      "content": "<unused76>",
      "single_word": false,
      "lstrip": false,
      "rstrip": false,
      "normalized": false,
      "special": true
    },
    {
      "id": 86,
      "content": "<unused77>",
      "single_word": false,
      "lstrip": false,
      "rstrip": false,
      "normalized": false,
      "special": true
    },
    {
      "id": 87,
      "content": "<unused78>",
      "single_word": false,
      "lstrip": false,
      "rstrip": false,
      "normalized": false,
      "special": true
    },
    {
      "id": 88,
      "content": "<unused79>",
      "single_word": false,
      "lstrip": false,
      "rstrip": false,
      "normalized": false,
      "special": true
    },
    {
      "id": 89,
      "content": "<unused80>",
      "single_word": false,
      "lstrip": false,
      "rstrip": false,
      "normalized": false,
      "special": true
    },
    {
      "id": 90,
      "content": "<unused81>",
      "single_word": false,
      "lstrip": false,
      "rstrip": false,
      "normalized": false,
      "special": true
    },
    {
      "id": 91,
      "content": "<unused82>",
      "single_word": false,
      "lstrip": false,
      "rstrip": false,
      "normalized": false,
      "special": true
    },
    {
      "id": 92,
      "content": "<unused83>",
      "single_word": false,
      "lstrip": false,
      "rstrip": false,
      "normalized": false,
      "special": true
    },
    {
      "id": 93,
      "content": "<unused84>",
      "single_word": false,
      "lstrip": false,
      "rstrip": false,
      "normalized": false,
      "special": true
    },
    {
      "id": 94,
      "content": "<unused85>",
      "single_word": false,
      "lstrip": false,
      "rstrip": false,
      "normalized": false,
      "special": true
    },
    {
      "id": 95,
      "content": "<unused86>",
      "single_word": false,
      "lstrip": false,
      "rstrip": false,
      "normalized": false,
      "special": true
    },
    {
      "id": 96,
      "content": "<unused87>",
      "single_word": false,
      "lstrip": false,
      "rstrip": false,
      "normalized": false,
      "special": true
    },
    {
      "id": 97,
      "content": "<unused88>",
      "single_word": false,
      "lstrip": false,
      "rstrip": false,
      "normalized": false,
      "special": true
    },
    {
      "id": 98,
      "content": "<unused89>",
      "single_word": false,
      "lstrip": false,
      "rstrip": false,
      "normalized": false,
      "special": true
    },
    {
      "id": 99,
      "content": "<unused90>",
      "single_word": false,
      "lstrip": false,
      "rstrip": false,
      "normalized": false,
      "special": true
    },
    {
      "id": 100,
      "content": "<unused91>",
      "single_word": false,
      "lstrip": false,
      "rstrip": false,
      "normalized": false,
      "special": true
    },
    {
      "id": 101,
      "content": "<unused92>",
      "single_word": false,
      "lstrip": false,
      "rstrip": false,
      "normalized": false,
      "special": true
    },
    {
      "id": 102,
      "content": "<unused93>",
      "single_word": false,
      "lstrip": false,
      "rstrip": false,
      "normalized": false,
      "special": true
    },
    {
      "id": 103,
      "content": "<unused94>",
      "single_word": false,
      "lstrip": false,
      "rstrip": false,
      "normalized": false,
      "special": true
    },
    {
      "id": 104,
      "content": "<unused95>",
      "single_word": false,
      "lstrip": false,
      "rstrip": false,
      "normalized": false,
      "special": true
    },
    {
      "id": 105,
      "content": "<unused96>",
      "single_word": false,
      "lstrip": false,
      "rstrip": false,
      "normalized": false,
      "special": true
    },
    {
      "id": 106,
      "content": "<unused97>",
      "single_word": false,
      "lstrip": false,
      "rstrip": false,
      "normalized": false,
      "special": true
    },
    {
      "id": 107,
      "content": "<unused98>",
      "single_word": false,
      "lstrip": false,
      "rstrip": false,
      "normalized": false,
      "special": true
    },
    {
      "id": 108,
      "content": "<unused99>",
      "single_word": false,
      "lstrip": false,
      "rstrip": false,
      "normalized": false,
      "special": true
    },
    {
      "id": 109,
      "content": ":-)",
      "single_word": false,
      "lstrip": false,
      "rstrip": false,
      "normalized": false,
      "special": true
    },
    {
      "id": 110,
      "content": ":)",
      "single_word": false,
      "lstrip": false,
      "rstrip": false,
      "normalized": false,
      "special": true
    },
    {
      "id": 111,
      "content": "-)",
      "single_word": false,
      "lstrip": false,
      "rstrip": false,
      "normalized": false,
      "special": true
    },
    {
      "id": 112,
      "content": "(-:",
      "single_word": false,
      "lstrip": false,
      "rstrip": false,
      "normalized": false,
      "special": true
    },
    {
      "id": 113,
      "content": "(:-)",
      "single_word": false,
      "lstrip": false,
      "rstrip": false,
      "normalized": false,
      "special": true
    },
    {
      "id": 114,
      "content": "(:-(",
      "single_word": false,
      "lstrip": false,
      "rstrip": false,
      "normalized": false,
      "special": true
    },
    {
      "id": 115,
      "content": "-}",
      "single_word": false,
      "lstrip": false,
      "rstrip": false,
      "normalized": false,
      "special": true
    },
    {
      "id": 116,
      "content": "8-O",
      "single_word": false,
      "lstrip": false,
      "rstrip": false,
      "normalized": false,
      "special": true
    },
    {
      "id": 117,
      "content": "'-)",
      "single_word": false,
      "lstrip": false,
      "rstrip": false,
      "normalized": false,
      "special": true
    },
    {
      "id": 118,
      "content": ":-#",
      "single_word": false,
      "lstrip": false,
      "rstrip": false,
      "normalized": false,
      "special": true
    },
    {
      "id": 119,
      "content": ":-*",
      "single_word": false,
      "lstrip": false,
      "rstrip": false,
      "normalized": false,
      "special": true
    },
    {
      "id": 120,
      "content": ":-/",
      "single_word": false,
      "lstrip": false,
      "rstrip": false,
      "normalized": false,
      "special": true
    },
    {
      "id": 121,
      "content": ":->",
      "single_word": false,
      "lstrip": false,
      "rstrip": false,
      "normalized": false,
      "special": true
    },
    {
      "id": 122,
      "content": ":-@",
      "single_word": false,
      "lstrip": false,
      "rstrip": false,
      "normalized": false,
      "special": true
    },
    {
      "id": 123,
      "content": ":-d",
      "single_word": false,
      "lstrip": false,
      "rstrip": false,
      "normalized": false,
      "special": true
    },
    {
      "id": 124,
      "content": ":-V",
      "single_word": false,
      "lstrip": false,
      "rstrip": false,
      "normalized": false,
      "special": true
    },
    {
      "id": 125,
      "content": ":-X",
      "single_word": false,
      "lstrip": false,
      "rstrip": false,
      "normalized": false,
      "special": true
    },
    {
      "id": 126,
      "content": ":-\\",
      "single_word": false,
      "lstrip": false,
      "rstrip": false,
      "normalized": false,
      "special": true
    },
    {
      "id": 127,
      "content": ":-]",
      "single_word": false,
      "lstrip": false,
      "rstrip": false,
      "normalized": false,
      "special": true
    },
    {
      "id": 128,
      "content": ";-(",
      "single_word": false,
      "lstrip": false,
      "rstrip": false,
      "normalized": false,
      "special": true
    },
    {
      "id": 129,
      "content": ">;->",
      "single_word": false,
      "lstrip": false,
      "rstrip": false,
      "normalized": false,
      "special": true
    },
    {
      "id": 130,
      "content": ";^)",
      "single_word": false,
      "lstrip": false,
      "rstrip": false,
      "normalized": false,
      "special": true
    },
    {
      "id": 131,
      "content": "%-)",
      "single_word": false,
      "lstrip": false,
      "rstrip": false,
      "normalized": false,
      "special": true
    },
    {
      "id": 132,
      "content": "):-(",
      "single_word": false,
      "lstrip": false,
      "rstrip": false,
      "normalized": false,
      "special": true
    },
    {
      "id": 133,
      "content": "3:]",
      "single_word": false,
      "lstrip": false,
      "rstrip": false,
      "normalized": false,
      "special": true
    },
    {
      "id": 134,
      "content": ":-&",
      "single_word": false,
      "lstrip": false,
      "rstrip": false,
      "normalized": false,
      "special": true
    },
    {
      "id": 135,
      "content": "8:-)",
      "single_word": false,
      "lstrip": false,
      "rstrip": false,
      "normalized": false,
      "special": true
    },
    {
      "id": 136,
      "content": ":-)8<",
      "single_word": false,
      "lstrip": false,
      "rstrip": false,
      "normalized": false,
      "special": true
    },
    {
      "id": 137,
      "content": ":-O",
      "single_word": false,
      "lstrip": false,
      "rstrip": false,
      "normalized": false,
      "special": true
    },
    {
      "id": 138,
      "content": ":-6",
      "single_word": false,
      "lstrip": false,
      "rstrip": false,
      "normalized": false,
      "special": true
    },
    {
      "id": 139,
      "content": "+:-)",
      "single_word": false,
      "lstrip": false,
      "rstrip": false,
      "normalized": false,
      "special": true
    },
    {
      "id": 140,
      "content": "O:-)",
      "single_word": false,
      "lstrip": false,
      "rstrip": false,
      "normalized": false,
      "special": true
    },
    {
      "id": 141,
      "content": ":-<",
      "single_word": false,
      "lstrip": false,
      "rstrip": false,
      "normalized": false,
      "special": true
    },
    {
      "id": 142,
      "content": ":-?",
      "single_word": false,
      "lstrip": false,
      "rstrip": false,
      "normalized": false,
      "special": true
    },
    {
      "id": 143,
      "content": ":-E",
      "single_word": false,
      "lstrip": false,
      "rstrip": false,
      "normalized": false,
      "special": true
    },
    {
      "id": 144,
      "content": ":-Q",
      "single_word": false,
      "lstrip": false,
      "rstrip": false,
      "normalized": false,
      "special": true
    },
    {
      "id": 145,
      "content": ":-}X",
      "single_word": false,
      "lstrip": false,
      "rstrip": false,
      "normalized": false,
      "special": true
    },
    {
      "id": 146,
      "content": ":-[",
      "single_word": false,
      "lstrip": false,
      "rstrip": false,
      "normalized": false,
      "special": true
    },
    {
      "id": 147,
      "content": ":-a",
      "single_word": false,
      "lstrip": false,
      "rstrip": false,
      "normalized": false,
      "special": true
    },
    {
      "id": 148,
      "content": ":-{",
      "single_word": false,
      "lstrip": false,
      "rstrip": false,
      "normalized": false,
      "special": true
    },
    {
      "id": 149,
      "content": ":-{}",
      "single_word": false,
      "lstrip": false,
      "rstrip": false,
      "normalized": false,
      "special": true
    },
    {
      "id": 150,
      "content": ":^)",
      "single_word": false,
      "lstrip": false,
      "rstrip": false,
      "normalized": false,
      "special": true
    },
    {
      "id": 151,
      "content": "<:-l",
      "single_word": false,
      "lstrip": false,
      "rstrip": false,
      "normalized": false,
      "special": true
    },
    {
      "id": 152,
      "content": ":=)",
      "single_word": false,
      "lstrip": false,
      "rstrip": false,
      "normalized": false,
      "special": true
    },
    {
      "id": 153,
      "content": ">:->",
      "single_word": false,
      "lstrip": false,
      "rstrip": false,
      "normalized": false,
      "special": true
    },
    {
      "id": 154,
      "content": ">:-l",
      "single_word": false,
      "lstrip": false,
      "rstrip": false,
      "normalized": false,
      "special": true
    },
    {
      "id": 155,
      "content": "@:-)",
      "single_word": false,
      "lstrip": false,
      "rstrip": false,
      "normalized": false,
      "special": true
    },
    {
      "id": 156,
      "content": "@:-}",
      "single_word": false,
      "lstrip": false,
      "rstrip": false,
      "normalized": false,
      "special": true
    },
    {
      "id": 157,
      "content": "C=:-)",
      "single_word": false,
      "lstrip": false,
      "rstrip": false,
      "normalized": false,
      "special": true
    },
    {
      "id": 158,
      "content": "X:-)",
      "single_word": false,
      "lstrip": false,
      "rstrip": false,
      "normalized": false,
      "special": true
    },
    {
      "id": 159,
      "content": "[:-)",
      "single_word": false,
      "lstrip": false,
      "rstrip": false,
      "normalized": false,
      "special": true
    },
    {
      "id": 160,
      "content": "[:]",
      "single_word": false,
      "lstrip": false,
      "rstrip": false,
      "normalized": false,
      "special": true
    },
    {
      "id": 161,
      "content": "{:-)",
      "single_word": false,
      "lstrip": false,
      "rstrip": false,
      "normalized": false,
      "special": true
    },
    {
      "id": 162,
      "content": "l^o",
      "single_word": false,
      "lstrip": false,
      "rstrip": false,
      "normalized": false,
      "special": true
    },
    {
      "id": 163,
      "content": "}:^#)",
      "single_word": false,
      "lstrip": false,
      "rstrip": false,
      "normalized": false,
      "special": true
    },
    {
      "id": 164,
      "content": ":-(=)",
      "single_word": false,
      "lstrip": false,
      "rstrip": false,
      "normalized": false,
      "special": true
    },
    {
      "id": 165,
      "content": "O-)",
      "single_word": false,
      "lstrip": false,
      "rstrip": false,
      "normalized": false,
      "special": true
    },
    {
      "id": 166,
      "content": ":-3",
      "single_word": false,
      "lstrip": false,
      "rstrip": false,
      "normalized": false,
      "special": true
    },
    {
      "id": 167,
      "content": ":=",
      "single_word": false,
      "lstrip": false,
      "rstrip": false,
      "normalized": false,
      "special": true
    },
    {
      "id": 168,
      "content": ":-\"",
      "single_word": false,
      "lstrip": false,
      "rstrip": false,
      "normalized": false,
      "special": true
    },
    {
      "id": 169,
      "content": "P-(",
      "single_word": false,
      "lstrip": false,
      "rstrip": false,
      "normalized": false,
      "special": true
    },
    {
      "id": 170,
      "content": "?-(",
      "single_word": false,
      "lstrip": false,
      "rstrip": false,
      "normalized": false,
      "special": true
    },
    {
      "id": 171,
      "content": "d:-)",
      "single_word": false,
      "lstrip": false,
      "rstrip": false,
      "normalized": false,
      "special": true
    },
    {
      "id": 172,
      "content": ":8)",
      "single_word": false,
      "lstrip": false,
      "rstrip": false,
      "normalized": false,
      "special": true
    },
    {
      "id": 173,
      "content": ":-7",
      "single_word": false,
      "lstrip": false,
      "rstrip": false,
      "normalized": false,
      "special": true
    },
    {
      "id": 174,
      "content": "):-)",
      "single_word": false,
      "lstrip": false,
      "rstrip": false,
      "normalized": false,
      "special": true
    },
    {
      "id": 175,
      "content": ":/\\)",
      "single_word": false,
      "lstrip": false,
      "rstrip": false,
      "normalized": false,
      "special": true
    },
    {
      "id": 176,
      "content": "8(:-)",
      "single_word": false,
      "lstrip": false,
      "rstrip": false,
      "normalized": false,
      "special": true
    },
    {
      "id": 177,
      "content": "([(",
      "single_word": false,
      "lstrip": false,
      "rstrip": false,
      "normalized": false,
      "special": true
    },
    {
      "id": 178,
      "content": ":-(*)",
      "single_word": false,
      "lstrip": false,
      "rstrip": false,
      "normalized": false,
      "special": true
    },
    {
      "id": 179,
      "content": "&-l",
      "single_word": false,
      "lstrip": false,
      "rstrip": false,
      "normalized": false,
      "special": true
    },
    {
      "id": 180,
      "content": ":-e",
      "single_word": false,
      "lstrip": false,
      "rstrip": false,
      "normalized": false,
      "special": true
    },
    {
      "id": 181,
      "content": ":(",
      "single_word": false,
      "lstrip": false,
      "rstrip": false,
      "normalized": false,
      "special": true
    },
    {
      "id": 182,
      "content": ":,(",
      "single_word": false,
      "lstrip": false,
      "rstrip": false,
      "normalized": false,
      "special": true
    },
    {
      "id": 183,
      "content": ":-(",
      "single_word": false,
      "lstrip": false,
      "rstrip": false,
      "normalized": false,
      "special": true
    },
    {
      "id": 184,
      "content": ":-P",
      "single_word": false,
      "lstrip": false,
      "rstrip": false,
      "normalized": false,
      "special": true
    },
    {
      "id": 185,
      "content": ":-S",
      "single_word": false,
      "lstrip": false,
      "rstrip": false,
      "normalized": false,
      "special": true
    },
    {
      "id": 186,
      "content": ":-C",
      "single_word": false,
      "lstrip": false,
      "rstrip": false,
      "normalized": false,
      "special": true
    },
    {
      "id": 187,
      "content": ":-r",
      "single_word": false,
      "lstrip": false,
      "rstrip": false,
      "normalized": false,
      "special": true
    },
    {
      "id": 188,
      "content": ":-t",
      "single_word": false,
      "lstrip": false,
      "rstrip": false,
      "normalized": false,
      "special": true
    },
    {
      "id": 189,
      "content": ":-W",
      "single_word": false,
      "lstrip": false,
      "rstrip": false,
      "normalized": false,
      "special": true
    },
    {
      "id": 190,
      "content": "X-(",
      "single_word": false,
      "lstrip": false,
      "rstrip": false,
      "normalized": false,
      "special": true
    },
    {
      "id": 191,
      "content": "l-O",
      "single_word": false,
      "lstrip": false,
      "rstrip": false,
      "normalized": false,
      "special": true
    },
    {
      "id": 192,
      "content": "l:-O",
      "single_word": false,
      "lstrip": false,
      "rstrip": false,
      "normalized": false,
      "special": true
    },
    {
      "id": 193,
      "content": "$-)",
      "single_word": false,
      "lstrip": false,
      "rstrip": false,
      "normalized": false,
      "special": true
    },
    {
      "id": 194,
      "content": ":-!",
      "single_word": false,
      "lstrip": false,
      "rstrip": false,
      "normalized": false,
      "special": true
    },
    {
      "id": 195,
      "content": ":----}",
      "single_word": false,
      "lstrip": false,
      "rstrip": false,
      "normalized": false,
      "special": true
    },
    {
      "id": 196,
      "content": "=:-)",
      "single_word": false,
      "lstrip": false,
      "rstrip": false,
      "normalized": false,
      "special": true
    },
    {
      "id": 197,
      "content": "=:-(",
      "single_word": false,
      "lstrip": false,
      "rstrip": false,
      "normalized": false,
      "special": true
    },
    {
      "id": 198,
      "content": "3:[",
      "single_word": false,
      "lstrip": false,
      "rstrip": false,
      "normalized": false,
      "special": true
    },
    {
      "id": 199,
      "content": "8<:-)",
      "single_word": false,
      "lstrip": false,
      "rstrip": false,
      "normalized": false,
      "special": true
    },
    {
      "id": 200,
      "content": ":#)",
      "single_word": false,
      "lstrip": false,
      "rstrip": false,
      "normalized": false,
      "special": true
    },
    {
      "id": 201,
      "content": "8-#",
      "single_word": false,
      "lstrip": false,
      "rstrip": false,
      "normalized": false,
      "special": true
    },
    {
      "id": 202,
      "content": "B-)",
      "single_word": false,
      "lstrip": false,
      "rstrip": false,
      "normalized": false,
      "special": true
    },
    {
      "id": 203,
      "content": "8-)",
      "single_word": false,
      "lstrip": false,
      "rstrip": false,
      "normalized": false,
      "special": true
    },
    {
      "id": 204,
      "content": "|-(",
      "single_word": false,
      "lstrip": false,
      "rstrip": false,
      "normalized": false,
      "special": true
    },
    {
      "id": 205,
      "content": "H-)",
      "single_word": false,
      "lstrip": false,
      "rstrip": false,
      "normalized": false,
      "special": true
    },
    {
      "id": 206,
      "content": "]-I",
      "single_word": false,
      "lstrip": false,
      "rstrip": false,
      "normalized": false,
      "special": true
    },
    {
      "id": 207,
      "content": "V^J",
      "single_word": false,
      "lstrip": false,
      "rstrip": false,
      "normalized": false,
      "special": true
    },
    {
      "id": 208,
      "content": "+-(",
      "single_word": false,
      "lstrip": false,
      "rstrip": false,
      "normalized": false,
      "special": true
    },
    {
      "id": 209,
      "content": "~:-P",
      "single_word": false,
      "lstrip": false,
      "rstrip": false,
      "normalized": false,
      "special": true
    },
    {
      "id": 210,
      "content": "`'",
      "single_word": false,
      "lstrip": false,
      "rstrip": false,
      "normalized": false,
      "special": true
    },
    {
      "id": 211,
      "content": "L-P",
      "single_word": false,
      "lstrip": false,
      "rstrip": false,
      "normalized": false,
      "special": true
    },
    {
      "id": 212,
      "content": "BI",
      "single_word": false,
      "lstrip": false,
      "rstrip": false,
      "normalized": false,
      "special": true
    },
    {
      "id": 213,
      "content": "O|",
      "single_word": false,
      "lstrip": false,
      "rstrip": false,
      "normalized": false,
      "special": true
    },
    {
      "id": 214,
      "content": "^^",
      "single_word": false,
      "lstrip": false,
      "rstrip": false,
      "normalized": false,
      "special": true
    },
    {
      "id": 215,
      "content": "ㅜㅜ",
      "single_word": false,
      "lstrip": false,
      "rstrip": false,
      "normalized": false,
      "special": true
    },
    {
      "id": 216,
      "content": "ㅠㅠ",
      "single_word": false,
      "lstrip": false,
      "rstrip": false,
      "normalized": false,
      "special": true
    },
    {
      "id": 217,
      "content": "ㅡㅡ",
      "single_word": false,
      "lstrip": false,
      "rstrip": false,
      "normalized": false,
      "special": true
    },
    {
      "id": 218,
      "content": "😠",
      "single_word": false,
      "lstrip": false,
      "rstrip": false,
      "normalized": false,
      "special": true
    },
    {
      "id": 219,
      "content": "👿",
      "single_word": false,
      "lstrip": false,
      "rstrip": false,
      "normalized": false,
      "special": true
    },
    {
      "id": 220,
      "content": "😧",
      "single_word": false,
      "lstrip": false,
      "rstrip": false,
      "normalized": false,
      "special": true
    },
    {
      "id": 221,
      "content": "😰",
      "single_word": false,
      "lstrip": false,
      "rstrip": false,
      "normalized": false,
      "special": true
    },
    {
      "id": 222,
      "content": "😲",
      "single_word": false,
      "lstrip": false,
      "rstrip": false,
      "normalized": false,
      "special": true
    },
    {
      "id": 223,
      "content": "😁",
      "single_word": false,
      "lstrip": false,
      "rstrip": false,
      "normalized": false,
      "special": true
    },
    {
      "id": 224,
      "content": "🐻",
      "single_word": false,
      "lstrip": false,
      "rstrip": false,
      "normalized": false,
      "special": true
    },
    {
      "id": 225,
      "content": "🐱",
      "single_word": false,
      "lstrip": false,
      "rstrip": false,
      "normalized": false,
      "special": true
    },
    {
      "id": 226,
      "content": "😹",
      "single_word": false,
      "lstrip": false,
      "rstrip": false,
      "normalized": false,
      "special": true
    },
    {
      "id": 227,
      "content": "😼",
      "single_word": false,
      "lstrip": false,
      "rstrip": false,
      "normalized": false,
      "special": true
    },
    {
      "id": 228,
      "content": "🤡",
      "single_word": false,
      "lstrip": false,
      "rstrip": false,
      "normalized": false,
      "special": true
    },
    {
      "id": 229,
      "content": "🥶",
      "single_word": false,
      "lstrip": false,
      "rstrip": false,
      "normalized": false,
      "special": true
    },
    {
      "id": 230,
      "content": "😖",
      "single_word": false,
      "lstrip": false,
      "rstrip": false,
      "normalized": false,
      "special": true
    },
    {
      "id": 231,
      "content": "😕",
      "single_word": false,
      "lstrip": false,
      "rstrip": false,
      "normalized": false,
      "special": true
    },
    {
      "id": 232,
      "content": "🐮",
      "single_word": false,
      "lstrip": false,
      "rstrip": false,
      "normalized": false,
      "special": true
    },
    {
      "id": 233,
      "content": "🤠",
      "single_word": false,
      "lstrip": false,
      "rstrip": false,
      "normalized": false,
      "special": true
    },
    {
      "id": 234,
      "content": "😿",
      "single_word": false,
      "lstrip": false,
      "rstrip": false,
      "normalized": false,
      "special": true
    },
    {
      "id": 235,
      "content": "😢",
      "single_word": false,
      "lstrip": false,
      "rstrip": false,
      "normalized": false,
      "special": true
    },
    {
      "id": 236,
      "content": "😞",
      "single_word": false,
      "lstrip": false,
      "rstrip": false,
      "normalized": false,
      "special": true
    },
    {
      "id": 237,
      "content": "😵",
      "single_word": false,
      "lstrip": false,
      "rstrip": false,
      "normalized": false,
      "special": true
    },
    {
      "id": 238,
      "content": "🐶",
      "single_word": false,
      "lstrip": false,
      "rstrip": false,
      "normalized": false,
      "special": true
    },
    {
      "id": 239,
      "content": "😓",
      "single_word": false,
      "lstrip": false,
      "rstrip": false,
      "normalized": false,
      "special": true
    },
    {
      "id": 240,
      "content": "🐲",
      "single_word": false,
      "lstrip": false,
      "rstrip": false,
      "normalized": false,
      "special": true
    },
    {
      "id": 241,
      "content": "🤤",
      "single_word": false,
      "lstrip": false,
      "rstrip": false,
      "normalized": false,
      "special": true
    },
    {
      "id": 242,
      "content": "😑",
      "single_word": false,
      "lstrip": false,
      "rstrip": false,
      "normalized": false,
      "special": true
    },
    {
      "id": 243,
      "content": "😘",
      "single_word": false,
      "lstrip": false,
      "rstrip": false,
      "normalized": false,
      "special": true
    },
    {
      "id": 244,
      "content": "😋",
      "single_word": false,
      "lstrip": false,
      "rstrip": false,
      "normalized": false,
      "special": true
    },
    {
      "id": 245,
      "content": "😱",
      "single_word": false,
      "lstrip": false,
      "rstrip": false,
      "normalized": false,
      "special": true
    },
    {
      "id": 246,
      "content": "🤮",
      "single_word": false,
      "lstrip": false,
      "rstrip": false,
      "normalized": false,
      "special": true
    },
    {
      "id": 247,
      "content": "🤭",
      "single_word": false,
      "lstrip": false,
      "rstrip": false,
      "normalized": false,
      "special": true
    },
    {
      "id": 248,
      "content": "🤕",
      "single_word": false,
      "lstrip": false,
      "rstrip": false,
      "normalized": false,
      "special": true
    },
    {
      "id": 249,
      "content": "😷",
      "single_word": false,
      "lstrip": false,
      "rstrip": false,
      "normalized": false,
      "special": true
    },
    {
      "id": 250,
      "content": "🧐",
      "single_word": false,
      "lstrip": false,
      "rstrip": false,
      "normalized": false,
      "special": true
    },
    {
      "id": 251,
      "content": "😮",
      "single_word": false,
      "lstrip": false,
      "rstrip": false,
      "normalized": false,
      "special": true
    },
    {
      "id": 252,
      "content": "🤨",
      "single_word": false,
      "lstrip": false,
      "rstrip": false,
      "normalized": false,
      "special": true
    },
    {
      "id": 253,
      "content": "🙄",
      "single_word": false,
      "lstrip": false,
      "rstrip": false,
      "normalized": false,
      "special": true
    },
    {
      "id": 254,
      "content": "😤",
      "single_word": false,
      "lstrip": false,
      "rstrip": false,
      "normalized": false,
      "special": true
    },
    {
      "id": 255,
      "content": "🤬",
      "single_word": false,
      "lstrip": false,
      "rstrip": false,
      "normalized": false,
      "special": true
    },
    {
      "id": 256,
      "content": "😂",
      "single_word": false,
      "lstrip": false,
      "rstrip": false,
      "normalized": false,
      "special": true
    },
    {
      "id": 257,
      "content": "🤒",
      "single_word": false,
      "lstrip": false,
      "rstrip": false,
      "normalized": false,
      "special": true
    },
    {
      "id": 258,
      "content": "😛",
      "single_word": false,
      "lstrip": false,
      "rstrip": false,
      "normalized": false,
      "special": true
    },
    {
      "id": 259,
      "content": "😶",
      "single_word": false,
      "lstrip": false,
      "rstrip": false,
      "normalized": false,
      "special": true
    },
    {
      "id": 260,
      "content": "😨",
      "single_word": false,
      "lstrip": false,
      "rstrip": false,
      "normalized": false,
      "special": true
    },
    {
      "id": 261,
      "content": "🌛",
      "single_word": false,
      "lstrip": false,
      "rstrip": false,
      "normalized": false,
      "special": true
    },
    {
      "id": 262,
      "content": "😳",
      "single_word": false,
      "lstrip": false,
      "rstrip": false,
      "normalized": false,
      "special": true
    },
    {
      "id": 263,
      "content": "🦊",
      "single_word": false,
      "lstrip": false,
      "rstrip": false,
      "normalized": false,
      "special": true
    },
    {
      "id": 264,
      "content": "🐸",
      "single_word": false,
      "lstrip": false,
      "rstrip": false,
      "normalized": false,
      "special": true
    },
    {
      "id": 265,
      "content": "☹",
      "single_word": false,
      "lstrip": false,
      "rstrip": false,
      "normalized": false,
      "special": true
    },
    {
      "id": 266,
      "content": "☹️",
      "single_word": false,
      "lstrip": false,
      "rstrip": false,
      "normalized": false,
      "special": true
    },
    {
      "id": 267,
      "content": "😦",
      "single_word": false,
      "lstrip": false,
      "rstrip": false,
      "normalized": false,
      "special": true
    },
    {
      "id": 268,
      "content": "🌝",
      "single_word": false,
      "lstrip": false,
      "rstrip": false,
      "normalized": false,
      "special": true
    },
    {
      "id": 269,
      "content": "😬",
      "single_word": false,
      "lstrip": false,
      "rstrip": false,
      "normalized": false,
      "special": true
    },
    {
      "id": 270,
      "content": "😺",
      "single_word": false,
      "lstrip": false,
      "rstrip": false,
      "normalized": false,
      "special": true
    },
    {
      "id": 271,
      "content": "😸",
      "single_word": false,
      "lstrip": false,
      "rstrip": false,
      "normalized": false,
      "special": true
    },
    {
      "id": 272,
      "content": "😀",
      "single_word": false,
      "lstrip": false,
      "rstrip": false,
      "normalized": false,
      "special": true
    },
    {
      "id": 273,
      "content": "😃",
      "single_word": false,
      "lstrip": false,
      "rstrip": false,
      "normalized": false,
      "special": true
    },
    {
      "id": 274,
      "content": "😄",
      "single_word": false,
      "lstrip": false,
      "rstrip": false,
      "normalized": false,
      "special": true
    },
    {
      "id": 275,
      "content": "😅",
      "single_word": false,
      "lstrip": false,
      "rstrip": false,
      "normalized": false,
      "special": true
    },
    {
      "id": 276,
      "content": "😆",
      "single_word": false,
      "lstrip": false,
      "rstrip": false,
      "normalized": false,
      "special": true
    },
    {
      "id": 277,
      "content": "🐹",
      "single_word": false,
      "lstrip": false,
      "rstrip": false,
      "normalized": false,
      "special": true
    },
    {
      "id": 278,
      "content": "🐴",
      "single_word": false,
      "lstrip": false,
      "rstrip": false,
      "normalized": false,
      "special": true
    },
    {
      "id": 279,
      "content": "🥵",
      "single_word": false,
      "lstrip": false,
      "rstrip": false,
      "normalized": false,
      "special": true
    },
    {
      "id": 280,
      "content": "🤗",
      "single_word": false,
      "lstrip": false,
      "rstrip": false,
      "normalized": false,
      "special": true
    },
    {
      "id": 281,
      "content": "😯",
      "single_word": false,
      "lstrip": false,
      "rstrip": false,
      "normalized": false,
      "special": true
    },
    {
      "id": 282,
      "content": "😽",
      "single_word": false,
      "lstrip": false,
      "rstrip": false,
      "normalized": false,
      "special": true
    },
    {
      "id": 283,
      "content": "😗",
      "single_word": false,
      "lstrip": false,
      "rstrip": false,
      "normalized": false,
      "special": true
    },
    {
      "id": 284,
      "content": "😚",
      "single_word": false,
      "lstrip": false,
      "rstrip": false,
      "normalized": false,
      "special": true
    },
    {
      "id": 285,
      "content": "😙",
      "single_word": false,
      "lstrip": false,
      "rstrip": false,
      "normalized": false,
      "special": true
    },
    {
      "id": 286,
      "content": "🌜",
      "single_word": false,
      "lstrip": false,
      "rstrip": false,
      "normalized": false,
      "special": true
    },
    {
      "id": 287,
      "content": "🦁",
      "single_word": false,
      "lstrip": false,
      "rstrip": false,
      "normalized": false,
      "special": true
    },
    {
      "id": 288,
      "content": "😭",
      "single_word": false,
      "lstrip": false,
      "rstrip": false,
      "normalized": false,
      "special": true
    },
    {
      "id": 289,
      "content": "🤥",
      "single_word": false,
      "lstrip": false,
      "rstrip": false,
      "normalized": false,
      "special": true
    },
    {
      "id": 290,
      "content": "🤦🏿‍♂",
      "single_word": false,
      "lstrip": false,
      "rstrip": false,
      "normalized": false,
      "special": true
    },
    {
      "id": 291,
      "content": "🤦🏻‍♂",
      "single_word": false,
      "lstrip": false,
      "rstrip": false,
      "normalized": false,
      "special": true
    },
    {
      "id": 292,
      "content": "🤦🏾‍♂",
      "single_word": false,
      "lstrip": false,
      "rstrip": false,
      "normalized": false,
      "special": true
    },
    {
      "id": 293,
      "content": "🤦🏼‍♂",
      "single_word": false,
      "lstrip": false,
      "rstrip": false,
      "normalized": false,
      "special": true
    },
    {
      "id": 294,
      "content": "🤦🏽‍♂",
      "single_word": false,
      "lstrip": false,
      "rstrip": false,
      "normalized": false,
      "special": true
    },
    {
      "id": 295,
      "content": "🤦‍♂",
      "single_word": false,
      "lstrip": false,
      "rstrip": false,
      "normalized": false,
      "special": true
    },
    {
      "id": 296,
      "content": "🤦🏿‍♂️",
      "single_word": false,
      "lstrip": false,
      "rstrip": false,
      "normalized": false,
      "special": true
    },
    {
      "id": 297,
      "content": "🤦🏻‍♂️",
      "single_word": false,
      "lstrip": false,
      "rstrip": false,
      "normalized": false,
      "special": true
    },
    {
      "id": 298,
      "content": "🤦🏾‍♂️",
      "single_word": false,
      "lstrip": false,
      "rstrip": false,
      "normalized": false,
      "special": true
    },
    {
      "id": 299,
      "content": "🤦🏼‍♂️",
      "single_word": false,
      "lstrip": false,
      "rstrip": false,
      "normalized": false,
      "special": true
    },
    {
      "id": 300,
      "content": "🤦🏽‍♂️",
      "single_word": false,
      "lstrip": false,
      "rstrip": false,
      "normalized": false,
      "special": true
    },
    {
      "id": 301,
      "content": "🤦‍♂️",
      "single_word": false,
      "lstrip": false,
      "rstrip": false,
      "normalized": false,
      "special": true
    },
    {
      "id": 302,
      "content": "🤑",
      "single_word": false,
      "lstrip": false,
      "rstrip": false,
      "normalized": false,
      "special": true
    },
    {
      "id": 303,
      "content": "🐵",
      "single_word": false,
      "lstrip": false,
      "rstrip": false,
      "normalized": false,
      "special": true
    },
    {
      "id": 304,
      "content": "🐭",
      "single_word": false,
      "lstrip": false,
      "rstrip": false,
      "normalized": false,
      "special": true
    },
    {
      "id": 305,
      "content": "🤢",
      "single_word": false,
      "lstrip": false,
      "rstrip": false,
      "normalized": false,
      "special": true
    },
    {
      "id": 306,
      "content": "🤓",
      "single_word": false,
      "lstrip": false,
      "rstrip": false,
      "normalized": false,
      "special": true
    },
    {
      "id": 307,
      "content": "😐",
      "single_word": false,
      "lstrip": false,
      "rstrip": false,
      "normalized": false,
      "special": true
    },
    {
      "id": 308,
      "content": "🌚",
      "single_word": false,
      "lstrip": false,
      "rstrip": false,
      "normalized": false,
      "special": true
    },
    {
      "id": 309,
      "content": "🐼",
      "single_word": false,
      "lstrip": false,
      "rstrip": false,
      "normalized": false,
      "special": true
    },
    {
      "id": 310,
      "content": "🥳",
      "single_word": false,
      "lstrip": false,
      "rstrip": false,
      "normalized": false,
      "special": true
    },
    {
      "id": 311,
      "content": "😔",
      "single_word": false,
      "lstrip": false,
      "rstrip": false,
      "normalized": false,
      "special": true
    },
    {
      "id": 312,
      "content": "😣",
      "single_word": false,
      "lstrip": false,
      "rstrip": false,
      "normalized": false,
      "special": true
    },
    {
      "id": 313,
      "content": "🤦",
      "single_word": false,
      "lstrip": false,
      "rstrip": false,
      "normalized": false,
      "special": true
    },
    {
      "id": 314,
      "content": "🤦🏿",
      "single_word": false,
      "lstrip": false,
      "rstrip": false,
      "normalized": false,
      "special": true
    },
    {
      "id": 315,
      "content": "🤦🏻",
      "single_word": false,
      "lstrip": false,
      "rstrip": false,
      "normalized": false,
      "special": true
    },
    {
      "id": 316,
      "content": "🤦🏾",
      "single_word": false,
      "lstrip": false,
      "rstrip": false,
      "normalized": false,
      "special": true
    },
    {
      "id": 317,
      "content": "🤦🏼",
      "single_word": false,
      "lstrip": false,
      "rstrip": false,
      "normalized": false,
      "special": true
    },
    {
      "id": 318,
      "content": "🤦🏽",
      "single_word": false,
      "lstrip": false,
      "rstrip": false,
      "normalized": false,
      "special": true
    },
    {
      "id": 319,
      "content": "🐷",
      "single_word": false,
      "lstrip": false,
      "rstrip": false,
      "normalized": false,
      "special": true
    },
    {
      "id": 320,
      "content": "🥺",
      "single_word": false,
      "lstrip": false,
      "rstrip": false,
      "normalized": false,
      "special": true
    },
    {
      "id": 321,
      "content": "😾",
      "single_word": false,
      "lstrip": false,
      "rstrip": false,
      "normalized": false,
      "special": true
    },
    {
      "id": 322,
      "content": "😡",
      "single_word": false,
      "lstrip": false,
      "rstrip": false,
      "normalized": false,
      "special": true
    },
    {
      "id": 323,
      "content": "🐰",
      "single_word": false,
      "lstrip": false,
      "rstrip": false,
      "normalized": false,
      "special": true
    },
    {
      "id": 324,
      "content": "😌",
      "single_word": false,
      "lstrip": false,
      "rstrip": false,
      "normalized": false,
      "special": true
    },
    {
      "id": 325,
      "content": "🤖",
      "single_word": false,
      "lstrip": false,
      "rstrip": false,
      "normalized": false,
      "special": true
    },
    {
      "id": 326,
      "content": "😥",
      "single_word": false,
      "lstrip": false,
      "rstrip": false,
      "normalized": false,
      "special": true
    },
    {
      "id": 327,
      "content": "🤫",
      "single_word": false,
      "lstrip": false,
      "rstrip": false,
      "normalized": false,
      "special": true
    },
    {
      "id": 328,
      "content": "😴",
      "single_word": false,
      "lstrip": false,
      "rstrip": false,
      "normalized": false,
      "special": true
    },
    {
      "id": 329,
      "content": "😪",
      "single_word": false,
      "lstrip": false,
      "rstrip": false,
      "normalized": false,
      "special": true
    },
    {
      "id": 330,
      "content": "🙁",
      "single_word": false,
      "lstrip": false,
      "rstrip": false,
      "normalized": false,
      "special": true
    },
    {
      "id": 331,
      "content": "🙂",
      "single_word": false,
      "lstrip": false,
      "rstrip": false,
      "normalized": false,
      "special": true
    },
    {
      "id": 332,
      "content": "😻",
      "single_word": false,
      "lstrip": false,
      "rstrip": false,
      "normalized": false,
      "special": true
    },
    {
      "id": 333,
      "content": "☺",
      "single_word": false,
      "lstrip": false,
      "rstrip": false,
      "normalized": false,
      "special": true
    },
    {
      "id": 334,
      "content": "☺️",
      "single_word": false,
      "lstrip": false,
      "rstrip": false,
      "normalized": false,
      "special": true
    },
    {
      "id": 335,
      "content": "🥰",
      "single_word": false,
      "lstrip": false,
      "rstrip": false,
      "normalized": false,
      "special": true
    },
    {
      "id": 336,
      "content": "😇",
      "single_word": false,
      "lstrip": false,
      "rstrip": false,
      "normalized": false,
      "special": true
    },
    {
      "id": 337,
      "content": "😍",
      "single_word": false,
      "lstrip": false,
      "rstrip": false,
      "normalized": false,
      "special": true
    },
    {
      "id": 338,
      "content": "😈",
      "single_word": false,
      "lstrip": false,
      "rstrip": false,
      "normalized": false,
      "special": true
    },
    {
      "id": 339,
      "content": "😊",
      "single_word": false,
      "lstrip": false,
      "rstrip": false,
      "normalized": false,
      "special": true
    },
    {
      "id": 340,
      "content": "😎",
      "single_word": false,
      "lstrip": false,
      "rstrip": false,
      "normalized": false,
      "special": true
    },
    {
      "id": 341,
      "content": "😏",
      "single_word": false,
      "lstrip": false,
      "rstrip": false,
      "normalized": false,
      "special": true
    },
    {
      "id": 342,
      "content": "🤧",
      "single_word": false,
      "lstrip": false,
      "rstrip": false,
      "normalized": false,
      "special": true
    },
    {
      "id": 343,
      "content": "😝",
      "single_word": false,
      "lstrip": false,
      "rstrip": false,
      "normalized": false,
      "special": true
    },
    {
      "id": 344,
      "content": "🌞",
      "single_word": false,
      "lstrip": false,
      "rstrip": false,
      "normalized": false,
      "special": true
    },
    {
      "id": 345,
      "content": "🤔",
      "single_word": false,
      "lstrip": false,
      "rstrip": false,
      "normalized": false,
      "special": true
    },
    {
      "id": 346,
      "content": "🐯",
      "single_word": false,
      "lstrip": false,
      "rstrip": false,
      "normalized": false,
      "special": true
    },
    {
      "id": 347,
      "content": "😫",
      "single_word": false,
      "lstrip": false,
      "rstrip": false,
      "normalized": false,
      "special": true
    },
    {
      "id": 348,
      "content": "😒",
      "single_word": false,
      "lstrip": false,
      "rstrip": false,
      "normalized": false,
      "special": true
    },
    {
      "id": 349,
      "content": "🦄",
      "single_word": false,
      "lstrip": false,
      "rstrip": false,
      "normalized": false,
      "special": true
    },
    {
      "id": 350,
      "content": "🙃",
      "single_word": false,
      "lstrip": false,
      "rstrip": false,
      "normalized": false,
      "special": true
    },
    {
      "id": 351,
      "content": "🙀",
      "single_word": false,
      "lstrip": false,
      "rstrip": false,
      "normalized": false,
      "special": true
    },
    {
      "id": 352,
      "content": "😩",
      "single_word": false,
      "lstrip": false,
      "rstrip": false,
      "normalized": false,
      "special": true
    },
    {
      "id": 353,
      "content": "🌬",
      "single_word": false,
      "lstrip": false,
      "rstrip": false,
      "normalized": false,
      "special": true
    },
    {
      "id": 354,
      "content": "🌬️",
      "single_word": false,
      "lstrip": false,
      "rstrip": false,
      "normalized": false,
      "special": true
    },
    {
      "id": 355,
      "content": "😉",
      "single_word": false,
      "lstrip": false,
      "rstrip": false,
      "normalized": false,
      "special": true
    },
    {
      "id": 356,
      "content": "😜",
      "single_word": false,
      "lstrip": false,
      "rstrip": false,
      "normalized": false,
      "special": true
    },
    {
      "id": 357,
      "content": "🐺",
      "single_word": false,
      "lstrip": false,
      "rstrip": false,
      "normalized": false,
      "special": true
    },
    {
      "id": 358,
      "content": "🤦🏿‍♀",
      "single_word": false,
      "lstrip": false,
      "rstrip": false,
      "normalized": false,
      "special": true
    },
    {
      "id": 359,
      "content": "🤦🏻‍♀",
      "single_word": false,
      "lstrip": false,
      "rstrip": false,
      "normalized": false,
      "special": true
    },
    {
      "id": 360,
      "content": "🤦🏾‍♀",
      "single_word": false,
      "lstrip": false,
      "rstrip": false,
      "normalized": false,
      "special": true
    },
    {
      "id": 361,
      "content": "🤦🏼‍♀",
      "single_word": false,
      "lstrip": false,
      "rstrip": false,
      "normalized": false,
      "special": true
    },
    {
      "id": 362,
      "content": "🤦🏽‍♀",
      "single_word": false,
      "lstrip": false,
      "rstrip": false,
      "normalized": false,
      "special": true
    },
    {
      "id": 363,
      "content": "🤦‍♀",
      "single_word": false,
      "lstrip": false,
      "rstrip": false,
      "normalized": false,
      "special": true
    },
    {
      "id": 364,
      "content": "🤦🏿‍♀️",
      "single_word": false,
      "lstrip": false,
      "rstrip": false,
      "normalized": false,
      "special": true
    },
    {
      "id": 365,
      "content": "🤦🏻‍♀️",
      "single_word": false,
      "lstrip": false,
      "rstrip": false,
      "normalized": false,
      "special": true
    },
    {
      "id": 366,
      "content": "🤦🏾‍♀️",
      "single_word": false,
      "lstrip": false,
      "rstrip": false,
      "normalized": false,
      "special": true
    },
    {
      "id": 367,
      "content": "🤦🏼‍♀️",
      "single_word": false,
      "lstrip": false,
      "rstrip": false,
      "normalized": false,
      "special": true
    },
    {
      "id": 368,
      "content": "🤦🏽‍♀️",
      "single_word": false,
      "lstrip": false,
      "rstrip": false,
      "normalized": false,
      "special": true
    },
    {
      "id": 369,
      "content": "🤦‍♀️",
      "single_word": false,
      "lstrip": false,
      "rstrip": false,
      "normalized": false,
      "special": true
    },
    {
      "id": 370,
      "content": "🥴",
      "single_word": false,
      "lstrip": false,
      "rstrip": false,
      "normalized": false,
      "special": true
    },
    {
      "id": 371,
      "content": "😟",
      "single_word": false,
      "lstrip": false,
      "rstrip": false,
      "normalized": false,
      "special": true
    },
    {
      "id": 372,
      "content": "🥱",
      "single_word": false,
      "lstrip": false,
      "rstrip": false,
      "normalized": false,
      "special": true
    },
    {
      "id": 373,
      "content": "🤪",
      "single_word": false,
      "lstrip": false,
      "rstrip": false,
      "normalized": false,
      "special": true
    },
    {
      "id": 374,
      "content": "🤐",
      "single_word": false,
      "lstrip": false,
      "rstrip": false,
      "normalized": false,
      "special": true
    }
  ],
  "normalizer": {
    "type": "Sequence",
    "normalizers": [
      {
        "type": "NFKC"
      },
      {
        "type": "BertNormalizer",
        "clean_text": false,
        "handle_chinese_chars": false,
        "strip_accents": false,
        "lowercase": false
      }
    ]
  },
  "pre_tokenizer": {
    "type": "Sequence",
    "pretokenizers": [
      {
        "type": "Metaspace",
        "replacement": "▁",
        "add_prefix_space": true
      }
    ]
  },
  "post_processor": null,
  "decoder": {
    "type": "Metaspace",
    "replacement": "▁",
    "add_prefix_space": true
  },
  "model": {
    "type": "BPE",
    "dropout": null,
    "unk_token": "<unk>",
    "continuing_subword_prefix": null,
    "end_of_word_suffix": null,
    "fuse_unk": false,
    "vocab": {
      "<s>": 0,
      "</s>": 1,
      "<usr>": 2,
      "<pad>": 3,
      "<sys>": 4,
      "<unk>": 5,
      "<mask>": 6,
      "<d>": 7,
      "</d>": 8,
      "<unused0>": 9,
      "<unused1>": 10,
      "<unused2>": 11,
      "<unused3>": 12,
      "<unused4>": 13,
      "<unused5>": 14,
      "<unused6>": 15,
      "<unused7>": 16,
      "<unused8>": 17,
      "<unused9>": 18,
      "<unused10>": 19,
      "<unused11>": 20,
      "<unused12>": 21,
      "<unused13>": 22,
      "<unused14>": 23,
      "<unused15>": 24,
      "<unused16>": 25,
      "<unused17>": 26,
      "<unused18>": 27,
      "<unused19>": 28,
      "<unused20>": 29,
      "<unused21>": 30,
      "<unused22>": 31,
      "<unused23>": 32,
      "<unused24>": 33,
      "<unused25>": 34,
      "<unused26>": 35,
      "<unused27>": 36,
      "<unused28>": 37,
      "<unused29>": 38,
      "<unused30>": 39,
      "<unused31>": 40,
      "<unused32>": 41,
      "<unused33>": 42,
      "<unused34>": 43,
      "<unused35>": 44,
      "<unused36>": 45,
      "<unused37>": 46,
      "<unused38>": 47,
      "<unused39>": 48,
      "<unused40>": 49,
      "<unused41>": 50,
      "<unused42>": 51,
      "<unused43>": 52,
      "<unused44>": 53,
      "<unused45>": 54,
      "<unused46>": 55,
      "<unused47>": 56,
      "<unused48>": 57,
      "<unused49>": 58,
      "<unused50>": 59,
      "<unused51>": 60,
      "<unused52>": 61,
      "<unused53>": 62,
      "<unused54>": 63,
      "<unused55>": 64,
      "<unused56>": 65,
      "<unused57>": 66,
      "<unused58>": 67,
      "<unused59>": 68,
      "<unused60>": 69,
      "<unused61>": 70,
      "<unused62>": 71,
      "<unused63>": 72,
      "<unused64>": 73,
      "<unused65>": 74,
      "<unused66>": 75,
      "<unused67>": 76,
      "<unused68>": 77,
      "<unused69>": 78,
      "<unused70>": 79,
      "<unused71>": 80,
      "<unused72>": 81,
      "<unused73>": 82,
      "<unused74>": 83,
      "<unused75>": 84,
      "<unused76>": 85,
      "<unused77>": 86,
      "<unused78>": 87,
      "<unused79>": 88,
      "<unused80>": 89,
      "<unused81>": 90,
      "<unused82>": 91,
      "<unused83>": 92,
      "<unused84>": 93,
      "<unused85>": 94,
      "<unused86>": 95,
      "<unused87>": 96,
      "<unused88>": 97,
      "<unused89>": 98,
      "<unused90>": 99,
      "<unused91>": 100,
      "<unused92>": 101,
      "<unused93>": 102,
      "<unused94>": 103,
      "<unused95>": 104,
      "<unused96>": 105,
      "<unused97>": 106,
      "<unused98>": 107,
      "<unused99>": 108,
      ":-)": 109,
      ":)": 110,
      "-)": 111,
      "(-:": 112,
      "(:-)": 113,
      "(:-(": 114,
      "-}": 115,
      "8-O": 116,
      "'-)": 117,
      ":-#": 118,
      ":-*": 119,
      ":-/": 120,
      ":->": 121,
      ":-@": 122,
      ":-d": 123,
      ":-V": 124,
      ":-X": 125,
      ":-\\": 126,
      ":-]": 127,
      ";-(": 128,
      ">;->": 129,
      ";^)": 130,
      "%-)": 131,
      "):-(": 132,
      "3:]": 133,
      ":-&": 134,
      "8:-)": 135,
      ":-)8<": 136,
      ":-O": 137,
      ":-6": 138,
      "+:-)": 139,
      "O:-)": 140,
      ":-<": 141,
      ":-?": 142,
      ":-E": 143,
      ":-Q": 144,
      ":-}X": 145,
      ":-[": 146,
      ":-a": 147,
      ":-{": 148,
      ":-{}": 149,
      ":^)": 150,
      "<:-l": 151,
      ":=)": 152,
      ">:->": 153,
      ">:-l": 154,
      "@:-)": 155,
      "@:-}": 156,
      "C=:-)": 157,
      "X:-)": 158,
      "[:-)": 159,
      "[:]": 160,
      "{:-)": 161,
      "l^o": 162,
      "}:^#)": 163,
      ":-(=)": 164,
      "O-)": 165,
      ":-3": 166,
      ":=": 167,
      ":-\"": 168,
      "P-(": 169,
      "?-(": 170,
      "d:-)": 171,
      ":8)": 172,
      ":-7": 173,
      "):-)": 174,
      ":/\\)": 175,
      "8(:-)": 176,
      "([(": 177,
      ":-(*)": 178,
      "&-l": 179,
      ":-e": 180,
      ":(": 181,
      ":,(": 182,
      ":-(": 183,
      ":-P": 184,
      ":-S": 185,
      ":-C": 186,
      ":-r": 187,
      ":-t": 188,
      ":-W": 189,
      "X-(": 190,
      "l-O": 191,
      "l:-O": 192,
      "$-)": 193,
      ":-!": 194,
      ":----}": 195,
      "=:-)": 196,
      "=:-(": 197,
      "3:[": 198,
      "8<:-)": 199,
      ":#)": 200,
      "8-#": 201,
      "B-)": 202,
      "8-)": 203,
      "|-(": 204,
      "H-)": 205,
      "]-I": 206,
      "V^J": 207,
      "+-(": 208,
      "~:-P": 209,
      "`'": 210,
      "L-P": 211,
      "BI": 212,
      "O|": 213,
      "^^": 214,
      "ㅜㅜ": 215,
      "ㅠㅠ": 216,
      "ㅡㅡ": 217,
      "😠": 218,
      "👿": 219,
      "😧": 220,
      "😰": 221,
      "😲": 222,
      "😁": 223,
      "🐻": 224,
      "🐱": 225,
      "😹": 226,
      "😼": 227,
      "🤡": 228,
      "🥶": 229,
      "😖": 230,
      "😕": 231,
      "🐮": 232,
      "🤠": 233,
      "😿": 234,
      "😢": 235,
      "😞": 236,
      "😵": 237,
      "🐶": 238,
      "😓": 239,
      "🐲": 240,
      "🤤": 241,
      "😑": 242,
      "😘": 243,
      "😋": 244,
      "😱": 245,
      "🤮": 246,
      "🤭": 247,
      "🤕": 248,
      "😷": 249,
      "🧐": 250,
      "😮": 251,
      "🤨": 252,
      "🙄": 253,
      "😤": 254,
      "🤬": 255,
      "😂": 256,
      "🤒": 257,
      "😛": 258,
      "😶": 259,
      "😨": 260,
      "🌛": 261,
      "😳": 262,
      "🦊": 263,
      "🐸": 264,
      "☹": 265,
      "☹️": 266,
      "😦": 267,
      "🌝": 268,
      "😬": 269,
      "😺": 270,
      "😸": 271,
      "😀": 272,
      "😃": 273,
      "😄": 274,
      "😅": 275,
      "😆": 276,
      "🐹": 277,
      "🐴": 278,
      "🥵": 279,
      "🤗": 280,
      "😯": 281,
      "😽": 282,
      "😗": 283,
      "😚": 284,
      "😙": 285,
      "🌜": 286,
      "🦁": 287,
      "😭": 288,
      "🤥": 289,
      "🤦🏿‍♂": 290,
      "🤦🏻‍♂": 291,
      "🤦🏾‍♂": 292,
      "🤦🏼‍♂": 293,
      "🤦🏽‍♂": 294,
      "🤦‍♂": 295,
      "🤦🏿‍♂️": 296,
      "🤦🏻‍♂️": 297,
      "🤦🏾‍♂️": 298,
      "🤦🏼‍♂️": 299,
      "🤦🏽‍♂️": 300,
      "🤦‍♂️": 301,
      "🤑": 302,
      "🐵": 303,
      "🐭": 304,
      "🤢": 305,
      "🤓": 306,
      "😐": 307,
      "🌚": 308,
      "🐼": 309,
      "🥳": 310,
      "😔": 311,
      "😣": 312,
      "🤦": 313,
      "🤦🏿": 314,
      "🤦🏻": 315,
      "🤦🏾": 316,
      "🤦🏼": 317,
      "🤦🏽": 318,
      "🐷": 319,
      "🥺": 320,
      "😾": 321,
      "😡": 322,
      "🐰": 323,
      "😌": 324,
      "🤖": 325,
      "😥": 326,
      "🤫": 327,
      "😴": 328,
      "😪": 329,
      "🙁": 330,
      "🙂": 331,
      "😻": 332,
      "☺": 333,
      "☺️": 334,
      "🥰": 335,
      "😇": 336,
      "😍": 337,
      "😈": 338,
      "😊": 339,
      "😎": 340,
      "😏": 341,
      "🤧": 342,
      "😝": 343,
      "🌞": 344,
      "🤔": 345,
      "🐯": 346,
      "😫": 347,
      "😒": 348,
      "🦄": 349,
      "🙃": 350,
      "🙀": 351,
      "😩": 352,
      "🌬": 353,
      "🌬️": 354,
      "😉": 355,
      "😜": 356,
      "🐺": 357,
      "🤦🏿‍♀": 358,
      "🤦🏻‍♀": 359,
      "🤦🏾‍♀": 360,
      "🤦🏼‍♀": 361,
      "🤦🏽‍♀": 362,
      "🤦‍♀": 363,
      "🤦🏿‍♀️": 364,
      "🤦🏻‍♀️": 365,
      "🤦🏾‍♀️": 366,
      "🤦🏼‍♀️": 367,
      "🤦🏽‍♀️": 368,
      "🤦‍♀️": 369,
      "🥴": 370,
      "😟": 371,
      "🥱": 372,
      "🤪": 373,
      "🤐": 374,
      "\u0013": 375,
      "\u0014": 376,
      "\u0018": 377,
      "\u0019": 378,
      "\u001c": 379,
      "\u001d": 380,
      "\u001f": 381,
      "!": 382,
      "#": 383,
      "$": 384,
      "%": 385,
      "&": 386,
      "'": 387,
      "(": 388,
      ")": 389,
      "*": 390,
      "+": 391,
      ",": 392,
      "-": 393,
      ".": 394,
      "/": 395,
      "0": 396,
      "1": 397,
      "2": 398,
      "3": 399,
      "4": 400,
      "5": 401,
      "6": 402,
      "7": 403,
      "8": 404,
      "9": 405,
      ":": 406,
      ";": 407,
      "<": 408,
      "=": 409,
      ">": 410,
      "?": 411,
      "@": 412,
      "[": 413,
      "\\": 414,
      "]": 415,
      "^": 416,
      "_": 417,
      "`": 418,
      "a": 419,
      "b": 420,
      "c": 421,
      "d": 422,
      "e": 423,
      "f": 424,
      "g": 425,
      "h": 426,
      "i": 427,
      "j": 428,
      "k": 429,
      "l": 430,
      "m": 431,
      "n": 432,
      "o": 433,
      "p": 434,
      "q": 435,
      "r": 436,
      "s": 437,
      "t": 438,
      "u": 439,
      "v": 440,
      "w": 441,
      "x": 442,
      "y": 443,
      "z": 444,
      "{": 445,
      "|": 446,
      "}": 447,
      "~": 448,
      "": 449,
      "▁": 450,
      "▁t": 451,
      "he": 452,
      "▁a": 453,
      "▁s": 454,
      "▁.": 455,
      "in": 456,
      "▁w": 457,
      "▁the": 458,
      "▁,": 459,
      "re": 460,
      "▁i": 461,
      "ou": 462,
      "▁h": 463,
      "▁b": 464,
      "ed": 465,
      "▁m": 466,
      "▁o": 467,
      "nd": 468,
      "▁he": 469,
      "ing": 470,
      "▁c": 471,
      "▁f": 472,
      "▁'": 473,
      "er": 474,
      "▁to": 475,
      "at": 476,
      "▁d": 477,
      "▁n": 478,
      "▁l": 479,
      "▁th": 480,
      "is": 481,
      "en": 482,
      "▁and": 483,
      "as": 484,
      "ll": 485,
      "▁p": 486,
      "an": 487,
      "on": 488,
      "or": 489,
      "ar": 490,
      "▁g": 491,
      "es": 492,
      "▁of": 493,
      "▁in": 494,
      "▁y": 495,
      "it": 496,
      "▁`": 497,
      "▁``": 498,
      "▁''": 499,
      "▁ha": 500,
      "om": 501,
      "▁you": 502,
      "ow": 503,
      "▁e": 504,
      "▁be": 505,
      "id": 506,
      "▁was": 507,
      "▁her": 508,
      "▁it": 509,
      "ot": 510,
      "le": 511,
      "ld": 512,
      "ac": 513,
      "gh": 514,
      "ve": 515,
      "▁on": 516,
      "▁she": 517,
      "▁st": 518,
      "▁his": 519,
      "st": 520,
      "et": 521,
      "▁that": 522,
      "ly": 523,
      "im": 524,
      "ay": 525,
      "▁u": 526,
      "ic": 527,
      "▁r": 528,
      "▁wh": 529,
      "ut": 530,
      "▁re": 531,
      "▁we": 532,
      "▁k": 533,
      "▁as": 534,
      "▁me": 535,
      "▁my": 536,
      "ver": 537,
      "ad": 538,
      "out": 539,
      "se": 540,
      "al": 541,
      "▁?": 542,
      "oo": 543,
      "ght": 544,
      "ould": 545,
      "ith": 546,
      "▁for": 547,
      "▁with": 548,
      "ir": 549,
      "ent": 550,
      "'t": 551,
      "▁n't": 552,
      "▁j": 553,
      "▁do": 554,
      "▁'s": 555,
      "ke": 556,
      "▁an": 557,
      "▁had": 558,
      "▁at": 559,
      "▁li": 560,
      "am": 561,
      "▁sh": 562,
      "ur": 563,
      "ion": 564,
      "▁but": 565,
      "▁him": 566,
      "all": 567,
      "▁fr": 568,
      "ee": 569,
      "her": 570,
      "▁sa": 571,
      "▁not": 572,
      "ight": 573,
      "ked": 574,
      "red": 575,
      "pp": 576,
      "ro": 577,
      "▁ne": 578,
      "ack": 579,
      "▁so": 580,
      "ain": 581,
      "ch": 582,
      "ant": 583,
      "ill": 584,
      "ce": 585,
      "ter": 586,
      "il": 587,
      "▁kn": 588,
      "▁out": 589,
      "ore": 590,
      "▁what": 591,
      "▁is": 592,
      "▁up": 593,
      "ust": 594,
      "rou": 595,
      "ri": 596,
      "ome": 597,
      "▁have": 598,
      "▁said": 599,
      "▁whe": 600,
      "▁they": 601,
      "▁no": 602,
      "hing": 603,
      "ard": 604,
      "▁this": 605,
      "▁ch": 606,
      "▁from": 607,
      "ec": 608,
      "▁did": 609,
      "▁su": 610,
      "▁go": 611,
      "▁ab": 612,
      "ra": 613,
      "king": 614,
      "▁le": 615,
      "nt": 616,
      "ie": 617,
      "▁all": 618,
      "one": 619,
      "us": 620,
      "▁al": 621,
      "▁int": 622,
      "▁could": 623,
      "ind": 624,
      "▁v": 625,
      "▁loo": 626,
      "▁were": 627,
      "▁back": 628,
      "▁would": 629,
      "ge": 630,
      "hed": 631,
      "▁like": 632,
      "ess": 633,
      "▁if": 634,
      "art": 635,
      "own": 636,
      "▁one": 637,
      "un": 638,
      "▁there": 639,
      "▁cl": 640,
      "el": 641,
      "ood": 642,
      "▁sp": 643,
      "qu": 644,
      "▁con": 645,
      "ss": 646,
      "▁just": 647,
      "and": 648,
      "▁'d": 649,
      "ast": 650,
      "ab": 651,
      "▁into": 652,
      "▁ag": 653,
      "au": 654,
      "ide": 655,
      "▁when": 656,
      "▁ex": 657,
      "▁wor": 658,
      "▁know": 659,
      "ry": 660,
      "▁about": 661,
      "▁ro": 662,
      "ers": 663,
      "ace": 664,
      "our": 665,
      "ally": 666,
      "ake": 667,
      "ck": 668,
      "▁hand": 669,
      "▁or": 670,
      "▁then": 671,
      "▁bl": 672,
      "▁see": 673,
      "um": 674,
      "op": 675,
      "ell": 676,
      "▁them": 677,
      "ted": 678,
      "way": 679,
      "▁want": 680,
      "▁your": 681,
      "ul": 682,
      "▁over": 683,
      "▁any": 684,
      "▁are": 685,
      "ong": 686,
      "▁de": 687,
      "very": 688,
      "▁been": 689,
      "est": 690,
      "▁ey": 691,
      "ate": 692,
      "ven": 693,
      "▁get": 694,
      "▁sm": 695,
      "▁tim": 696,
      "ap": 697,
      "lf": 698,
      "▁se": 699,
      "▁pl": 700,
      "▁down": 701,
      "ist": 702,
      "▁lo": 703,
      "▁some": 704,
      "▁too": 705,
      "▁mo": 706,
      "▁co": 707,
      "ig": 708,
      "ame": 709,
      "▁bo": 710,
      "if": 711,
      "▁again": 712,
      "urn": 713,
      "are": 714,
      "▁thou": 715,
      "round": 716,
      "▁com": 717,
      "▁who": 718,
      "ice": 719,
      "ation": 720,
      "▁man": 721,
      "▁off": 722,
      "▁!": 723,
      "▁ar": 724,
      "ink": 725,
      "▁now": 726,
      "▁br": 727,
      "▁time": 728,
      "▁how": 729,
      "▁fl": 730,
      "ous": 731,
      "▁by": 732,
      "▁eyes": 733,
      "▁po": 734,
      "ag": 735,
      "ive": 736,
      "ew": 737,
      "▁us": 738,
      "▁head": 739,
      "▁qu": 740,
      "▁more": 741,
      "ine": 742,
      "ull": 743,
      "ick": 744,
      "▁'m": 745,
      "▁can": 746,
      "▁sl": 747,
      "ting": 748,
      "▁ac": 749,
      "ak": 750,
      "pped": 751,
      "ther": 752,
      "▁sc": 753,
      "ered": 754,
      "▁tr": 755,
      "ound": 756,
      "th": 757,
      "os": 758,
      "▁tw": 759,
      "other": 760,
      "▁than": 761,
      "▁un": 762,
      "self": 763,
      "▁their": 764,
      "led": 765,
      "ved": 766,
      "▁even": 767,
      "fore": 768,
      "▁way": 769,
      "▁af": 770,
      "▁im": 771,
      "ile": 772,
      "▁en": 773,
      "ear": 774,
      "▁before": 775,
      "ire": 776,
      "▁gr": 777,
      "dd": 778,
      "▁around": 779,
      "▁every": 780,
      "▁will": 781,
      "ort": 782,
      "reat": 783,
      "ass": 784,
      "▁say": 785,
      "..": 786,
      "ure": 787,
      "▁going": 788,
      "▁other": 789,
      "▁...": 790,
      "▁here": 791,
      "ving": 792,
      "▁pre": 793,
      "em": 794,
      "▁pro": 795,
      "nder": 796,
      "▁right": 797,
      "▁som": 798,
      "fe": 799,
      "▁somet": 800,
      "rough": 801,
      "▁think": 802,
      "ade": 803,
      "▁only": 804,
      "▁turn": 805,
      "▁through": 806,
      "▁bec": 807,
      "▁'re": 808,
      "ep": 809,
      "▁need": 810,
      "ip": 811,
      "▁gl": 812,
      "▁looked": 813,
      "ft": 814,
      "ol": 815,
      "ose": 816,
      "▁look": 817,
      "tle": 818,
      "▁thought": 819,
      "ect": 820,
      "▁let": 821,
      "▁should": 822,
      "▁thing": 823,
      "▁sw": 824,
      "ward": 825,
      "iss": 826,
      "▁away": 827,
      "▁still": 828,
      "▁after": 829,
      "▁pr": 830,
      "ite": 831,
      "ling": 832,
      "eep": 833,
      "▁gu": 834,
      "thing": 835,
      "▁something": 836,
      "▁face": 837,
      "▁door": 838,
      "ont": 839,
      "▁mu": 840,
      "▁am": 841,
      "pl": 842,
      "ff": 843,
      "ity": 844,
      "ies": 845,
      "ause": 846,
      "▁good": 847,
      "▁long": 848,
      "act": 849,
      "▁never": 850,
      "ang": 851,
      "ened": 852,
      "dy": 853,
      "▁wat": 854,
      "▁fee": 855,
      "ach": 856,
      "ared": 857,
      "iz": 858,
      "▁wa": 859,
      "▁op": 860,
      "▁bet": 861,
      "ble": 862,
      "▁got": 863,
      "▁lit": 864,
      "▁asked": 865,
      "ct": 866,
      "▁'ll": 867,
      "able": 868,
      "▁where": 869,
      "▁che": 870,
      "▁well": 871,
      "ark": 872,
      "ue": 873,
      "ated": 874,
      "ond": 875,
      "wn": 876,
      "▁two": 877,
      "ance": 878,
      "med": 879,
      "▁car": 880,
      "ich": 881,
      "▁made": 882,
      "ched": 883,
      "▁much": 884,
      "ave": 885,
      "ree": 886,
      "▁why": 887,
      "▁arm": 888,
      "▁fo": 889,
      "ious": 890,
      "▁our": 891,
      "ment": 892,
      "▁fir": 893,
      "▁tell": 894,
      "▁because": 895,
      "▁rem": 896,
      "age": 897,
      "▁knew": 898,
      "▁room": 899,
      "▁dis": 900,
      "aking": 901,
      "ath": 902,
      "▁little": 903,
      "▁mom": 904,
      "▁under": 905,
      "ough": 906,
      "ning": 907,
      "ady": 908,
      "▁pe": 909,
      "side": 910,
      "▁ho": 911,
      "▁day": 912,
      "▁make": 913,
      "ather": 914,
      "ty": 915,
      "▁come": 916,
      "ru": 917,
      "▁take": 918,
      "gg": 919,
      "▁cont": 920,
      "elt": 921,
      "▁te": 922,
      "▁happ": 923,
      "▁wal": 924,
      "▁call": 925,
      "ks": 926,
      "ried": 927,
      "ress": 928,
      "▁may": 929,
      "▁first": 930,
      "be": 931,
      "▁em": 932,
      "ber": 933,
      "ase": 934,
      "▁vo": 935,
      "air": 936,
      "▁its": 937,
      "▁felt": 938,
      "ves": 939,
      "▁sure": 940,
      "▁start": 941,
      "▁ca": 942,
      "▁hands": 943,
      "▁jo": 944,
      "ied": 945,
      "ans": 946,
      "▁'ve": 947,
      "▁tal": 948,
      "ah": 949,
      "▁cr": 950,
      "▁wanted": 951,
      "▁pull": 952,
      "▁hel": 953,
      "▁took": 954,
      "de": 955,
      "▁turned": 956,
      "ps": 957,
      "▁;": 958,
      "te": 959,
      "▁bot": 960,
      "▁el": 961,
      "▁app": 962,
      "per": 963,
      "▁really": 964,
      "▁night": 965,
      "▁sk": 966,
      "▁des": 967,
      "▁mar": 968,
      "▁per": 969,
      "▁try": 970,
      "ild": 971,
      "ily": 972,
      "▁sec": 973,
      "ence": 974,
      "▁against": 975,
      "▁voice": 976,
      "ia": 977,
      "▁has": 978,
      "▁sur": 979,
      "uck": 980,
      "pt": 981,
      "▁part": 982,
      "ds": 983,
      "▁bel": 984,
      "ple": 985,
      "▁ad": 986,
      "▁fin": 987,
      "▁hard": 988,
      "anc": 989,
      "▁left": 990,
      "▁real": 991,
      "▁peop": 992,
      "▁-": 993,
      "▁beh": 994,
      "ens": 995,
      "▁very": 996,
      "▁came": 997,
      "▁told": 998,
      "▁cou": 999,
      "▁people": 1000,
      "▁feel": 1001,
      "▁another": 1002,
      "bb": 1003,
      "▁last": 1004,
      "▁which": 1005,
      "owed": 1006,
      "▁put": 1007,
      "ise": 1008,
      "ook": 1009,
      "ish": 1010,
      "ears": 1011,
      "▁side": 1012,
      "ross": 1013,
      "▁wo": 1014,
      "▁while": 1015,
      "▁life": 1016,
      "▁body": 1017,
      "▁wom": 1018,
      "▁wait": 1019,
      "▁find": 1020,
      "▁few": 1021,
      "▁help": 1022,
      "av": 1023,
      "▁res": 1024,
      "▁sn": 1025,
      "ful": 1026,
      "▁anything": 1027,
      "ren": 1028,
      "▁fe": 1029,
      "▁moment": 1030,
      "az": 1031,
      "▁gra": 1032,
      "ned": 1033,
      "hes": 1034,
      "▁being": 1035,
      "▁new": 1036,
      "get": 1037,
      "▁breat": 1038,
      "▁war": 1039,
      "een": 1040,
      "▁nothing": 1041,
      "▁behind": 1042,
      "les": 1043,
      "▁ph": 1044,
      "▁own": 1045,
      "▁yes": 1046,
      "ions": 1047,
      "▁keep": 1048,
      "▁str": 1049,
      "▁unt": 1050,
      "xt": 1051,
      "▁enough": 1052,
      "▁toward": 1053,
      "▁went": 1054,
      "▁lau": 1055,
      "▁att": 1056,
      "▁does": 1057,
      "▁light": 1058,
      "▁mat": 1059,
      "▁might": 1060,
      "ouse": 1061,
      "▁saw": 1062,
      "▁wr": 1063,
      "▁bed": 1064,
      "sh": 1065,
      "igh": 1066,
      "▁bu": 1067,
      "▁beg": 1068,
      "▁dr": 1069,
      "▁clos": 1070,
      "▁dark": 1071,
      "▁sound": 1072,
      "▁exp": 1073,
      "▁things": 1074,
      "▁love": 1075,
      "▁until": 1076,
      "▁gir": 1077,
      "ways": 1078,
      "outh": 1079,
      "▁hu": 1080,
      "▁cle": 1081,
      "▁though": 1082,
      "▁ever": 1083,
      "▁hair": 1084,
      "▁mind": 1085,
      "▁those": 1086,
      "▁set": 1087,
      "▁maybe": 1088,
      "▁stu": 1089,
      "ching": 1090,
      "ail": 1091,
      "ys": 1092,
      "▁open": 1093,
      "ost": 1094,
      "ince": 1095,
      "int": 1096,
      "▁dec": 1097,
      "▁old": 1098,
      "ness": 1099,
      "▁fing": 1100,
      "▁end": 1101,
      "▁once": 1102,
      "orm": 1103,
      "ord": 1104,
      "▁ent": 1105,
      "ream": 1106,
      "▁most": 1107,
      "▁care": 1108,
      "ons": 1109,
      "iend": 1110,
      "amp": 1111,
      "▁both": 1112,
      "ne": 1113,
      "uc": 1114,
      "aring": 1115,
      "ool": 1116,
      "▁friend": 1117,
      "▁girl": 1118,
      "▁always": 1119,
      "▁ste": 1120,
      "ner": 1121,
      "dded": 1122,
      "▁next": 1123,
      "▁looking": 1124,
      "▁place": 1125,
      "ower": 1126,
      "▁sil": 1127,
      "▁sat": 1128,
      "ian": 1129,
      "▁hold": 1130,
      "▁cur": 1131,
      "▁min": 1132,
      "▁smil": 1133,
      "▁inside": 1134,
      "▁mouth": 1135,
      "▁house": 1136,
      "row": 1137,
      "▁kill": 1138,
      "▁ear": 1139,
      "▁found": 1140,
      "▁run": 1141,
      "▁front": 1142,
      "▁home": 1143,
      "▁:": 1144,
      "▁ple": 1145,
      "▁inst": 1146,
      "▁sit": 1147,
      "rew": 1148,
      "ating": 1149,
      "▁without": 1150,
      "▁ass": 1151,
      "▁act": 1152,
      "▁heart": 1153,
      "▁oh": 1154,
      "▁rel": 1155,
      "aw": 1156,
      "▁same": 1157,
      "ory": 1158,
      "ually": 1159,
      "▁rest": 1160,
      "▁work": 1161,
      "▁everything": 1162,
      "▁himself": 1163,
      "▁bit": 1164,
      "▁blood": 1165,
      "▁imp": 1166,
      "▁someone": 1167,
      "**": 1168,
      "▁stand": 1169,
      "▁small": 1170,
      "▁sho": 1171,
      "less": 1172,
      "ary": 1173,
      "▁ser": 1174,
      "sw": 1175,
      "▁woman": 1176,
      "▁hop": 1177,
      "ier": 1178,
      "▁trying": 1179,
      "▁heard": 1180,
      "▁better": 1181,
      "▁pulled": 1182,
      "▁arms": 1183,
      "▁ok": 1184,
      "ange": 1185,
      "ween": 1186,
      "▁cor": 1187,
      "ng": 1188,
      "▁each": 1189,
      "▁gi": 1190,
      "▁cour": 1191,
      "▁between": 1192,
      "▁dra": 1193,
      "ised": 1194,
      "▁ret": 1195,
      "▁father": 1196,
      "▁rec": 1197,
      "▁give": 1198,
      "▁flo": 1199,
      "▁mean": 1200,
      "▁wind": 1201,
      "▁seemed": 1202,
      "▁kiss": 1203,
      "▁mother": 1204,
      "end": 1205,
      "ung": 1206,
      "▁since": 1207,
      "▁deep": 1208,
      "pping": 1209,
      "▁answ": 1210,
      "▁smile": 1211,
      "▁second": 1212,
      "▁far": 1213,
      "▁black": 1214,
      "tain": 1215,
      "most": 1216,
      "▁bre": 1217,
      "▁across": 1218,
      "▁sto": 1219,
      "ably": 1220,
      "▁z": 1221,
      "ial": 1222,
      "▁fam": 1223,
      "ready": 1224,
      "▁myself": 1225,
      "used": 1226,
      "▁hur": 1227,
      "▁pain": 1228,
      "▁stop": 1229,
      "▁already": 1230,
      "ret": 1231,
      "aught": 1232,
      "▁pass": 1233,
      "ever": 1234,
      "▁started": 1235,
      "▁dri": 1236,
      "▁gave": 1237,
      "▁quick": 1238,
      "ump": 1239,
      "▁reac": 1240,
      "iv": 1241,
      "cked": 1242,
      "ict": 1243,
      "▁breath": 1244,
      "▁almost": 1245,
      "▁dont": 1246,
      "▁sle": 1247,
      "▁years": 1248,
      "▁must": 1249,
      "▁stood": 1250,
      "▁stay": 1251,
      "▁belie": 1252,
      "ix": 1253,
      "ank": 1254,
      "▁three": 1255,
      "so": 1256,
      "▁men": 1257,
      "▁kind": 1258,
      "▁else": 1259,
      "▁comp": 1260,
      "▁remem": 1261,
      "▁done": 1262,
      "ors": 1263,
      "▁dro": 1264,
      "▁air": 1265,
      "▁wall": 1266,
      "▁foll": 1267,
      "ible": 1268,
      "▁doing": 1269,
      "▁mor": 1270,
      "to": 1271,
      "▁okay": 1272,
      "gether": 1273,
      "▁tried": 1274,
      "umb": 1275,
      "og": 1276,
      "▁lips": 1277,
      "▁ob": 1278,
      "▁hell": 1279,
      "▁tra": 1280,
      "▁walked": 1281,
      "▁close": 1282,
      "▁words": 1283,
      "▁world": 1284,
      "▁tou": 1285,
      "▁big": 1286,
      "▁ed": 1287,
      "▁ev": 1288,
      "ater": 1289,
      "▁bar": 1290,
      "▁slow": 1291,
      "▁hum": 1292,
      "ane": 1293,
      "ized": 1294,
      "▁nodded": 1295,
      "▁together": 1296,
      "▁feet": 1297,
      "▁sig": 1298,
      "▁lot": 1299,
      "▁minut": 1300,
      "pr": 1301,
      "ense": 1302,
      "▁mon": 1303,
      "▁didnt": 1304,
      "ushed": 1305,
      "iet": 1306,
      "ph": 1307,
      "▁held": 1308,
      "ured": 1309,
      "▁ye": 1310,
      "▁seen": 1311,
      "▁many": 1312,
      "▁met": 1313,
      "▁miss": 1314,
      "rent": 1315,
      "ten": 1316,
      "▁these": 1317,
      "▁near": 1318,
      "▁underst": 1319,
      "▁quest": 1320,
      "ash": 1321,
      "ully": 1322,
      "ger": 1323,
      "▁dif": 1324,
      "▁ra": 1325,
      "▁gre": 1326,
      "▁hear": 1327,
      "▁supp": 1328,
      "ud": 1329,
      "▁ma": 1330,
      "ason": 1331,
      "irt": 1332,
      "▁feeling": 1333,
      "▁sim": 1334,
      "▁whis": 1335,
      "icked": 1336,
      "▁pers": 1337,
      "inking": 1338,
      "gs": 1339,
      "day": 1340,
      "no": 1341,
      "▁water": 1342,
      "▁play": 1343,
      "▁yet": 1344,
      "▁sor": 1345,
      "▁rep": 1346,
      "▁says": 1347,
      "ib": 1348,
      "ows": 1349,
      "▁move": 1350,
      "▁talk": 1351,
      "akes": 1352,
      "ently": 1353,
      "▁bad": 1354,
      "▁expl": 1355,
      "▁leave": 1356,
      "here": 1357,
      "▁smiled": 1358,
      "ained": 1359,
      "▁inc": 1360,
      "▁mr": 1361,
      "▁floor": 1362,
      "ced": 1363,
      "ither": 1364,
      "ub": 1365,
      "▁gone": 1366,
      "owing": 1367,
      "gged": 1368,
      "▁aw": 1369,
      "▁great": 1370,
      "▁dam": 1371,
      "▁herself": 1372,
      "▁table": 1373,
      "▁step": 1374,
      "▁acc": 1375,
      "▁fingers": 1376,
      "▁eas": 1377,
      "ying": 1378,
      "▁past": 1379,
      "ention": 1380,
      "▁began": 1381,
      "▁chest": 1382,
      "▁needed": 1383,
      "▁char": 1384,
      "bo": 1385,
      "▁prob": 1386,
      "ny": 1387,
      "▁dist": 1388,
      "vers": 1389,
      "ished": 1390,
      "aced": 1391,
      "▁conf": 1392,
      "▁spe": 1393,
      "▁also": 1394,
      "ected": 1395,
      "▁name": 1396,
      "▁hour": 1397,
      "▁shook": 1398,
      "ering": 1399,
      "▁squ": 1400,
      "▁getting": 1401,
      "ept": 1402,
      "▁along": 1403,
      "▁half": 1404,
      "ately": 1405,
      "▁soon": 1406,
      "▁bro": 1407,
      "▁fore": 1408,
      "ings": 1409,
      "▁course": 1410,
      "▁ben": 1411,
      "▁yeah": 1412,
      "▁soft": 1413,
      "▁coming": 1414,
      "▁called": 1415,
      "dden": 1416,
      "▁finally": 1417,
      "▁bus": 1418,
      "▁tre": 1419,
      "▁fall": 1420,
      "▁red": 1421,
      "vel": 1422,
      "▁ide": 1423,
      "ek": 1424,
      "▁pa": 1425,
      "▁probably": 1426,
      "ical": 1427,
      "▁child": 1428,
      "ipped": 1429,
      "▁sudden": 1430,
      "▁such": 1431,
      "sp": 1432,
      "ined": 1433,
      "▁dead": 1434,
      "▁lean": 1435,
      "der": 1436,
      "▁least": 1437,
      "▁fre": 1438,
      "▁comm": 1439,
      "▁happened": 1440,
      "▁moved": 1441,
      "up": 1442,
      "▁inv": 1443,
      "▁god": 1444,
      "▁best": 1445,
      "na": 1446,
      "▁stra": 1447,
      "▁pat": 1448,
      "▁cra": 1449,
      "▁contin": 1450,
      "▁return": 1451,
      "▁poss": 1452,
      "ush": 1453,
      "▁ter": 1454,
      "▁reached": 1455,
      "▁high": 1456,
      "▁person": 1457,
      "▁believe": 1458,
      "ms": 1459,
      "▁sorry": 1460,
      "▁resp": 1461,
      "▁es": 1462,
      "▁eye": 1463,
      "▁later": 1464,
      "▁stopped": 1465,
      "▁gaz": 1466,
      "▁phone": 1467,
      "bbed": 1468,
      "▁skin": 1469,
      "▁fire": 1470,
      "▁swe": 1471,
      "▁tight": 1472,
      "idd": 1473,
      "▁making": 1474,
      "▁surpr": 1475,
      "▁ask": 1476,
      "ition": 1477,
      "▁dem": 1478,
      "▁jack": 1479,
      "▁opened": 1480,
      "▁col": 1481,
      "ove": 1482,
      "▁meet": 1483,
      "▁anyone": 1484,
      "ged": 1485,
      "▁press": 1486,
      "▁boy": 1487,
      "▁ap": 1488,
      "ired": 1489,
      "▁hor": 1490,
      "▁used": 1491,
      "▁ran": 1492,
      "▁family": 1493,
      "▁list": 1494,
      "▁remember": 1495,
      "▁understand": 1496,
      "tered": 1497,
      "▁sleep": 1498,
      "ual": 1499,
      "▁white": 1500,
      "ister": 1501,
      "▁inf": 1502,
      "▁everyone": 1503,
      "▁inter": 1504,
      "iously": 1505,
      "▁idea": 1506,
      "ided": 1507,
      "▁dire": 1508,
      "▁hot": 1509,
      "ening": 1510,
      "▁plan": 1511,
      "▁taking": 1512,
      "arent": 1513,
      "▁brother": 1514,
      "▁lar": 1515,
      "▁hit": 1516,
      "hen": 1517,
      "fully": 1518,
      "▁shoulder": 1519,
      "head": 1520,
      "room": 1521,
      "▁diffe": 1522,
      "▁bes": 1523,
      "▁1": 1524,
      "▁forward": 1525,
      "ction": 1526,
      "▁ground": 1527,
      "▁mag": 1528,
      "ins": 1529,
      "aps": 1530,
      "▁morning": 1531,
      "▁fact": 1532,
      "cept": 1533,
      "▁fight": 1534,
      "▁neck": 1535,
      "▁glanc": 1536,
      "▁kept": 1537,
      "▁point": 1538,
      "▁har": 1539,
      "▁cat": 1540,
      "▁power": 1541,
      "▁cut": 1542,
      "ere": 1543,
      "▁hurt": 1544,
      "▁matter": 1545,
      "▁read": 1546,
      "▁ru": 1547,
      "▁dad": 1548,
      "aut": 1549,
      "▁comple": 1550,
      "▁reg": 1551,
      "▁young": 1552,
      "▁quiet": 1553,
      "ertain": 1554,
      "▁conc": 1555,
      "▁quickly": 1556,
      "▁top": 1557,
      "▁repl": 1558,
      "▁clear": 1559,
      "▁days": 1560,
      "▁perf": 1561,
      "oke": 1562,
      "ton": 1563,
      "ued": 1564,
      "▁vis": 1565,
      "▁prot": 1566,
      "aken": 1567,
      "lo": 1568,
      "▁par": 1569,
      "▁roll": 1570,
      "▁guy": 1571,
      "▁slowly": 1572,
      "▁able": 1573,
      "ize": 1574,
      "ents": 1575,
      "ount": 1576,
      "▁use": 1577,
      "▁alone": 1578,
      "▁exc": 1579,
      "▁onto": 1580,
      "▁wrong": 1581,
      "▁del": 1582,
      "iness": 1583,
      "▁lea": 1584,
      "▁having": 1585,
      "▁thinking": 1586,
      "▁disc": 1587,
      "▁closed": 1588,
      "uth": 1589,
      "▁laugh": 1590,
      "▁ready": 1591,
      "▁cap": 1592,
      "▁cons": 1593,
      "▁stared": 1594,
      "ike": 1595,
      "▁mine": 1596,
      "▁full": 1597,
      "▁sun": 1598,
      "▁please": 1599,
      "▁talking": 1600,
      "ically": 1601,
      "▁fell": 1602,
      "▁question": 1603,
      "ead": 1604,
      "▁det": 1605,
      "where": 1606,
      "▁dress": 1607,
      "▁watched": 1608,
      "app": 1609,
      "cc": 1610,
      "▁either": 1611,
      "▁sch": 1612,
      "▁thro": 1613,
      "▁pol": 1614,
      "▁minutes": 1615,
      "▁coll": 1616,
      "mm": 1617,
      "-f": 1618,
      "▁whisp": 1619,
      "▁mem": 1620,
      "▁ref": 1621,
      "airs": 1622,
      "▁beaut": 1623,
      "▁id": 1624,
      "▁bab": 1625,
      "▁pret": 1626,
      "▁fig": 1627,
      "▁fine": 1628,
      "▁outside": 1629,
      "▁actually": 1630,
      "▁tri": 1631,
      "ult": 1632,
      "▁cal": 1633,
      "▁chap": 1634,
      "▁ty": 1635,
      "ghed": 1636,
      "▁wonder": 1637,
      "▁four": 1638,
      "▁hall": 1639,
      "▁dou": 1640,
      "night": 1641,
      "ets": 1642,
      "▁lif": 1643,
      "▁unc": 1644,
      "▁suddenly": 1645,
      "▁stre": 1646,
      "itc": 1647,
      "ped": 1648,
      "▁guess": 1649,
      "▁pur": 1650,
      "▁cold": 1651,
      "▁ill": 1652,
      "▁vamp": 1653,
      "▁fill": 1654,
      "▁gaze": 1655,
      "ife": 1656,
      "oney": 1657,
      "▁lou": 1658,
      "▁lost": 1659,
      "▁word": 1660,
      "▁glass": 1661,
      "-b": 1662,
      "▁mus": 1663,
      "▁ele": 1664,
      "▁hope": 1665,
      "▁reason": 1666,
      "▁hes": 1667,
      "▁mur": 1668,
      "▁low": 1669,
      "▁standing": 1670,
      "man": 1671,
      "▁prom": 1672,
      "▁different": 1673,
      "▁pres": 1674,
      "▁bur": 1675,
      "▁times": 1676,
      "▁walk": 1677,
      "ations": 1678,
      "▁whole": 1679,
      "▁short": 1680,
      "iver": 1681,
      "▁caught": 1682,
      "▁land": 1683,
      "ax": 1684,
      "▁pretty": 1685,
      "▁sy": 1686,
      "▁kid": 1687,
      "ips": 1688,
      "-t": 1689,
      "rie": 1690,
      "io": 1691,
      "▁exact": 1692,
      "ey": 1693,
      "▁er": 1694,
      "ides": 1695,
      "ased": 1696,
      "inted": 1697,
      "▁chapter": 1698,
      "▁instead": 1699,
      "▁answer": 1700,
      "▁laughed": 1701,
      "▁waiting": 1702,
      "▁grin": 1703,
      "▁thank": 1704,
      "▁break": 1705,
      "▁fur": 1706,
      "fort": 1707,
      "▁complete": 1708,
      "ames": 1709,
      "eth": 1710,
      "▁death": 1711,
      "▁friends": 1712,
      "osed": 1713,
      "▁lay": 1714,
      "▁blue": 1715,
      "ures": 1716,
      "▁warm": 1717,
      "▁others": 1718,
      "▁vampire": 1719,
      "▁taken": 1720,
      "▁build": 1721,
      "▁ago": 1722,
      "▁free": 1723,
      "▁shot": 1724,
      "eared": 1725,
      "als": 1726,
      "uring": 1727,
      "▁scream": 1728,
      "rought": 1729,
      "ards": 1730,
      "▁looks": 1731,
      "▁legs": 1732,
      "▁show": 1733,
      "ited": 1734,
      "▁je": 1735,
      "▁throat": 1736,
      "▁certain": 1737,
      "▁meant": 1738,
      "enty": 1739,
      "ken": 1740,
      "▁clot": 1741,
      "▁ins": 1742,
      "▁imag": 1743,
      "▁whispered": 1744,
      "▁tom": 1745,
      "▁strong": 1746,
      "▁school": 1747,
      "▁fun": 1748,
      "▁glanced": 1749,
      "▁ale": 1750,
      "iding": 1751,
      "▁def": 1752,
      "▁bare": 1753,
      "▁ang": 1754,
      "▁burn": 1755,
      "▁gen": 1756,
      "▁straight": 1757,
      "▁window": 1758,
      "▁bring": 1759,
      "▁perfect": 1760,
      "-c": 1761,
      "▁brought": 1762,
      "▁ind": 1763,
      "▁human": 1764,
      "eks": 1765,
      "▁sam": 1766,
      "▁gun": 1767,
      "rol": 1768,
      "▁cho": 1769,
      "▁whatever": 1770,
      "ters": 1771,
      "unt": 1772,
      "▁less": 1773,
      "▁count": 1774,
      "acked": 1775,
      "▁foot": 1776,
      "▁sex": 1777,
      "▁seat": 1778,
      "▁*": 1779,
      "▁chr": 1780,
      "▁shut": 1781,
      "ming": 1782,
      "▁holding": 1783,
      "▁sent": 1784,
      "▁mess": 1785,
      "▁large": 1786,
      "by": 1787,
      "▁sign": 1788,
      "▁stepped": 1789,
      "▁adm": 1790,
      "ates": 1791,
      "▁exactly": 1792,
      "▁dream": 1793,
      "▁sister": 1794,
      "▁sever": 1795,
      "land": 1796,
      "ik": 1797,
      "▁touch": 1798,
      "iful": 1799,
      "▁quite": 1800,
      "▁leaned": 1801,
      "▁watch": 1802,
      "zy": 1803,
      "▁disapp": 1804,
      "▁sense": 1805,
      "▁sitting": 1806,
      "▁watching": 1807,
      "ale": 1808,
      "▁sub": 1809,
      "ular": 1810,
      "▁shit": 1811,
      "▁realized": 1812,
      "ield": 1813,
      "▁cry": 1814,
      "▁happy": 1815,
      "▁entire": 1816,
      "▁cross": 1817,
      "▁fear": 1818,
      "anger": 1819,
      "▁lead": 1820,
      "ock": 1821,
      "ird": 1822,
      "anged": 1823,
      "▁bat": 1824,
      "▁chair": 1825,
      "lt": 1826,
      "ression": 1827,
      "▁followed": 1828,
      "▁bra": 1829,
      "▁running": 1830,
      "▁nice": 1831,
      "▁finger": 1832,
      "▁five": 1833,
      "▁hours": 1834,
      "▁closer": 1835,
      "br": 1836,
      "orn": 1837,
      "▁wood": 1838,
      "▁several": 1839,
      "▁grabbed": 1840,
      "▁continued": 1841,
      "▁shru": 1842,
      "ants": 1843,
      "iced": 1844,
      "▁replied": 1845,
      "apped": 1846,
      "▁true": 1847,
      "ison": 1848,
      "▁luc": 1849,
      "▁job": 1850,
      "▁cent": 1851,
      "▁win": 1852,
      "ape": 1853,
      "▁mad": 1854,
      "oy": 1855,
      "▁na": 1856,
      "aster": 1857,
      "-s": 1858,
      "irc": 1859,
      "otion": 1860,
      "▁beautiful": 1861,
      "erest": 1862,
      "▁attention": 1863,
      "read": 1864,
      "▁pushed": 1865,
      "▁thr": 1866,
      "▁deal": 1867,
      "▁youre": 1868,
      "▁line": 1869,
      "aces": 1870,
      "▁chance": 1871,
      "▁longer": 1872,
      "its": 1873,
      "aged": 1874,
      "▁wra": 1875,
      "▁beside": 1876,
      "enc": 1877,
      "▁damn": 1878,
      "▁trust": 1879,
      "▁la": 1880,
      "▁mr.": 1881,
      "-w": 1882,
      "ient": 1883,
      "▁saying": 1884,
      "▁baby": 1885,
      "▁ten": 1886,
      "▁appro": 1887,
      "▁yell": 1888,
      "▁tonight": 1889,
      "ze": 1890,
      "▁speak": 1891,
      "▁shoulders": 1892,
      "▁hung": 1893,
      "▁interest": 1894,
      "▁heav": 1895,
      "isted": 1896,
      "▁today": 1897,
      "▁six": 1898,
      "▁month": 1899,
      "▁din": 1900,
      "▁lear": 1901,
      "▁)": 1902,
      "▁stom": 1903,
      "haps": 1904,
      "▁sky": 1905,
      "▁apart": 1906,
      "▁stru": 1907,
      "▁eng": 1908,
      "▁town": 1909,
      "▁safe": 1910,
      "▁pap": 1911,
      "▁proble": 1912,
      "▁living": 1913,
      "▁tem": 1914,
      "gan": 1915,
      "▁sing": 1916,
      "▁money": 1917,
      "▁bag": 1918,
      "▁pri": 1919,
      "▁slight": 1920,
      "▁change": 1921,
      "▁sweet": 1922,
      "▁moving": 1923,
      "▁given": 1924,
      "▁circ": 1925,
      "ina": 1926,
      "ift": 1927,
      "▁(": 1928,
      "▁case": 1929,
      "ime": 1930,
      "▁grand": 1931,
      "▁perhaps": 1932,
      "▁fast": 1933,
      "oth": 1934,
      "▁sens": 1935,
      "▁control": 1936,
      "▁dev": 1937,
      "ines": 1938,
      "▁tears": 1939,
      "▁av": 1940,
      "▁ir": 1941,
      "▁shad": 1942,
      "ject": 1943,
      "itchen": 1944,
      "▁pal": 1945,
      "ars": 1946,
      "▁kitchen": 1947,
      "▁road": 1948,
      "▁smell": 1949,
      "▁thats": 1950,
      "▁wasnt": 1951,
      "▁parent": 1952,
      "inc": 1953,
      "oc": 1954,
      "▁ve": 1955,
      "▁ig": 1956,
      "▁son": 1957,
      "▁live": 1958,
      "▁dropped": 1959,
      "▁rose": 1960,
      "▁add": 1961,
      "ls": 1962,
      "▁couple": 1963,
      "▁known": 1964,
      "▁leaving": 1965,
      "▁loved": 1966,
      "antly": 1967,
      "ma": 1968,
      "▁mil": 1969,
      "▁dep": 1970,
      "tend": 1971,
      "ially": 1972,
      "▁bene": 1973,
      "▁above": 1974,
      "bed": 1975,
      "▁office": 1976,
      "iff": 1977,
      "▁decided": 1978,
      "▁hon": 1979,
      "▁jump": 1980,
      "▁truth": 1981,
      "▁eff": 1982,
      "▁year": 1983,
      "ror": 1984,
      "ster": 1985,
      "▁women": 1986,
      "-h": 1987,
      "▁rock": 1988,
      "ones": 1989,
      "▁form": 1990,
      "▁gri": 1991,
      "▁business": 1992,
      "▁shirt": 1993,
      "▁nor": 1994,
      "-l": 1995,
      "▁esc": 1996,
      "▁pet": 1997,
      "▁tor": 1998,
      "▁sort": 1999,
      "arr": 2000,
      "▁f**": 2001,
      "▁spec": 2002,
      "▁city": 2003,
      "▁street": 2004,
      "▁cre": 2005,
      "▁alex": 2006,
      "ility": 2007,
      "▁mir": 2008,
      "▁nat": 2009,
      "▁doub": 2010,
      "ots": 2011,
      "imes": 2012,
      "iew": 2013,
      "▁emp": 2014,
      "ashed": 2015,
      "la": 2016,
      "ising": 2017,
      "▁obv": 2018,
      "ident": 2019,
      "ief": 2020,
      "sel": 2021,
      "▁creat": 2022,
      "iny": 2023,
      "body": 2024,
      "▁anyway": 2025,
      "pe": 2026,
      "▁spoke": 2027,
      "▁green": 2028,
      "ply": 2029,
      "▁passed": 2030,
      "▁stomach": 2031,
      "▁working": 2032,
      "oun": 2033,
      "▁completely": 2034,
      "▁lifted": 2035,
      "▁dan": 2036,
      "unch": 2037,
      "ought": 2038,
      "arth": 2039,
      "els": 2040,
      "▁drink": 2041,
      "▁parents": 2042,
      "▁silence": 2043,
      "▁mut": 2044,
      "▁raised": 2045,
      "▁worry": 2046,
      "▁arri": 2047,
      "▁gas": 2048,
      "vered": 2049,
      "ection": 2050,
      "ience": 2051,
      "▁bright": 2052,
      "▁seeing": 2053,
      "▁pay": 2054,
      "▁corner": 2055,
      "▁ner": 2056,
      "▁begin": 2057,
      "▁pict": 2058,
      "▁twenty": 2059,
      "▁trou": 2060,
      "▁filled": 2061,
      "▁frown": 2062,
      "▁king": 2063,
      "▁rather": 2064,
      "▁late": 2065,
      "▁forg": 2066,
      "▁shar": 2067,
      "▁staring": 2068,
      "▁secret": 2069,
      "▁guys": 2070,
      "uss": 2071,
      "▁sar": 2072,
      "▁walking": 2073,
      "gth": 2074,
      "ndred": 2075,
      "▁expression": 2076,
      "▁supposed": 2077,
      "medi": 2078,
      "▁pos": 2079,
      "▁killed": 2080,
      "▁exper": 2081,
      "aining": 2082,
      "▁makes": 2083,
      "▁book": 2084,
      "▁happen": 2085,
      "▁immedi": 2086,
      "ging": 2087,
      "acing": 2088,
      "▁edge": 2089,
      "▁food": 2090,
      "light": 2091,
      "lly": 2092,
      "▁mist": 2093,
      "▁within": 2094,
      "ann": 2095,
      "▁shout": 2096,
      "▁die": 2097,
      "hel": 2098,
      "▁crow": 2099,
      "▁gar": 2100,
      "▁hang": 2101,
      "▁abs": 2102,
      "▁knowing": 2103,
      "▁picked": 2104,
      "ushing": 2105,
      "ric": 2106,
      "ony": 2107,
      "▁teeth": 2108,
      "ley": 2109,
      "▁ext": 2110,
      "▁da": 2111,
      "▁coff": 2112,
      "▁nearly": 2113,
      "▁building": 2114,
      "any": 2115,
      "▁norm": 2116,
      "▁sighed": 2117,
      "▁jul": 2118,
      "▁yourself": 2119,
      "▁hundred": 2120,
      "▁christ": 2121,
      "▁conn": 2122,
      "raid": 2123,
      "▁pleas": 2124,
      "ute": 2125,
      "▁coun": 2126,
      "▁grow": 2127,
      "ilt": 2128,
      "▁cant": 2129,
      "▁sear": 2130,
      "▁cam": 2131,
      "▁wond": 2132,
      "▁week": 2133,
      "▁wide": 2134,
      "▁girls": 2135,
      "▁mark": 2136,
      "old": 2137,
      "▁tong": 2138,
      "▁guard": 2139,
      "▁joh": 2140,
      "▁draw": 2141,
      "uff": 2142,
      "son": 2143,
      "▁stuff": 2144,
      "▁convers": 2145,
      "▁thoughts": 2146,
      "▁towards": 2147,
      "▁afraid": 2148,
      "▁upon": 2149,
      "ator": 2150,
      "▁couldnt": 2151,
      "▁thanks": 2152,
      "let": 2153,
      "▁box": 2154,
      "▁cla": 2155,
      "▁gro": 2156,
      "▁danger": 2157,
      "itch": 2158,
      "▁giving": 2159,
      "▁clean": 2160,
      "ern": 2161,
      "▁noticed": 2162,
      "▁turning": 2163,
      "▁possible": 2164,
      "▁easy": 2165,
      "▁clothes": 2166,
      "▁enj": 2167,
      "▁send": 2168,
      "▁seem": 2169,
      "more": 2170,
      "▁returned": 2171,
      "ches": 2172,
      "▁adv": 2173,
      "▁foc": 2174,
      "▁waited": 2175,
      "▁susp": 2176,
      "▁2": 2177,
      "▁jer": 2178,
      "▁eat": 2179,
      "ler": 2180,
      "▁gold": 2181,
      "ug": 2182,
      "▁sight": 2183,
      "▁loud": 2184,
      "pted": 2185,
      "ees": 2186,
      "▁thick": 2187,
      "zz": 2188,
      "▁stud": 2189,
      "▁opp": 2190,
      "▁drive": 2191,
      "▁worked": 2192,
      "▁grou": 2193,
      "▁occ": 2194,
      "▁kissed": 2195,
      "ists": 2196,
      "▁rolled": 2197,
      "▁beneath": 2198,
      "mb": 2199,
      "▁luck": 2200,
      "unk": 2201,
      "▁sad": 2202,
      "▁become": 2203,
      "irty": 2204,
      "▁story": 2205,
      "▁sal": 2206,
      "erg": 2207,
      "umber": 2208,
      "▁pressed": 2209,
      "▁shrugged": 2210,
      "▁pointed": 2211,
      "iddle": 2212,
      "ien": 2213,
      "▁stro": 2214,
      "▁trans": 2215,
      "ains": 2216,
      "▁barely": 2217,
      "▁except": 2218,
      "▁john": 2219,
      "▁telling": 2220,
      "▁import": 2221,
      "▁strange": 2222,
      "od": 2223,
      "▁direct": 2224,
      "▁clim": 2225,
      "▁spot": 2226,
      "ili": 2227,
      "▁dest": 2228,
      "▁ce": 2229,
      "bs": 2230,
      "▁leg": 2231,
      "aled": 2232,
      "▁loc": 2233,
      "▁desk": 2234,
      "ign": 2235,
      "▁wondered": 2236,
      "pid": 2237,
      "▁children": 2238,
      "▁tongue": 2239,
      "▁gray": 2240,
      "olog": 2241,
      "ments": 2242,
      "▁remind": 2243,
      "▁empty": 2244,
      "▁ann": 2245,
      "▁sometimes": 2246,
      "-and": 2247,
      "-m": 2248,
      "▁answered": 2249,
      "▁surprised": 2250,
      "▁ord": 2251,
      "▁agre": 2252,
      "▁pick": 2253,
      "▁coffee": 2254,
      "▁figure": 2255,
      "rief": 2256,
      "▁cheek": 2257,
      "▁mer": 2258,
      "how": 2259,
      "use": 2260,
      "▁immediately": 2261,
      "▁slid": 2262,
      "▁minute": 2263,
      "▁pock": 2264,
      "▁hey": 2265,
      "▁problem": 2266,
      "s.": 2267,
      "▁lu": 2268,
      "▁sou": 2269,
      "▁knows": 2270,
      "▁led": 2271,
      "ities": 2272,
      "▁ball": 2273,
      "▁wife": 2274,
      "▁class": 2275,
      "ider": 2276,
      "though": 2277,
      "umbled": 2278,
      "▁during": 2279,
      "▁middle": 2280,
      "icking": 2281,
      "▁spr": 2282,
      "amed": 2283,
      "▁sol": 2284,
      "ories": 2285,
      "▁bill": 2286,
      "▁changed": 2287,
      "▁heavy": 2288,
      "▁appeared": 2289,
      "▁terri": 2290,
      "cess": 2291,
      "selves": 2292,
      "▁stupid": 2293,
      "▁art": 2294,
      "▁order": 2295,
      "▁crowd": 2296,
      "ices": 2297,
      "-d": 2298,
      "▁bath": 2299,
      "orrow": 2300,
      "▁earth": 2301,
      "▁doubt": 2302,
      "▁months": 2303,
      "aded": 2304,
      "▁sel": 2305,
      "▁stone": 2306,
      "▁stri": 2307,
      "▁sir": 2308,
      "▁admit": 2309,
      "▁nose": 2310,
      "▁conversation": 2311,
      "action": 2312,
      "▁died": 2313,
      "▁although": 2314,
      "▁wearing": 2315,
      "▁lady": 2316,
      "▁aff": 2317,
      "▁calm": 2318,
      "▁inform": 2319,
      "▁pulling": 2320,
      "▁pan": 2321,
      "▁however": 2322,
      "▁cover": 2323,
      "▁anymore": 2324,
      "▁fle": 2325,
      "▁pack": 2326,
      "▁simply": 2327,
      "▁vict": 2328,
      "▁hers": 2329,
      "▁liked": 2330,
      "▁steps": 2331,
      "▁bott": 2332,
      "▁smo": 2333,
      "▁number": 2334,
      "▁main": 2335,
      "ship": 2336,
      "iece": 2337,
      "ha": 2338,
      "▁med": 2339,
      "▁sounded": 2340,
      "▁fair": 2341,
      "▁throw": 2342,
      "▁--": 2343,
      "▁slightly": 2344,
      "▁finished": 2345,
      "▁gener": 2346,
      "▁knees": 2347,
      "ement": 2348,
      "ery": 2349,
      "▁shif": 2350,
      "▁wish": 2351,
      "▁became": 2352,
      "▁ring": 2353,
      "▁tall": 2354,
      "aughter": 2355,
      "iting": 2356,
      "▁cell": 2357,
      "▁lim": 2358,
      "▁alive": 2359,
      "bered": 2360,
      "▁bas": 2361,
      "▁round": 2362,
      "▁covered": 2363,
      "▁ble": 2364,
      "▁check": 2365,
      "▁paper": 2366,
      "▁attack": 2367,
      "▁rele": 2368,
      "pec": 2369,
      "▁softly": 2370,
      "ogn": 2371,
      "▁hed": 2372,
      "▁none": 2373,
      "ision": 2374,
      "ork": 2375,
      "▁cool": 2376,
      "ude": 2377,
      "▁tast": 2378,
      "▁group": 2379,
      "yl": 2380,
      "▁sand": 2381,
      "▁direction": 2382,
      "▁spent": 2383,
      "▁conv": 2384,
      "ital": 2385,
      "ert": 2386,
      "ively": 2387,
      "▁force": 2388,
      "▁important": 2389,
      "▁ur": 2390,
      "▁desp": 2391,
      "▁musc": 2392,
      "▁sounds": 2393,
      "▁space": 2394,
      "ues": 2395,
      "▁cop": 2396,
      "iling": 2397,
      "▁ke": 2398,
      "▁added": 2399,
      "▁lord": 2400,
      "▁fly": 2401,
      "bbing": 2402,
      "▁bedroom": 2403,
      "▁den": 2404,
      "cking": 2405,
      "iled": 2406,
      "tern": 2407,
      "▁ahead": 2408,
      "▁tomorrow": 2409,
      "▁protect": 2410,
      "▁surprise": 2411,
      "▁weeks": 2412,
      "▁dinner": 2413,
      "▁somehow": 2414,
      "▁forget": 2415,
      "▁wants": 2416,
      "▁reach": 2417,
      "▁beat": 2418,
      "▁ange": 2419,
      "▁nick": 2420,
      "▁recogn": 2421,
      "▁worse": 2422,
      "▁quietly": 2423,
      "▁tiny": 2424,
      "▁mount": 2425,
      "▁touched": 2426,
      "▁trouble": 2427,
      "▁cast": 2428,
      "▁drew": 2429,
      "▁somewhere": 2430,
      "▁crazy": 2431,
      "▁hesit": 2432,
      "ney": 2433,
      "▁sold": 2434,
      "▁ones": 2435,
      "hered": 2436,
      "▁police": 2437,
      "▁lie": 2438,
      "pecially": 2439,
      "▁jen": 2440,
      "▁follow": 2441,
      "▁prof": 2442,
      "▁single": 2443,
      "▁hus": 2444,
      "▁broken": 2445,
      "▁tone": 2446,
      "▁gently": 2447,
      "▁threat": 2448,
      "▁swall": 2449,
      "▁broke": 2450,
      "band": 2451,
      "▁boo": 2452,
      "ctor": 2453,
      "my": 2454,
      "▁glad": 2455,
      "▁earl": 2456,
      "▁seconds": 2457,
      "▁summ": 2458,
      "sed": 2459,
      "▁cas": 2460,
      "ails": 2461,
      "-p": 2462,
      "sing": 2463,
      "vous": 2464,
      "teen": 2465,
      "▁kids": 2466,
      "▁wild": 2467,
      "▁darkness": 2468,
      "▁headed": 2469,
      "▁worried": 2470,
      "▁fif": 2471,
      "▁stairs": 2472,
      "▁squee": 2473,
      "co": 2474,
      "▁remembered": 2475,
      "oring": 2476,
      "▁brown": 2477,
      "▁bey": 2478,
      "▁wrapped": 2479,
      "▁state": 2480,
      "▁demand": 2481,
      "▁heat": 2482,
      "▁area": 2483,
      "▁comfort": 2484,
      "itely": 2485,
      "the": 2486,
      "▁rich": 2487,
      "▁doors": 2488,
      "▁sick": 2489,
      "▁weap": 2490,
      "rence": 2491,
      "▁beyond": 2492,
      "▁ign": 2493,
      "▁managed": 2494,
      "▁especially": 2495,
      "▁silent": 2496,
      "▁weak": 2497,
      "orted": 2498,
      "▁van": 2499,
      "▁eight": 2500,
      "▁prep": 2501,
      "▁questions": 2502,
      "▁tow": 2503,
      "▁pract": 2504,
      "ara": 2505,
      "▁paused": 2506,
      "ached": 2507,
      "▁command": 2508,
      "▁hun": 2509,
      "▁fav": 2510,
      "▁threw": 2511,
      "▁anger": 2512,
      "gr": 2513,
      "▁situ": 2514,
      "▁law": 2515,
      "▁mel": 2516,
      "▁walls": 2517,
      "▁means": 2518,
      "▁sigh": 2519,
      "▁ive": 2520,
      "▁huge": 2521,
      "ior": 2522,
      "▁trees": 2523,
      "▁ash": 2524,
      "▁information": 2525,
      "▁offic": 2526,
      "ibly": 2527,
      "▁seems": 2528,
      "▁placed": 2529,
      "gging": 2530,
      "▁cab": 2531,
      "▁stare": 2532,
      "▁stret": 2533,
      "▁sugg": 2534,
      "▁scr": 2535,
      "▁mill": 2536,
      "▁magic": 2537,
      "ages": 2538,
      "▁view": 2539,
      "▁rid": 2540,
      "▁daughter": 2541,
      "▁lip": 2542,
      "▁spl": 2543,
      "att": 2544,
      "▁val": 2545,
      "▁news": 2546,
      "▁expected": 2547,
      "▁mention": 2548,
      "oss": 2549,
      "▁game": 2550,
      "▁comes": 2551,
      "▁ris": 2552,
      "▁enjoy": 2553,
      "ica": 2554,
      "▁angry": 2555,
      "osp": 2556,
      "▁gotten": 2557,
      "▁wound": 2558,
      "ael": 2559,
      "ining": 2560,
      "ored": 2561,
      "▁shaking": 2562,
      "aint": 2563,
      "▁meeting": 2564,
      "ances": 2565,
      "▁serious": 2566,
      "▁distance": 2567,
      "ination": 2568,
      "▁catch": 2569,
      "▁brief": 2570,
      "▁lying": 2571,
      "▁tree": 2572,
      "▁spread": 2573,
      "▁pocket": 2574,
      "oof": 2575,
      "▁event": 2576,
      "ipp": 2577,
      "▁wed": 2578,
      "▁listen": 2579,
      "▁early": 2580,
      "▁ry": 2581,
      "▁position": 2582,
      "▁self": 2583,
      "zed": 2584,
      "▁'i": 2585,
      "▁priv": 2586,
      "▁bull": 2587,
      "▁party": 2588,
      "▁carry": 2589,
      "▁dar": 2590,
      "ific": 2591,
      "▁path": 2592,
      "▁sett": 2593,
      "wh": 2594,
      "▁piece": 2595,
      "ipping": 2596,
      "▁jaw": 2597,
      "using": 2598,
      "▁smiling": 2599,
      "▁dav": 2600,
      "▁waist": 2601,
      "▁chuck": 2602,
      "▁slam": 2603,
      "▁arg": 2604,
      "▁ship": 2605,
      "▁forced": 2606,
      "aped": 2607,
      "▁sharp": 2608,
      "▁tired": 2609,
      "▁gent": 2610,
      "▁promise": 2611,
      "fic": 2612,
      "▁wet": 2613,
      "▁hide": 2614,
      "ky": 2615,
      "igg": 2616,
      "▁enc": 2617,
      "esh": 2618,
      "▁pee": 2619,
      "▁defin": 2620,
      "▁murm": 2621,
      "▁bir": 2622,
      "▁rain": 2623,
      "riend": 2624,
      "▁eyeb": 2625,
      "▁bottom": 2626,
      "▁respond": 2627,
      "▁drag": 2628,
      "▁tot": 2629,
      "ecting": 2630,
      "▁serv": 2631,
      "sy": 2632,
      "▁clearly": 2633,
      "ics": 2634,
      "▁agreed": 2635,
      "▁surround": 2636,
      "cious": 2637,
      "aling": 2638,
      "ested": 2639,
      "▁strugg": 2640,
      "sand": 2641,
      "ene": 2642,
      "▁toss": 2643,
      "▁spend": 2644,
      "▁relax": 2645,
      "▁nervous": 2646,
      "▁desper": 2647,
      "vent": 2648,
      "rec": 2649,
      "▁blank": 2650,
      "▁snapped": 2651,
      "▁anim": 2652,
      "▁pen": 2653,
      "▁often": 2654,
      "oming": 2655,
      "▁save": 2656,
      "iliar": 2657,
      "▁fut": 2658,
      "▁ell": 2659,
      "▁chin": 2660,
      "▁below": 2661,
      "▁grace": 2662,
      "▁const": 2663,
      "▁fit": 2664,
      "▁keeping": 2665,
      "▁expect": 2666,
      "▁choice": 2667,
      "▁bal": 2668,
      "▁pun": 2669,
      "▁surv": 2670,
      "▁fuck": 2671,
      "▁further": 2672,
      "▁mis": 2673,
      "▁hate": 2674,
      "▁thousand": 2675,
      "▁forgot": 2676,
      "▁compl": 2677,
      "-sh": 2678,
      "▁und": 2679,
      "▁cond": 2680,
      "▁takes": 2681,
      "▁stren": 2682,
      "▁reve": 2683,
      "▁whether": 2684,
      "▁max": 2685,
      "▁husband": 2686,
      "▁ge": 2687,
      "▁ver": 2688,
      "▁bell": 2689,
      "▁boys": 2690,
      "▁flat": 2691,
      "▁mass": 2692,
      "▁pleasure": 2693,
      "▁earlier": 2694,
      "▁truck": 2695,
      "▁attem": 2696,
      "reen": 2697,
      "▁playing": 2698,
      "▁using": 2699,
      "▁lock": 2700,
      "lic": 2701,
      "▁vi": 2702,
      "imed": 2703,
      "▁partic": 2704,
      "▁amaz": 2705,
      "▁bathroom": 2706,
      "▁odd": 2707,
      "▁ant": 2708,
      "▁slipped": 2709,
      "▁grinned": 2710,
      "▁worth": 2711,
      "erm": 2712,
      "▁obviously": 2713,
      "▁star": 2714,
      "▁sword": 2715,
      "▁locked": 2716,
      "▁evening": 2717,
      "aked": 2718,
      "▁repe": 2719,
      "tering": 2720,
      "▁normal": 2721,
      "▁lights": 2722,
      "▁thin": 2723,
      "▁demon": 2724,
      "▁incl": 2725,
      "▁situation": 2726,
      "idence": 2727,
      "▁letting": 2728,
      "▁requ": 2729,
      "▁arrived": 2730,
      "▁asking": 2731,
      "▁honest": 2732,
      "▁team": 2733,
      "▁pu": 2734,
      "than": 2735,
      "cent": 2736,
      "▁shall": 2737,
      "iam": 2738,
      "▁eyebrow": 2739,
      "▁crossed": 2740,
      "▁emb": 2741,
      "▁ice": 2742,
      "▁jumped": 2743,
      "▁dry": 2744,
      "ping": 2745,
      "▁apartment": 2746,
      "▁apparent": 2747,
      "▁frowned": 2748,
      "ats": 2749,
      "▁invol": 2750,
      "▁explain": 2751,
      "▁bow": 2752,
      "▁pound": 2753,
      "▁bod": 2754,
      "▁carefully": 2755,
      "▁muttered": 2756,
      "▁mid": 2757,
      "▁wip": 2758,
      "▁cheeks": 2759,
      "▁hoping": 2760,
      "▁lap": 2761,
      "ucked": 2762,
      "▁camp": 2763,
      "ishing": 2764,
      "cho": 2765,
      "▁center": 2766,
      "▁coo": 2767,
      "▁rad": 2768,
      "ote": 2769,
      "▁realize": 2770,
      "▁showed": 2771,
      "▁dog": 2772,
      "▁fold": 2773,
      "right": 2774,
      "▁obs": 2775,
      "▁assum": 2776,
      "▁lived": 2777,
      "▁hoped": 2778,
      "▁shed": 2779,
      "▁music": 2780,
      "▁james": 2781,
      "▁mrs.": 2782,
      "▁glance": 2783,
      "▁wolf": 2784,
      "▁jake": 2785,
      "▁laughing": 2786,
      "set": 2787,
      "▁breathing": 2788,
      "▁certainly": 2789,
      "▁spir": 2790,
      "▁gentle": 2791,
      "▁lose": 2792,
      "▁imagine": 2793,
      "▁picture": 2794,
      "▁themselves": 2795,
      "▁dim": 2796,
      "ative": 2797,
      "usted": 2798,
      "▁soul": 2799,
      "ager": 2800,
      "▁ears": 2801,
      "▁grew": 2802,
      "▁strength": 2803,
      "▁tu": 2804,
      "▁band": 2805,
      "▁dressed": 2806,
      "▁hen": 2807,
      "▁weight": 2808,
      "ob": 2809,
      "ault": 2810,
      "me": 2811,
      "▁track": 2812,
      "▁cup": 2813,
      "▁whisper": 2814,
      "▁silver": 2815,
      "aned": 2816,
      "▁notice": 2817,
      "▁favor": 2818,
      "▁jon": 2819,
      "▁wore": 2820,
      "▁super": 2821,
      "rian": 2822,
      "go": 2823,
      "fer": 2824,
      "▁fix": 2825,
      "fied": 2826,
      "era": 2827,
      "owers": 2828,
      "▁snow": 2829,
      "roll": 2830,
      "▁brain": 2831,
      "cy": 2832,
      "elle": 2833,
      "uct": 2834,
      "▁despite": 2835,
      "▁cass": 2836,
      "▁doctor": 2837,
      "kes": 2838,
      "▁queen": 2839,
      "▁scared": 2840,
      "▁clou": 2841,
      "yed": 2842,
      "▁offered": 2843,
      "▁hosp": 2844,
      "ja": 2845,
      "▁visit": 2846,
      "▁fail": 2847,
      "▁definitely": 2848,
      "▁beginning": 2849,
      "▁talked": 2850,
      "▁future": 2851,
      "▁ol": 2852,
      "▁captain": 2853,
      "▁shoot": 2854,
      "▁charl": 2855,
      "▁usually": 2856,
      "▁energ": 2857,
      "▁firm": 2858,
      "▁color": 2859,
      "▁lower": 2860,
      "▁avo": 2861,
      "aul": 2862,
      "▁cand": 2863,
      "▁field": 2864,
      "▁handle": 2865,
      "▁special": 2866,
      "▁mich": 2867,
      "▁tun": 2868,
      "ope": 2869,
      "▁test": 2870,
      "ressed": 2871,
      "orge": 2872,
      "▁besides": 2873,
      "▁len": 2874,
      "-the": 2875,
      "▁lives": 2876,
      "ract": 2877,
      "▁easily": 2878,
      "▁familiar": 2879,
      "▁forehead": 2880,
      "zen": 2881,
      "▁key": 2882,
      "▁battle": 2883,
      "▁shouted": 2884,
      "▁helped": 2885,
      "▁motion": 2886,
      "▁deser": 2887,
      "▁memory": 2888,
      "▁wel": 2889,
      "come": 2890,
      "▁gest": 2891,
      "▁allowed": 2892,
      "ges": 2893,
      "idden": 2894,
      "▁stayed": 2895,
      "ding": 2896,
      "▁entered": 2897,
      "▁knife": 2898,
      "▁pair": 2899,
      "▁remained": 2900,
      "▁fem": 2901,
      "ural": 2902,
      "▁forever": 2903,
      "▁fighting": 2904,
      "▁aware": 2905,
      "▁appear": 2906,
      "▁handed": 2907,
      "▁pot": 2908,
      "▁mal": 2909,
      "▁itself": 2910,
      "▁pill": 2911,
      "▁age": 2912,
      "▁metal": 2913,
      "▁wouldnt": 2914,
      "ask": 2915,
      "▁counter": 2916,
      "▁relation": 2917,
      "▁ethan": 2918,
      "▁tar": 2919,
      "▁simple": 2920,
      "ott": 2921,
      "▁needs": 2922,
      "▁jud": 2923,
      "rit": 2924,
      "▁fresh": 2925,
      "▁dangerous": 2926,
      "▁jam": 2927,
      "▁among": 2928,
      "▁shock": 2929,
      "▁crack": 2930,
      "▁neither": 2931,
      "asing": 2932,
      "▁phot": 2933,
      "uly": 2934,
      "▁cried": 2935,
      "res": 2936,
      "▁rac": 2937,
      "inked": 2938,
      "▁scar": 2939,
      "▁missed": 2940,
      "▁moon": 2941,
      "▁vampires": 2942,
      "▁push": 2943,
      "▁don": 2944,
      "▁effort": 2945,
      "yle": 2946,
      "ises": 2947,
      "▁david": 2948,
      "▁aside": 2949,
      "▁horse": 2950,
      "▁gets": 2951,
      "▁surf": 2952,
      "▁company": 2953,
      "▁suff": 2954,
      "▁phys": 2955,
      "over": 2956,
      "▁ah": 2957,
      "▁diffic": 2958,
      "vern": 2959,
      "▁flesh": 2960,
      "▁equ": 2961,
      "▁hospital": 2962,
      "▁pub": 2963,
      "▁ow": 2964,
      "ived": 2965,
      "you": 2966,
      "inct": 2967,
      "noon": 2968,
      "ession": 2969,
      "rig": 2970,
      "ana": 2971,
      "▁pale": 2972,
      "▁willing": 2973,
      "▁contact": 2974,
      "▁destro": 2975,
      "▁proper": 2976,
      "▁f**king": 2977,
      "▁falling": 2978,
      "▁sweat": 2979,
      "▁note": 2980,
      "▁older": 2981,
      "▁energy": 2982,
      "▁adam": 2983,
      "izing": 2984,
      "ayed": 2985,
      "▁scent": 2986,
      "iel": 2987,
      "▁level": 2988,
      "▁court": 2989,
      "▁stick": 2990,
      "cted": 2991,
      "▁lad": 2992,
      "▁gh": 2993,
      "▁shadow": 2994,
      "▁jeans": 2995,
      "usion": 2996,
      "▁pin": 2997,
      "▁drop": 2998,
      "▁personal": 2999,
      "-th": 3000,
      "que": 3001,
      "▁burst": 3002,
      "cing": 3003,
      "ries": 3004,
      "▁desire": 3005,
      "▁explained": 3006,
      "▁married": 3007,
      "▁asks": 3008,
      "lin": 3009,
      "▁park": 3010,
      "▁emotion": 3011,
      "idge": 3012,
      "▁following": 3013,
      "▁frey": 3014,
      "▁store": 3015,
      "▁gon": 3016,
      "illed": 3017,
      "▁suit": 3018,
      "▁hated": 3019,
      "▁port": 3020,
      "▁wanting": 3021,
      "▁kat": 3022,
      "▁fa": 3023,
      "▁master": 3024,
      "pper": 3025,
      "▁mike": 3026,
      "▁moments": 3027,
      "▁afternoon": 3028,
      "▁river": 3029,
      "▁une": 3030,
      "ration": 3031,
      "▁couch": 3032,
      "▁learned": 3033,
      "oned": 3034,
      "▁present": 3035,
      "acy": 3036,
      "▁gab": 3037,
      "▁prov": 3038,
      "▁fro": 3039,
      "▁particular": 3040,
      "▁hat": 3041,
      "cri": 3042,
      "▁putting": 3043,
      "ives": 3044,
      "▁treat": 3045,
      "▁apparently": 3046,
      "▁lab": 3047,
      "olute": 3048,
      "urity": 3049,
      "▁pop": 3050,
      "▁imm": 3051,
      "▁thirty": 3052,
      "▁shower": 3053,
      "▁fil": 3054,
      "▁relief": 3055,
      "▁wondering": 3056,
      "▁drove": 3057,
      "▁discuss": 3058,
      "▁dom": 3059,
      "udd": 3060,
      "ron": 3061,
      "stairs": 3062,
      "▁spo": 3063,
      "▁mot": 3064,
      "▁goes": 3065,
      "▁shake": 3066,
      "▁nar": 3067,
      "▁danc": 3068,
      "▁turns": 3069,
      "▁rob": 3070,
      "▁opening": 3071,
      "▁matt": 3072,
      "overed": 3073,
      "ucking": 3074,
      "for": 3075,
      "▁settled": 3076,
      "▁grim": 3077,
      "00": 3078,
      "▁blond": 3079,
      "▁heal": 3080,
      "▁speed": 3081,
      "▁noise": 3082,
      "▁stuck": 3083,
      "▁busy": 3084,
      "▁likely": 3085,
      "▁dear": 3086,
      "▁dr.": 3087,
      "amb": 3088,
      "line": 3089,
      "▁understood": 3090,
      "▁pretend": 3091,
      "▁thigh": 3092,
      "▁pi": 3093,
      "▁escape": 3094,
      "▁windows": 3095,
      "ston": 3096,
      "▁carried": 3097,
      "ashing": 3098,
      "▁starting": 3099,
      "▁hanging": 3100,
      "▁jason": 3101,
      "▁hol": 3102,
      "▁screamed": 3103,
      "▁ride": 3104,
      "▁calling": 3105,
      "▁hips": 3106,
      "▁hill": 3107,
      "▁disappeared": 3108,
      "▁books": 3109,
      "▁pant": 3110,
      "▁third": 3111,
      "▁fool": 3112,
      "▁hunt": 3113,
      "▁rh": 3114,
      "▁knee": 3115,
      "-g": 3116,
      "▁learn": 3117,
      "▁figured": 3118,
      "▁theres": 3119,
      "▁maj": 3120,
      "▁viol": 3121,
      "▁bottle": 3122,
      "▁ta": 3123,
      "astic": 3124,
      "▁michael": 3125,
      "ulous": 3126,
      "▁determ": 3127,
      "▁shifted": 3128,
      "ended": 3129,
      "▁tele": 3130,
      "▁bent": 3131,
      "▁date": 3132,
      "▁study": 3133,
      "ils": 3134,
      "asm": 3135,
      "▁mary": 3136,
      "▁ended": 3137,
      "▁imposs": 3138,
      "rupt": 3139,
      "▁mirror": 3140,
      "▁missing": 3141,
      "▁happening": 3142,
      "▁powerful": 3143,
      "▁screen": 3144,
      "▁hea": 3145,
      "ocked": 3146,
      "▁grip": 3147,
      "▁absolute": 3148,
      "▁bodies": 3149,
      "▁wake": 3150,
      "▁rece": 3151,
      "▁murmured": 3152,
      "onse": 3153,
      "▁hallway": 3154,
      "▁echo": 3155,
      "▁careful": 3156,
      "▁lets": 3157,
      "▁jos": 3158,
      "▁fort": 3159,
      "▁poor": 3160,
      "▁dust": 3161,
      "▁taste": 3162,
      "▁unless": 3163,
      "▁eventually": 3164,
      "▁belong": 3165,
      "▁wear": 3166,
      "▁summer": 3167,
      "ius": 3168,
      "▁pants": 3169,
      "▁zane": 3170,
      "▁speaking": 3171,
      "rac": 3172,
      "▁hy": 3173,
      "ution": 3174,
      "▁comput": 3175,
      "▁security": 3176,
      "-st": 3177,
      "▁peace": 3178,
      "▁guards": 3179,
      "▁freyja": 3180,
      "▁flash": 3181,
      "iers": 3182,
      "arm": 3183,
      "▁forest": 3184,
      "▁exam": 3185,
      "▁difficult": 3186,
      "▁truly": 3187,
      "▁dance": 3188,
      "▁twisted": 3189,
      "▁bast": 3190,
      "▁hist": 3191,
      "▁wid": 3192,
      "▁harder": 3193,
      "▁dru": 3194,
      "▁share": 3195,
      "▁cru": 3196,
      "rance": 3197,
      "ole": 3198,
      "▁ari": 3199,
      "ians": 3200,
      "oved": 3201,
      "▁thumb": 3202,
      "leep": 3203,
      "stem": 3204,
      "▁3": 3205,
      "val": 3206,
      "▁offer": 3207,
      "▁sleeping": 3208,
      "▁humans": 3209,
      "like": 3210,
      "▁rachel": 3211,
      "▁club": 3212,
      "▁pul": 3213,
      "▁weird": 3214,
      "▁sea": 3215,
      "▁relationship": 3216,
      "men": 3217,
      "▁yours": 3218,
      "▁tens": 3219,
      "▁country": 3220,
      "aff": 3221,
      "▁pink": 3222,
      "vy": 3223,
      "▁peter": 3224,
      "ency": 3225,
      "▁jess": 3226,
      "▁horri": 3227,
      "bert": 3228,
      "▁inde": 3229,
      "▁mort": 3230,
      "▁yelled": 3231,
      "▁nod": 3232,
      "▁smoke": 3233,
      "rid": 3234,
      "▁storm": 3235,
      "inting": 3236,
      "port": 3237,
      "▁doesnt": 3238,
      "▁focus": 3239,
      "sidered": 3240,
      "▁hunter": 3241,
      "par": 3242,
      "▁pushing": 3243,
      "▁response": 3244,
      "▁swallowed": 3245,
      "ified": 3246,
      "▁lucky": 3247,
      "▁laid": 3248,
      "▁system": 3249,
      "▁palm": 3250,
      "▁grab": 3251,
      "▁tear": 3252,
      "▁usual": 3253,
      "-a": 3254,
      "▁uncle": 3255,
      "▁seven": 3256,
      "attered": 3257,
      "▁dig": 3258,
      "miss": 3259,
      "-n": 3260,
      "▁jes": 3261,
      "▁x": 3262,
      "▁leather": 3263,
      "▁station": 3264,
      "atic": 3265,
      "▁blind": 3266,
      "▁message": 3267,
      "▁ways": 3268,
      "▁clen": 3269,
      "▁places": 3270,
      "▁writ": 3271,
      "ading": 3272,
      "▁enem": 3273,
      "▁bother": 3274,
      "▁shes": 3275,
      "umped": 3276,
      "▁sav": 3277,
      "▁card": 3278,
      "▁considered": 3279,
      "▁mov": 3280,
      "▁growing": 3281,
      "unity": 3282,
      "athan": 3283,
      "rod": 3284,
      "▁hadnt": 3285,
      "▁satis": 3286,
      "ledge": 3287,
      "ses": 3288,
      "▁sof": 3289,
      "ball": 3290,
      "anda": 3291,
      "▁asleep": 3292,
      "▁trip": 3293,
      "▁finding": 3294,
      "▁wine": 3295,
      "▁aunt": 3296,
      "▁smooth": 3297,
      "▁rough": 3298,
      "▁defe": 3299,
      "▁est": 3300,
      "▁seriously": 3301,
      "▁waved": 3302,
      "▁reading": 3303,
      "▁funny": 3304,
      "▁leaning": 3305,
      "▁blinked": 3306,
      "▁thom": 3307,
      "▁confused": 3308,
      "▁miles": 3309,
      "ords": 3310,
      "▁obvious": 3311,
      "▁lang": 3312,
      "▁effect": 3313,
      "▁hotel": 3314,
      "▁feelings": 3315,
      "▁frank": 3316,
      "ring": 3317,
      "▁rom": 3318,
      "▁purp": 3319,
      "▁burned": 3320,
      "▁presence": 3321,
      "▁ut": 3322,
      "▁brand": 3323,
      "▁post": 3324,
      "reci": 3325,
      "▁island": 3326,
      "▁stee": 3327,
      "▁burning": 3328,
      "▁craw": 3329,
      "▁ly": 3330,
      "lyn": 3331,
      "▁birth": 3332,
      "▁sarah": 3333,
      "▁vill": 3334,
      "▁rub": 3335,
      "▁anywhere": 3336,
      "▁soph": 3337,
      "arrass": 3338,
      "▁accept": 3339,
      "bby": 3340,
      "▁final": 3341,
      "▁angel": 3342,
      "▁private": 3343,
      "▁north": 3344,
      "▁reminded": 3345,
      "▁embarrass": 3346,
      "▁appreci": 3347,
      "ena": 3348,
      "▁consider": 3349,
      "rated": 3350,
      "▁victor": 3351,
      "ces": 3352,
      "omb": 3353,
      "rest": 3354,
      "▁beth": 3355,
      "▁lunch": 3356,
      "▁shadows": 3357,
      "well": 3358,
      "het": 3359,
      "▁soc": 3360,
      "iot": 3361,
      "▁refle": 3362,
      "▁listening": 3363,
      "▁emma": 3364,
      "▁shop": 3365,
      "▁piss": 3366,
      "icious": 3367,
      "▁var": 3368,
      "▁impossible": 3369,
      "▁suppose": 3370,
      "▁unf": 3371,
      "▁forth": 3372,
      "▁f**k": 3373,
      "▁cabin": 3374,
      "▁frust": 3375,
      "▁rap": 3376,
      "▁faint": 3377,
      "▁directly": 3378,
      "▁hidden": 3379,
      "roud": 3380,
      "▁amer": 3381,
      "▁prison": 3382,
      "▁fallen": 3383,
      "▁believed": 3384,
      "▁elect": 3385,
      "▁feels": 3386,
      "ids": 3387,
      "▁paul": 3388,
      "▁whats": 3389,
      "▁vision": 3390,
      "▁gift": 3391,
      "cher": 3392,
      "urch": 3393,
      "▁allow": 3394,
      "-o": 3395,
      "▁prop": 3396,
      "▁shoved": 3397,
      "▁block": 3398,
      "▁bite": 3399,
      "▁necess": 3400,
      "▁por": 3401,
      "▁shoes": 3402,
      "ounced": 3403,
      "▁mere": 3404,
      "▁narrow": 3405,
      "▁surface": 3406,
      "▁song": 3407,
      "▁mach": 3408,
      "inal": 3409,
      "▁concer": 3410,
      "▁doorway": 3411,
      "▁arr": 3412,
      "▁gard": 3413,
      "▁base": 3414,
      "▁concern": 3415,
      "ury": 3416,
      "▁colle": 3417,
      "▁oppos": 3418,
      "▁seth": 3419,
      "▁demanded": 3420,
      "▁succ": 3421,
      "▁wont": 3422,
      "vin": 3423,
      "▁mic": 3424,
      "▁entrance": 3425,
      "▁evil": 3426,
      "▁trick": 3427,
      "▁jacket": 3428,
      "▁disg": 3429,
      "gar": 3430,
      "▁sides": 3431,
      "▁experience": 3432,
      "▁mart": 3433,
      "▁climbed": 3434,
      "▁grass": 3435,
      "▁extra": 3436,
      "itive": 3437,
      "▁west": 3438,
      "▁male": 3439,
      "▁rubbed": 3440,
      "▁princ": 3441,
      "▁repeated": 3442,
      "und": 3443,
      "▁aud": 3444,
      "uce": 3445,
      "▁finish": 3446,
      "▁includ": 3447,
      "▁faces": 3448,
      "▁spell": 3449,
      "▁aut": 3450,
      "▁bear": 3451,
      "▁vol": 3452,
      "▁capt": 3453,
      "ander": 3454,
      "▁elb": 3455,
      "mer": 3456,
      "▁crying": 3457,
      "aur": 3458,
      "▁fought": 3459,
      "▁memories": 3460,
      "▁cock": 3461,
      "▁approached": 3462,
      "▁loose": 3463,
      "▁warri": 3464,
      "▁doll": 3465,
      "oose": 3466,
      "▁wished": 3467,
      "ai": 3468,
      "▁join": 3469,
      "▁played": 3470,
      "ella": 3471,
      "ety": 3472,
      "▁wave": 3473,
      "what": 3474,
      "▁mac": 3475,
      "▁amazing": 3476,
      "▁faster": 3477,
      "▁breathe": 3478,
      "▁cu": 3479,
      "▁driving": 3480,
      "▁clut": 3481,
      "ades": 3482,
      "ners": 3483,
      "▁cole": 3484,
      "▁uh": 3485,
      "▁totally": 3486,
      "inging": 3487,
      "-e": 3488,
      "riage": 3489,
      "▁nic": 3490,
      "▁slammed": 3491,
      "-to": 3492,
      "▁warning": 3493,
      "lock": 3494,
      "▁jim": 3495,
      "▁lowered": 3496,
      "▁ment": 3497,
      "▁buy": 3498,
      "asion": 3499,
      "oint": 3500,
      "eding": 3501,
      "▁laught": 3502,
      "▁invest": 3503,
      "▁circle": 3504,
      "▁anc": 3505,
      "-in": 3506,
      "▁reaching": 3507,
      "▁nobody": 3508,
      "▁ghost": 3509,
      "icated": 3510,
      "▁du": 3511,
      "▁ian": 3512,
      "▁hearing": 3513,
      "▁buck": 3514,
      "▁muscles": 3515,
      "die": 3516,
      "▁laughter": 3517,
      "▁coat": 3518,
      "▁tossed": 3519,
      "omfort": 3520,
      "bing": 3521,
      "▁involved": 3522,
      "fast": 3523,
      "▁stiff": 3524,
      "▁hardly": 3525,
      "▁feat": 3526,
      "▁hole": 3527,
      "▁beer": 3528,
      "▁apolog": 3529,
      "▁numb": 3530,
      "▁fist": 3531,
      "hood": 3532,
      "▁lung": 3533,
      "▁computer": 3534,
      "▁trail": 3535,
      "▁cleared": 3536,
      "▁unable": 3537,
      "▁inno": 3538,
      "▁thrust": 3539,
      "▁lat": 3540,
      "▁agree": 3541,
      "▁perfectly": 3542,
      "▁wrist": 3543,
      "ns": 3544,
      "board": 3545,
      "▁chase": 3546,
      "▁board": 3547,
      "issa": 3548,
      "eces": 3549,
      "▁south": 3550,
      "▁heads": 3551,
      "▁prod": 3552,
      "mit": 3553,
      "▁church": 3554,
      "yal": 3555,
      "▁rush": 3556,
      "▁continue": 3557,
      "▁interested": 3558,
      "▁possibly": 3559,
      "▁nur": 3560,
      "▁pier": 3561,
      "▁tip": 3562,
      "▁acce": 3563,
      "▁tremb": 3564,
      "▁process": 3565,
      "▁gasped": 3566,
      "▁smart": 3567,
      "▁accom": 3568,
      "▁iss": 3569,
      "oured": 3570,
      "den": 3571,
      "▁hiding": 3572,
      "▁mostly": 3573,
      "▁rul": 3574,
      "▁ordered": 3575,
      "▁image": 3576,
      "▁killing": 3577,
      "▁weapon": 3578,
      "alk": 3579,
      "▁wheel": 3580,
      "▁kicked": 3581,
      "▁rev": 3582,
      "ald": 3583,
      "▁respons": 3584,
      "▁heading": 3585,
      "▁decision": 3586,
      "▁subject": 3587,
      "▁div": 3588,
      "ett": 3589,
      "▁spark": 3590,
      "▁instantly": 3591,
      "▁checked": 3592,
      "▁attempt": 3593,
      "▁twice": 3594,
      "▁brothers": 3595,
      "▁fully": 3596,
      "▁respect": 3597,
      "ibility": 3598,
      "▁ceiling": 3599,
      "▁report": 3600,
      "▁general": 3601,
      "▁gate": 3602,
      "anging": 3603,
      "anted": 3604,
      "rage": 3605,
      "▁incred": 3606,
      "▁swung": 3607,
      "wise": 3608,
      "▁narr": 3609,
      "▁blow": 3610,
      "▁army": 3611,
      "▁gigg": 3612,
      "▁henry": 3613,
      "▁fat": 3614,
      "▁bitch": 3615,
      "ivers": 3616,
      "▁regret": 3617,
      "▁panic": 3618,
      "▁forgotten": 3619,
      "▁tab": 3620,
      "▁brushed": 3621,
      "▁squeezed": 3622,
      "▁rese": 3623,
      "▁gras": 3624,
      "▁promised": 3625,
      "▁tech": 3626,
      "▁beast": 3627,
      "▁yellow": 3628,
      "▁aid": 3629,
      "▁purpose": 3630,
      "▁naked": 3631,
      "allen": 3632,
      "▁igno": 3633,
      "▁anno": 3634,
      "itched": 3635,
      "▁focused": 3636,
      "▁button": 3637,
      "ium": 3638,
      "▁terrible": 3639,
      "▁logan": 3640,
      "▁comfortable": 3641,
      "▁driver": 3642,
      "▁exist": 3643,
      "▁mood": 3644,
      "▁ignored": 3645,
      "▁risk": 3646,
      "▁gut": 3647,
      "essed": 3648,
      "▁thomas": 3649,
      "▁simon": 3650,
      "▁fright": 3651,
      "▁reb": 3652,
      "nel": 3653,
      "▁flew": 3654,
      "▁soldiers": 3655,
      "▁stream": 3656,
      "iety": 3657,
      "lish": 3658,
      "▁female": 3659,
      "▁proud": 3660,
      "▁hi": 3661,
      "eke": 3662,
      "inn": 3663,
      "▁suggest": 3664,
      "acher": 3665,
      "▁concerned": 3666,
      "oll": 3667,
      "-up": 3668,
      "aming": 3669,
      "▁public": 3670,
      "▁inj": 3671,
      "▁paid": 3672,
      "▁amb": 3673,
      "▁claire": 3674,
      "▁joe": 3675,
      "▁jour": 3676,
      "▁wit": 3677,
      "▁neigh": 3678,
      "▁breakfast": 3679,
      "▁born": 3680,
      "▁upset": 3681,
      "▁luke": 3682,
      "▁history": 3683,
      "▁cause": 3684,
      "▁flying": 3685,
      "ague": 3686,
      "▁rising": 3687,
      "bor": 3688,
      "▁non": 3689,
      "▁fault": 3690,
      "▁welcome": 3691,
      "▁lift": 3692,
      "▁lines": 3693,
      "▁beach": 3694,
      "▁pool": 3695,
      "▁scene": 3696,
      "▁blur": 3697,
      "▁rushed": 3698,
      "▁worst": 3699,
      "▁bound": 3700,
      "▁pieces": 3701,
      "▁woods": 3702,
      "▁excited": 3703,
      "▁separ": 3704,
      "▁blade": 3705,
      "-i": 3706,
      "iday": 3707,
      "gn": 3708,
      "▁struck": 3709,
      "▁surely": 3710,
      "▁absolutely": 3711,
      "▁stretched": 3712,
      "omed": 3713,
      "▁gods": 3714,
      "▁bloody": 3715,
      "athered": 3716,
      "▁tightly": 3717,
      "▁parking": 3718,
      "▁**": 3719,
      "▁opposite": 3720,
      "▁wedding": 3721,
      "izz": 3722,
      "bers": 3723,
      "▁iron": 3724,
      "▁dreams": 3725,
      "▁wooden": 3726,
      "▁current": 3727,
      "▁scra": 3728,
      "▁size": 3729,
      "▁jerked": 3730,
      "▁uns": 3731,
      "▁boots": 3732,
      "▁rum": 3733,
      "▁length": 3734,
      "▁comb": 3735,
      "▁boat": 3736,
      "▁honey": 3737,
      "▁hello": 3738,
      "▁cost": 3739,
      "uit": 3740,
      "▁search": 3741,
      "▁elev": 3742,
      "▁plate": 3743,
      "ral": 3744,
      "▁leaves": 3745,
      "▁saf": 3746,
      "▁instinct": 3747,
      "▁daniel": 3748,
      "▁joined": 3749,
      "yer": 3750,
      "▁screaming": 3751,
      "▁excuse": 3752,
      "▁claw": 3753,
      "rel": 3754,
      "▁pad": 3755,
      "▁kick": 3756,
      "but": 3757,
      "ama": 3758,
      "▁steady": 3759,
      "▁joy": 3760,
      "▁harm": 3761,
      "otions": 3762,
      "▁lake": 3763,
      "nded": 3764,
      "▁roof": 3765,
      "annah": 3766,
      "▁train": 3767,
      "▁indeed": 3768,
      "▁breast": 3769,
      "ye": 3770,
      "▁grey": 3771,
      "▁backward": 3772,
      "▁text": 3773,
      "▁plans": 3774,
      "racted": 3775,
      "▁kissing": 3776,
      "▁psy": 3777,
      "une": 3778,
      "house": 3779,
      "▁exha": 3780,
      "▁movement": 3781,
      "ias": 3782,
      "▁breaking": 3783,
      "agged": 3784,
      "illy": 3785,
      "▁curled": 3786,
      "lessly": 3787,
      "ilar": 3788,
      "▁kate": 3789,
      "▁studied": 3790,
      "▁concent": 3791,
      "thy": 3792,
      "▁built": 3793,
      "▁ident": 3794,
      "▁magn": 3795,
      "▁til": 3796,
      "▁descri": 3797,
      "work": 3798,
      "▁tick": 3799,
      "▁spirit": 3800,
      "▁golden": 3801,
      "▁interesting": 3802,
      "▁touching": 3803,
      "ground": 3804,
      "▁emotions": 3805,
      "icate": 3806,
      "▁bones": 3807,
      "▁happens": 3808,
      "anna": 3809,
      "▁dirt": 3810,
      "▁opt": 3811,
      "▁broad": 3812,
      "▁yester": 3813,
      "▁slept": 3814,
      "▁brow": 3815,
      "▁tent": 3816,
      "▁easier": 3817,
      "▁yesterday": 3818,
      "▁knock": 3819,
      "ormed": 3820,
      "▁scan": 3821,
      "▁fren": 3822,
      "asc": 3823,
      "▁ken": 3824,
      "▁creature": 3825,
      "▁ya": 3826,
      "▁released": 3827,
      "▁greet": 3828,
      "▁regard": 3829,
      "▁reaction": 3830,
      "ivered": 3831,
      "ts": 3832,
      "zing": 3833,
      "▁rand": 3834,
      "▁shift": 3835,
      "▁knowledge": 3836,
      "ective": 3837,
      "▁losing": 3838,
      "▁narrowed": 3839,
      "▁caused": 3840,
      "▁prepared": 3841,
      "▁hungry": 3842,
      "ensive": 3843,
      "▁shudd": 3844,
      "▁accident": 3845,
      "ism": 3846,
      "▁decl": 3847,
      "▁mistake": 3848,
      "▁deeper": 3849,
      "▁flashed": 3850,
      "▁dut": 3851,
      "▁guest": 3852,
      "ancy": 3853,
      "▁rang": 3854,
      "▁listened": 3855,
      "▁quar": 3856,
      "▁hig": 3857,
      "▁whose": 3858,
      "▁eric": 3859,
      "▁growled": 3860,
      "▁sha": 3861,
      "friend": 3862,
      "▁fucking": 3863,
      "▁anx": 3864,
      "▁shape": 3865,
      "▁josh": 3866,
      "▁swear": 3867,
      "▁eating": 3868,
      "▁ju": 3869,
      "▁sink": 3870,
      "▁interru": 3871,
      "▁isnt": 3872,
      "▁godd": 3873,
      "▁mix": 3874,
      "uced": 3875,
      "▁decide": 3876,
      "▁gather": 3877,
      "▁sne": 3878,
      "col": 3879,
      "▁support": 3880,
      "unately": 3881,
      "▁prince": 3882,
      "▁ryan": 3883,
      "iley": 3884,
      "▁flight": 3885,
      "▁jamie": 3886,
      "▁thinks": 3887,
      "aret": 3888,
      "▁challen": 3889,
      "▁screw": 3890,
      "▁staying": 3891,
      "▁trave": 3892,
      "we": 3893,
      "por": 3894,
      "▁fier": 3895,
      "▁square": 3896,
      "aly": 3897,
      "uing": 3898,
      "▁hesitated": 3899,
      "▁opport": 3900,
      "▁arch": 3901,
      "▁woke": 3902,
      "▁dying": 3903,
      "▁auth": 3904,
      "▁stun": 3905,
      "▁travel": 3906,
      "▁favorite": 3907,
      "ov": 3908,
      "▁kell": 3909,
      "▁clenched": 3910,
      "nding": 3911,
      "▁shield": 3912,
      "▁engine": 3913,
      "▁searching": 3914,
      "▁smiles": 3915,
      "▁wings": 3916,
      "imp": 3917,
      "agger": 3918,
      "▁tightened": 3919,
      "ume": 3920,
      "▁oper": 3921,
      "▁shel": 3922,
      "▁pray": 3923,
      "▁sour": 3924,
      "▁govern": 3925,
      "icle": 3926,
      "rect": 3927,
      "▁animal": 3928,
      "▁type": 3929,
      "▁occasion": 3930,
      "▁object": 3931,
      "▁thor": 3932,
      "▁eyebrows": 3933,
      "▁weapons": 3934,
      "▁crew": 3935,
      "▁removed": 3936,
      "▁boss": 3937,
      "▁landed": 3938,
      "▁dirty": 3939,
      "▁spun": 3940,
      "▁entirely": 3941,
      "▁college": 3942,
      "▁refused": 3943,
      "▁chuckled": 3944,
      "▁uncomfort": 3945,
      "velop": 3946,
      "▁scrat": 3947,
      "▁fifteen": 3948,
      "▁nine": 3949,
      "▁eliz": 3950,
      "mas": 3951,
      "▁william": 3952,
      "▁double": 3953,
      "▁vir": 3954,
      "▁ren": 3955,
      "▁tea": 3956,
      "▁hurry": 3957,
      "▁adj": 3958,
      "▁wonderful": 3959,
      "▁avoid": 3960,
      "▁nearby": 3961,
      "uel": 3962,
      "kward": 3963,
      "erv": 3964,
      "▁showing": 3965,
      "itude": 3966,
      "umbling": 3967,
      "▁tan": 3968,
      "▁bastard": 3969,
      "▁carrying": 3970,
      "▁awkward": 3971,
      "arily": 3972,
      "▁hug": 3973,
      "▁recognized": 3974,
      "asy": 3975,
      "▁knocked": 3976,
      "▁instant": 3977,
      "▁planned": 3978,
      "▁bringing": 3979,
      "▁reply": 3980,
      "▁cy": 3981,
      "▁breathed": 3982,
      "▁orig": 3983,
      "▁shared": 3984,
      "▁suggested": 3985,
      "key": 3986,
      "▁everywhere": 3987,
      "▁admitted": 3988,
      "▁shocked": 3989,
      "▁inh": 3990,
      "che": 3991,
      "▁hors": 3992,
      "▁saved": 3993,
      "▁gives": 3994,
      "▁theyre": 3995,
      "▁desperate": 3996,
      "▁gathered": 3997,
      "igned": 3998,
      "▁charlie": 3999,
      "▁dun": 4000,
      "nday": 4001,
      "gie": 4002,
      "ented": 4003,
      "▁warmth": 4004,
      "▁julian": 4005,
      "▁drunk": 4006,
      "antic": 4007,
      "▁smir": 4008,
      "-y": 4009,
      "▁yan": 4010,
      "▁comment": 4011,
      "pting": 4012,
      "▁cook": 4013,
      "▁dare": 4014,
      "▁answers": 4015,
      "▁cow": 4016,
      "cil": 4017,
      "▁closing": 4018,
      "aching": 4019,
      "▁belly": 4020,
      "▁major": 4021,
      "ously": 4022,
      "wor": 4023,
      "▁row": 4024,
      "▁sending": 4025,
      "oot": 4026,
      "▁otherwise": 4027,
      "▁sucked": 4028,
      "▁grown": 4029,
      "▁drif": 4030,
      "▁bought": 4031,
      "▁murder": 4032,
      "▁deeply": 4033,
      "▁depart": 4034,
      "ogra": 4035,
      "▁suck": 4036,
      "▁pregn": 4037,
      "▁giant": 4038,
      "▁di": 4039,
      "▁solid": 4040,
      "▁hurried": 4041,
      "▁stories": 4042,
      "▁bridge": 4043,
      "rick": 4044,
      "▁restaur": 4045,
      "▁pure": 4046,
      "▁groaned": 4047,
      "-wh": 4048,
      "▁rare": 4049,
      "▁prec": 4050,
      "itted": 4051,
      "▁4": 4052,
      "▁mountain": 4053,
      "▁heaven": 4054,
      "▁consid": 4055,
      "▁san": 4056,
      "▁calls": 4057,
      "▁libr": 4058,
      "▁sexy": 4059,
      "▁instru": 4060,
      "▁emily": 4061,
      "nds": 4062,
      "-shirt": 4063,
      "▁liz": 4064,
      "▁claim": 4065,
      "▁cars": 4066,
      "▁staff": 4067,
      "▁record": 4068,
      "▁techn": 4069,
      "▁pleased": 4070,
      "▁silently": 4071,
      "▁beauty": 4072,
      "▁pictures": 4073,
      "▁buried": 4074,
      "▁helping": 4075,
      "▁investig": 4076,
      "▁attend": 4077,
      "▁unfort": 4078,
      "▁butt": 4079,
      "▁jeff": 4080,
      "▁rolling": 4081,
      "ker": 4082,
      "▁stir": 4083,
      "▁dragged": 4084,
      "▁bree": 4085,
      "▁prefer": 4086,
      "▁disappear": 4087,
      "▁stab": 4088,
      "▁glow": 4089,
      "▁mc": 4090,
      "cer": 4091,
      "▁marry": 4092,
      "▁ban": 4093,
      "▁stage": 4094,
      "▁19": 4095,
      "▁reality": 4096,
      "ura": 4097,
      "reme": 4098,
      "▁dragon": 4099,
      "ique": 4100,
      "▁cust": 4101,
      "▁spin": 4102,
      "bit": 4103,
      "▁exch": 4104,
      "▁success": 4105,
      "▁common": 4106,
      "▁myster": 4107,
      "▁wand": 4108,
      "▁author": 4109,
      "▁meaning": 4110,
      "str": 4111,
      "▁surrounded": 4112,
      "▁awake": 4113,
      "▁tour": 4114,
      "▁huh": 4115,
      "▁faded": 4116,
      "▁stat": 4117,
      "▁eld": 4118,
      "▁noah": 4119,
      "▁imagined": 4120,
      "▁necessary": 4121,
      "▁names": 4122,
      "▁relie": 4123,
      "▁fal": 4124,
      "asons": 4125,
      "▁gle": 4126,
      "itor": 4127,
      "▁holl": 4128,
      "▁eager": 4129,
      "▁host": 4130,
      "▁pulls": 4131,
      "▁intense": 4132,
      "▁exh": 4133,
      "ca": 4134,
      "▁amount": 4135,
      "▁jac": 4136,
      "ational": 4137,
      "▁um": 4138,
      "▁jew": 4139,
      "▁works": 4140,
      "bel": 4141,
      "▁pause": 4142,
      "ican": 4143,
      "ument": 4144,
      "▁local": 4145,
      "▁letter": 4146,
      "▁remain": 4147,
      "▁lily": 4148,
      "▁t-shirt": 4149,
      "nie": 4150,
      "ios": 4151,
      "▁tur": 4152,
      "▁ling": 4153,
      "▁training": 4154,
      "▁folded": 4155,
      "▁rage": 4156,
      "▁excit": 4157,
      "▁leading": 4158,
      "▁determined": 4159,
      "▁cig": 4160,
      "▁lack": 4161,
      "▁action": 4162,
      "▁wiped": 4163,
      "dom": 4164,
      "▁displ": 4165,
      "under": 4166,
      "▁langu": 4167,
      "nes": 4168,
      "▁youve": 4169,
      "▁drawn": 4170,
      "▁service": 4171,
      "▁glasses": 4172,
      "▁grate": 4173,
      "▁steel": 4174,
      "▁marc": 4175,
      "-but": 4176,
      "▁bank": 4177,
      "▁insp": 4178,
      "ashes": 4179,
      "▁sus": 4180,
      "▁ancient": 4181,
      "▁drawing": 4182,
      "▁introd": 4183,
      "▁gabri": 4184,
      "▁nature": 4185,
      "▁charge": 4186,
      "▁boyfriend": 4187,
      "▁occur": 4188,
      "ooked": 4189,
      "▁leap": 4190,
      "▁sliding": 4191,
      "▁officer": 4192,
      "▁horses": 4193,
      "▁sac": 4194,
      "▁pointing": 4195,
      "▁mentioned": 4196,
      "▁cale": 4197,
      "▁tort": 4198,
      "▁'you": 4199,
      "wo": 4200,
      "-he": 4201,
      "alled": 4202,
      "▁considering": 4203,
      "▁inch": 4204,
      "▁mod": 4205,
      "▁passing": 4206,
      "▁younger": 4207,
      "▁betr": 4208,
      "▁discovered": 4209,
      "▁drinking": 4210,
      "▁fifty": 4211,
      "▁voices": 4212,
      "ceed": 4213,
      "sc": 4214,
      "▁slip": 4215,
      "▁waves": 4216,
      "▁opportunity": 4217,
      "▁movie": 4218,
      "▁plenty": 4219,
      "▁mate": 4220,
      "▁natural": 4221,
      "kn": 4222,
      "▁curious": 4223,
      "▁expecting": 4224,
      "▁chick": 4225,
      "▁glared": 4226,
      "▁streets": 4227,
      "▁excitement": 4228,
      "▁aband": 4229,
      "wood": 4230,
      "▁rooms": 4231,
      "▁details": 4232,
      "▁chat": 4233,
      "can": 4234,
      "itary": 4235,
      "▁jared": 4236,
      "▁horror": 4237,
      "eless": 4238,
      "▁witch": 4239,
      "▁fab": 4240,
      "▁rout": 4241,
      "ooking": 4242,
      "▁problems": 4243,
      "▁heels": 4244,
      "▁physical": 4245,
      "▁garden": 4246,
      "▁intim": 4247,
      "▁lightly": 4248,
      "▁cloud": 4249,
      "▁dart": 4250,
      "▁assist": 4251,
      "▁bul": 4252,
      "▁blame": 4253,
      "iment": 4254,
      "▁cave": 4255,
      "▁domin": 4256,
      "▁gall": 4257,
      "ham": 4258,
      "ences": 4259,
      "▁crap": 4260,
      "▁relaxed": 4261,
      "▁badly": 4262,
      "iculous": 4263,
      "▁members": 4264,
      "▁loss": 4265,
      "▁enemy": 4266,
      "▁grunt": 4267,
      "▁keys": 4268,
      "▁seb": 4269,
      "▁pressure": 4270,
      "▁throwing": 4271,
      "▁written": 4272,
      "▁kyl": 4273,
      "▁cart": 4274,
      "▁bry": 4275,
      "▁fer": 4276,
      "▁safety": 4277,
      "mp": 4278,
      "▁oliv": 4279,
      "▁stars": 4280,
      "▁ignore": 4281,
      "▁york": 4282,
      "▁resist": 4283,
      "▁rise": 4284,
      "▁christmas": 4285,
      "▁hous": 4286,
      "▁stronger": 4287,
      "▁deck": 4288,
      "▁prev": 4289,
      "▁setting": 4290,
      "alous": 4291,
      "▁ank": 4292,
      "arch": 4293,
      "▁match": 4294,
      "▁incre": 4295,
      "gress": 4296,
      "▁orders": 4297,
      "▁cassie": 4298,
      "sts": 4299,
      "ille": 4300,
      "▁interrupted": 4301,
      "▁account": 4302,
      "▁blanket": 4303,
      "▁kisses": 4304,
      "▁weeke": 4305,
      "ilities": 4306,
      "▁target": 4307,
      "▁veh": 4308,
      "▁rested": 4309,
      "▁belt": 4310,
      "▁lucas": 4311,
      "▁spar": 4312,
      "ese": 4313,
      "▁ability": 4314,
      "▁pissed": 4315,
      "ploy": 4316,
      "▁witness": 4317,
      "lfriend": 4318,
      "▁features": 4319,
      "▁dawn": 4320,
      "▁feed": 4321,
      "▁richard": 4322,
      "▁thighs": 4323,
      "▁holy": 4324,
      "▁guilt": 4325,
      "▁wis": 4326,
      "▁tv": 4327,
      "▁failed": 4328,
      "af": 4329,
      "▁blast": 4330,
      "▁sebast": 4331,
      "▁greg": 4332,
      "▁elevator": 4333,
      "▁confir": 4334,
      "▁twel": 4335,
      "▁temper": 4336,
      "▁corrid": 4337,
      "▁split": 4338,
      "▁obl": 4339,
      "▁jan": 4340,
      "acks": 4341,
      "▁glo": 4342,
      "ills": 4343,
      "▁pred": 4344,
      "▁kylie": 4345,
      "▁council": 4346,
      "father": 4347,
      "▁anna": 4348,
      "▁olivia": 4349,
      "▁fol": 4350,
      "▁hint": 4351,
      "▁becoming": 4352,
      "abeth": 4353,
      "▁dozen": 4354,
      "▁christian": 4355,
      "▁psych": 4356,
      "▁swept": 4357,
      "iant": 4358,
      "▁tied": 4359,
      "▁honor": 4360,
      "▁plane": 4361,
      "▁eve": 4362,
      "▁pressing": 4363,
      "oe": 4364,
      "▁unlike": 4365,
      "▁tucked": 4366,
      "▁pit": 4367,
      "▁nowhere": 4368,
      "▁intern": 4369,
      "▁mans": 4370,
      "▁flames": 4371,
      "▁commun": 4372,
      "erial": 4373,
      "▁fac": 4374,
      "▁evidence": 4375,
      "▁george": 4376,
      "▁terror": 4377,
      "▁firmly": 4378,
      "▁correct": 4379,
      "▁english": 4380,
      "ires": 4381,
      "▁poured": 4382,
      "▁manage": 4383,
      "▁smelled": 4384,
      "▁bitter": 4385,
      "▁abrupt": 4386,
      "▁fish": 4387,
      "▁mission": 4388,
      "▁doc": 4389,
      "▁porch": 4390,
      "▁jesus": 4391,
      "▁skirt": 4392,
      "▁sebastian": 4393,
      "▁sen": 4394,
      "▁named": 4395,
      "▁youll": 4396,
      "▁silk": 4397,
      "▁scow": 4398,
      "▁enter": 4399,
      "▁release": 4400,
      "▁5": 4401,
      "▁ni": 4402,
      "▁extend": 4403,
      "▁restaurant": 4404,
      "▁organ": 4405,
      "▁responded": 4406,
      "▁irrit": 4407,
      "▁prove": 4408,
      "▁tail": 4409,
      "▁sed": 4410,
      "uries": 4411,
      "▁twist": 4412,
      "▁flick": 4413,
      "▁bigger": 4414,
      "rop": 4415,
      "rog": 4416,
      "▁result": 4417,
      "▁cash": 4418,
      "step": 4419,
      "con": 4420,
      "▁tang": 4421,
      "aging": 4422,
      "▁sell": 4423,
      "dding": 4424,
      "▁fart": 4425,
      "▁fant": 4426,
      "▁deb": 4427,
      "illing": 4428,
      "▁starts": 4429,
      "▁forty": 4430,
      "▁clock": 4431,
      "olves": 4432,
      "▁pace": 4433,
      "▁compan": 4434,
      "▁sque": 4435,
      "▁flowers": 4436,
      "neath": 4437,
      "▁struggled": 4438,
      "▁nate": 4439,
      "▁ray": 4440,
      "▁higher": 4441,
      "▁cared": 4442,
      "▁village": 4443,
      "mother": 4444,
      "uses": 4445,
      "▁blake": 4446,
      "ette": 4447,
      "▁east": 4448,
      "▁***": 4449,
      "▁million": 4450,
      "▁rot": 4451,
      "▁planning": 4452,
      "▁massive": 4453,
      "▁twelve": 4454,
      "ocking": 4455,
      "ev": 4456,
      "ival": 4457,
      "▁winter": 4458,
      "▁faced": 4459,
      "▁upstairs": 4460,
      "▁cous": 4461,
      "iving": 4462,
      "yn": 4463,
      "▁phil": 4464,
      "__": 4465,
      "gu": 4466,
      "▁similar": 4467,
      "▁ivy": 4468,
      "▁log": 4469,
      "▁isab": 4470,
      "▁vib": 4471,
      "▁lovely": 4472,
      "▁difference": 4473,
      "▁girlfriend": 4474,
      "ples": 4475,
      "▁french": 4476,
      "▁gripped": 4477,
      "▁disp": 4478,
      "▁widened": 4479,
      "ante": 4480,
      "mon": 4481,
      "pet": 4482,
      "▁robert": 4483,
      "▁tony": 4484,
      "▁ripped": 4485,
      "▁jane": 4486,
      "▁buzz": 4487,
      "▁marriage": 4488,
      "▁including": 4489,
      "ature": 4490,
      "▁rick": 4491,
      "▁papers": 4492,
      "-bl": 4493,
      "▁whenever": 4494,
      "▁material": 4495,
      "▁extreme": 4496,
      "▁uncomfortable": 4497,
      "▁passion": 4498,
      "icip": 4499,
      "▁planet": 4500,
      "▁creep": 4501,
      "inary": 4502,
      "view": 4503,
      "▁facing": 4504,
      "▁bon": 4505,
      "kin": 4506,
      "▁jealous": 4507,
      "▁grad": 4508,
      "sey": 4509,
      "▁parked": 4510,
      "iction": 4511,
      "▁castle": 4512,
      "▁nightm": 4513,
      "▁whom": 4514,
      "▁liam": 4515,
      "▁bay": 4516,
      "▁oce": 4517,
      "▁flood": 4518,
      "▁ridiculous": 4519,
      "amber": 4520,
      "▁snar": 4521,
      "▁reasons": 4522,
      "▁swim": 4523,
      "▁purse": 4524,
      "▁demons": 4525,
      "▁clo": 4526,
      "▁briefly": 4527,
      "▁spoken": 4528,
      "▁underneath": 4529,
      "▁insisted": 4530,
      "▁tension": 4531,
      "▁enjoyed": 4532,
      "▁elizabeth": 4533,
      "▁choose": 4534,
      "▁liqu": 4535,
      "cl": 4536,
      "▁tex": 4537,
      "▁beck": 4538,
      "▁relieved": 4539,
      "▁tit": 4540,
      "aine": 4541,
      "▁slide": 4542,
      "▁machine": 4543,
      "▁practically": 4544,
      "▁survive": 4545,
      "▁vac": 4546,
      "▁powers": 4547,
      "▁startled": 4548,
      "▁plain": 4549,
      "fl": 4550,
      "▁nights": 4551,
      "▁heavily": 4552,
      "ization": 4553,
      "▁fed": 4554,
      "▁page": 4555,
      "▁monster": 4556,
      "▁gorge": 4557,
      "isa": 4558,
      "now": 4559,
      "▁trent": 4560,
      "▁cel": 4561,
      "▁lex": 4562,
      "▁plastic": 4563,
      "▁confusion": 4564,
      "▁parts": 4565,
      "▁cha": 4566,
      "▁urge": 4567,
      "▁library": 4568,
      "▁race": 4569,
      "▁sniff": 4570,
      "▁chris": 4571,
      "▁princess": 4572,
      "▁anticip": 4573,
      "▁kar": 4574,
      "▁handsome": 4575,
      "▁blew": 4576,
      "▁satisf": 4577,
      "▁warned": 4578,
      "▁knight": 4579,
      "▁profess": 4580,
      "gy": 4581,
      "▁cryst": 4582,
      "▁stair": 4583,
      "▁project": 4584,
      "iest": 4585,
      "▁ted": 4586,
      "▁fang": 4587,
      "▁unw": 4588,
      "▁upper": 4589,
      "▁deli": 4590,
      "▁jace": 4591,
      "▁tunnel": 4592,
      "▁cream": 4593,
      "▁write": 4594,
      "▁camera": 4595,
      "▁backed": 4596,
      "**sts": 4597,
      "▁dancing": 4598,
      "pes": 4599,
      "▁nightmare": 4600,
      "▁innocent": 4601,
      "▁emer": 4602,
      "▁merely": 4603,
      "▁pip": 4604,
      "▁connection": 4605,
      "▁ate": 4606,
      "▁hamm": 4607,
      "▁br**sts": 4608,
      "▁rules": 4609,
      "ounce": 4610,
      "▁guns": 4611,
      "▁grave": 4612,
      "▁pil": 4613,
      "▁brush": 4614,
      "▁radio": 4615,
      "ify": 4616,
      "▁rear": 4617,
      "▁faith": 4618,
      "▁inches": 4619,
      "▁rif": 4620,
      "▁overw": 4621,
      "▁sank": 4622,
      "ality": 4623,
      "▁leader": 4624,
      "aunt": 4625,
      "antage": 4626,
      "iently": 4627,
      "inated": 4628,
      "▁swir": 4629,
      "erson": 4630,
      "▁picking": 4631,
      "▁accord": 4632,
      "idding": 4633,
      "▁stopping": 4634,
      "▁camer": 4635,
      "▁sean": 4636,
      "▁victim": 4637,
      "▁wow": 4638,
      "▁agent": 4639,
      "▁clay": 4640,
      "▁bru": 4641,
      "▁embr": 4642,
      "▁neg": 4643,
      "▁idiot": 4644,
      "ira": 4645,
      "▁tells": 4646,
      "▁julia": 4647,
      "▁horrible": 4648,
      "erved": 4649,
      "▁ven": 4650,
      "▁froze": 4651,
      "▁honestly": 4652,
      "▁assumed": 4653,
      "▁reass": 4654,
      "▁brad": 4655,
      "omes": 4656,
      "▁normally": 4657,
      "ication": 4658,
      "▁thrown": 4659,
      "▁teen": 4660,
      "▁rust": 4661,
      "▁address": 4662,
      "▁glancing": 4663,
      "▁ward": 4664,
      "ki": 4665,
      "▁weekend": 4666,
      "▁ron": 4667,
      "▁pounding": 4668,
      "▁creatures": 4669,
      "▁stumbled": 4670,
      "rek": 4671,
      "▁tess": 4672,
      "▁ger": 4673,
      "▁reluct": 4674,
      "▁nods": 4675,
      "▁intell": 4676,
      "▁teacher": 4677,
      "▁overwhel": 4678,
      "▁ug": 4679,
      "▁farm": 4680,
      "vision": 4681,
      "▁slee": 4682,
      "▁swift": 4683,
      "umps": 4684,
      "▁flipped": 4685,
      "▁writing": 4686,
      "▁dread": 4687,
      "▁created": 4688,
      "off": 4689,
      "icing": 4690,
      "ded": 4691,
      "oon": 4692,
      "ndon": 4693,
      "inced": 4694,
      "▁develop": 4695,
      "time": 4696,
      "▁unfortunately": 4697,
      "▁trist": 4698,
      "▁understanding": 4699,
      "▁resting": 4700,
      "▁lungs": 4701,
      "▁closet": 4702,
      "▁appreciate": 4703,
      "▁nathan": 4704,
      "anced": 4705,
      "▁rail": 4706,
      "▁frame": 4707,
      "▁connor": 4708,
      "▁fists": 4709,
      "aper": 4710,
      "▁fixed": 4711,
      "▁grateful": 4712,
      "▁bone": 4713,
      "laimed": 4714,
      "▁animals": 4715,
      "▁unif": 4716,
      "▁access": 4717,
      "▁lots": 4718,
      "▁enjo": 4719,
      "▁tatt": 4720,
      "▁convinced": 4721,
      "ference": 4722,
      "▁utter": 4723,
      "▁destroy": 4724,
      "▁yard": 4725,
      "▁freed": 4726,
      "▁military": 4727,
      "▁soot": 4728,
      "▁cigaret": 4729,
      "▁stands": 4730,
      "acle": 4731,
      "▁ease": 4732,
      "▁lone": 4733,
      "▁pregnant": 4734,
      "▁grabbing": 4735,
      "ointment": 4736,
      "▁brit": 4737,
      "▁employ": 4738,
      "▁cheer": 4739,
      "▁spring": 4740,
      "▁shiver": 4741,
      "▁loudly": 4742,
      "▁glare": 4743,
      "▁hugged": 4744,
      "▁fury": 4745,
      "▁hood": 4746,
      "▁spine": 4747,
      "ointed": 4748,
      "ashion": 4749,
      "▁pile": 4750,
      "▁eddie": 4751,
      "▁somebody": 4752,
      "book": 4753,
      "▁resc": 4754,
      "▁events": 4755,
      "▁passen": 4756,
      "▁trembling": 4757,
      "▁furn": 4758,
      "▁beating": 4759,
      "vis": 4760,
      "itions": 4761,
      "▁tender": 4762,
      "▁regular": 4763,
      "ppy": 4764,
      "▁carol": 4765,
      "▁strang": 4766,
      "▁ram": 4767,
      "▁jay": 4768,
      "▁meal": 4769,
      "▁towel": 4770,
      "▁surprising": 4771,
      "▁custom": 4772,
      "▁ocean": 4773,
      "ograph": 4774,
      "▁fierce": 4775,
      "▁map": 4776,
      "▁vel": 4777,
      "lor": 4778,
      "▁delight": 4779,
      "onscious": 4780,
      "▁distant": 4781,
      "idly": 4782,
      "▁recognize": 4783,
      "▁torn": 4784,
      "▁cele": 4785,
      "▁nik": 4786,
      "▁temple": 4787,
      "▁taught": 4788,
      "asure": 4789,
      "▁kit": 4790,
      "▁damp": 4791,
      "▁fate": 4792,
      "▁tattoo": 4793,
      "▁orange": 4794,
      "▁daddy": 4795,
      "▁tilted": 4796,
      "gram": 4797,
      "▁activ": 4798,
      "ita": 4799,
      "▁clouds": 4800,
      "▁pour": 4801,
      "▁fired": 4802,
      "▁painting": 4803,
      "▁dropping": 4804,
      "▁damned": 4805,
      "▁practice": 4806,
      "▁accepted": 4807,
      "▁bird": 4808,
      "▁awful": 4809,
      "▁meat": 4810,
      "▁dug": 4811,
      "ora": 4812,
      "form": 4813,
      "▁guil": 4814,
      "▁height": 4815,
      "▁ack": 4816,
      "▁crim": 4817,
      "▁curtain": 4818,
      "▁riley": 4819,
      "▁damage": 4820,
      "▁distur": 4821,
      "▁buildings": 4822,
      "▁clothing": 4823,
      "▁elbow": 4824,
      "▁abby": 4825,
      "▁harsh": 4826,
      "ram": 4827,
      "▁hip": 4828,
      "▁gorgeous": 4829,
      "▁thir": 4830,
      "aks": 4831,
      "gest": 4832,
      "▁language": 4833,
      "▁rubbing": 4834,
      "pless": 4835,
      "▁tugged": 4836,
      "▁warrior": 4837,
      "ris": 4838,
      "▁shakes": 4839,
      "▁ting": 4840,
      "▁celebr": 4841,
      "▁cad": 4842,
      "▁rocks": 4843,
      "▁corridor": 4844,
      "▁acting": 4845,
      "hol": 4846,
      "▁grandmother": 4847,
      "▁cracked": 4848,
      "ential": 4849,
      "▁stranger": 4850,
      "▁marsh": 4851,
      "▁crou": 4852,
      "▁wash": 4853,
      "▁wes": 4854,
      "▁skull": 4855,
      "▁sensation": 4856,
      "▁explod": 4857,
      "▁due": 4858,
      "▁joke": 4859,
      "▁chain": 4860,
      "phone": 4861,
      "▁frozen": 4862,
      "▁killer": 4863,
      "▁ignoring": 4864,
      "▁whir": 4865,
      "▁chose": 4866,
      "▁breeze": 4867,
      "▁bri": 4868,
      "▁weather": 4869,
      "▁tie": 4870,
      "rate": 4871,
      "▁chairs": 4872,
      "▁flut": 4873,
      "fit": 4874,
      "ddy": 4875,
      "▁frustration": 4876,
      "com": 4877,
      "▁suspected": 4878,
      "▁pillow": 4879,
      "eech": 4880,
      "▁searched": 4881,
      "▁chew": 4882,
      "▁gw": 4883,
      "▁downstairs": 4884,
      "▁government": 4885,
      "▁priest": 4886,
      "▁spotted": 4887,
      "▁explos": 4888,
      "▁polit": 4889,
      "ka": 4890,
      "▁protest": 4891,
      "▁peered": 4892,
      "▁whit": 4893,
      "▁waste": 4894,
      "▁intended": 4895,
      "-like": 4896,
      "▁chlo": 4897,
      "▁escaped": 4898,
      "▁forgive": 4899,
      "▁brick": 4900,
      "▁cred": 4901,
      "▁fan": 4902,
      "▁scott": 4903,
      "▁smaller": 4904,
      "▁judge": 4905,
      "▁various": 4906,
      "▁cro": 4907,
      "▁causing": 4908,
      "▁birthday": 4909,
      "▁puzz": 4910,
      "▁andrew": 4911,
      "▁suspic": 4912,
      "▁guilty": 4913,
      "▁ali": 4914,
      "▁received": 4915,
      "▁gabriel": 4916,
      "▁dick": 4917,
      "top": 4918,
      "▁tore": 4919,
      "▁mia": 4920,
      "▁shell": 4921,
      "hell": 4922,
      "osen": 4923,
      "▁desperately": 4924,
      "▁stunned": 4925,
      "▁settle": 4926,
      "asha": 4927,
      "▁climb": 4928,
      "▁derek": 4929,
      "otic": 4930,
      "▁secrets": 4931,
      "▁plat": 4932,
      "▁groan": 4933,
      "▁charac": 4934,
      "▁gy": 4935,
      "cell": 4936,
      "▁hissed": 4937,
      "ino": 4938,
      "xp": 4939,
      "▁whoever": 4940,
      "▁term": 4941,
      "▁popped": 4942,
      "▁worn": 4943,
      "▁ja": 4944,
      "▁brows": 4945,
      "▁farther": 4946,
      "▁enjoying": 4947,
      "▁vers": 4948,
      "▁kim": 4949,
      "▁dor": 4950,
      "ulation": 4951,
      "▁begun": 4952,
      "▁lifting": 4953,
      "▁hal": 4954,
      "▁assured": 4955,
      "▁attacked": 4956,
      "▁palms": 4957,
      "ption": 4958,
      "▁civ": 4959,
      "▁soldier": 4960,
      "▁plus": 4961,
      "▁pride": 4962,
      "▁american": 4963,
      "▁egg": 4964,
      "▁abruptly": 4965,
      "▁amy": 4966,
      "▁ens": 4967,
      "▁chamber": 4968,
      "▁london": 4969,
      "▁returning": 4970,
      "gers": 4971,
      "kered": 4972,
      "▁professor": 4973,
      "▁pulse": 4974,
      "▁kend": 4975,
      "▁nav": 4976,
      "▁aim": 4977,
      "▁chosen": 4978,
      "▁desce": 4979,
      "▁alright": 4980,
      "▁nurse": 4981,
      "▁collaps": 4982,
      "▁sisters": 4983,
      "▁gesture": 4984,
      "▁brian": 4985,
      "ales": 4986,
      "umed": 4987,
      "▁hero": 4988,
      "▁wil": 4989,
      "▁bunch": 4990,
      "▁alarm": 4991,
      "▁walks": 4992,
      "ators": 4993,
      "▁partner": 4994,
      "▁surre": 4995,
      "▁yanked": 4996,
      "▁notes": 4997,
      "▁students": 4998,
      "ases": 4999,
      "▁drifted": 5000,
      "▁mas": 5001,
      "▁sip": 5002,
      "▁capable": 5003,
      "▁caress": 5004,
      "▁terrified": 5005,
      "▁kal": 5006,
      "▁snat": 5007,
      "▁exhausted": 5008,
      "▁stepping": 5009,
      "▁disgust": 5010,
      "▁murd": 5011,
      "▁et": 5012,
      "▁muscle": 5013,
      "▁trapped": 5014,
      "▁chief": 5015,
      "▁brill": 5016,
      "▁rib": 5017,
      "▁virg": 5018,
      "▁bags": 5019,
      "▁painful": 5020,
      "▁'t": 5021,
      "▁explan": 5022,
      "▁landing": 5023,
      "▁duty": 5024,
      "▁display": 5025,
      "▁sara": 5026,
      "▁ladies": 5027,
      "▁cher": 5028,
      "amped": 5029,
      "▁sensed": 5030,
      "▁footstep": 5031,
      "itting": 5032,
      "▁sake": 5033,
      "▁balance": 5034,
      "athy": 5035,
      "▁chloe": 5036,
      "▁cute": 5037,
      "▁mum": 5038,
      "▁rode": 5039,
      "▁intent": 5040,
      "heart": 5041,
      "eter": 5042,
      "▁mountains": 5043,
      "ology": 5044,
      "▁covering": 5045,
      "oted": 5046,
      "itation": 5047,
      "▁curse": 5048,
      "▁program": 5049,
      "▁perform": 5050,
      "▁circum": 5051,
      "ule": 5052,
      "▁viv": 5053,
      "▁rule": 5054,
      "ushes": 5055,
      "▁ros": 5056,
      "▁moan": 5057,
      "▁houses": 5058,
      "▁won": 5059,
      "▁acknow": 5060,
      "▁shame": 5061,
      "-se": 5062,
      "▁rhy": 5063,
      "case": 5064,
      "▁larger": 5065,
      "▁particularly": 5066,
      "▁bran": 5067,
      "▁gazed": 5068,
      "▁nin": 5069,
      "iana": 5070,
      "▁concl": 5071,
      "▁ber": 5072,
      "▁sin": 5073,
      "▁grandfather": 5074,
      "▁impat": 5075,
      "▁signs": 5076,
      "▁detail": 5077,
      "▁react": 5078,
      "▁echoed": 5079,
      "▁jose": 5080,
      "▁grant": 5081,
      "▁uniform": 5082,
      "▁prim": 5083,
      "▁snorted": 5084,
      "ienced": 5085,
      "▁conscious": 5086,
      "▁marcus": 5087,
      "▁glowing": 5088,
      "ket": 5089,
      "▁formed": 5090,
      "aker": 5091,
      "▁shooting": 5092,
      "▁licked": 5093,
      "cks": 5094,
      "▁bond": 5095,
      "▁bullet": 5096,
      "▁shr": 5097,
      "▁sweep": 5098,
      "iolet": 5099,
      "lass": 5100,
      "ores": 5101,
      "▁blaz": 5102,
      "▁suspect": 5103,
      "-j": 5104,
      "▁journey": 5105,
      "▁lied": 5106,
      "▁garage": 5107,
      "▁advantage": 5108,
      "▁gal": 5109,
      "▁gage": 5110,
      "▁arrow": 5111,
      "▁announced": 5112,
      "▁footsteps": 5113,
      "▁rip": 5114,
      "▁straightened": 5115,
      "▁arched": 5116,
      "place": 5117,
      "ache": 5118,
      "ulf": 5119,
      "▁fingert": 5120,
      "▁init": 5121,
      "▁points": 5122,
      "▁dogs": 5123,
      "iance": 5124,
      "▁loving": 5125,
      "▁hast": 5126,
      "▁approach": 5127,
      "oh": 5128,
      "rett": 5129,
      "▁embarrassed": 5130,
      "apping": 5131,
      "▁encou": 5132,
      "▁purple": 5133,
      "▁vanished": 5134,
      "▁mental": 5135,
      "▁raced": 5136,
      "ception": 5137,
      "▁liter": 5138,
      "▁sooner": 5139,
      "▁deserve": 5140,
      "▁total": 5141,
      "▁halfway": 5142,
      "-five": 5143,
      "walk": 5144,
      "▁raise": 5145,
      "▁sofa": 5146,
      "elled": 5147,
      "▁checking": 5148,
      "▁cutting": 5149,
      "▁trem": 5150,
      "▁retreat": 5151,
      "ishment": 5152,
      "ients": 5153,
      "▁raw": 5154,
      "▁tower": 5155,
      "▁gav": 5156,
      "ran": 5157,
      "▁ugly": 5158,
      "▁ai": 5159,
      "umping": 5160,
      "raw": 5161,
      "▁chocol": 5162,
      "▁washed": 5163,
      "▁tables": 5164,
      "▁mask": 5165,
      "▁according": 5166,
      "▁bowl": 5167,
      "urs": 5168,
      "hip": 5169,
      "▁numbers": 5170,
      "▁frag": 5171,
      "▁neighbor": 5172,
      "▁confident": 5173,
      "▁butter": 5174,
      "▁matters": 5175,
      "▁lee": 5176,
      "▁traff": 5177,
      "▁steve": 5178,
      "▁rat": 5179,
      "▁mumbled": 5180,
      "-looking": 5181,
      "▁tense": 5182,
      "▁convince": 5183,
      "▁holds": 5184,
      "▁collar": 5185,
      "▁morgan": 5186,
      "▁unb": 5187,
      "▁lies": 5188,
      "▁victoria": 5189,
      "▁moves": 5190,
      "▁filling": 5191,
      "▁contem": 5192,
      "▁caleb": 5193,
      "▁throughout": 5194,
      "▁task": 5195,
      "▁changing": 5196,
      "▁exit": 5197,
      "uts": 5198,
      "▁thunder": 5199,
      "▁blonde": 5200,
      "▁sheet": 5201,
      "▁electric": 5202,
      "▁wink": 5203,
      "▁likes": 5204,
      "▁occup": 5205,
      "▁satur": 5206,
      "▁inner": 5207,
      "▁alley": 5208,
      "▁devil": 5209,
      "ait": 5210,
      "mission": 5211,
      "▁lucy": 5212,
      "▁clearing": 5213,
      "▁insane": 5214,
      "▁intellig": 5215,
      "▁remaining": 5216,
      "▁violet": 5217,
      "▁stal": 5218,
      "▁bench": 5219,
      "▁whispers": 5220,
      "▁destroyed": 5221,
      "otte": 5222,
      "▁price": 5223,
      "-ey": 5224,
      "▁everybody": 5225,
      "▁opin": 5226,
      "▁catching": 5227,
      "▁jax": 5228,
      "▁6": 5229,
      "istic": 5230,
      "▁maggie": 5231,
      "▁connected": 5232,
      "▁fel": 5233,
      "▁nap": 5234,
      "▁appearance": 5235,
      "▁sway": 5236,
      "▁havent": 5237,
      "▁distr": 5238,
      "▁jere": 5239,
      "▁helpless": 5240,
      "▁silly": 5241,
      "wards": 5242,
      "▁riding": 5243,
      "▁steal": 5244,
      "▁gestured": 5245,
      "▁vide": 5246,
      "xpected": 5247,
      "▁tapped": 5248,
      "emon": 5249,
      "vor": 5250,
      "▁drown": 5251,
      "inger": 5252,
      "erie": 5253,
      "▁detective": 5254,
      "▁poison": 5255,
      "▁o'": 5256,
      "▁grinning": 5257,
      "▁forcing": 5258,
      "▁served": 5259,
      "▁dumb": 5260,
      "▁item": 5261,
      "▁trace": 5262,
      "▁frightened": 5263,
      "han": 5264,
      "▁surrounding": 5265,
      "▁rope": 5266,
      "▁slapped": 5267,
      "▁keeps": 5268,
      "▁games": 5269,
      "▁bob": 5270,
      "▁clar": 5271,
      "▁profession": 5272,
      "aky": 5273,
      "met": 5274,
      "▁harry": 5275,
      "▁protection": 5276,
      "▁9": 5277,
      "▁paying": 5278,
      "▁file": 5279,
      "▁perio": 5280,
      "▁cousin": 5281,
      "▁challenge": 5282,
      "▁billy": 5283,
      "bbled": 5284,
      "awk": 5285,
      "▁speech": 5286,
      "▁wrote": 5287,
      "▁tray": 5288,
      "▁social": 5289,
      "▁manner": 5290,
      "▁fabric": 5291,
      "▁sunlight": 5292,
      "▁images": 5293,
      "▁chill": 5294,
      "▁shade": 5295,
      "▁etern": 5296,
      "▁balls": 5297,
      "▁tough": 5298,
      "▁lust": 5299,
      "do": 5300,
      "ago": 5301,
      "▁recently": 5302,
      "▁enorm": 5303,
      "hetic": 5304,
      "▁guessed": 5305,
      "▁ep": 5306,
      "iring": 5307,
      "▁eased": 5308,
      "▁lur": 5309,
      "▁argue": 5310,
      "▁pist": 5311,
      "▁rent": 5312,
      "▁pattern": 5313,
      "▁urg": 5314,
      "ints": 5315,
      "▁senses": 5316,
      "▁loves": 5317,
      "▁condition": 5318,
      "▁cooper": 5319,
      "▁ms.": 5320,
      "▁tristan": 5321,
      "▁'th": 5322,
      "▁decor": 5323,
      "▁org": 5324,
      "▁strike": 5325,
      "▁drank": 5326,
      "▁struggling": 5327,
      "yes": 5328,
      "▁symp": 5329,
      "▁vehicle": 5330,
      "▁punch": 5331,
      "▁exclaimed": 5332,
      "▁hitting": 5333,
      "▁vul": 5334,
      "don": 5335,
      "▁seeming": 5336,
      "▁holly": 5337,
      "ode": 5338,
      "-or": 5339,
      "ads": 5340,
      "▁sharply": 5341,
      "▁charles": 5342,
      "imm": 5343,
      "oop": 5344,
      "▁afford": 5345,
      "unched": 5346,
      "▁neat": 5347,
      "vet": 5348,
      "▁ourselves": 5349,
      "▁dang": 5350,
      "▁traffic": 5351,
      "▁president": 5352,
      "bble": 5353,
      "▁smith": 5354,
      "▁unexpected": 5355,
      "▁source": 5356,
      "▁impl": 5357,
      "▁carl": 5358,
      "▁20": 5359,
      "▁experienced": 5360,
      "▁request": 5361,
      "-year": 5362,
      "-one": 5363,
      "▁dismiss": 5364,
      "-old": 5365,
      "▁dean": 5366,
      "▁tam": 5367,
      "▁sched": 5368,
      "▁dining": 5369,
      "▁driveway": 5370,
      "▁stroked": 5371,
      "▁circumst": 5372,
      "▁contr": 5373,
      "▁wag": 5374,
      "atically": 5375,
      "▁occurred": 5376,
      ".m": 5377,
      "itches": 5378,
      "▁net": 5379,
      "▁crystal": 5380,
      "stand": 5381,
      "▁copy": 5382,
      "ordan": 5383,
      "ona": 5384,
      "▁hunting": 5385,
      "▁closely": 5386,
      "▁liquid": 5387,
      "▁caut": 5388,
      "▁drug": 5389,
      "▁vague": 5390,
      "▁fellow": 5391,
      "▁'it": 5392,
      "▁sid": 5393,
      "▁member": 5394,
      "▁plant": 5395,
      "eral": 5396,
      "▁lined": 5397,
      "▁cops": 5398,
      "rey": 5399,
      "▁gasp": 5400,
      "▁haunt": 5401,
      "▁louder": 5402,
      "▁mult": 5403,
      "▁weve": 5404,
      "▁letters": 5405,
      "▁infl": 5406,
      "▁cere": 5407,
      "▁inqu": 5408,
      "▁remembering": 5409,
      "▁explanation": 5410,
      "▁haw": 5411,
      "▁jonathan": 5412,
      "▁arrange": 5413,
      "▁patted": 5414,
      "▁impress": 5415,
      "▁chocolate": 5416,
      "▁7": 5417,
      "▁haul": 5418,
      "▁replaced": 5419,
      "▁wrap": 5420,
      "▁deg": 5421,
      "▁cursed": 5422,
      "▁somewhat": 5423,
      "▁neare": 5424,
      "▁palace": 5425,
      "▁cliff": 5426,
      "▁autom": 5427,
      "▁bothered": 5428,
      "▁scramb": 5429,
      "ulated": 5430,
      "▁theyd": 5431,
      "▁statement": 5432,
      "▁offering": 5433,
      "iverse": 5434,
      "▁attract": 5435,
      "▁alec": 5436,
      "▁eyed": 5437,
      "▁purs": 5438,
      "▁unh": 5439,
      "eled": 5440,
      "rous": 5441,
      "▁washing": 5442,
      "▁blink": 5443,
      "▁depend": 5444,
      "▁gran": 5445,
      "▁univers": 5446,
      "▁assume": 5447,
      "▁research": 5448,
      "▁ske": 5449,
      "▁slowed": 5450,
      "▁lightning": 5451,
      "lan": 5452,
      "▁location": 5453,
      "▁dollars": 5454,
      "▁snap": 5455,
      "▁possess": 5456,
      "atherine": 5457,
      "▁invis": 5458,
      "▁dull": 5459,
      "ylan": 5460,
      "▁possibility": 5461,
      "ruction": 5462,
      "▁royal": 5463,
      "riff": 5464,
      "▁toes": 5465,
      "otted": 5466,
      "▁satisfied": 5467,
      "▁'the": 5468,
      "▁flu": 5469,
      "▁acqu": 5470,
      "▁behav": 5471,
      "▁series": 5472,
      "▁flin": 5473,
      "▁design": 5474,
      "aves": 5475,
      "▁bread": 5476,
      "▁danny": 5477,
      "▁fasc": 5478,
      "▁nodding": 5479,
      "▁raven": 5480,
      "▁trained": 5481,
      "▁casual": 5482,
      "▁responsible": 5483,
      "▁friendly": 5484,
      "▁conce": 5485,
      "▁existence": 5486,
      "▁charlotte": 5487,
      "▁moaned": 5488,
      "dge": 5489,
      "▁crime": 5490,
      "▁intens": 5491,
      "rif": 5492,
      "▁garion": 5493,
      "rier": 5494,
      "▁cloth": 5495,
      "▁whist": 5496,
      "▁pleasant": 5497,
      "▁former": 5498,
      "▁werent": 5499,
      "▁clue": 5500,
      "nn": 5501,
      "▁disbel": 5502,
      "▁racing": 5503,
      "▁avail": 5504,
      "▁teach": 5505,
      "▁bored": 5506,
      "▁hundreds": 5507,
      "▁unus": 5508,
      "▁fangs": 5509,
      "inkled": 5510,
      "▁previous": 5511,
      "▁falls": 5512,
      "▁paint": 5513,
      "▁enth": 5514,
      "▁packed": 5515,
      "▁tap": 5516,
      "▁distracted": 5517,
      "▁constant": 5518,
      "▁genu": 5519,
      "▁eyel": 5520,
      "▁ri": 5521,
      "▁pistol": 5522,
      "erc": 5523,
      "▁noted": 5524,
      "amps": 5525,
      "▁recall": 5526,
      "▁evan": 5527,
      "▁trusted": 5528,
      "▁grasp": 5529,
      "anges": 5530,
      "▁squeeze": 5531,
      "▁drum": 5532,
      "uction": 5533,
      "▁kidding": 5534,
      "▁sounding": 5535,
      "aired": 5536,
      "▁drinks": 5537,
      "ugg": 5538,
      "▁controll": 5539,
      "▁curios": 5540,
      "▁emerg": 5541,
      "▁agreement": 5542,
      "▁cigarette": 5543,
      "▁iv": 5544,
      "ado": 5545,
      "▁saturday": 5546,
      "▁ess": 5547,
      "▁studying": 5548,
      "▁section": 5549,
      "▁laughs": 5550,
      "▁fence": 5551,
      "▁teasing": 5552,
      "▁abandoned": 5553,
      "▁stops": 5554,
      "▁bleeding": 5555,
      "▁nails": 5556,
      "▁veins": 5557,
      "ctions": 5558,
      "▁suppl": 5559,
      "▁trailed": 5560,
      "▁television": 5561,
      "▁pockets": 5562,
      "▁clas": 5563,
      "▁attached": 5564,
      "▁threatened": 5565,
      "▁goddam": 5566,
      "▁fake": 5567,
      "rating": 5568,
      "cast": 5569,
      "▁ast": 5570,
      "▁humor": 5571,
      "▁alice": 5572,
      "▁holiday": 5573,
      "▁extremely": 5574,
      "▁om": 5575,
      "▁painted": 5576,
      "▁property": 5577,
      "▁sexual": 5578,
      "▁yards": 5579,
      "jected": 5580,
      "▁fashion": 5581,
      "▁strode": 5582,
      "▁ellie": 5583,
      "boy": 5584,
      "▁bord": 5585,
      "▁colin": 5586,
      "▁cage": 5587,
      "▁arrest": 5588,
      "▁amanda": 5589,
      "asty": 5590,
      "▁prevent": 5591,
      "ico": 5592,
      "▁goodby": 5593,
      "▁panties": 5594,
      "▁genuine": 5595,
      "▁sophie": 5596,
      "▁drake": 5597,
      "▁disappointed": 5598,
      "-r": 5599,
      "beat": 5600,
      "▁amused": 5601,
      "▁runs": 5602,
      "▁sunday": 5603,
      "▁sheets": 5604,
      "▁shrug": 5605,
      "▁code": 5606,
      "gger": 5607,
      "▁jacob": 5608,
      "▁wicked": 5609,
      "ij": 5610,
      "▁serge": 5611,
      "▁zomb": 5612,
      "▁tank": 5613,
      "▁fred": 5614,
      "▁extended": 5615,
      "▁discover": 5616,
      "ata": 5617,
      "▁bart": 5618,
      "▁slipping": 5619,
      "▁unlo": 5620,
      "▁zach": 5621,
      "▁martin": 5622,
      "▁carpet": 5623,
      "▁lace": 5624,
      "▁sees": 5625,
      "▁issue": 5626,
      "▁amber": 5627,
      "▁diss": 5628,
      "▁dylan": 5629,
      "▁todd": 5630,
      "▁restr": 5631,
      "▁kevin": 5632,
      "▁claws": 5633,
      "▁barn": 5634,
      "▁original": 5635,
      "▁hannah": 5636,
      "▁contain": 5637,
      "iated": 5638,
      "▁bowed": 5639,
      "▁covers": 5640,
      "▁dw": 5641,
      "▁compet": 5642,
      "▁susan": 5643,
      "▁finn": 5644,
      "▁exposed": 5645,
      "rete": 5646,
      "▁wren": 5647,
      "▁withd": 5648,
      "▁ing": 5649,
      "▁amuse": 5650,
      "▁medical": 5651,
      "▁rifle": 5652,
      "▁grief": 5653,
      "▁unn": 5654,
      "coming": 5655,
      "▁vall": 5656,
      "▁confidence": 5657,
      "▁fingertips": 5658,
      "▁flame": 5659,
      "▁russ": 5660,
      "isy": 5661,
      "▁cot": 5662,
      "▁diam": 5663,
      "▁sheriff": 5664,
      "▁enormous": 5665,
      "▁gavin": 5666,
      "▁desert": 5667,
      "-it": 5668,
      "▁centuries": 5669,
      "ront": 5670,
      "▁gown": 5671,
      "▁tend": 5672,
      "andra": 5673,
      "▁parted": 5674,
      "back": 5675,
      "▁curiosity": 5676,
      "▁universe": 5677,
      "aren": 5678,
      "atively": 5679,
      "aping": 5680,
      "▁justin": 5681,
      "▁cruel": 5682,
      "▁trad": 5683,
      "▁maintain": 5684,
      "▁sole": 5685,
      "ato": 5686,
      "▁tub": 5687,
      "▁hay": 5688,
      "iven": 5689,
      "▁nerves": 5690,
      "▁freedom": 5691,
      "field": 5692,
      "▁background": 5693,
      "▁ships": 5694,
      "▁belonged": 5695,
      "▁hmm": 5696,
      "▁surve": 5697,
      "▁feared": 5698,
      "▁barb": 5699,
      "▁anybody": 5700,
      "▁happiness": 5701,
      "▁vulner": 5702,
      "-of": 5703,
      "▁thousands": 5704,
      "▁immort": 5705,
      "tt": 5706,
      "olas": 5707,
      "umble": 5708,
      "pack": 5709,
      "▁exec": 5710,
      "▁period": 5711,
      "▁swallow": 5712,
      "▁deserved": 5713,
      "known": 5714,
      "▁hook": 5715,
      "atory": 5716,
      "-on": 5717,
      "▁dee": 5718,
      "▁shuddered": 5719,
      "▁nipp": 5720,
      "▁'what": 5721,
      "▁midnight": 5722,
      "▁hopefully": 5723,
      "▁adult": 5724,
      "▁jordan": 5725,
      "▁squir": 5726,
      "▁purch": 5727,
      "▁spending": 5728,
      "▁tax": 5729,
      "▁loyal": 5730,
      "hawk": 5731,
      "▁realizing": 5732,
      "▁seated": 5733,
      "▁friday": 5734,
      "eds": 5735,
      "inda": 5736,
      "▁shy": 5737,
      "▁visible": 5738,
      "▁brilliant": 5739,
      "▁robe": 5740,
      "▁shuff": 5741,
      "▁swing": 5742,
      "▁link": 5743,
      "▁ends": 5744,
      "▁invisible": 5745,
      "▁birds": 5746,
      "▁allowing": 5747,
      "▁monst": 5748,
      "ops": 5749,
      "▁paris": 5750,
      "▁express": 5751,
      "▁kyle": 5752,
      "▁raising": 5753,
      "▁mall": 5754,
      "▁scru": 5755,
      "▁answering": 5756,
      "▁shining": 5757,
      "▁wan": 5758,
      "▁stated": 5759,
      "▁nervously": 5760,
      "nal": 5761,
      "▁interview": 5762,
      "▁alco": 5763,
      "▁rig": 5764,
      "aud": 5765,
      "▁wolves": 5766,
      "▁shorts": 5767,
      "▁delicate": 5768,
      "uls": 5769,
      "▁passenger": 5770,
      "vering": 5771,
      "▁sevent": 5772,
      "▁shivered": 5773,
      "▁deliber": 5774,
      "▁nud": 5775,
      "▁civil": 5776,
      "▁ais": 5777,
      "▁rab": 5778,
      "uous": 5779,
      "▁collapsed": 5780,
      "▁arent": 5781,
      "▁retrie": 5782,
      "▁daemon": 5783,
      "▁accent": 5784,
      "▁shown": 5785,
      "clock": 5786,
      "▁remark": 5787,
      "▁gwen": 5788,
      "▁der": 5789,
      "▁advice": 5790,
      "▁claimed": 5791,
      "▁approaching": 5792,
      "▁spinning": 5793,
      "▁invited": 5794,
      "▁kelly": 5795,
      "▁horiz": 5796,
      "cle": 5797,
      "▁rhyth": 5798,
      "▁warriors": 5799,
      "▁hurting": 5800,
      "▁actions": 5801,
      "▁guests": 5802,
      "rom": 5803,
      "▁wing": 5804,
      "▁shore": 5805,
      "▁stubb": 5806,
      "▁thread": 5807,
      "ifer": 5808,
      "chan": 5809,
      "▁assass": 5810,
      "▁required": 5811,
      "▁excell": 5812,
      "▁wrists": 5813,
      "▁overhead": 5814,
      "▁rushing": 5815,
      "▁quit": 5816,
      "▁serve": 5817,
      "rant": 5818,
      "▁sem": 5819,
      "▁video": 5820,
      "▁span": 5821,
      "dle": 5822,
      "▁ax": 5823,
      "▁dating": 5824,
      "▁emerged": 5825,
      "▁screams": 5826,
      "▁cris": 5827,
      "▁core": 5828,
      "▁expensive": 5829,
      "anches": 5830,
      "▁darling": 5831,
      "▁exploded": 5832,
      "pan": 5833,
      "▁flicked": 5834,
      "▁photo": 5835,
      "▁entertain": 5836,
      "▁stones": 5837,
      "▁chann": 5838,
      "▁ache": 5839,
      "▁jerk": 5840,
      "▁champ": 5841,
      "▁muff": 5842,
      "▁crawled": 5843,
      "-that": 5844,
      "▁complex": 5845,
      "▁market": 5846,
      "▁jenny": 5847,
      "▁uncertain": 5848,
      "▁opinion": 5849,
      "▁bolt": 5850,
      "▁precious": 5851,
      "▁contract": 5852,
      "▁tracks": 5853,
      "▁ult": 5854,
      "▁vent": 5855,
      "▁scanned": 5856,
      "mo": 5857,
      "▁gear": 5858,
      "sequ": 5859,
      "▁courage": 5860,
      "▁actual": 5861,
      "▁spare": 5862,
      "▁roland": 5863,
      "▁mortal": 5864,
      "▁alcohol": 5865,
      "▁choked": 5866,
      "▁mail": 5867,
      "▁circumstances": 5868,
      "▁drugs": 5869,
      "▁revealed": 5870,
      "▁tuck": 5871,
      "eg": 5872,
      "▁hunger": 5873,
      "▁lately": 5874,
      "▁ras": 5875,
      "▁digging": 5876,
      "▁states": 5877,
      "▁trap": 5878,
      "▁knelt": 5879,
      "▁marks": 5880,
      "thew": 5881,
      "orter": 5882,
      "▁coast": 5883,
      "▁intention": 5884,
      "▁society": 5885,
      "▁8": 5886,
      "▁laz": 5887,
      "▁kay": 5888,
      "▁passage": 5889,
      "▁freak": 5890,
      "icles": 5891,
      "▁commander": 5892,
      "▁bars": 5893,
      "▁10": 5894,
      "▁shopping": 5895,
      "▁geor": 5896,
      "▁matthew": 5897,
      "▁concrete": 5898,
      "▁jet": 5899,
      "chie": 5900,
      "▁progress": 5901,
      "ooped": 5902,
      "▁dante": 5903,
      "▁jol": 5904,
      "▁lev": 5905,
      "-eyed": 5906,
      "▁wounds": 5907,
      "ooks": 5908,
      "▁stern": 5909,
      "▁spect": 5910,
      "▁department": 5911,
      "▁troub": 5912,
      "eness": 5913,
      "▁johnny": 5914,
      "▁drops": 5915,
      "▁appl": 5916,
      "▁sandw": 5917,
      "▁betray": 5918,
      "▁official": 5919,
      "▁colt": 5920,
      "▁sits": 5921,
      "ulate": 5922,
      "▁rhythm": 5923,
      "▁mixed": 5924,
      "▁dial": 5925,
      "▁brave": 5926,
      "hh": 5927,
      "▁ham": 5928,
      "▁breaths": 5929,
      "▁bubb": 5930,
      "▁motioned": 5931,
      "▁jun": 5932,
      "▁scare": 5933,
      "▁jeremy": 5934,
      "▁jackson": 5935,
      "▁jenn": 5936,
      "▁wise": 5937,
      "▁fairly": 5938,
      "▁mud": 5939,
      "▁flushed": 5940,
      "▁devon": 5941,
      "▁daz": 5942,
      "▁tasted": 5943,
      "▁shouting": 5944,
      "▁gathering": 5945,
      "▁virgin": 5946,
      "▁stroll": 5947,
      "▁stall": 5948,
      "▁deny": 5949,
      "▁cord": 5950,
      "▁depth": 5951,
      "▁cards": 5952,
      "orting": 5953,
      "▁symb": 5954,
      "ickered": 5955,
      "▁elder": 5956,
      "▁character": 5957,
      "▁crash": 5958,
      "▁annoyed": 5959,
      "▁scient": 5960,
      "zzy": 5961,
      "▁eleven": 5962,
      "▁beam": 5963,
      "▁delicious": 5964,
      "bur": 5965,
      "▁embrace": 5966,
      "▁dagger": 5967,
      "▁helen": 5968,
      "▁amusement": 5969,
      "iture": 5970,
      "rer": 5971,
      "▁dragging": 5972,
      "▁knocking": 5973,
      "▁magaz": 5974,
      "vert": 5975,
      "▁trunk": 5976,
      "▁informed": 5977,
      "▁motor": 5978,
      "▁fog": 5979,
      "orts": 5980,
      "▁anton": 5981,
      "▁boot": 5982,
      "▁tyler": 5983,
      "▁teased": 5984,
      "-four": 5985,
      "▁stubborn": 5986,
      "gered": 5987,
      "▁sacrif": 5988,
      "▁dave": 5989,
      "▁secure": 5990,
      "▁bomb": 5991,
      "▁ripp": 5992,
      "▁remains": 5993,
      "▁saving": 5994,
      "▁brushing": 5995,
      "▁ava": 5996,
      "▁glances": 5997,
      "▁cit": 5998,
      "illa": 5999,
      "▁corners": 6000,
      "▁option": 6001,
      "▁waving": 6002,
      "▁bike": 6003,
      "▁pec": 6004,
      "▁branches": 6005,
      "-be": 6006,
      "▁dude": 6007,
      "▁moder": 6008,
      "ex": 6009,
      "▁patient": 6010,
      "▁lover": 6011,
      "▁credit": 6012,
      "▁terms": 6013,
      "▁famil": 6014,
      "▁airport": 6015,
      "▁puff": 6016,
      "▁clary": 6017,
      "▁gul": 6018,
      "▁leans": 6019,
      "▁scen": 6020,
      "▁pra": 6021,
      "▁disbelief": 6022,
      "ites": 6023,
      "▁colors": 6024,
      "▁singing": 6025,
      "▁beard": 6026,
      "▁punched": 6027,
      "▁nest": 6028,
      "▁reaches": 6029,
      "imate": 6030,
      "▁ruth": 6031,
      "▁ribs": 6032,
      "▁dal": 6033,
      "▁ideas": 6034,
      "esome": 6035,
      "▁addition": 6036,
      "▁bi": 6037,
      "▁foolish": 6038,
      "▁az": 6039,
      "▁neighb": 6040,
      "▁diamond": 6041,
      "-year-old": 6042,
      "▁shattered": 6043,
      "▁reveal": 6044,
      "▁lor": 6045,
      "aph": 6046,
      "reek": 6047,
      "▁revealing": 6048,
      "▁kane": 6049,
      "▁rapidly": 6050,
      "▁random": 6051,
      "▁available": 6052,
      "oud": 6053,
      "▁knuck": 6054,
      "▁behavior": 6055,
      "▁glit": 6056,
      "usi": 6057,
      "▁winked": 6058,
      "▁vic": 6059,
      "▁hid": 6060,
      "▁tighter": 6061,
      "▁goodbye": 6062,
      "▁yep": 6063,
      "▁create": 6064,
      "▁lux": 6065,
      "▁basket": 6066,
      "▁pages": 6067,
      "▁roar": 6068,
      "▁stead": 6069,
      "▁furniture": 6070,
      "▁accompl": 6071,
      "▁boxes": 6072,
      "▁vast": 6073,
      "▁mack": 6074,
      "olen": 6075,
      "isc": 6076,
      "▁symbol": 6077,
      "▁chicken": 6078,
      "▁melissa": 6079,
      "▁amel": 6080,
      "▁que": 6081,
      "▁seats": 6082,
      "▁proceed": 6083,
      "▁trevor": 6084,
      "▁survived": 6085,
      "▁julie": 6086,
      "▁mile": 6087,
      "bly": 6088,
      "oms": 6089,
      "asper": 6090,
      "▁content": 6091,
      "▁begins": 6092,
      "▁switch": 6093,
      "▁wishing": 6094,
      "▁ratt": 6095,
      "▁wrapping": 6096,
      "▁incredible": 6097,
      "ability": 6098,
      "▁biggest": 6099,
      "rap": 6100,
      "oph": 6101,
      "▁impro": 6102,
      "▁struct": 6103,
      "▁precise": 6104,
      "▁sparhawk": 6105,
      "▁opens": 6106,
      "▁till": 6107,
      "▁grandp": 6108,
      "▁aye": 6109,
      "▁remote": 6110,
      "-so": 6111,
      "ament": 6112,
      "ero": 6113,
      "▁edges": 6114,
      "▁crept": 6115,
      "▁unconscious": 6116,
      "▁shane": 6117,
      "▁furious": 6118,
      "▁marked": 6119,
      "urally": 6120,
      "▁scattered": 6121,
      "▁circles": 6122,
      "▁pow": 6123,
      "▁changes": 6124,
      "▁clutched": 6125,
      "▁bust": 6126,
      "▁handful": 6127,
      "▁milk": 6128,
      "eline": 6129,
      "▁quinn": 6130,
      "▁skills": 6131,
      "▁calmly": 6132,
      "▁style": 6133,
      "▁photograph": 6134,
      "▁dealing": 6135,
      "▁remove": 6136,
      "▁jean": 6137,
      "▁anxious": 6138,
      "hens": 6139,
      "▁adrian": 6140,
      "idual": 6141,
      "▁placing": 6142,
      "▁impressed": 6143,
      "▁refer": 6144,
      "▁growl": 6145,
      "▁argument": 6146,
      "▁march": 6147,
      "ta": 6148,
      "▁stock": 6149,
      "▁mont": 6150,
      "▁mason": 6151,
      "▁insist": 6152,
      "armed": 6153,
      "itar": 6154,
      "▁jail": 6155,
      "▁grunted": 6156,
      "▁commit": 6157,
      "▁sidewalk": 6158,
      "▁career": 6159,
      "▁minds": 6160,
      "▁appe": 6161,
      "▁eaten": 6162,
      "▁underw": 6163,
      "▁equip": 6164,
      "▁spat": 6165,
      "▁youd": 6166,
      "▁newsp": 6167,
      "▁apologize": 6168,
      "▁whipped": 6169,
      "▁impression": 6170,
      "▁lil": 6171,
      "▁miser": 6172,
      "▁wre": 6173,
      "lights": 6174,
      "▁provided": 6175,
      "▁winced": 6176,
      "ila": 6177,
      "▁version": 6178,
      "▁stretch": 6179,
      "▁makeup": 6180,
      "▁valley": 6181,
      "▁lin": 6182,
      "▁treated": 6183,
      "▁roger": 6184,
      "▁joseph": 6185,
      "▁click": 6186,
      "elling": 6187,
      "▁habit": 6188,
      "ika": 6189,
      "▁alert": 6190,
      "▁football": 6191,
      "▁emergency": 6192,
      "▁cocked": 6193,
      "▁exchange": 6194,
      "▁student": 6195,
      "shit": 6196,
      "-haired": 6197,
      "▁puts": 6198,
      "▁arrive": 6199,
      "▁adjust": 6200,
      "uments": 6201,
      "▁unusual": 6202,
      "▁nasty": 6203,
      "▁families": 6204,
      "▁miranda": 6205,
      "▁satisfaction": 6206,
      "▁sweetheart": 6207,
      "▁indiv": 6208,
      "aid": 6209,
      "▁learning": 6210,
      "fall": 6211,
      "tery": 6212,
      "-out": 6213,
      "▁enemies": 6214,
      "▁emotional": 6215,
      "▁eighteen": 6216,
      "▁ny": 6217,
      "▁weal": 6218,
      "▁throne": 6219,
      "▁sleeve": 6220,
      "▁roared": 6221,
      "▁danced": 6222,
      "▁repres": 6223,
      "▁shifting": 6224,
      "▁upward": 6225,
      "▁enthusi": 6226,
      "▁nope": 6227,
      "▁quarter": 6228,
      "▁equipment": 6229,
      "encer": 6230,
      "urance": 6231,
      "▁coach": 6232,
      "▁kicking": 6233,
      "inating": 6234,
      "▁duncan": 6235,
      "▁patrick": 6236,
      "▁resol": 6237,
      "▁cupped": 6238,
      "reg": 6239,
      "▁lawyer": 6240,
[...]
